the 40491926
, 34459579
. 26705766
of 24832582
and 19261917
to 17186701
in 13935749
a 9061278
@-@ 7144652
for 6667669
that 6002042
is 5841266
on 5436321
( 5053308
) 5002605
The 4857643
be 3966661
with 3862935
by 3560310
as 3463774
die 3098613
are 3095504
&quot; 3046114
/ 3019454
der 3014791
und 2883696
or 2579901
: 2424387
an 2368880
this 2283052
from 2183530
at 2176354
not 2117642
it 2094548
have 2082776
was 2023128
&apos;s 1934852
will 1933769
which 1916390
- 1906673
its 1778894
has 1739195
I 1706074
; 1514706
In 1452592
all 1444043
their 1389489
we 1383514
also 1376724
you 1253832
been 1195218
zu 1155903
United 1123806
den 1113830
von 1069078
should 1065667
other 1042776
would 1015702
can 1014909
ist 976047
were 916390
A 908578
Committee 908275
more 900852
Nations 894374
für 879460
our 878810
It 873225
States 870777
had 805524
one 800571
Council 800215
information 785538
This 784038
international 776287
des 773673
mit 773524
das 762061
General 751520
such 750653
European 748462
countries 746978
auf 737374
report 734925
but 726232
1 712457
new 699070
We 698776
your 691634
they 689987
Commission 686184
development 685741
work 670440
under 669948
must 660900
eine 654129
any 649779
so 646535
these 644412
time 624240
rights 622741
es 608536
&apos; 608427
there 606989
may 604245
into 599399
im 595619
? 592910
support 590703
Sie 587684
only 587234
made 578604
who 577487
nicht 570165
up 564758
Canada 564324
between 555800
werden 550814
well 547012
out 546756
about 545053
use 541514
than 540493
2 538032
ein 530200
no 526628
if 524060
dem 520306
including 519587
dass 517410
those 508349
sich 507051
President 506196
Die 505606
• 501262
do 497424
system 487067
people 485869
national 484971
wir 481618
human 478880
his 475090
through 473720
Union 470365
resolution 467598
need 466576
some 463498
3 455615
first 455608
very 449457
State 447799
year 447127
auch 442653
two 440120
years 439043
women 435507
! 434215
session 433746
country 432174
health 429833
per 427165
against 425901
them 424212
children 417917
like 416178
number 414771
when 414331
Government 412414
services 410451
sind 408414
shall 405837
most 405448
take 404410
activities 403304
order 402597
% 401520
als 400477
important 400410
$ 394824
being 393887
us 393635
public 391317
make 385938
Convention 385812
over 385269
provide 384756
wird 383699
law 381212
meeting 379887
de 378471
within 377343
economic 376562
could 375562
International 375309
Assembly 375029
process 371800
Mr 371169
um 369463
un@@ 368082
where 367704
level 365359
many 365198
policy 364494
right 362719
implementation 362232
measures 359789
As 354689
Secretary 350979
10 350221
Member 349921
part 348789
am 347005
ich 346091
he 345766
For 344709
4 342713
non 338145
s 337783
social 336113
ensure 332801
security 332455
what 331960
used 331493
5 329487
oder 327099
financial 326773
EU 326503
both 325753
based 325383
2005 325151
issues 324836
world 322371
now 321232
er 320014
during 315732
same 314684
2006 313863
available 313636
If 312183
... 310972
provided 309797
2004 309395
Group 308842
cooperation 308262
haben 308007
Mr. 307223
über 305256
programme 304867
en 304541
further 303427
see 302547
my 301932
members 299604
following 299153
way 297793
after 296291
end 296139
Europe 295619
areas 295397
particular 294311
possible 293885
data 293351
resources 292635
political 292326
draft 292161
Security 290972
because 290955
efforts 288489
einer 287891
hat 287822
er@@ 284470
Conference 284417
&#91; 284186
2003 283391
place 282311
area 281317
organizations 280914
each 280296
sie 280088
2000 279687
before 279140
access 278644
2007 276870
wie 276544
case 276038
ten 274399
b 272981
decision 272655
6 270437
There 270328
situation 270149
taken 269535
2001 268441
o 268428
2002 267060
management 266690
Parliament 265076
aus 265044
einen 263789
community 263616
cent 263257
without 263239
zur 263076
Development 262814
&#93; 262580
set 261250
paragraph 260628
able 258824
period 258798
re@@ 258289
Canadian 257260
S@@ 256561
high 256432
i 256061
k@@ 256029
ver@@ 255588
regional 254190
bei 253521
Das 253368
action 252712
e 250635
respect 250224
view 250221
how 250117
education 247081
article 246907
related 246790
protection 246111
To 244979
2008 243477
adopted 243111
three 242895
legal 242718
service 242714
assistance 242612
party 241680
issue 241410
market 241066
does 240499
At 239351
research 236188
necessary 234145
Hotel 233347
However 233082
Republic 232610
held 232333
Ich 232258
Rights 231551
since 231394
können 231173
role 230661
continue 230088
future 228564
good 228010
Health 226775
working 225942
even 225746
special 225639
K@@ 224153
d 224058
developing 222754
15 222635
Office 222624
present 222453
just 221487
te 221469
basis 221364
7 220936
needs 220889
therefore 220810
training 220610
effective 220196
said 219858
staff 219760
regard 219354
different 219354
review 219200
group 218336
include 218131
among 216867
long 215955
M@@ 215349
full 214731
specific 214518
government 214273
million 213057
her 212978
relevant 212907
own 212814
30 212352
_ 211590
20 211070
general 211058
On 210873
einem 210771
means 210291
agenda 209946
required 207810
B@@ 207452
Act 207394
12 206695
hotel 206504
help 206277
trade 206226
established 205483
sector 205217
Human 205068
programmes 205059
parties 204921
8 204429
products 204423
current 204344
nach 204109
s@@ 203777
T@@ 202386
en@@ 201971
business 201551
while 200926
example 200475
still 200362
given 200305
quality 199782
c 199680
project 199397
institutions 199339
peace 198653
persons 198085
December 197956
groups 197874
man 197701
zum 197689
then 196913
fact 196522
conditions 196317
Wir 195447
diese 195282
increase 194679
care 194524
local 194346
free 194252
E 193956
uns 192926
term 192723
nur 192675
appropriate 192647
war 192012
progress 191901
New 191683
Special 191621
These 191269
cases 190639
National 190462
2009 189844
whether 189759
accordance 189663
capacity 189599
day 188643
ge@@ 188587
last 188349
World 188190
budget 187510
an@@ 187055
t 186983
item 186855
second 186848
change 186735
durch 186684
reports 186555
point 186211
question 185862
particularly 185615
global 185548
kann 185514
child 185035
much 184968
G@@ 184912
region 184897
various 184728
account 184366
in@@ 183882
All 183742
June 183411
E@@ 182973
Der 182804
requirements 182714
document 182708
already 182537
H@@ 182079
P@@ 181577
provisions 181290
z@@ 180681
considered 180515
result 180389
small 180055
control 179130
F@@ 178830
R@@ 178731
11 178706
&amp; 178012
form 177539
agreement 176993
be@@ 176726
9 176426
You 176038
me 175398
plan 175306
ing 174459
water 174360
dieser 173647
address 173539
technical 173399
results 173355
D@@ 173244
They 172461
life 172333
proposed 171960
best 171669
major 171580
ed 171232
addition 171124
policies 171002
Programme 170895
Es 170165
making 170151
subject 169790
That 169777
N@@ 169774
Working 169639
m 169355
framework 169238
approach 169202
et 168827
ung 168316
S 167796
A@@ 167639
systems 167265
developed 167145
concerned 167038
here 166866
September 166814
b@@ 166684
private 166130
recommendations 165832
common 165716
terms 165690
above 165488
al 165456
L@@ 165037
person 164647
Africa 163395
vor 163059
problems 162926
building 162808
cannot 162161
total 162067
Ver@@ 161345
projects 161334
noch 161274
Social 160345
proposal 160057
daß 159892
Kommission 159872
large 159276
provides 159274
importance 159085
food 158960
next 158843
Economic 158814
environment 158680
tax 158590
W@@ 158567
great 158495
less 158428
rules 158290
every 158247
C 158226
With 158045
e@@ 158018
course 157631
find 157404
wurde 157136
today 156856
levels 156378
production 156330
third 155913
risk 155910
Court 155835
however 155792
1999 155774
14 155616
society 155541
family 155373
d@@ 155279
He 155158
population 155137
authorities 155129
July 154744
consideration 154478
did 154473
key 154176
f@@ 154126
18 154118
give 153850
Commissioner 153649
aber 153613
application 153543
submitted 153278
t@@ 153016
age 152911
better 152859
clear 152842
additional 152761
May 152696
Board 152684
ab@@ 152275
la 152245
amount 151180
want 151048
November 150513
An@@ 150211
legislation 150167
know 150095
upon 149945
field 149699
received 148913
using 148912
impact 148618
fully 148516
Article 148378
position 147955
especially 147905
* 147894
site 147831
wenn 147817
problem 147779
y 147427
conflict 147402
room 147333
Herr 147324
March 146926
energy 146824
main 146790
sein 146747
list 146549
member 146346
costs 146249
believe 145579
standards 145096
certain 144773
Parties 144718
environmental 144716
sehr 144298
Department 144139
towards 144059
interest 143917
Organization 143784
müssen 143477
violence 143471
several 143466
line 143181
meetings 142668
April 142592
h@@ 141976
October 141821
25 141361
included 141060
individual 140728
force 140532
another 140480
growth 140120
responsibility 140100
13 139658
note 139438
rate 139396
g@@ 139189
attention 139163
together 138692
become 138224
Minister 137743
least 137539
promote 137063
debate 137050
al@@ 136760
concerning 136590
funding 136438
16 136425
income 136263
vote 136138
date 135982
noted 135936
participation 135931
value 135871
24 135563
due 135559
ate 135327
request 134840
put 134771
cost 134606
program 134446
V@@ 134400
too 134368
men 134254
increased 134189
industry 134088
Report 133390
C@@ 132769
sch@@ 132559
nuclear 132415
section 132133
few 132038
ungen 131489
context 131451
open 131331
January 131244
improve 131184
African 131052
called 130736
No. 130490
delegation 130456
But 130439
existing 130427
n@@ 130232
consider 129934
treatment 129880
recent 129661
agreed 129499
significant 128922
diesem 128350
say 128037
far 127784
ers 127209
China 127165
safety 127120
alle 127067
technology 127008
continued 126986
Information 126695
l@@ 126384
matter 126157
cultural 126129
found 125977
Z@@ 125862
st@@ 125652
bis 125467
experience 125252
ter 125146
p@@ 125043
mehr 125032
status 125007
poverty 124931
Affairs 124908
No 124804
concern 124669
land 124488
k 124411
taking 124398
get 124109
citizens 124054
representative 123882
m@@ 123841
organization 123706
17 123628
50 123551
representatives 123545
text 123396
state 123156
sustainable 123118
military 123058
South 123055
statement 122783
regarding 122343
US 122066
gender 121956
ch@@ 121727
responsible 121596
el@@ 121469
often 121379
back 121282
strategy 121033
five 121030
Fund 120814
o@@ 120374
might 120327
property 120322
civil 120294
involved 120095
agencies 119965
four 119955
opportunity 119610
What 119540
documents 119471
done 119419
Our 119152
develop 119124
transport 119023
Europäischen 118854
l 118095
funds 118075
Service 117820
product 117564
think 117542
meet 117513
g 117472
real 117354
wish 117157
days 117009
offer 116818
decisions 116792
power 116707
greater 116430
Sch@@ 116335
come 116089
below 116053
aus@@ 115990
21 115965
procedures 115605
response 115459
employment 115356
behalf 115320
providing 115239
When 115195
goods 115110
changes 114989
B 114931
needed 114824
foreign 114803
31 114683
procedure 114204
19 114018
monitoring 114016
discrimination 113870
offers 113762
again 113598
ts 113569
An 113501
principles 113467
&apos;@@ 113322
rooms 113157
O@@ 113120
contained 113025
humanitarian 112993
down 112671
range 112310
möchte 112178
p.m. 112061
Law 111923
currently 111743
study 111709
operations 111384
assessment 111195
around 111080
knowledge 110914
de@@ 110905
domestic 110862
Community 110818
practice 110561
Secretariat 110553
light 110404
J@@ 110402
past 110330
questions 110260
Re@@ 110219
having 110190
p 110184
relating 110153
French 110143
Action 110042
air 109917
eines 109874
ungs@@ 109800
whole 109797
potential 109689
proposals 109625
objectives 109483
bodies 109270
vor@@ 109230
terrorism 108732
apply 108689
investment 108627
One 108368
I@@ 108355
go 108105
requested 107936
commitment 107935
ar@@ 107857
hope 107838
addressed 107807
22 107549
company 107290
focus 107124
city 107105
performance 107068
expressed 107018
communities 106906
companies 106815
allow 106699
forward 106494
1998 106426
dis@@ 106352
others 106296
until 106260
personal 106224
discussion 106139
y@@ 106116
Protocol 106114
23 105912
Women 105820
initiatives 105695
months 105691
always 105645
language 105532
essential 105451
In@@ 105447
Treaty 105367
provision 105352
effect 105292
ein@@ 105238
ihre 105003
vom 104915
purpose 104726
February 104714
practices 104694
natural 104611
es@@ 104560
close 104498
achieve 104472
Internet 104145
r@@ 104032
rule 104022
comprehensive 103942
n 103839
II 103607
w@@ 103361
Aus@@ 103209
contact 103163
follow 102964
economy 102792
2010 102731
facilities 102724
serious 102656
Centre 102602
le 102501
establishment 102368
unter 102322
Präsident 102231
crisis 102191
equipment 102189
create 102092
el 102070
f 102034
itself 101989
why 101889
communication 101837
she 101635
Party 101576
gibt 101474
First 101359
partners 101299
reporting 101196
priority 101112
located 100783
name 100734
police 100698
principle 100690
yet 100584
positive 100539
nature 100327
Executive 100262
Other 100069
August 99794
Mission 99586
60 99478
reform 99441
Be@@ 99359
school 99216
official 99159
ar 99141
reported 99120
mandate 99045
sowie 99037
single 99021
low 99005
centre 98980
agreements 98946
actions 98841
High 98817
challenges 98815
call 98763
dieses 98713
benefits 98528
him 98236
Ministry 98039
carried 97881
early 97816
decided 97770
i@@ 97726
complete 97722
lack 97661
expected 97471
auf@@ 97376
da 97263
home 97252
j@@ 97109
&apos;t 97043
young 96996
prepared 96950
annual 96841
F 96808
matters 96779
D 96742
ent@@ 96593
East 96476
u@@ 96455
capital 96320
Annex 96288
analysis 96287
Palestinian 96281
space 96126
Bank 96059
annex 96039
While 95936
implement 95905
limited 95899
ated 95893
page 95872
return 95827
Research 95757
resolutions 95721
100 95646
living 95607
prevent 95569
benefit 95482
enden 94951
type 94933
weapons 94921
justice 94886
dialogue 94377
entitled 94294
hier 94159
America 94000
off 93881
establish 93851
secretariat 93787
opportunities 93737
HIV 93649
took 93512
previous 93302
direct 93256
basic 93198
concerns 93178
test 93079
effects 93048
Israel 92978
criminal 92913
And 92868
Ab@@ 92865
zwischen 92724
final 92616
thus 92589
presented 92431
27 92333
adoption 92266
according 92102
office 92068
workers 92066
approved 92042
forms 92041
liche 92015
rather 91964
once 91816
it@@ 91713
Er@@ 91652
issued 91625
share 91587
strengthen 91558
initiative 91516
plans 91444
either 91413
views 91380
Ms. 91348
points 91307
contributions 90969
consultations 90934
includes 90928
Agreement 90835
Services 90831
muss 90830
body 90826
play 90774
difficult 90638
obligations 90570
ischen 90513
ating 90378
Room 90321
Management 90208
programs 90198
regions 90161
re 90143
coordination 90088
activity 90003
governmental 89940
hand 89879
supported 89836
directly 89758
receive 89568
lead 89559
planning 89493
h 89490
contribution 89459
.@@ 89237
a@@ 89194
Governments 89166
administrative 89113
committed 89109
price 88983
para 88885
France 88837
keine 88784
post 88670
reference 88624
wide 88270
interests 88203
welcome 88202
self 88196
unsere 88183
remain 88158
28 88157
Public 88137
on@@ 88137
Bericht 88100
old 88044
aid 87975
is@@ 87914
26 87668
Members 87596
amendments 87429
material 87424
zu@@ 87399
fundamental 87387
ting 87370
short 87126
opinion 87124
AIDS 86868
40 86814
R 86790
regular 86790
um@@ 86705
&gt; 86631
reduce 86538
higher 86383
purposes 86376
Ihnen 86281
designed 86241
events 86172
pay 86159
Some 86126
stay 86109
Parlament 85982
strong 85797
bar 85725
Chairman 85647
act 85615
v@@ 85587
evaluation 85516
Declaration 85436
steps 85407
money 85404
1997 85363
media 85349
rates 85252
bring 85233
negotiations 85233
known 85192
authority 85116
mechanisms 85034
Code 84929
reduction 84821
federal 84760
internal 84728
-@@ 84652
prevention 84606
active 84578
climate 84543
throughout 84482
victims 84343
across 84333
lichen 84316
armed 84233
aspects 84210
exchange 83954
increasing 83930
instruments 83630
design 83620
Plan 83588
Since 83539
paid 83450
led 83407
event 83404
objective 83386
times 83383
dies 83324
standard 83221
u 83167
anderen 83141
joint 83118
le@@ 83108
Europa 83085
start 83059
outside 83056
personnel 83028
Mitgliedstaaten 82766
UN 82654
individuals 82513
regulations 82443
look 82340
as@@ 82318
See 82250
protect 82182
Director 82163
hours 82070
content 82032
team 82009
Program 81970
Trade 81953
art 81811
table 81757
strategic 81655
Germany 81540
Representative 81325
evidence 81207
implemented 81095
clearly 81094
ti@@ 81079
mentioned 81017
di@@ 80885
immer 80881
require 80786
freedom 80678
Iraq 80614
acts 80605
Institute 80554
connection 80519
identified 80311
side 80291
House 80105
laws 80069
forces 80019
independent 79992
So 79968
Central 79930
six 79882
Wenn 79824
themselves 79796
understanding 79791
über@@ 79701
solution 79535
affected 79398
thank 79292
Rapporteur 79242
operation 79184
American 79183
mission 79142
labour 79111
ad@@ 79076
Al@@ 79024
Agency 78989
contribute 78955
recommended 78908
step 78902
System 78875
U@@ 78829
&#124; 78768
remains 78731
Section 78501
During 78494
gen 78437
drug 78225
overall 78177
at@@ 78135
Permanent 77961
achieved 77857
Y@@ 77787
dann 77691
deal 77689
ways 77635
sh@@ 77625
statements 77523
English 77262
organized 77247
created 77087
ability 77029
similar 77008
Im 76791
equal 76734
University 76733
29 76693
am@@ 76619
ro@@ 76610
billion 76527
supply 76525
co 76520
compliance 76364
guidelines 76283
ag@@ 76273
processes 76174
network 76154
transfer 76013
little 75879
success 75875
primary 75827
integration 75783
ä@@ 75774
ische 75644
strategies 75629
informed 75594
rural 75581
or@@ 75572
ern 75508
reason 75500
medical 75474
Please 75365
away 75251
diesen 75068
central 75039
majority 75000
words 74978
visit 74973
z 74933
location 74908
promotion 74905
markets 74837
Agenda 74688
longer 74654
aimed 74596
damit 74557
ation 74383
version 74325
website 74231
financing 74195
referred 74156
gegen 74120
wurden 74114
et@@ 74087
1996 74010
participants 73840
Russian 73800
ende 73798
whose 73768
experts 73716
strengthening 73689
c@@ 73650
ken 73636
please 73600
After 73590
studies 73544
applied 73528
materials 73418
sources 73417
agree 73388
Meeting 73354
court 73310
P 73296
ge 73291
enable 73134
du 73129
states 73108
families 73087
integrated 73086
stated 73052
Diese 73041
manner 72971
show 72870
By 72639
along 72527
going 72519
conducted 72495
values 72444
model 72418
em@@ 72308
professional 72307
effort 72225
circumstances 72213
makes 72186
eren 71988
awareness 71973
source 71970
Under 71964
claim 71843
crime 71772
Zeit 71747
mail 71705
inter 71546
parts 71460
ensuring 71428
ter@@ 71384
ates 71352
Frau 71245
asked 71205
L 71098
modern 70949
read 70942
associated 70916
adequate 70866
reasons 70788
participate 70639
criteria 70577
Japan 70536
commercial 70496
later 70440
facilitate 70322
promoting 70298
favour 70118
approval 70062
live 70038
distribution 69926
York 69874
left 69768
conference 69691
implementing 69667
Ihre 69642
travel 69607
priorities 69525
55 69512
sectors 69448
traditional 69428
elements 69419
unserer 69387
although 69350
ted 69286
assist 69257
Forum 69249
Policy 69243
methods 69201
relations 69140
00 69038
requests 68963
extent 68931
Review 68907
Geneva 68823
partnership 68801
vehicle 68793
peoples 68749
prior 68746
seine 68738
demand 68588
culture 68583
Division 68569
habe 68542
credit 68532
indicated 68529
Arab 68517
comments 68440
ert 68402
really 68316
former 68313
Ein@@ 68313
equality 68306
structure 68265
lich 68240
administration 68163
soon 68129
Un@@ 68065
critical 68053
goals 67985
infrastructure 67974
th@@ 67956
indigenous 67748
Advisory 67669
conduct 67637
chen 67629
au@@ 67611
record 67579
+ 67441
committee 67427
Kingdom 67397
jedoch 67369
balance 67362
arms 67266
sondern 67116
applications 67085
defined 67001
creation 66994
prices 66915
undertaken 66872
road 66855
schools 66777
seen 66737
kind 66656
etc 66575
Environment 66573
Children 66523
ask 66490
sexual 66487
things 66470
informal 66435
items 66391
ad 66377
stage 66362
online 66331
delivery 66172
dated 66044
se 66032
neue 66029
From 66017
Europäische 65969
requires 65898
competition 65893
solutions 65892
met 65856
Constitution 65846
Vor@@ 65817
O 65780
recently 65770
author 65744
introduced 65721
border 65665
series 65652
Justice 65603
successful 65541
ens 65529
software 65504
Menschen 65384
Table 65315
trafficking 65308
st 65158
Although 65130
debt 65105
recognized 65056
ü@@ 65054
1995 65039
intended 64947
im@@ 64936
claims 64882
UNDP 64732
governments 64728
reach 64721
payment 64700
keep 64679
heute 64619
minutes 64572
minimum 64547
students 64420
x 64331
T 64292
� 64248
half 64184
se@@ 64087
democratic 64074
Mrs 64049
unter@@ 64031
week 63989
reached 63962
Jahr 63851
ch 63656
8@@ 63586
Non 63563
applicable 63562
functions 63523
enhance 63502
treaty 63466
excellent 63461
li@@ 63420
regulation 63393
ke 63378
something 63325
factors 63318
submit 63260
average 63179
Criminal 63146
Asia 63119
les 63082
history 62989
face 62937
exercise 62867
km 62847
stability 62812
agricultural 62740
effectively 62705
scope 62671
file 62664
2@@ 62661
a.m. 62660
sent 62580
arrangements 62564
provisional 62441
operational 62360
types 62324
Protection 62269
death 62263
encourage 62258
discussions 62216
users 62193
pursuant 62142
Charter 62130
bereits 62055
-- 62047
original 62020
legislative 61933
Canadians 61890
Education 61884
shown 61852
takes 61834
finden 61790
identify 61782
paper 61756
articles 61670
sten 61660
Also 61623
notes 61566
brought 61528
G 61517
letter 61486
Summit 61413
completed 61247
function 61189
europäischen 61092
relation 61072
mechanism 60999
contains 60928
month 60852
democracy 60852
peacekeeping 60804
leading 60796
enjoy 60774
poor 60772
sea 60762
languages 60602
recommendation 60582
sollte 60565
added 60563
Web 60529
improving 60493
build 60491
Federal 60472
Note 60435
ihrer 60427
Jahren 60425
e.g. 60401
quite 60361
technologies 60341
Covenant 60314
mich 60240
follows 60238
Panel 60217
How 60180
improved 60176
aim 60084
geben 60023
house 60012
loss 59990
neuen 59974
likely 59942
territory 59926
maximum 59852
North 59849
invited 59752
Furthermore 59726
electronic 59634
centres 59625
ohne 59615
almost 59589
lower 59572
disarmament 59564
proceedings 59553
written 59525
generally 59523
4@@ 59438
sk@@ 59396
delegations 59395
Le@@ 59385
user 59382
ans 59362
cause 59270
il@@ 59183
= 59171
beginning 59158
Ch@@ 59123
andere 59100
My 59078
violations 59073
top 59061
M 59032
offices 58990
liegt 58899
ere 58884
effectiveness 58873
net 58857
discussed 58834
determine 58806
commitments 58777
external 58760
ongoing 58752
contract 58727
web 58620
responsibilities 58618
St@@ 58592
simply 58572
elections 58569
physical 58560
maintain 58544
described 58543
situations 58538
denen 58488
tes 58486
ak@@ 58445
Ar@@ 58382
www.@@ 58354
never 58273
os 58174
outcome 58162
According 58040
Such 57988
ago 57979
rapporteur 57866
aware 57852
tr@@ 57762
practical 57732
carry 57720
Millennium 57711
te@@ 57690
She 57686
5@@ 57649
expert 57631
detailed 57621
officials 57581
ul@@ 57571
hold 57439
ab 57403
officers 57379
tools 57375
governance 57333
ri@@ 57296
3@@ 57226
zwei 57222
Foreign 57187
Food 57184
works 57183
ten@@ 57144
preparation 57143
scale 57134
near 57079
institutional 57008
setting 56997
Rat 56968
German 56916
sollten 56910
ganz 56906
pressure 56867
L.@@ 56849
signed 56778
Entwicklung 56769
growing 56715
anti 56687
bietet 56667
employees 56613
challenge 56598
continues 56586
Land 56547
understand 56541
sites 56541
developments 56525
British 56496
Ontario 56495
Regulation 56489
published 56436
enough 56435
consultation 56412
Association 56361
allen 56356
resource 56327
alternative 56302
customers 56298
Frage 56294
raised 56251
supporting 56239
sp@@ 56225
easy 56185
Israeli 56169
guarantee 56166
scientific 56155
Regional 56154
covered 56151
though 56095
Tribunal 56042
directive 55959
move 55904
heart 55903
sufficient 55887
useful 55847
fight 55840
unique 55827
produced 55785
oil 55776
task 55765
UNICEF 55679
measure 55677
efficiency 55676
entry 55634
century 55621
initial 55589
machen 55567
size 55539
Global 55536
relationship 55517
operating 55481
amendment 55462
goal 55269
provincial 55242
possibility 55183
ever 55146
@ 55094
gas 55059
safe 55058
complex 55043
registered 54952
Federation 54908
serve 54896
enforcement 54827
V 54807
58 54805
His 54769
7@@ 54725
ur@@ 54623
permanent 54422
combat 54370
determined 54318
entire 54208
Democratic 54208
fund 54205
Regulations 54192
let 54188
ground 54187
refugees 54185
he@@ 54180
gentlemen 54175
Child 54160
inter@@ 54141
pre@@ 54090
ap@@ 54087
judicial 54082
run 54073
9@@ 54063
ly 53995
details 53942
Mit 53941
ze 53895
III 53857
girls 53753
leave 53710
57 53677
mind 53635
Business 53614
fall 53582
direction 53530
Ein 53519
leaders 53511
geht 53458
Afghanistan 53424
definition 53406
paragraphs 53400
true 53389
West 53361
stand 53336
allowed 53336
Many 53334
efficient 53294
Support 53281
viele 53278
missions 53253
turn 53236
est 53225
export 53213
Kosovo 53195
cover 53172
recommends 53158
0 53135
instrument 53132
construction 53099
collaboration 53082
Implementation 53080
her@@ 53054
adopt 53028
stakeholders 52994
revised 52964
1.@@ 52960
beyond 52955
placed 52919
Welt 52907
th 52886
fair 52816
fourth 52806
abuse 52797
ber@@ 52772
sure 52732
People 52703
consequences 52693
vehicles 52640
Finally 52622
Madam 52608
Force 52580
via 52580
X 52575
doing 52484
election 52410
separate 52352
ste 52343
presence 52314
board 52307
educational 52302
ally 52287
writing 52246
communications 52237
estimated 52227
De@@ 52206
r 52187
ol@@ 52169
partner 52146
enter 52134
reduced 52120
56 52092
Second 52004
duty 51981
assets 51963
CIHR 51933
cross 51907
base 51888
us@@ 51861
over@@ 51833
Unternehmen 51833
movement 51778
trust 51766
35 51743
crimes 51736
6@@ 51733
http 51723
Turkey 51697
ir@@ 51693
accept 51667
produce 51647
emissions 51632
Moreover 51610
dazu 51604
59 51593
Therefore 51559
ous 51540
add 51506
pre 51489
listed 51487
regime 51452
feel 51448
OF 51408
200 51404
job 51368
1994 51320
ethnic 51309
TV 51304
ne@@ 51256
parents 51250
extremely 51210
avoid 51200
sessions 51144
town 51099
links 51061
Ge@@ 51034
determination 50978
indicators 50932
0@@ 50910
limit 50910
highly 50901
000 50881
India 50799
per@@ 50776
Paris 50739
weil 50694
obligation 50645
consistent 50645
religious 50636
Cooperation 50631
wieder 50608
collection 50605
industrial 50587
61 50575
jetzt 50541
co@@ 50525
Western 50524
continuing 50490
calls 50467
1@@ 50463
Item 50455
ec@@ 50446
der@@ 50305
Bureau 50277
kommen 50203
x@@ 50196
options 50194
si@@ 50169
concept 50101
bi@@ 50002
allows 49973
target 49958
core 49929
closed 49904
establishing 49880
X@@ 49862
specified 49852
seiner 49780
highest 49777
express 49766
sub@@ 49690
80 49677
lo@@ 49631
risks 49622
res@@ 49587
skills 49582
damage 49506
shows 49496
charge 49490
sub 49482
followed 49458
immediately 49430
emergency 49397
stellen 49359
45 49347
ö@@ 49340
payments 49308
denn 49298
floor 49250
Lage 49215
mis@@ 49205
station 49193
achieving 49119
youth 49097
release 49045
package 49040
transparency 49035
guidance 49018
actually 49004
courts 48925
bin 48851
me@@ 48822
broad 48812
darauf 48811
registration 48806
Informationen 48786
hard 48785
investigation 48757
mass 48710
choice 48695
Über@@ 48671
insurance 48638
THE 48615
ger@@ 48589
multilateral 48525
sense 48442
illegal 48433
maintenance 48426
Bereich 48416
gesch@@ 48405
sehen 48388
code 48370
looking 48350
ale 48338
sales 48286
offered 48255
Art 48177
N 48173
Se@@ 48165
un 48148
threat 48031
Of 48002
biennium 47971
sound 47965
reviews 47953
bl@@ 47950
Pro@@ 47928
consensus 47921
Maßnahmen 47906
lot 47901
so@@ 47881
Italy 47856
schon 47834
USA 47811
accepted 47758
lives 47737
lassen 47734
caused 47729
variety 47729
dafür 47727
transition 47702
selbst 47681
Co@@ 47612
trial 47599
seek 47557
ing@@ 47550
method 47535
mean 47528
leadership 47462
concluded 47455
housing 47448
Russia 47429
einige 47424
creating 47405
◦ 47404
ations 47379
detention 47304
interested 47292
compared 47285
link 47261
90 47223
specifically 47200
origin 47189
Iran 47189
closely 47181
op@@ 47174
Part 47167
medium 47155
comes 47150
urban 47115
regulatory 47106
Financial 47083
positions 47036
coming 47028
Draft 47004
Spain 46997
2.@@ 46991
gen@@ 46957
fish 46943
au 46900
red 46889
Official 46834
v 46812
conclusion 46796
Auf@@ 46788
suggested 46721
institution 46691
Dr. 46650
idea 46643
ine 46598
to@@ 46560
confidence 46511
tool 46502
ladies 46467
ant 46429
Mar@@ 46399
voluntary 46394
agency 46389
statistics 46388
send 46370
press 46368
places 46304
bank 46276
approximately 46249
advance 46211
music 46206
viel 46159
str@@ 46140
negative 46129
ex@@ 46097
built 46066
62 46060
La 46050
En@@ 46044
we@@ 46040
torture 46032
ihren 46031
K 46011
terrorist 45994
ot@@ 45955
Jahre 45913
ihr 45910
features 45797
ien 45754
Strategy 45753
drugs 45704
discuss 45689
economies 45656
jobs 45575
friendly 45571
1990 45560
categories 45514
involving 45462
welcomed 45460
processing 45420
phase 45415
ac@@ 45395
ie 45390
advice 45381
che 45347
mir 45340
fifty 45297
crucial 45263
improvement 45262
try 45247
end@@ 45247
Dies 45245
reflect 45210
Eine 45144
C. 45127
kt 45031
EUR 45022
bo@@ 45014
i.e. 45004
involvement 44998
zen 44906
ity 44892
Herrn 44825
submission 44812
würde 44800
peaceful 44799
consumer 44792
component 44779
Mo@@ 44761
book 44744
disease 44741
units 44725
® 44712
rest 44703
Arbeit 44660
ed@@ 44659
category 44628
amounts 44625
computer 44624
po@@ 44565
compensation 44563
difficulties 44540
components 44529
gut 44509
consumers 44486
Region 44463
allem 44444
Bo@@ 44444
expertise 44441
ic 44422
mo@@ 44417
daily 44353
largest 44334
Euro 44262
search 44260
H 44230
Aboriginal 44214
ent 44211
NGOs 44193
option 44139
nor 44131
respond 44115
unit 44067
Mexico 44040
Tr@@ 44034
Middle 44031
resulting 44023
fishing 44015
encouraged 43958
lines 43955
supports 43955
posts 43906
Each 43851
ang@@ 43830
elected 43818
Congo 43800
meine 43790
monitor 43762
licher 43758
gi@@ 43758
giving 43746
vulnerable 43742
selected 43618
obtain 43615
70 43610
otherwise 43609
class 43592
shared 43577
wollen 43460
actual 43457
500 43443
dealing 43421
More 43407
obtained 43406
ob 43374
stop 43360
equipped 43353
unseren 43295
Länder 43289
increasingly 43273
indicate 43267
63 43247
ender 43233
requirement 43220
wo 43192
Und 43187
10@@ 43186
substantive 43166
Spanish 43128
publication 43048
rise 43047
IT 43020
ins 43010
Con@@ 43006
Initiative 42996
Für 42987
membership 42977
appeal 42968
fiscal 42958
ren 42951
gel@@ 42929
begin 42929
recovery 42928
despite 42891
conflicts 42881
secure 42861
Chief 42812
card 42812
head 42798
32 42761
Pacific 42749
round 42687
innovative 42676
1993 42674
pl@@ 42660
isch 42658
focused 42620
à 42562
voted 42542
latest 42534
Unit 42508
front 42485
car 42481
ens@@ 42430
mainly 42413
beautiful 42398
applies 42393
uses 42375
unless 42372
om@@ 42358
Zimmer 42246
ner 42229
partnerships 42226
Unter@@ 42180
Civil 42163
di 42154
gehen 42145
survey 42103
pages 42093
addressing 42084
check 42067
kon@@ 42064
fl@@ 42058
recognition 42020
extended 41991
sagen 41984
möglich 41928
während 41914
Presidency 41880
expenses 41877
WTO 41868
approaches 41864
ig@@ 41858
represented 41829
formal 41812
inform 41791
Form 41783
prepare 41768
reducing 41759
politik 41744
linked 41739
Safety 41726
files 41720
etwas 41713
quickly 41667
ges@@ 41644
announced 41643
ideal 41588
night 41578
pool 41560
stehen 41554
indeed 41495
documentation 41494
.com 41479
game 41455
everyone 41452
nun 41440
Chamber 41386
came 41361
pleased 41331
fields 41310
immediate 41307
ieren 41300
Inter@@ 41276
waren 41252
specialized 41224
ob@@ 41214
appreciation 41213
plenary 41185
Wie 41174
weeks 41157
ings 41116
1992 41082
sharing 40995
exist 40995
Any 40994
doch 40986
Let 40977
Administrative 40975
ja 40947
3.@@ 40944
Ireland 40940
speed 40914
fifth 40880
id@@ 40876
Joint 40850
erung 40832
respective 40809
bilateral 40772
earlier 40765
conclusions 40753
gives 40749
everything 40742
Legal 40721
planned 40689
Transport 40686
ator 40685
restaurant 40640
late 40630
expenditure 40627
Tax 40626
guests 40593
Administration 40570
amended 40560
appear 40558
degree 40557
big 40490
whom 40468
simple 40456
learning 40452
Sudan 40418
ene 40407
ser@@ 40368
launched 40364
Fall 40357
twenty 40333
UNCTAD 40272
choose 40269
Its 40254
U.S. 40247
Di@@ 40244
Quebec 40233
Switzerland 40206
alia 40200
sale 40196
jurisdiction 40144
affect 40136
thing 40124
multi 40120
agriculture 40117
granted 40111
entities 40095
ach@@ 40093
protected 40076
certainly 40073
igen 40055
seit 40054
fast 40048
moment 40037
ker 40030
Ministers 40025
host 40020
treaties 39963
ia 39958
heard 39935
refer 39897
Netherlands 39892
Ukraine 39886
ellen 39876
€ 39873
powers 39864
numerous 39859
ks 39853
accounts 39805
Project 39803
seems 39768
Latin 39762
erhalten 39756
periodic 39749
defence 39704
Most 39696
Vice 39692
clients 39684
became 39655
completely 39651
audit 39618
ic@@ 39608
insbesondere 39596
concrete 39580
proper 39566
speaking 39558
breakfast 39554
1991 39544
consumption 39532
Ro@@ 39505
speak 39475
numbers 39460
33 39457
substances 39452
els 39418
absence 39398
em 39394
message 39367
Sustainable 39345
nothing 39320
eligible 39270
Zu@@ 39249
ne 39223
settlement 39125
territorial 39110
300 39104
availability 39102
ersten 39091
assess 39077
worked 39058
started 39057
Political 39037
answer 39035
failure 39001
par@@ 38974
hal@@ 38920
contain 38918
situated 38908
implications 38898
Where 38867
elle 38852
records 38798
represent 38797
delivered 38796
considerable 38783
vital 38718
containing 38676
ung@@ 38671
reforms 38663
opening 38577
sanctions 38574
funded 38528
Kon@@ 38527
and@@ 38523
grounds 38511
universal 38480
reflected 38453
ready 38441
Unterstützung 38393
double 38389
steht 38354
mer@@ 38352
science 38318
perspective 38315
exploitation 38296
patients 38291
34 38287
video 38285
advantage 38275
Ländern 38275
Framework 38247
Islamic 38228
Korea 38224
word 38208
urgent 38200
reviewed 38192
ss@@ 38189
Rahmen 38180
independence 38176
differences 38161
alen 38160
courses 38148
fen 38138
pro@@ 38126
summary 38085
introduction 38070
Headquarters 38054
reasonable 38032
Br@@ 38013
percent 38008
island 37994
Those 37955
Australia 37955
under@@ 37946
normal 37939
influence 37935
politischen 37910
Recalling 37900
destruction 37898
Dis@@ 37886
spoke 37866
regards 37863
networks 37847
City 37843
iert 37828
Further 37817
del 37798
ier@@ 37789
comfortable 37779
que 37777
usually 37770
tel 37768
Ko@@ 37763
ler 37761
competent 37750
namely 37738
behind 37722
businesses 37692
waste 37689
alone 37679
violation 37618
führen 37595
format 37592
draw 37586
civilian 37584
copy 37560
causes 37558
bringen 37536
seven 37526
thanks 37503
Lo@@ 37489
flow 37470
actively 37459
participating 37454
AND 37438
Zusammenarbeit 37429
5.@@ 37403
Teil 37391
targets 37388
fuel 37361
traffic 37340
decide 37322
tigen 37309
Chapter 37303
su@@ 37288
ni@@ 37257
bes@@ 37254
guide 37209
beim 37198
achievement 37151
forest 37146
consent 37120
except 37118
Brazil 37112
database 37100
18@@ 37098
province 37095
Problem 37090
speakers 37051
ben 37042
secondary 37041
diversity 37040
54 37037
besteht 37030
finance 37026
Rules 37014
released 37013
pro 36996
37 36996
Parlaments 36988
ary 36965
Training 36951
halten 36948
ECE 36940
Third 36938
36 36936
Environmental 36925
minority 36889
raise 36874
mm 36873
substantial 36862
Use 36838
Countries 36818
recorded 36817
no@@ 36816
structures 36811
17@@ 36805
UN@@ 36790
significantly 36781
remained 36744
Authority 36700
Pakistan 36694
conferences 36673
campaign 36664
banks 36660
il 36617
voting 36615
competitive 36604
soll 36597
ber 36564
Peace 36538
tern 36477
facing 36477
Thus 36461
est@@ 36414
fer@@ 36411
qu@@ 36361
Um@@ 36347
Status 36337
Vienna 36315
Caribbean 36242
15@@ 36238
appointed 36236
represents 36186
proliferation 36182
Crime 36179
selection 36170
began 36170
einfach 36141
Labour 36135
0.@@ 36105
Chinese 36099
Vorschlag 36098
Sh@@ 35999
Cuba 35997
primarily 35947
48 35933
easily 35923
factor 35911
Bei 35911
tun 35866
attacks 35835
Stadt 35821
drei 35816
testing 35809
Ziel 35804
entered 35778
image 35767
welcomes 35751
Bürger 35749
enterprises 35727
Today 35719
Was 35705
W 35695
seinen 35615
king 35612
presentation 35602
Th@@ 35601
ideas 35583
previously 35571
instead 35554
wäre 35536
www.un.org 35534
element 35524
comply 35516
Optional 35514
workshop 35498
imposed 35465
corporate 35428
style 35423
served 35394
Fragen 35383
letzten 35368
wichtig 35344
ones 35337
limits 35332
einmal 35300
01 35284
tri@@ 35264
clean 35255
observations 35242
temporary 35237
ausge@@ 35202
budgetary 35177
strongly 35153
dabei 35145
Another 35119
fr@@ 35101
sign 35100
territories 35098
worldwide 35089
extensive 35086
ors 35009
Q@@ 35003
12@@ 34995
ended 34990
don 34988
av@@ 34903
intergovernmental 34889
customer 34889
Technical 34888
aims 34877
39 34854
condition 34829
mon@@ 34800
subsequent 34790
Prime 34783
pe@@ 34783
collective 34777
emphasis 34761
Home 34756
schen 34750
Seite 34744
pr@@ 34742
TRANS 34739
counter 34718
U 34686
disabilities 34685
extend 34684
welche 34679
perhaps 34662
timely 34657
br@@ 34641
starting 34632
Goals 34590
mi@@ 34555
Namen 34545
deren 34530
ff@@ 34524
accommodation 34505
ana 34485
inclusion 34483
reality 34435
03 34404
iz@@ 34389
ut@@ 34351
famous 34351
sometimes 34342
ster 34316
ft 34312
Team 34296
purchase 34273
ige 34270
distance 34247
dollars 34247
remaining 34240
Control 34235
mutual 34216
hen 34208
sen 34192
cash 34167
atmosphere 34115
Date 34068
Sp@@ 34048
solidarity 34048
große 34044
Kollegen 34036
played 33988
zone 33985
Finanz@@ 33974
Daten 33966
Requests 33966
species 33946
sixth 33904
actors 33886
worden 33885
female 33883
großen 33878
fe@@ 33853
changed 33848
eng@@ 33845
join 33838
gr@@ 33817
Situation 33810
ger 33800
duties 33798
provinces 33786
observed 33782
ment 33780
constitute 33748
cycle 33743
ful 33732
perfect 33687
Aber 33683
instance 33647
sex 33637
bieten 33629
outstanding 33614
Recht 33575
Here 33554
75 33546
weiter 33546
combined 33540
Auf 33532
learn 33530
Technology 33520
declaration 33505
departments 33499
stressed 33457
Windows 33449
Her@@ 33385
Er 33381
raising 33379
Verfügung 33372
accountability 33372
London 33368
relief 33349
migration 33344
vision 33327
diseases 33326
tig 33316
UNHCR 33315
emerging 33296
Great 33272
id 33266
Following 33260
forced 33260
bel@@ 33257
contributed 33257
tasks 33253
ell@@ 33251
authorized 33239
41 33227
seeking 33218
Sea 33216
expression 33206
Only 33205
ist@@ 33203
interpretation 33185
client 33185
summer 33175
outcomes 33147
Ihr 33137
names 33128
Your 33051
resident 33040
tige 33029
displaced 33028
managed 33010
Bedeutung 33003
innovation 33001
ters 32988
representation 32984
Discrimination 32982
ren@@ 32970
Eastern 32967
larger 32963
Auch 32957
64 32951
Is 32949
coordinated 32942
cut 32931
Family 32925
Sicherheit 32881
ON 32868
findings 32853
Chairperson 32848
lost 32837
drawn 32837
investments 32830
212 32826
38 32808
nehmen 32805
enhanced 32792
bu@@ 32773
aircraft 32763
chapter 32762
Paragraph 32755
ko@@ 32748
internationally 32732
sensitive 32721
IC@@ 32721
do@@ 32695
14@@ 32654
judges 32649
Software 32645
disaster 32628
CD 32625
historical 32612
Sierra 32594
existence 32593
incorporated 32571
transactions 32553
district 32552
go@@ 32545
Y 32538
San 32536
difference 32533
digital 32521
identity 32516
aller 32506
son 32495
asylum 32475
statistical 32464
ance 32459
Möglichkeit 32454
44 32445
gl@@ 32444
Regierung 32436
spirit 32434
accession 32432
wishes 32398
controls 32397
contracts 32393
77 32381
engaged 32368
Energy 32367
ative 32367
fisheries 32365
EC 32364
telephone 32346
maintained 32344
Two 32318
Or@@ 32280
ah 32248
freedoms 32239
Asian 32198
Prevention 32198
attend 32177
devices 32173
kl@@ 32168
opened 32164
cher 32144
GST 32140
appears 32107
ts@@ 32105
Rule 32102
for@@ 32087
chemical 32070
offences 32060
42 32055
populations 32042
man@@ 32028
cities 32027
Lebanon 32005
könnte 31978
Staaten 31973
pointed 31963
Foundation 31956
device 31933
ons 31911
estimates 31906
Now 31886
offence 31877
prison 31858
Als 31854
resulted 31852
identification 31847
Data 31843
professionals 31840
Nach 31833
Ottawa 31812
combating 31778
examples 31777
eigenen 31765
zeit 31763
expenditures 31763
vi@@ 31759
Even 31750
huge 31719
exposure 31711
weight 31696
4.@@ 31684
sets 31673
Berlin 31659
minorities 31658
Officer 31648
Gu@@ 31647
nach@@ 31645
ati@@ 31619
eight 31611
center 31589
donors 31569
erte 31569
Fraktion 31539
Timor 31523
A. 31512
ß@@ 31511
beach 31509
offering 31508
substance 31505
UNECE 31503
association 31492
rich 31477
manage 31447
stock 31443
Statistics 31443
acceptable 31432
tourism 31428
Do 31424
dr@@ 31421
thought 31418
af@@ 31412
Sweden 31384
ies 31382
Ex@@ 31373
internet 31364
wissen 31351
muß 31345
reading 31334
treated 31331
racial 31330
becoming 31324
Hotels 31324
ds 31319
grant 31316
davon 31276
Thema 31267
6.@@ 31266
forum 31263
background 31254
models 31254
holding 31249
ms 31247
producers 31233
undertake 31229
IV 31226
film 31212
Police 31205
Al 31192
farmers 31192
05 31175
delay 31171
ill 31165
updated 31162
percentage 31139
St. 31122
ii 31115
walk 31110
Bar@@ 31101
restrictions 31086
transparent 31071
recognize 31063
star 31063
Probleme 31059
tests 31058
bed 31057
experiences 31047
ta 31024
kein 31002
demands 30994
Adoption 30972
liability 30969
daher 30969
notice 30966
ich@@ 30928
Austria 30911
ve@@ 30888
civilians 30888
fine 30886
13@@ 30881
assessments 30878
improvements 30871
Air 30849
exports 30845
figures 30841
ina 30828
sections 30828
arbeiten 30822
Summary 30820
strengthened 30799
news 30791
Work 30782
Indeed 30782
Me@@ 30765
goes 30759
contributing 30758
qualified 30753
unable 30733
box 30723
Assistance 30723
weitere 30714
corruption 30711
euro 30699
seventh 30699
ED 30695
respectively 30695
darüber 30663
Politik 30650
Despite 30648
Kunden 30637
stress 30615
affairs 30613
firm 30606
eg@@ 30597
j 30587
Financing 30585
Weise 30581
popular 30539
hand@@ 30531
unemployment 30529
ite 30506
train 30484
Ambassador 30478
distributed 30473
confirmed 30471
alles 30461
track 30435
ay 30369
sowohl 30358
befindet 30349
ep@@ 30326
trends 30323
Par@@ 30319
candidates 30303
ität 30287
El@@ 30287
complaints 30282
generation 30254
ka 30247
Persons 30239
expect 30197
Lisbon 30163
Kommissar 30153
born 30136
associations 30128
park 30107
ru@@ 30101
kommt 30087
erreichen 30087
procurement 30056
Mon@@ 30052
Ihrer 30052
Letter 30046
16@@ 30030
participated 30016
Website 30009
dangerous 30008
occupation 30006
residence 29997
subsection 29992
Cultural 29988
02 29986
allocated 29966
marketing 29960
electoral 29953
latter 29927
ma 29920
° 29918
morning 29917
receiving 29907
considering 29903
guarantees 29885
relatively 29862
experienced 29854
tic 29852
structural 29850
Ende 29848
So@@ 29848
faced 29841
keeping 29827
borders 29814
hatte 29811
con@@ 29811
properly 29806
workshops 29805
occupied 29801
Customs 29780
besonders 29779
port 29769
surface 29753
Monday 29750
failed 29732
update 29726
nations 29726
tu@@ 29713
Free 29707
cooperate 29691
ps 29684
comment 29683
donor 29679
changing 29677
fixed 29636
mit@@ 29634
gave 29626
publications 29613
Friday 29585
Bel@@ 29579
enen 29579
currency 29573
Not 29570
Qu@@ 29569
coverage 29565
charged 29554
PC 29547
increases 29543
Zukunft 29535
felt 29533
ste@@ 29522
Task 29521
war@@ 29504
stable 29495
senior 29484
permit 29482
Fifth 29479
capacities 29478
DE 29476
ratification 29461
los 29451
53 29450
1,@@ 29446
sentence 29441
Northern 29439
Once 29437
functioning 29431
village 29422
correct 29416
meiner 29382
volume 29376
examination 29363
resolve 29347
accessible 29346
963 29338
ho@@ 29316
out@@ 29310
committees 29309
wirklich 29276
lichkeit 29275
plant 29259
Park 29241
Beispiel 29233
ihnen 29232
charges 29229
eln 29212
targeted 29211
Disarmament 29210
sport 29207
ding 29204
the@@ 29189
cht 29186
alization 29168
television 29164
unterstützen 29164
65 29160
Number 29159
UNEP 29144
conventions 29144
supplies 29132
votes 29126
Czech 29105
Year 29103
Chair 29098
unser 29096
ums 29086
stellt 29081
Network 29078
51 29066
innerhalb 29065
all@@ 29050
nen 29042
researchers 29013
natürlich 29003
Pl@@ 28983
Guide 28965
theme 28963
49 28963
IN@@ 28953
intervention 28943
compromise 28941
Add.1 28926
gegenüber 28917
vielen 28916
ties 28916
ourselves 28903
Restaurant 28896
maintaining 28887
religion 28884
Resources 28873
Elimination 28870
entfernt 28864
Over 28832
We@@ 28829
verschiedenen 28827
examine 28815
52 28812
sti@@ 28787
illicit 28783
operate 28751
Products 28744
historic 28733
constitutional 28725
acting 28722
Leone 28706
tion 28706
refugee 28684
Coordination 28680
extra 28664
fe 28664
Mediterranean 28658
convention 28635
schaft 28629
tive 28609
95 28608
sought 28604
du@@ 28581
completion 28574
clinical 28561
Governing 28556
hin 28554
men@@ 28546
thereby 28546
detail 28542
attempt 28531
Fl@@ 28525
customs 28517
performed 28514
GDP 28507
ER 28505
responses 28498
43 28493
suitable 28483
Rolle 28480
Car@@ 28468
tell 28455
Their 28452
threats 28434
involve 28428
taxes 28396
finding 28392
pension 28389
doubt 28380
deep 28367
Am@@ 28344
flexibility 28343
06 28334
mobile 28325
rapid 28293
length 28292
sixty 28277
ano 28275
accounting 28271
hour 28263
advanced 28258
Weg 28254
eliminate 28250
penalty 28244
Arbeits@@ 28236
internationalen 28228
UNFPA 28220
ph@@ 28216
fi@@ 28197
topic 28189
satisfaction 28189
input 28188
Finance 28187
erste 28166
binding 28154
guest 28153
reservation 28152
Seiten 28147
Day 28123
ah@@ 28110
04 28103
eighth 28100
dessen 28097
car@@ 28093
politische 28090
bringing 28071
allowing 28061
teams 28053
ness 28051
widely 28025
Deputy 28019
mark 28010
Per@@ 28005
recommend 27997
Operations 27985
mention 27983
Industry 27981
carrying 27963
Resolution 27955
Frauen 27945
w 27934
mental 27932
deliver 27930
colleagues 27923
zwar 27913
Richtlinie 27911
Nach@@ 27911
ai 27898
balanced 27896
drive 27892
ality 27890
employed 27889
bus 27876
Space 27872
möchten 27865
race 27854
thousands 27847
characteristics 27835
burden 27827
ek@@ 27801
officer 27790
proportion 27763
800 27760
honour 27748
immigration 27738
Egypt 27735
intention 27732
ninth 27723
EN 27723
click 27721
ischer 27694
designated 27686
Experts 27682
Roma 27661
Ber@@ 27656
modified 27655
Gr@@ 27652
Italian 27649
ard 27647
fre@@ 27647
teachers 27644
Assessment 27641
integrity 27616
El 27612
Both 27605
&apos;ll 27602
title 27597
Ihren 27592
organisations 27591
az@@ 27588
Tag 27583
gt 27540
preliminary 27523
spending 27522
dedicated 27509
pass 27507
losses 27507
multiple 27504
kept 27502
ze@@ 27501
cr@@ 27493
ationen 27487
Guinea 27483
gu@@ 27479
presidency 27461
46 27453
fire 27446
interesting 27444
je 27443
controlled 27442
introduce 27421
friends 27421
ik@@ 27421
animals 27387
dort 27383
rehabilitation 27375
direkt 27370
finally 27354
demonstrated 27354
weit 27353
encouraging 27345
preventing 27342
flexible 27332
ownership 27323
storage 27312
Palestine 27305
principal 27303
panel 27301
trading 27292
occur 27282
protecting 27277
birth 27266
congratulate 27248
considers 27240
ak 27229
copies 27228
Man@@ 27226
nice 27200
older 27183
register 27165
helping 27157
Poland 27144
Based 27115
tin@@ 27108
ang 27106
airport 27106
Branch 27104
Procedure 27103
7.@@ 27103
liches 27095
ending 27089
enhancing 27084
europäische 27083
Informal 27075
ell 27074
B. 27070
era 27066
Portugal 27044
technological 27039
attached 27021
gain 27011
eten 27007
punishment 27004
Saint 27000
# 26968
inside 26967
patient 26933
2,@@ 26932
probably 26916
Bosnia 26908
scheduled 26905
attack 26893
profit 26892
Sub 26891
weapon 26888
For@@ 26886
stations 26884
preparing 26883
becomes 26866
oc@@ 26860
organizational 26827
wi@@ 26813
transportation 26806
.. 26801
sw@@ 26801
extension 26794
ages 26792
highlighted 26783
Um 26782
Several 26778
initiated 26772
directed 26771
lies 26771
ve 26769
union 26742
Islands 26741
ente 26741
Territory 26724
pollution 26716
feature 26697
governing 26692
hotels 26684
spent 26679
Given 26676
worth 26666
á@@ 26663
character 26660
47 26642
Po@@ 26640
facility 26633
regularly 26633
weise 26622
paras 26595
engine 26563
map 26554
dealt 26552
falls 26548
holiday 26542
Alle 26523
relative 26520
marine 26517
abroad 26517
Staff 26514
arising 26502
Hier 26487
spread 26471
plants 26471
hr@@ 26467
pen@@ 26464
min@@ 26450
plus 26430
bre@@ 26426
engage 26421
wer@@ 26420
Norway 26417
&apos;re 26388
emphasized 26387
Indonesia 26386
John 26383
recruitment 26377
ism 26361
Drugs 26357
seriously 26345
valid 26343
images 26331
phone 26330
nation 26314
trying 26311
Records 26308
Because 26303
Agriculture 26286
Nuclear 26263
suffering 26238
impacts 26236
allocation 26233
tischen 26229
aff@@ 26214
contrary 26205
Directive 26201
Red 26184
ise 26182
07 26179
Bar 26162
400 26156
Com@@ 26155
fees 26151
Bi@@ 26151
Programm 26148
south 26126
lessons 26082
agen 26075
says 26074
Partnership 26063
aspect 26059
aw@@ 26053
industries 26041
Monitoring 26033
ches 26032
fulfil 26028
radio 26028
Amendment 26010
welfare 26010
valuable 26009
är@@ 25998
perform 25997
hear 25997
1. 25988
appointment 25981
Budget 25979
enlargement 25976
manufacturer 25956
den@@ 25952
durch@@ 25921
HST 25916
Belgium 25913
pilot 25910
ai@@ 25902
Bu@@ 25900
expansion 25893
Atlantic 25890
Nevertheless 25887
Artikel 25858
Belarus 25847
disposal 25832
CH@@ 25825
oral 25816
behaviour 25792
ists 25773
Meinung 25765
Zealand 25762
largely 25755
Heritage 25754
Island 25747
candidate 25734
occurred 25729
examined 25703
Uhr 25703
reg@@ 25701
Internal 25700
Thursday 25691
Contact 25685
collected 25683
exception 25680
Session 25660
ratified 25659
UK 25658
Site 25655
moving 25650
sports 25645
Territories 25644
ce 25644
Appendix 25631
ahead 25617
equivalent 25605
20@@ 25604
providers 25588
encourages 25581
Care 25577
temperature 25577
2011 25570
anti@@ 25569
constructive 25568
healthy 25559
ses 25559
visits 25555
aged 25555
ling 25548
beiden 25538
assessed 25536
learned 25535
periods 25530
motion 25506
segment 25503
mal@@ 25502
OECD 25480
geb@@ 25464
passed 25463
manufacturing 25460
mid 25453
description 25443
Lösung 25442
vers@@ 25428
erten 25426
fax 25414
combination 25414
ci@@ 25414
department 25402
Annual 25379
Water 25371
Euro@@ 25365
ur 25363
Fifty 25354
Open 25352
running 25350
IS@@ 25335
buildings 25312
helped 25294
animal 25290
greatest 25289
Greece 25284
propose 25273
Neu@@ 25256
unserem 25255
accused 25253
figure 25222
deemed 25215
ou@@ 25199
än@@ 25183
weniger 25172
Population 25139
99 25135
demonstrate 25129
Directorate 25124
Total 25117
pursue 25115
IT@@ 25097
Costa 25091
players 25090
guaranteed 25074
gross 25070
suggest 25065
zurück@@ 25059
books 25012
enten 25003
Secondly 24999
translation 24990
Dieses 24989
Bes@@ 24985
ach 24971
calling 24971
War 24967
Description 24957
deployment 24951
chance 24944
talk 24936
Pre@@ 24910
Zusammenhang 24891
capable 24877
bear 24873
CO@@ 24869
zer 24842
street 24842
believes 24840
transferred 24837
Supreme 24836
competitiveness 24833
zi@@ 24823
installation 24822
Cor@@ 24820
Drug 24819
Ho@@ 24803
Mor@@ 24802
owned 24797
God 24796
Access 24781
racism 24777
conclude 24776
bit 24772
adverse 24770
Hilfe 24767
handelt 24765
programming 24755
Gaza 24748
He@@ 24747
E. 24736
outlined 24734
bad 24730
enabling 24726
gesagt 24722
Guidelines 24719
tung 24718
trend 24707
globalization 24705
reliable 24703
applying 24693
helpful 24683
Le 24671
Ad 24665
sides 24660
reaching 24659
nearly 24633
ats 24625
Science 24621
sample 24611
wanted 24601
besch@@ 24601
automatically 24600
legitimate 24596
ice 24582
Center 24573
conformity 24564
lists 24563
assigned 24550
email 24535
successfully 24514
saying 24501
advisory 24500
marked 24492
Produkte 24490
getting 24490
decline 24486
versch@@ 24462
Small 24458
commission 24447
rec@@ 24442
organisation 24419
flows 24416
Yugoslavia 24400
eller 24393
declared 24385
ically 24383
green 24379
Supplement 24373
reservations 24371
08 24362
98 24358
pi@@ 24341
Society 24334
happy 24305
Montreal 24304
restaurants 24301
ant@@ 24266
ma@@ 24265
covers 24255
Sk@@ 24255
standing 24236
Rates 24233
ben@@ 24228
gute 24228
heavy 24226
setzen 24216
Romania 24214
Leben 24210
Mittel 24200
anything 24174
Haus 24156
strength 24153
quarter 24141
ade 24133
etwa 24132
returned 24127
hands 24123
orders 24120
ay@@ 24117
AR@@ 24113
woman 24111
barriers 24106
09 24100
Präsidentin 24088
wood 24086
des@@ 24082
wine 24081
consists 24070
Gender 24058
carefully 24048
har@@ 24043
jeder 24042
heritage 24041
Fisheries 24031
Cyprus 24029
seem 24022
ver 24019
competence 24012
laid 24008
gilt 24004
Rück@@ 23998
leg@@ 23992
fresh 23975
Scientific 23966
mer 23964
dem@@ 23940
ars 23939
ty 23929
ES 23924
Rome 23919
dynamic 23906
Personal 23898
import 23895
daran 23891
path 23881
sogar 23880
Serbia 23876
Standards 23873
Ne@@ 23867
estate 23864
00@@ 23858
sold 23849
meaning 23839
bitte 23824
Millionen 23821
ely 23817
ess@@ 23813
visitors 23808
Deshalb 23804
kg 23802
ind@@ 23796
Standard 23796
emp@@ 23792
connected 23787
mandates 23785
ations@@ 23785
ton 23775
subsidiary 23769
Youth 23756
went 23741
eu@@ 23737
mortality 23729
affecting 23723
obstacles 23719
tion@@ 23718
define 23716
Wednesday 23711
alten 23704
managers 23704
taxation 23703
ange@@ 23697
ators 23692
parking 23687
Herzegovina 23684
extreme 23681
investigations 23673
com@@ 23671
Grund 23667
server 23644
Somalia 23642
tor 23639
diplomatic 23636
Systems 23634
hin@@ 23632
Power 23630
intellectual 23615
owing 23614
ical 23611
blood 23604
Employment 23581
exclusive 23572
firms 23568
Argentina 23545
reception 23539
Before 23531
gap 23528
lu@@ 23522
reflects 23505
ou 23495
Co 23490
elt 23486
Questions 23479
Contracting 23474
ierten 23469
lose 23461
privacy 23455
Through 23454
north 23445
sustainability 23435
ierte 23430
techniques 23425
judge 23424
bzw. 23424
prisoners 23411
150 23410
replace 23398
Reports 23384
joined 23383
ship 23345
hinaus 23340
comfort 23338
Bl@@ 23328
Q 23324
neither 23323
gemacht 23315
subregional 23313
Gew@@ 23304
acceptance 23303
Su@@ 23302
AC@@ 23301
Mit@@ 23292
forty 23289
indem 23286
Brussels 23285
imports 23280
victim 23274
Syrian 23266
Europas 23263
observers 23261
stages 23257
marriage 23255
sl@@ 23250
macht 23250
employee 23247
bereich 23244
reconstruction 23234
Turkish 23226
mother 23221
powerful 23219
H.E. 23211
minute 23207
topics 23201
chosen 23200
organs 23195
dec@@ 23190
Darfur 23190
tw@@ 23181
explain 23166
seat 23163
grants 23156
facts 23151
Kinder 23149
attended 23141
covering 23134
monetary 23127
equally 23125
Schutz 23125
launch 23122
Forms 23121
select 23119
ends 23113
trained 23088
Deutschland 23078
1989 23068
permitted 23068
removed 23067
determining 23059
urged 23059
dissemination 23051
Fax 23043
signature 23037
complaint 23030
Every 23024
entirely 23021
white 23018
ation@@ 23018
download 23016
corporation 23006
mel@@ 23001
love 23000
leader 22993
ER@@ 22984
Georgia 22974
instructions 22966
formed 22965
got 22959
satellite 22942
RE@@ 22939
Ad@@ 22927
executive 22927
screen 22922
depth 22916
summit 22913
UNESCO 22904
sen@@ 22888
Congress 22873
socio 22861
trans@@ 22844
ün@@ 22830
parliamentary 22825
machine 22825
headquarters 22822
san@@ 22802
sovereignty 22794
alleged 22793
genuine 22792
Having 22772
explained 22770
invite 22767
ves 22765
relate 22756
nämlich 22754
Defence 22751
schaffen 22747
urge 22746
Media 22740
Dieser 22739
severe 22733
exists 22729
96 22729
ded 22719
concluding 22709
apartment 22701
brauchen 22697
up@@ 22696
Version 22695
closer 22687
forth 22679
revenue 22675
Finland 22659
Lu@@ 22654
Croatia 22653
Unsere 22647
identifying 22646
Terrorism 22641
Kuwait 22635
tomorrow 22623
600 22616
entity 22602
southern 22599
interim 22595
grateful 22593
heit 22592
endorsed 22590
arts 22590
Ger@@ 22582
IN 22572
ebenfalls 22567
door 22564
concentration 22555
zed 22550
recht 22537
Li@@ 22525
opposition 22510
nine 22508
tre@@ 22505
Strategic 22472
tragen 22469
mine 22457
Rwanda 22444
dignity 22441
9.@@ 22435
v. 22428
expectations 22420
ihn 22418
ology 22414
nationality 22414
Bau@@ 22403
sustained 22399
transmitted 22390
corresponding 22380
Da 22379
Burundi 22374
decades 22352
Columbia 22349
Ri@@ 22347
quiet 22328
ica 22325
teaching 22305
Fre@@ 22304
Name 22300
3,@@ 22298
briefing 22296
1st 22295
Morocco 22288
expanded 22284
producing 22282
inspection 22280
proceed 22269
Additional 22269
ore 22268
refers 22264
seinem 22254
isten 22245
Ak@@ 22231
List 22230
thirty 22229
Chile 22216
university 22203
Inter 22203
Weapons 22187
homes 22185
Inc 22184
Colombia 22181
carbon 22178
drafting 22176
savings 22163
reconciliation 22155
remote 22151
Main 22150
transit 22143
dispute 22138
reserve 22137
ff 22136
sel@@ 22135
norms 22133
object 22125
Medical 22111
shares 22103
Museum 22091
Design 22084
impossible 22083
Ebene 22078
erst 22071
voice 22070
indicates 22066
Sal@@ 22064
rejected 22064
ht 22061
&lt; 22059
remove 22053
tet 22052
Toronto 22047
Kar@@ 22047
ihm 22034
Barcelona 22031
middle 22026
leben 22022
ass@@ 22019
unterstützt 22019
engagement 22018
Royal 22018
games 22009
Online 22000
Str@@ 21996
award 21975
wider 21957
convinced 21955
desire 21948
schedule 21936
jointly 21924
To@@ 21923
understood 21917
Punkt 21910
season 21905
expand 21905
subsequently 21894
functional 21887
systematic 21882
Document 21875
darin 21871
sicher 21871
letters 21869
Model 21868
emission 21866
darf 21864
einigen 21863
Personen 21853
Indigenous 21852
TO 21815
Fr@@ 21812
kte 21797
tur@@ 21797
Nigeria 21794
form@@ 21776
broader 21774
depending 21763
Haushalts@@ 21758
School 21755
heads 21746
ILO 21744
reproductive 21731
Land@@ 21730
Income 21727
fun@@ 21721
truly 21717
AM@@ 21717
overcome 21716
öffentlichen 21703
führt 21698
farm 21698
agents 21679
Trans@@ 21675
ships 21674
ra 21670
residents 21666
replaced 21655
zw@@ 21650
IP 21638
Geschäfts@@ 21620
decrease 21618
Man 21616
ev@@ 21615
Qualität 21613
Activities 21612
une 21611
gestellt 21606
statt 21602
Grund@@ 21592
hi@@ 21590
buy 21579
disasters 21575
ese 21573
97 21572
FAO 21571
serving 21568
measured 21563
Aussprache 21560
Fahr@@ 21559
locations 21559
Promotion 21555
Source 21554
meisten 21554
authors 21533
8.@@ 21532
migrants 21532
Market 21526
legally 21526
AL@@ 21516
é 21516
zer@@ 21512
player 21508
waters 21499
lasting 21496
decade 21493
convened 21493
bathroom 21491
Within 21484
danger 21463
Statement 21462
att@@ 21452
stands 21449
sized 21445
Tuesday 21435
diverse 21435
claimed 21435
smaller 21423
Why 21423
discharge 21417
explore 21410
universities 21404
Issues 21402
dimension 21396
involves 21394
Wirtschaft 21390
himself 21381
conservation 21376
considerations 21374
elimination 21373
roles 21373
ier 21367
houses 21363
gegeben 21358
gerade 21348
Company 21343
Last 21340
hearing 21313
composition 21310
won 21306
ke@@ 21302
addresses 21296
VI 21289
playing 21284
picture 21269
dürfen 21268
AS@@ 21260
ada 21260
achievements 21256
nationalen 21254
productive 21252
OS 21249
disabled 21248
Z 21241
ski 21234
ern@@ 21232
relationships 21216
tische 21208
UNIDO 21200
occasion 21199
Contract 21183
reply 21180
Unfortunately 21178
dependent 21177
Sport 21167
societies 21157
PDF 21153
warm 21150
glaube 21146
transfers 21145
northern 21133
prescribed 21123
Measures 21109
genau 21106
texts 21094
Ma@@ 21090
AG 21089
productivity 21088
nichts 21071
sei 21069
continuous 21062
thinking 21059
Au@@ 21059
ban 21057
hol@@ 21051
revenues 21043
licence 21038
exceed 21034
geographical 21030
Liberia 21030
adults 21025
bound 21009
jeden 21003
absolutely 21003
keinen 20994
disability 20989
enti@@ 20988
ür@@ 20980
ihrem 20979
fer 20975
killed 20975
advertising 20970
Gen@@ 20962
tig@@ 20961
Fourth 20959
anz@@ 20954
Organisation 20952
tables 20952
shopping 20951
campaigns 20944
Abstimmung 20940
Thank 20938
Alberta 20937
oriented 20937
85 20933
ör@@ 20930
Mal@@ 20920
Change 20909
save 20901
WP.29 20894
anyone 20887
installed 20882
sollen 20872
250 20847
sc@@ 20844
pu@@ 20842
enz@@ 20834
acquired 20826
suggestions 20825
minor 20824
index 20818
duration 20805
Evaluation 20805
66 20802
mountain 20801
visited 20799
generated 20790
Notes 20789
enterprise 20787
Can@@ 20770
exceptional 20768
ns 20767
WHO 20759
fee 20756
Peacekeeping 20747
Gemeinschaft 20736
fighting 20728
lin@@ 20727
weiterhin 20725
revision 20720
Forces 20707
easier 20706
cht@@ 20699
Haupt@@ 20698
imprisonment 20684
sa 20677
ib@@ 20673
complainant 20671
ya 20659
artists 20652
Britain 20650
Club 20649
tried 20648
Rechte 20643
driving 20637
Im@@ 20633
mg 20629
frequently 20623
Iraqi 20622
outer 20613
Tri@@ 20609
Haiti 20595
else 20593
speech 20593
ets 20591
prohibited 20584
representing 20583
told 20582
zusammen 20582
dates 20577
male 20576
injury 20568
ech@@ 20564
Prosecutor 20561
vessels 20560
Airport 20555
constitutes 20553
secured 20551
Sub@@ 20548
adjustment 20546
klar 20544
subjects 20530
fear 20524
showed 20505
reintegration 20499
evaluate 20493
cards 20489
packages 20481
cancer 20479
Debian 20476
protocol 20473
portion 20472
la@@ 20460
fo@@ 20449
bil@@ 20445
tend 20444
Ort 20431
berg 20430
foundation 20428
career 20418
stocks 20409
star@@ 20402
Are 20400
brief 20399
metres 20399
equity 20395
betrifft 20372
proof 20356
hoped 20352
Ru@@ 20351
ans@@ 20350
arrest 20339
Pal@@ 20335
würden 20334
sum 20327
menu 20325
makers 20304
J. 20298
formulation 20298
amend 20297
Sol@@ 20267
iger 20267
accompanied 20255
Kyoto 20251
contents 20248
Private 20245
Page 20235
certificate 20233
Kosten 20222
Recommendation 20221
bedeutet 20214
Hoc 20211
urges 20209
newly 20205
profile 20205
Swiss 20191
wichtige 20182
biological 20175
budgets 20161
founded 20159
display 20148
square 20124
arrival 20098
Street 20097
mu@@ 20084
Decides 20081
ian 20079
River 20071
print 20070
findet 20067
cl@@ 20067
trials 20063
possibilities 20063
voll 20060
mal 20050
Gesellschaft 20043
scheme 20042
tro@@ 20042
foster 20017
GmbH 20000
Investment 20000
interventions 19981
Bezug 19980
looks 19968
besser 19967
coordinate 19963
AN@@ 19960
Sozial@@ 19954
spend 19951
rapidly 19943
Go@@ 19938
sprechen 19938
sitting 19938
commissions 19936
handling 19935
acquisition 19934
transmission 19931
break 19924
72 19923
applicant 19918
equitable 19912
nutzen 19909
unacceptable 19908
solche 19906
constant 19906
icht 19904
Accordingly 19898
Von 19896
deutlich 19893
Quality 19891
í@@ 19886
heiten 19886
evening 19878
normally 19877
constraints 19876
yourself 19872
cohesion 19864
ie@@ 19864
Indian 19863
aufgrund 19860
CN.4 19853
depends 19850
EN@@ 19849
calculated 19847
hn@@ 19847
land@@ 19837
besten 19837
ley 19836
nis 19832
Can 19822
schnell 19820
fit 19820
lands 19816
Mail 19815
ICT 19814
IP@@ 19809
Val@@ 19806
mandatory 19803
garden 19795
ites 19788
filed 19785
output 19780
Am 19775
und@@ 19773
deshalb 19766
Côte 19765
Zugang 19765
AD@@ 19731
tested 19727
municipal 19720
essen 19715
integrate 19714
zes 19710
gleich 19682
best@@ 19674
happen 19672
Christian 19670
regardless 19670
ast@@ 19668
ßen 19666
presents 19664
1988 19659
sal@@ 19657
continent 19655
achten 19655
Linux 19650
suffered 19647
invitation 19635
enjoyment 19632
soil 19622
Right 19621
aries 19616
Assistant 19609
greatly 19605
Process 19602
eb@@ 19598
ess 19597
Closed 19592
platform 19587
ziehen 19586
apartments 19581
resumed 19576
capabilities 19571
fill 19552
gains 19551
Reform 19551
Communications 19550
ast 19547
student 19545
Jean 19538
aler 19528
Country 19518
ISO 19518
precisely 19517
tens 19513
nächsten 19505
Dank 19505
ably 19504
Richtung 19504
solid 19498
wrong 19491
comparison 19487
che@@ 19466
Strategie 19456
Denmark 19448
hospital 19447
measurement 19447
Markt 19446
asset 19439
warning 19435
Noting 19430
Te@@ 19418
hoc 19404
aten 19404
mar@@ 19403
gehört 19402
ants 19401
ES@@ 19397
ane 19396
Class 19395
allerdings 19395
cutting 19394
surrounding 19391
mann 19382
talking 19361
helps 19360
faith 19355
Mrs. 19351
Among 19345
Grand 19339
verification 19333
chain 19331
facilitating 19320
gew@@ 19312
wall 19311
Then 19299
subjected 19297
Test 19287
widespread 19287
millions 19286
Yet 19273
bekannt 19260
AS 19257
supervision 19236
insufficient 19234
Uganda 19231
nationals 19228
swimming 19221
ris@@ 19217
M. 19217
overview 19217
Thailand 19214
transaction 19214
Reference 19213
Amsterdam 19211
ette 19211
Planning 19206
relevance 19205
613 19189
wants 19186
inventory 19185
harm 19182
Press 19179
2. 19178
tabled 19171
ously 19167
moral 19165
Aus 19160
Du@@ 19153
uc@@ 19147
Fe@@ 19144
vo@@ 19144
ments 19139
tour 19132
saw 19130
oft 19114
ish 19107
Just 19100
Ministerial 19098
recognizes 19089
absolute 19089
moved 19089
teil@@ 19088
academic 19088
Nähe 19083
walking 19082
PR@@ 19080
citizen 19075
Ansicht 19075
receipt 19050
hot 19044
talks 19042
realization 19042
accurate 19038
merely 19012
classification 19008
papers 18999
Ethiopia 18995
Rooms 18984
divided 18983
undertaking 18983
ently 18981
J 18978
weiter@@ 18964
mode 18960
Umsetzung 18956
appreciate 18952
Application 18948
Professional 18944
steel 18927
bare 18926
Ges@@ 18920
respected 18918
fallen 18917
resolved 18916
focusing 18912
&apos;ve 18911
bt 18906
Integration 18905
managing 18902
contacts 18896
chemicals 18893
na 18892
liegen 18889
² 18888
winter 18879
Menschenrechte 18869
methodology 18869
Time 18862
om 18853
adopting 18851
drawing 18843
monthly 18840
highlight 18839
humanity 18835
ven@@ 18834
collect 18822
Address 18821
derived 18817
Decision 18808
Dr@@ 18801
zeigt 18795
restricted 18791
Best 18782
iti@@ 18776
bearing 18770
signs 18770
organic 18763
chap 18757
Ziele 18744
ha 18735
del@@ 18734
tisch 18724
Bulgaria 18724
ents 18721
van 18719
resort 18716
Subcommittee 18711
inclusive 18703
beispielsweise 18701
internally 18700
objects 18697
colour 18691
Humanitarian 18678
devoted 18677
lis@@ 18675
Palestinians 18670
contemporary 18668
Ac@@ 18659
generate 18659
2nd 18657
explanation 18657
discriminatory 18650
Alliance 18639
operators 18632
visible 18627
win 18616
Gar@@ 18601
renewable 18595
Road 18594
rose 18591
Developing 18590
sort 18586
tobacco 18586
Doch 18582
thematic 18579
Hand@@ 18572
200@@ 18572
putting 18570
Due 18569
belief 18540
Verantwortung 18538
division 18535
NGO 18532
destination 18530
sell 18528
parallel 18513
sur@@ 18501
SI@@ 18494
Vertrag 18490
hoffe 18489
Statute 18484
terrace 18481
Verfahren 18472
ST 18469
disputes 18468
ING 18464
withdrawal 18463
requiring 18460
IM@@ 18459
werde 18459
No@@ 18458
speaker 18455
Dec@@ 18452
fied 18452
remedies 18449
Kr@@ 18449
exactly 18449
lange 18448
conducting 18444
seminar 18442
forthcoming 18441
Bedingungen 18440
prosecution 18439
suppliers 18439
Ibid 18434
sche 18423
enormous 18419
tradition 18418
elsewhere 18415
.org 18414
circulated 18412
Question 18409
drinking 18406
Consequently 18392
fellow 18392
TR@@ 18391
ble 18391
signal 18391
vol 18389
reserves 18386
Expert 18372
Durch 18370
owner 18367
annually 18366
leads 18364
returns 18359
inadequate 18356
allegations 18352
AL 18350
Booking.com 18345
schl@@ 18342
brings 18340
photo 18337
Constitutional 18333
ord@@ 18331
Demokratie 18331
Budgetary 18329
exposed 18326
ori@@ 18318
ry 18317
depend 18314
ratio 18314
route 18307
imported 18304
anniversary 18302
EL@@ 18302
vielleicht 18299
A.@@ 18297
Church 18293
cur@@ 18285
Building 18283
Figure 18281
verwendet 18278
notwendig 18271
remember 18268
Follow 18263
preparatory 18256
preventive 18247
write 18231
Interesse 18222
properties 18217
Anwendung 18216
4,@@ 18202
Bal@@ 18201
Québec 18196
notification 18191
architecture 18187
{ 18179
Green 18160
s.@@ 18159
rel@@ 18157
alize 18151
Saudi 18151
fruit 18148
gemeinsamen 18144
ß 18141
enables 18140
stronger 18140
DP 18135
master 18130
Geschichte 18125
conventional 18125
Delegations 18116
ari@@ 18113
Grundlage 18109
Taking 18103
CO2 18093
kleinen 18093
pe 18086
Signed 18085
seminars 18084
gleich@@ 18080
seeks 18075
consolidated 18073
Ihrem 18067
aren 18062
Vorschläge 18061
Daher 18056
leaving 18051
Reihe 18050
fin@@ 18049
parent 18045
preparations 18044
grow 18042
Vi@@ 18039
könnten 18039
Click 18038
driver 18037
employer 18037
Similarly 18036
Yes 18036
Text 18033
genommen 18022
necessarily 18015
troops 18005
arise 17996
subsidies 17994
Paper 17978
typical 17978
bleiben 17973
erreicht 17970
NATO 17969
Möglichkeiten 17966
fraud 17964
bio@@ 17955
vast 17954
Greek 17953
kten 17947
wegen 17945
kom@@ 17936
.... 17930
mobility 17925
black 17922
va 17920
gre@@ 17920
AP 17915
agent 17915
Herren 17903
5,@@ 17888
Gebiet 17881
satisfied 17873
cell 17867
trag@@ 17866
strict 17866
Trust 17862
trip 17857
Lebens@@ 17856
kinds 17852
Habitat 17846
arrangement 17843
danken 17836
serves 17835
dollar 17827
iii 17827
og@@ 17826
tourist 17821
pour 17820
exclusively 17815
messages 17814
manufacturers 17811
Jerusalem 17794
IMF 17793
assume 17791
71 17791
120 17791
enn@@ 17785
Pr@@ 17783
™ 17783
sur 17780
tions 17777
ok@@ 17772
com 17764
1.5 17761
Position 17759
Do@@ 17755
ill@@ 17753
dar 17747
IAEA 17742
Algeria 17738
believed 17735
Welt@@ 17732
confirm 17730
Ter@@ 17729
sozialen 17727
politics 17708
ase 17705
deut@@ 17697
ann@@ 17691
regulated 17690
skin 17683
gest@@ 17682
sponsors 17682
corporations 17671
household 17666
Microsoft 17665
coast 17661
ingen 17660
eastern 17658
cher@@ 17657
integral 17655
Azerbaijan 17655
Institutionen 17653
Zeit@@ 17652
removal 17645
ex 17625
adequately 17621
immigrants 17620
Journal 17614
opinions 17614
driven 17608
Universal 17607
Her 17601
Cas@@ 17599
ef@@ 17592
exclusion 17591
wenig 17591
brand 17589
composed 17589
meant 17589
73 17584
soldiers 17568
awarded 17558
.1 17554
ines 17548
promoted 17548
68 17536
Ombudsman 17521
intensive 17517
wished 17515
Debatte 17513
OHCHR 17505
wor@@ 17496
excluded 17496
ST@@ 17495
relates 17494
wirtschaftlichen 17488
surveillance 17487
ence 17487
ichten 17466
classes 17459
asi@@ 17455
Paul 17445
bur@@ 17442
EC@@ 17442
CN.9 17441
consult 17428
alism 17419
willing 17418
emb@@ 17412
incurred 17412
bereit 17404
advantages 17396
ics 17377
Kom@@ 17374
obvious 17374
Military 17370
entwickelt 17368
internationale 17368
iten 17367
Dar@@ 17362
Climate 17361
estimate 17348
ko 17345
clarify 17345
anten 17335
surveys 17333
De 17328
wo@@ 17317
alized 17316
error 17311
Partner 17310
kr@@ 17309
pending 17307
ordinary 17306
incidents 17304
30@@ 17294
dern 17287
flight 17281
beds 17281
carrier 17280
manufacture 17279
opposed 17267
mostly 17261
Consideration 17261
piece 17260
eradication 17257
gs 17246
river 17243
Goods 17243
showing 17241
frame 17237
deaths 17237
Malaysia 17237
toward 17233
execution 17223
Lin@@ 17219
ure 17210
stell@@ 17209
air@@ 17207
posed 17203
News 17200
Hungary 17193
gleichen 17192
gaps 17191
Pe@@ 17181
Auswirkungen 17180
discover 17178
Natural 17176
forests 17171
SP@@ 17170
deposit 17167
load 17158
legen 17153
verschiedene 17150
verfügt 17137
SMEs 17136
Japanese 17123
movements 17121
91 17117
resistance 17115
geführt 17110
certification 17108
Contents 17107
totally 17106
befinden 17099
dumping 17087
organize 17086
wealth 17084
zeit@@ 17079
67 17078
weisen 17072
cultures 17065
custody 17065
Peru 17064
Ze@@ 17063
Kenya 17061
investors 17061
Culture 17054
unternehmen 17046
named 17044
ministers 17043
regarded 17040
baren 17036
} 17032
employers 17024
Sixty 17023
Preis 17020
ot 17016
93 17015
command 17013
cu@@ 17011
Enterprise 17011
Rechts@@ 17006
loans 17006
tionen 17005
Self 17003
someone 16998
beg@@ 16998
payable 16995
Jo@@ 16994
D. 16994
president 16992
store 16987
phenomenon 16986
un.org 16985
ew@@ 16985
Corporation 16982
C.2 16981
Manager 16977
Refugees 16976
net@@ 16972
Minuten 16969
recalled 16968
underlying 16965
weltweit 16965
concentrations 16955
Sales 16955
stu@@ 16938
heading 16935
Ben@@ 16924
tolerance 16922
fol@@ 16916
Intergovernmental 16915
sin@@ 16914
Mag@@ 16901
engineering 16896
tete 16895
rail 16891
&apos;Ivoire 16883
ermöglicht 16883
23@@ 16881
rit@@ 16876
incentives 16875
hatten 16872
helfen 16867
Dienstleistungen 16861
Damen 16858
credibility 16856
difficulty 16855
compulsory 16852
gern 16840
ultimately 16839
Schul@@ 16830
settlements 16828
gemeinsame 16825
bar@@ 16819
arrested 16817
Villa 16813
Luxembourg 16811
prostitution 16810
iter 16808
69 16801
shower 16795
Abkommen 16789
cars 16771
700 16769
crises 16769
financed 16763
railway 16757
ir 16756
frameworks 16744
electricity 16743
Observer 16736
Common 16735
cells 16725
Kur@@ 16725
Ste@@ 16725
acknowledged 16719
vier 16717
happened 16716
camera 16711
za 16698
gestimmt 16694
get@@ 16689
Recommendations 16689
zt 16687
concepts 16687
q@@ 16682
keyword 16679
Zu 16679
observer 16673
pleasant 16668
sch 16665
zeigen 16651
forget 16645
TI@@ 16645
oversight 16636
prä@@ 16633
Berichterstatter 16631
memory 16631
COP 16624
OR 16622
grave 16620
Myanmar 16615
ological 16614
proved 16614
int@@ 16613
window 16613
citizenship 16609
neighbouring 16608
gebracht 16607
spring 16601
assisting 16598
ado 16598
significance 16590
parameters 16581
Ent@@ 16579
Madrid 16579
adult 16571
formation 16563
fail 16563
cuisine 16557
proposes 16556
Min@@ 16552
1.1 16547
ret@@ 16546
erforderlich 16543
arbeitet 16541
hl@@ 16535
truth 16532
AR 16530
remarks 16530
1,000 16523
spielen 16518
seats 16514
Mitglieder 16506
pleasure 16503
prove 16502
Tre@@ 16502
coordinating 16501
platz 16495
chte 16490
introducing 16489
TIR 16488
foods 16483
anischen 16483
bill 16470
questionnaire 16465
Capital 16464
begun 16461
CI@@ 16460
zing 16458
74 16458
conjunction 16455
raw 16453
Verhandlungen 16450
fahren 16450
negotiating 16450
signing 16450
Schedule 16449
root 16448
SA 16448
investigate 16445
sive 16445
channels 16444
Tatsache 16443
coffee 16439
rising 16437
sole 16433
father 16420
solely 16411
Recognizing 16411
whatever 16410
Zentrum 16408
tigung 16407
LDCs 16401
inflation 16401
turned 16395
Integrated 16395
Industrial 16394
10.@@ 16385
shape 16384
waiting 16384
describe 16379
CC@@ 16374
je@@ 16371
ebenso 16368
eing@@ 16367
AT@@ 16366
Survey 16364
gesamten 16363
envisaged 16362
safeguards 16359
mainstreaming 16359
Einzel@@ 16350
Hinblick 16349
Anti 16340
Monetary 16339
negotiation 16335
DVD 16334
dose 16318
excessive 16313
commit 16313
Pi@@ 16309
Regionen 16307
owners 16307
advocacy 16301
wohl 16296
Good 16295
FOR 16294
dre@@ 16293
impose 16293
meets 16289
constantly 16289
tan@@ 16287
mittel 16283
remind 16282
allowance 16281
2.5 16265
attempts 16248
Principles 16235
fragen 16232
ensures 16223
discussing 16222
Sri 16218
Doha 16218
Besch@@ 16216
Heads 16213
tt@@ 16213
Schritt 16212
themes 16211
Des@@ 16211
Gruppe 16210
Außerdem 16208
78 16207
slow 16202
Line 16202
Rom@@ 16190
Manitoba 16175
residential 16171
ide@@ 16171
metal 16170
Three 16170
accordingly 16170
detained 16169
einzelnen 16167
judiciary 16166
Check 16164
DFO 16161
massive 16160
Wasser@@ 16160
voll@@ 16155
C.3 16153
myself 16151
Cross 16149
Sicherheits@@ 16149
story 16148
q 16145
label 16145
Area 16145
renewed 16144
teilen 16140
Order 16136
dimensions 16133
Life 16130
lau@@ 16127
1.2 16127
ges 16125
appeared 16120
Flug@@ 16120
army 16117
tor@@ 16113
Peoples 16109
Liste 16108
spr@@ 16107
adaptation 16104
Communication 16100
maritime 16092
weiteren 16091
stre@@ 16078
kre@@ 16071
Fo@@ 16066
Server 16064
tem 16064
marks 16058
29@@ 16053
vocational 16049
CRA 16044
premises 16043
listing 16040
Earth 16039
gab 16039
▪ 16038
codes 16028
ambitious 16025
,000 16023
6,@@ 16021
AC 16014
Ergebnis 16013
Movement 16008
deliberations 16004
banking 16002
darum 15998
hätte 15998
drop 15995
entering 15995
EM@@ 15991
denke 15986
penalties 15980
Comprehensive 15973
plays 15971
Southern 15970
Lastly 15969
Entscheidung 15961
impunity 15956
quick 15955
Product 15954
ales 15952
92 15950
enz 15949
Res@@ 15949
Platz 15945
Wirtschafts@@ 15938
zusammen@@ 15937
missing 15935
Coordinator 15934
ga 15927
Cl@@ 15925
wishing 15918
submissions 15911
vulnerability 15911
ara 15911
Beijing 15902
kitchen 15894
Tro@@ 15892
assessing 15891
USD 15888
Vereinigten 15881
authorization 15880
Introduction 15879
communicate 15871
Kolleginnen 15868
konnte 15859
83 15857
tl@@ 15855
deadline 15854
gem@@ 15851
slightly 15850
gar 15847
minors 15846
smoking 15842
bs 15835
94 15835
ministerial 15834
Umwelt@@ 15833
Calls 15832
meat 15827
zung 15826
juvenile 15822
deals 15822
enabled 15816
wing 15808
substantially 15808
I. 15807
ierung 15803
Standing 15797
Post 15796
wonderful 15793
jedem 15792
Bereichen 15790
OS@@ 15788
distinction 15777
foot 15775
lay 15772
Revenue 15766
band 15766
Relations 15756
Decade 15754
cold 15754
Analysis 15751
chten 15750
terrorists 15749
objection 15748
insolvency 15746
Bill 15746
interaction 15746
с@@ 15743
suffer 15740
ca 15739
belonging 15738
Committees 15738
AP@@ 15731
feed 15730
shop 15729
Philippines 15728
are@@ 15727
rely 15724
machinery 15723
Body 15714
button 15706
Antwort 15702
counsel 15700
Without 15698
households 15695
adjustments 15693
Take 15689
calendar 15689
unfortunately 15686
Krise 15681
harmful 15679
east 15677
nutrition 15675
fort@@ 15667
limitations 15658
CL@@ 15657
ID 15645
1980 15645
mat@@ 15641
quantity 15636
consultative 15632
ino 15622
Erfolg 15612
lic@@ 15610
creative 15605
zones 15599
AM 15595
shops 15590
tel@@ 15589
ering 15589
possibly 15589
BC 15587
Bevölkerung 15581
vis 15577
paying 15575
can@@ 15574
consequence 15573
2020 15569
attitude 15563
Torture 15560
ging 15556
wind 15554
Blick 15545
Änderungsanträge 15541
Series 15539
2.1 15536
Beziehungen 15530
weather 15523
dry 15521
Auditors 15520
Against 15511
operated 15509
attractive 15508
recall 15501
suchen 15497
liable 15488
Guatemala 15486
respondents 15481
patterns 15475
freely 15474
suggests 15470
Field 15469
Election 15468
Lebanese 15461
programm 15456
si 15450
holds 15449
dar@@ 15441
spacious 15441
ó@@ 15439
onto 15437
justified 15430
deeply 15425
minister 15423
anticipated 15419
Änderungsantrag 15419
Nova 15417
asking 15416
ster@@ 15407
ys 15399
ain 15398
camps 15394
gleichzeitig 15388
gemeinsam 15388
Geld 15378
perpetrators 15378
David 15374
86 15373
solve 15371
pol@@ 15371
machines 15370
Sector 15367
posted 15359
Bro@@ 15356
CO 15352
weiß 15349
occasions 15348
denken 15347
wichtigen 15347
Funding 15340
Washington 15339
Reporting 15339
1986 15325
liber@@ 15325
intend 15320
anderer 15319
gar@@ 15314
Preparatory 15312
alt 15312
AN 15310
sectoral 15307
Articles 15305
precise 15304
incorporate 15302
organised 15302
Montenegro 15298
vary 15297
wait 15292
Performance 15289
Irish 15287
lässt 15286
äu@@ 15280
passenger 15280
whereas 15277
CR@@ 15272
Seit 15272
preserve 15270
bottom 15261
halt 15261
jede 15258
Studies 15256
filled 15250
yesterday 15247
sanitation 15241
sm@@ 15235
approve 15233
Hel@@ 15231
sis 15230
ome 15229
Representatives 15222
NPT 15221
Ur@@ 15210
1990s 15209
reproduced 15207
acht 15205
bleibt 15204
z.B. 15201
bekommen 15200
и@@ 15199
mus 15198
samples 15196
Türkei 15196
definitions 15194
expense 15182
rent 15181
Lake 15181
Bet@@ 15177
sufficiently 15176
boys 15173
EL 15173
forums 15172
FR 15168
sheet 15167
audio 15165
default 15163
kleine 15159
ße 15156
volle 15151
shift 15149
arbitrary 15147
somewhat 15147
psychological 15147
1987 15145
prospects 15136
transitional 15136
provider 15129
administered 15126
ran@@ 15123
Afghan 15123
Steuer@@ 15121
Tur@@ 15121
notably 15118
Cal@@ 15116
retain 15115
1985 15109
Bangladesh 15108
coastal 15105
á 15103
ranging 15099
ener@@ 15087
CBSA 15083
supplier 15082
hnen 15077
Kor@@ 15077
Aufgabe 15071
AB@@ 15071
ered 15070
Top 15069
Ausdruck 15068
heißt 15068
Zum 15065
tackle 15065
generations 15062
multi@@ 15059
none 15058
holders 15048
versions 15047
einge@@ 15046
furniture 15046
supplied 15045
Venezuela 15044
Unser 15043
Strengthening 15042
ee 15041
ack@@ 15036
contrast 15032
focal 15029
inhabitants 15023
ised 15021
adi@@ 15018
packaging 15016
fun 15015
einzu@@ 15015
alternatives 15002
Abgeordneten 15001
classified 15000
2.2 14998
Wel@@ 14990
gang 14990
gained 14990
disclosure 14983
Head 14979
assumed 14975
pos@@ 14975
destroyed 14972
Bay 14971
block 14971
PA 14970
cor@@ 14961
passengers 14956
kur@@ 14956
Mal 14953
Verbindung 14951
replacement 14949
gung 14948
MS 14947
wage 14935
Local 14933
89 14927
migrant 14926
hen@@ 14926
hazardous 14926
references 14924
assisted 14921
Projekt 14916
Ph@@ 14912
87 14898
beings 14898
violent 14898
min 14897
stone 14894
rich@@ 14890
schemes 14889
favourable 14886
Kontrolle 14882
verbunden 14881
unity 14880
Person 14877
potentially 14877
ll@@ 14874
Einsatz 14870
Rev.1 14869
guided 14869
Computer 14865
settings 14859
ol 14858
stellung 14850
fu@@ 14849
permits 14845
Leste 14834
coherent 14834
tics 14828
76 14827
Station 14826
Phase 14821
possession 14814
Guest 14811
assure 14811
debates 14810
alcohol 14805
column 14796
regret 14796
instances 14795
liberty 14791
ked 14791
TS 14788
clause 14780
Should 14778
amongst 14776
western 14775
79 14771
pieces 14771
performing 14769
reductions 14769
ali@@ 14769
Google 14768
Jahres 14762
Provisional 14760
restructuring 14758
ante 14754
Box 14750
suite 14747
obliged 14744
icht@@ 14744
spaces 14740
interface 14737
weak 14733
S. 14731
meinen 14717
recipient 14716
Förderung 14715
aden 14714
Star 14710
invest 14707
roads 14704
Excellency 14698
Firstly 14698
82 14695
glass 14695
touch 14691
hundred 14683
unions 14675
hundreds 14674
unseres 14660
mines 14660
processed 14658
elegant 14657
treat 14653
Sa@@ 14653
visiting 14651
neu 14651
ac 14647
88 14646
Angola 14640
Hall 14637
furnished 14635
returning 14632
install 14632
hospitals 14631
Gal@@ 14630
Nepal 14620
Spe@@ 14617
sel 14616
sion 14614
ports 14614
84 14610
adolescents 14605
coherence 14603
sieht 14602
OP@@ 14600
scher 14599
24@@ 14597
enthalten 14595
2015 14594
zero 14588
interactive 14588
exhibition 14584
Fin@@ 14582
Mus@@ 14581
Innovation 14580
Mu@@ 14575
nie 14575
noting 14572
wirtschaftliche 14553
willingness 14553
salary 14553
Tourism 14543
About 14534
symbol 14523
CF 14504
ying 14504
biggest 14504
defend 14501
consolidation 14498
unilateral 14495
deployed 14493
Forschung 14493
considerably 14493
motor 14493
assembly 14491
expensive 14481
manual 14480
delays 14478
Prä@@ 14475
consistently 14472
obviously 14467
bedingungen 14466
sum@@ 14463
leisure 14462
Lösungen 14458
ände 14450
Festival 14448
ändern 14446
taxpayer 14445
ization 14442
automatic 14436
od@@ 14436
Damit 14422
Tunisia 14417
visa 14412
library 14407
choices 14406
ini 14404
IS 14404
nevertheless 14399
intends 14397
tsch@@ 14390
Resource 14385
ON@@ 14384
Verordnung 14384
Sixth 14381
anzu@@ 14378
OR@@ 14375
focuses 14373
Mac@@ 14372
certified 14370
Dutch 14364
printed 14362
Russland 14354
jedes 14353
E.@@ 14353
mor@@ 14346
ized 14345
procedural 14343
ory 14336
selling 14329
club 14328
Col@@ 14328
usual 14328
utilization 14327
Senior 14324
edge 14324
credits 14323
reiterated 14317
Swedish 14315
pursued 14314
lie 14312
Gro@@ 14307
taxable 14307
compatible 14306
Fer@@ 14305
Games 14305
tariff 14302
partly 14298
Exchange 14297
gabe 14296
bet@@ 14295
rightly 14292
San@@ 14292
answers 14282
rapporteurs 14281
hö@@ 14274
yes 14257
deficit 14255
rental 14254
nahme 14254
una 14253
specify 14253
bridge 14253
Statements 14253
west 14252
Behörden 14252
proceeds 14252
responded 14250
lig@@ 14241
repeated 14240
Bas@@ 14240
died 14233
villages 14233
careful 14231
wichtigsten 14227
prosperity 14217
EA 14217
firmly 14215
granting 14211
4.1 14209
Net@@ 14208
fahr@@ 14203
lets 14200
desired 14199
Nor@@ 14197
pictures 14196
Provincial 14192
iter@@ 14191
ate@@ 14191
richtig 14186
Treatment 14180
EX@@ 14179
qui@@ 14179
expanding 14177
aut 14177
denied 14175
harmonization 14175
Bitte 14174
Saskatchewan 14171
Energie@@ 14171
struggle 14170
rund 14168
Property 14167
Erweiterung 14167
3.2 14164
cre@@ 14157
gerne 14154
eye 14151
Independent 14148
viable 14143
Beitrag 14142
ion 14140
arm 14137
therapy 14130
IC 14125
auszu@@ 14120
creates 14115
Lanka 14114
ven 14105
proud 14103
Landes 14103
Entschließung 14101
reaction 14098
Participants 14095
causing 14090
heat 14090
Award 14090
looked 14083
Gel@@ 14079
CE@@ 14069
Fol@@ 14069
raum 14066
Spiel@@ 14062
Poverty 14061
uk@@ 14061
mehrere 14055
ancient 14051
requesting 14046
scientists 14045
Nutzung 14035
zurück 14028
Ser@@ 14024
Key 14022
adapted 14021
stri@@ 14017
continuation 14015
prohibition 14013
ministries 14012
remedy 14012
expresses 14011
appeals 14008
reviewing 14000
teile 14000
cm 13994
ari 13987
Peter 13987
head@@ 13984
Breakfast 13981
retirement 13973
breach 13972
Audit 13971
ju@@ 13971
fest 13971
restore 13970
labelling 13969
ethical 13967
ment@@ 13967
Mer@@ 13964
setzt 13964
proven 13961
witnesses 13961
ide 13961
personally 13955
ungsk@@ 13953
hinsichtlich 13950
obtaining 13950
Transfer 13950
Vor 13946
vis@@ 13943
Kazakhstan 13943
derzeit 13939
lang@@ 13935
presentations 13933
mark@@ 13932
Pension 13929
enh@@ 13924
IA 13917
departure 13911
College 13906
Entwicklungs@@ 13905
adapt 13905
ek 13902
strictly 13900
monitored 13890
subparagraph 13887
ls 13887
Documents 13885
C.@@ 13885
Regarding 13884
tonnes 13884
Peacebuilding 13880
supplementary 13874
adjusted 13873
bro@@ 13873
Very 13873
accountable 13873
farming 13871
Programs 13870
nearby 13868
meters 13867
Ausschuss 13866
wieder@@ 13865
ganze 13864
regimes 13861
finds 13855
ear@@ 13853
afternoon 13851
indicator 13843
ganzen 13842
virus 13839
Jordan 13839
alter 13834
ig 13832
Instead 13828
formulated 13826
Michael 13826
incidence 13826
drivers 13825
orientation 13818
7,@@ 13818
environmentally 13818
ther@@ 13815
ener 13812
ick@@ 13810
OIOS 13808
bau 13808
enthält 13805
ermöglichen 13804
bau@@ 13803
indication 13799
vessel 13795
commodity 13793
safeguard 13792
module 13791
val@@ 13791
ow@@ 13776
ester 13774
twice 13770
districts 13768
81 13765
ize 13764
enk@@ 13754
ordered 13754
Thanks 13753
hren 13743
Hoch@@ 13737
log@@ 13736
sun 13735
mandated 13734
Original 13731
pattern 13729
acknowledge 13727
vers 13723
R. 13720
Verbesserung 13718
rest@@ 13714
wobei 13713
finished 13713
boards 13712
Production 13712
Study 13705
Inspection 13704
arrived 13703
digen 13697
3rd 13696
Regierungen 13695
holidays 13695
pp. 13695
&apos;m 13695
gone 13692
Level 13692
England 13690
organizing 13689
responding 13688
operative 13674
met@@ 13674
passing 13673
producer 13672
Lithuania 13672
runs 13660
SC 13656
50@@ 13655
neben 13652
Pursuant 13652
Film 13650
nahmen 13648
eigene 13648
Scotia 13647
gesetzt 13647
Travel 13640
channel 13639
occurs 13634
commerce 13633
eri@@ 13631
directives 13630
affects 13629
H. 13625
micro@@ 13619
Fach@@ 13618
satisfactory 13615
ata 13614
ker@@ 13614
frequency 13613
War@@ 13612
900 13611
ong 13608
feedback 13604
dans 13600
Mai 13600
Stunden 13598
manager 13596
gemäß 13595
3.1 13595
reflecting 13589
stark 13588
chen@@ 13584
necessity 13580
sphere 13574
27@@ 13573
fac@@ 13572
surplus 13571
colleague 13564
stand@@ 13564
ile 13563
Final 13563
ency 13561
Singapore 13560
soft 13553
relax 13551
pertaining 13549
tly 13548
12.@@ 13543
degradation 13543
grown 13542
referendum 13541
essentially 13530
acquire 13518
Europeans 13518
reaffirmed 13516
shipping 13515
kers 13508
Eritrea 13508
Add.@@ 13504
Arts 13501
extradition 13498
Comments 13496
suspended 13494
Consumer 13494
Video 13493
Penal 13489
District 13488
Em@@ 13487
Violence 13483
Wort 13476
whereby 13474
bel 13471
ash@@ 13470
loan 13466
websites 13463
holder 13463
Ergebnisse 13461
off@@ 13461
The@@ 13452
alis@@ 13451
laundering 13450
argument 13447
ational 13437
buffet 13433
calculation 13430
Verbraucher 13426
tangible 13426
hopes 13416
protocols 13413
detainees 13412
Book 13410
sponsored 13409
Slovakia 13408
Reaffirming 13405
Slovenia 13402
troop 13390
Ap@@ 13387
Oceans 13387
Angebot 13386
eventually 13385
stored 13381
survival 13380
Insurance 13378
träge 13374
Legislative 13372
External 13371
Martin 13366
traditions 13366
wh@@ 13359
realistic 13354
violated 13352
verbessern 13352
milk 13351
presidential 13346
Medi@@ 13345
CT 13345
lowest 13340
Whether 13340
drew 13330
völlig 13330
Acting 13329
о@@ 13326
C.1 13323
Gelegenheit 13319
а@@ 13318
discovered 13317
municipalities 13314
adding 13313
opposite 13312
Woche 13312
C.5 13311
referring 13309
Workshop 13307
eter 13305
Located 13303
zwe@@ 13301
da@@ 13300
Between 13300
evident 13293
awards 13292
Operation 13284
back@@ 13277
copyright 13275
Darüber 13275
Schaffung 13273
luxury 13272
League 13271
mobilization 13264
branch 13260
asse 13250
bath 13249
ki 13247
Progress 13241
upper 13237
excess 13236
advances 13228
a.@@ 13226
friend 13225
fördern 13225
Real 13224
Mitarbeiter 13224
convenient 13221
unden 13219
hit 13218
tlich 13218
count 13210
Nairobi 13209
treffen 13206
trees 13203
entwickeln 13198
arrive 13197
ths 13193
res 13190
Ausschusses 13188
apparent 13186
constitution 13182
CA 13179
Dem@@ 13175
specialists 13175
dic@@ 13174
3. 13173
Sil@@ 13170
perspectives 13169
ain@@ 13168
Handels@@ 13168
infection 13166
landscape 13165
Rica 13160
Verwendung 13156
pun@@ 13155
transmit 13153
Anti@@ 13151
TH@@ 13150
decides 13150
Does 13144
biodiversity 13144
alist 13141
beauty 13136
sending 13135
medicine 13134
edition 13131
Risk 13128
Ober@@ 13126
großer 13124
guten 13124
emphasize 13120
onen 13118
Add 13117
ativen 13113
Bild 13110
Conventions 13105
verwenden 13095
op 13090
analytical 13090
attitudes 13087
perfectly 13087
observation 13085
verfügen 13084
ani 13080
Amendments 13080
receives 13077
ard@@ 13074
closing 13070
Gl@@ 13070
Language 13065
AT 13062
aging 13062
CRC 13062
Results 13061
L. 13047
church 13046
Ag@@ 13045
extraordinary 13044
con 13040
üt@@ 13040
AG@@ 13039
spi@@ 13038
Rio 13035
Kam@@ 13035
fashion 13031
Ni@@ 13029
conviction 13027
Gegen@@ 13026
naturally 13024
uncertainty 13024
recording 13023
Hand 13020
formula 13018
accidents 13017
lagen 13008
Emergency 13007
DS 13007
updates 12999
11.@@ 12996
gs@@ 12989
judgement 12986
museum 12986
fünf 12984
separately 12981
complementary 12980
gehören 12979
Lord 12978
Interessen 12977
US@@ 12975
Kre@@ 12973
mining 12971
profits 12971
28@@ 12966
1373 12964
RO@@ 12963
displayed 12963
alisierung 12962
knows 12962
ash 12962
25@@ 12961
Mis@@ 12960
aufge@@ 12957
ass 12953
comparable 12952
lawyers 12949
Tage 12948
Wert 12947
tic@@ 12945
subprogramme 12942
Statistical 12935
color 12933
ue 12933
Find 12932
assurance 12930
ón 12928
tically 12928
navigation 12928
enc@@ 12927
speeches 12927
160 12924
analyses 12923
defining 12921
später 12919
bestehen 12918
complement 12917
Currently 12915
soziale 12915
Basic 12910
match 12910
exit 12902
Black 12901
listen 12898
Ecuador 12897
pace 12895
initially 12894
Arabic 12890
meaningful 12889
indicating 12889
Frankreich 12878
greenhouse 12874
Familie 12874
Themen 12873
Arabia 12871
alizing 12871
2.4 12869
ato 12868
ut 12867
publicly 12865
wert 12865
sorgen 12860
Electoral 12857
conditioning 12851
ign@@ 12849
tatsächlich 12848
Funds 12844
Port 12843
Kan@@ 12842
negotiated 12841
originally 12838
declarations 12837
halte 12832
viewed 12831
aj@@ 12831
refused 12830
borne 12829
sovereign 12827
Radio 12827
Response 12824
accident 12824
foundations 12822
applicants 12821
photos 12820
Notwendigkeit 12818
rape 12816
Cambodia 12815
Web@@ 12813
tab@@ 12808
satisfy 12807
Lissabon 12806
fest@@ 12805
bri@@ 12804
fewer 12803
chronic 12803
ware 12802
arguments 12798
Ltd 12797
Zeitpunkt 12797
Inuit 12797
äl@@ 12793
clarification 12792
Por@@ 12792
ax@@ 12788
enjoyed 12783
Mel@@ 12781
nimmt 12781
Hotel@@ 12779
errors 12779
40@@ 12778
White 12776
bars 12775
repeat 12773
director 12772
dy 12771
Organizations 12769
Corporate 12769
Während 12768
19@@ 12767
Änderungen 12764
ruling 12763
Gesundheit 12760
ID@@ 12756
incident 12755
heating 12754
ra@@ 12752
Kultur 12747
ban@@ 12745
Counter 12740
2013 12737
couple 12737
attractions 12736
Return 12735
SE@@ 12735
documented 12735
literature 12733
beneficial 12728
projected 12727
wär@@ 12726
Best@@ 12710
uniform 12710
container 12709
teil 12706
alität 12706
Mc@@ 12702
disciplinary 12701
workplace 12701
Electronic 12700
Equality 12700
zunächst 12699
isches 12697
meinem 12697
Mi@@ 12696
wider@@ 12693
pose 12690
Facilities 12684
9,@@ 12683
mini 12678
ye 12675
linkages 12673
configuration 12672
islands 12671
8,@@ 12665
Erfahrung 12664
translated 12662
instruction 12659
PL 12651
Si@@ 12649
dig 12649
revealed 12647
cal@@ 12644
work@@ 12642
Bre@@ 12641
consistency 12639
connections 12637
noise 12635
welcoming 12635
Bad 12631
Parliamentary 12630
flat 12624
AD 12619
Corr.1 12619
Tel 12610
ery 12610
ads 12609
cooperative 12609
beaches 12607
Recht@@ 12605
ning 12603
confidential 12600
Library 12600
Front 12599
faster 12597
gesehen 12597
ultimate 12593
Hong 12593
boat 12592
Value 12590
secret 12588
drafted 12585
os@@ 12584
Auswahl 12584
fis@@ 12583
ungs- 12583
crop 12583
hor@@ 12581
Dabei 12580
Arbeit@@ 12574
impressive 12573
journalists 12569
lung 12569
Corrections 12565
age@@ 12563
staffing 12563
visual 12562
urgently 12560
Bio@@ 12556
atic 12554
booking 12549
Tor@@ 12549
modalities 12547
tiger 12538
gro@@ 12537
gets 12536
Brunswick 12531
т@@ 12531
Wachstum 12530
schaften 12530
constituted 12527
Next 12526
Fu@@ 12526
realis@@ 12522
Anfang 12521
VI@@ 12521
Rural 12520
Herzen 12519
Documentation 12519
lediglich 12518
outputs 12518
erb@@ 12517
feeling 12514
intolerance 12514
deprived 12511
laboratory 12510
advancement 12502
fil@@ 12501
ha@@ 12499
Vancouver 12496
tlichen 12496
King 12494
domain 12492
Umgebung 12491
Juni 12488
separation 12488
mothers 12486
angenommen 12485
familiar 12483
watch 12482
As@@ 12479
Account 12479
cable 12477
Interim 12474
ink@@ 12472
hohen 12468
crops 12466
Province 12464
Ju@@ 12461
2012 12460
bisher 12458
Migration 12457
towns 12452
SR.@@ 12447
TC 12446
reiterate 12440
thereof 12439
Del@@ 12438
capability 12429
fying 12429
verstehen 12427
typically 12424
lived 12422
releases 12422
Kampf 12422
intelligence 12421
1.3 12417
ov@@ 12413
establishes 12412
Kong 12411
relaxing 12404
mus@@ 12401
pres@@ 12399
tungs@@ 12399
P. 12399
jurisdictions 12395
screening 12394
VII 12388
mix 12387
exchanges 12383
Participation 12382
Har@@ 12374
Copenhagen 12373
Sam@@ 12373
Wasser 12372
maternal 12371
Natur@@ 12370
schriftlich 12362
happens 12360
Robert 12358
Op@@ 12357
Instrument 12356
Les 12354
saving 12351
confirmation 12351
evaluated 12350
Zusammen@@ 12348
contributes 12348
indirect 12345
por@@ 12343
realize 12336
Related 12335
mixed 12328
urgency 12325
gefunden 12325
Mitglied 12325
е@@ 12324
verkehr 12323
Einführung 12322
Umwelt 12321
uss 12318
fell 12311
Meer 12308
governed 12307
injured 12303
HR 12303
atory 12300
enzen 12292
decreased 12292
consisting 12286
ama 12281
Prince 12281
Bur@@ 12281
patent 12276
Subject 12274
carriage 12274
maßnahmen 12274
Reduction 12273
Commerce 12272
Oversight 12269
reichen 12267
äußerst 12266
innen 12264
explicitly 12262
gesamte 12260
Spa 12256
OL@@ 12255
Wahl 12254
complexity 12253
Anzahl 12249
Wieder@@ 12246
Moldova 12245
Prozess 12243
succeed 12242
electric 12239
seeing 12239
Mark@@ 12239
ours 12237
closure 12234
gradually 12231
š@@ 12231
streets 12226
app@@ 12224
reserved 12222
hair 12221
operator 12215
politicians 12214
anz 12210
gän@@ 12209
emerged 12206
Aktivitäten 12204
Export 12202
4.2 12201
advised 12198
films 12195
tigkeit 12195
tert 12194
highlights 12181
accuracy 12181
inquiry 12180
decisive 12175
worse 12174
exceeding 12172
ließen 12172
par 12172
nu@@ 12166
MO@@ 12165
embargo 12161
doors 12161
2.3 12153
prevented 12153
St 12151
Bush 12149
Pri@@ 12149
toxic 12142
Industrie 12142
Bundes@@ 12141
honourable 12141
hnt 12141
hosted 12138
bringt 12137
somit 12137
convicted 12134
progressive 12132
Kol@@ 12128
whenever 12128
ti 12127
genetic 12123
retail 12123
hunger 12123
gewährleisten 12121
wal@@ 12118
consulted 12116
Gäste 12115
scheint 12115
Sir 12114
rei@@ 12111
reinforce 12110
1967 12109
eyes 12107
etc. 12106
obwohl 12097
agrees 12095
erkennen 12090
characterized 12086
utmost 12081
lake 12079
rer 12077
Ir@@ 12075
specifications 12074
poorest 12072
Applications 12070
wunder@@ 12070
consultants 12070
cargo 12069
grade 12064
bestimmte 12064
retained 12061
Sprache 12057
filing 12054
IF@@ 12051
hören 12049
Round 12049
gn@@ 12046
threshold 12045
efficiently 12045
Like 12045
uli@@ 12045
Win@@ 12043
auen 12041
interviews 12040
Wer@@ 12040
IB@@ 12038
presenting 12037
cuts 12037
ress 12036
fa@@ 12031
correctly 12029
Gesch@@ 12025
neu@@ 12024
Background 12020
cas@@ 12018
mitteln 12017
measuring 12014
outline 12013
Basis 12012
preferred 12011
Professor 12010
empowerment 12010
ners 12010
delegates 12008
versuchen 12007
Democrats 12005
Malta 12003
marking 12000
sentenced 11997
threatened 11997
outset 11996
Net 11995
Steering 11990
pressing 11990
Army 11988
pa@@ 11986
witness 11986
Produktion 11981
chung 11980
sun@@ 11978
optimal 11975
cited 11973
Muslim 11971
outdoor 11966
tra@@ 11960
routes 11956
partial 11955
tenth 11953
apart 11953
recognised 11950
Chi@@ 11945
extending 11945
hau@@ 11941
1982 11940
spouse 11937
Capacity 11934
Treaties 11933
ratify 11933
affordable 11930
logical 11928
Future 11927
erster 11927
Type 11926
walls 11925
taste 11921
advise 11919
DI@@ 11918
Met@@ 11916
detection 11914
blue 11913
MT 11913
radiation 11913
browser 11912
ingredients 11910
Raum 11905
Zahl 11903
fordern 11902
portfolio 11901
ited 11899
Decree 11897
ona 11896
proposing 11894
legitimacy 11890
shortly 11890
Ther@@ 11889
transnational 11889
withdraw 11883
ought 11882
Kl@@ 11880
dly 11879
permission 11876
sit@@ 11871
fle@@ 11870
Armed 11868
environments 11868
inputs 11868
ey 11867
ils 11866
ders 11863
ement 11860
tons 11854
desk 11848
PM 11847
Ost@@ 11846
My@@ 11844
Fortschritte 11843
Natur 11843
zehn 11842
spite 11840
gemein@@ 11834
oben 11830
appearance 11828
UR@@ 11828
ater 11822
Racial 11820
anda 11813
Newfoundland 11812
Senegal 11811
sugar 11808
Tour 11807
Dinge 11807
thorough 11805
Macedonia 11804
Major 11801
pregnancy 11800
occupying 11799
handle 11798
memorandum 11797
aside 11793
Uzbekistan 11793
Preise 11790
bestimmten 11788
leb@@ 11785
Bekämpfung 11782
exemption 11781
exceptions 11779
dig@@ 11774
realized 11772
ET 11772
Overall 11761
prisons 11760
hohe 11752
non@@ 11751
inen 11750
operates 11749
artistic 11749
bal@@ 11746
Ghana 11744
wages 11742
Ä@@ 11738
accounted 11736
mountains 11736
CEDAW 11734
purchased 11733
Insel 11732
verify 11732
Case 11731
peer 11726
zahlreiche 11725
3.3 11723
describes 11723
Portuguese 11722
charity 11718
3.5 11718
comprises 11717
elderly 11717
gold 11709
ring 11708
leicht 11707
Music 11706
Competition 11704
Gas@@ 11704
wer 11701
Spiel 11701
criticism 11700
größten 11698
Kommissarin 11697
collaborative 11694
repair 11694
tiert 11690
prejudice 11690
ap 11689
Durch@@ 11688
damages 11687
Austrian 11683
renewal 11677
worst 11676
beneficiaries 11674
ays 11670
schul@@ 11670
Bü@@ 11668
Welcome 11667
hoch@@ 11667
spoken 11666
license 11664
5.1 11664
desirable 11663
exhaust 11661
seekers 11659
Pat@@ 11658
contractual 11654
ethics 11651
zweite 11648
surrounded 11647
set@@ 11646
Governor 11645
Who 11642
PS@@ 11642
album 11638
issuance 11638
oll@@ 11632
Is@@ 11628
reich@@ 11627
camp 11626
plane 11625
reject 11623
Dialog 11623
Will 11621
Old 11620
varied 11620
4th 11619
wording 11616
Wo@@ 11615
Pol@@ 11614
evaluations 11613
Mittel@@ 11609
flu@@ 11605
UNMIK 11604
ena 11599
ätze 11598
Kinder@@ 11598
Nur 11596
Handel 11594
kung 11594
telecommunications 11593
Erachtens 11590
amp@@ 11586
bin@@ 11584
liberalization 11584
credible 11583
pal@@ 11583
einschließlich 11582
PHP 11581
tik@@ 11581
promotes 11579
super@@ 11578
ausgestattet 11578
Investitionen 11576
attract 11573
rig@@ 11572
aum 11571
optional 11567
Vol@@ 11563
Auto@@ 11563
evolution 11562
meines 11560
aggression 11560
ine@@ 11560
1.4 11559
Minutes 11555
ita 11548
claimant 11542
iss@@ 11540
phrase 11539
Wor@@ 11537
ih@@ 11536
Pas@@ 11535
Funktion 11531
kilometres 11530
prefer 11528
fairly 11526
Upon 11521
Stadt@@ 11520
Dezember 11519
schw@@ 11518
zz@@ 11514
iv@@ 11511
PL@@ 11508
Armenia 11507
lock 11505
Ob@@ 11504
dro@@ 11503
Jahrhundert 11500
entertainment 11500
suggestion 11500
Transitional 11500
row 11499
ros 11496
cluster 11495
Immigration 11493
falling 11492
vergangenen 11492
bun@@ 11491
Gemeinschafts@@ 11486
Erklärung 11484
Ocean 11482
Nord@@ 11481
ca. 11481
wirk@@ 11479
außerdem 11476
dadurch 11472
administering 11469
Energie 11467
undermine 11465
distinct 11462
gift 11462
Multi@@ 11461
einzige 11461
invites 11461
Stelle 11460
analyse 11459
placement 11457
doesn 11457
Bestimmungen 11448
imperative 11445
Stockholm 11442
solchen 11441
Chad 11441
interior 11439
tritt 11438
insgesamt 11437
kes 11436
declined 11432
encountered 11430
journey 11428
ere@@ 11422
Plaza 11421
graphic 11421
weder 11419
Du 11417
of@@ 11417
accommodate 11415
braucht 11414
Luft@@ 11414
fishery 11408
Welcomes 11405
lift 11399
leaves 11397
offset 11395
Full 11395
Markt@@ 11392
complicated 11392
acy 11391
CN@@ 11389
Thirdly 11389
Enjoy 11387
admissibility 11385
catch 11383
sagte 11377
Mehrheit 11376
mein 11372
pp@@ 11371
entr@@ 11370
este 11369
printing 11369
lage 11366
inner 11366
fas@@ 11363
abuses 11361
burg 11358
Mauritius 11354
unver@@ 11352
Gewalt 11351
don@@ 11348
integrating 11344
illness 11338
igung 11338
ensured 11337
statt@@ 11336
kle@@ 11336
formally 11335
Strand 11334
ture 11333
Have 11331
ili@@ 11329
GEF 11328
loc@@ 11327
Kle@@ 11327
Nice 11326
lam@@ 11323
LA 11321
esen 11320
legt 11320
contracting 11319
manufactured 11318
databases 11315
headed 11315
zweiten 11312
Vo@@ 11312
Hu@@ 11310
thousand 11309
acute 11308
mas@@ 11305
Commercial 11301
fy 11297
elling 11292
enforced 11291
aria 11291
gene 11290
ner@@ 11290
arm@@ 11288
Using 11285
arr@@ 11284
eliminating 11284
virtually 11280
Ku@@ 11280
Entscheidungen 11279
ecological 11277
Stu@@ 11277
chaired 11276
creditors 11274
Cs 11271
frequent 11269
sampling 11265
linguistic 11264
Languages 11264
Bissau 11262
fern 11262
Tanzania 11261
Hor@@ 11260
gases 11256
CM@@ 11256
1000 11254
Punkte 11254
demanding 11252
audience 11252
100@@ 11247
admission 11242
aufgenommen 11240
Institutions 11239
pain 11237
ures 11237
wife 11237
frei 11236
economically 11232
respecting 11230
starts 11229
hed 11229
retention 11228
cast 11228
submitting 11226
ake 11226
suspected 11225
suspension 11219
Young 11215
pregnant 11212
consulting 11211
26@@ 11211
flights 11209
vollen 11209
Char@@ 11204
individually 11201
Emp@@ 11198
facilitated 11193
stelle 11192
Macht 11188
Ps 11184
Flu@@ 11182
Effective 11180
pursuing 11179
notified 11178
ub@@ 11178
Terms 11176
demographic 11176
eben 11173
ple@@ 11173
Santa 11172
ov 11172
Anforderungen 11170
seemed 11170
bas@@ 11168
DC 11166
Gefahr 11164
recognizing 11158
Register 11156
studied 11154
Zimbabwe 11154
Ram@@ 11153
Be 11152
justify 11143
hne 11142
Küche 11141
ater@@ 11139
organ 11138
alised 11136
nisse 11135
tä@@ 11132
repeatedly 11132
establishments 11130
lich@@ 11127
spa 11126
Aufmerksamkeit 11126
not@@ 11125
ED@@ 11125
Hague 11125
password 11121
März 11118
Pro 11116
leisten 11116
limitation 11114
UNODC 11113
mung 11113
sky 11112
xenophobia 11105
kt@@ 11100
Contributions 11100
AF@@ 11098
qualifications 11098
freien 11096
inf@@ 11092
quota 11088
pers 11084
basi@@ 11083
в@@ 11081
expressly 11081
false 11080
Start 11080
genießen 11079
lat@@ 11078
ances 11074
Opening 11072
fitted 11071
ala 11071
MONUC 11068
Conditions 11067
Grenzen 11065
EP@@ 11061
AV@@ 11060
Sunday 11059
attending 11059
Sport@@ 11057
genocide 11056
einander 11054
1981 11054
ores 11053
scene 11053
alien 11052
Vorschriften 11052
happening 11052
invasion 11051
iv 11050
weg 11048
mutually 11047
LE@@ 11046
abge@@ 11044
sec@@ 11042
Notice 11042
ierungs@@ 11041
CF@@ 11041
offenders 11039
hu@@ 11039
Wahl@@ 11035
appreciated 11032
quantities 11032
outreach 11026
exempt 11025
chair 11024
techn@@ 11017
lit@@ 11014
faces 11012
pel 11010
heit@@ 11008
down@@ 11007
Light 11003
Gästebewertungen 10999
Chemical 10997
ises 10997
Presidents 10996
sentences 10996
ersch@@ 10995
whilst 10993
publishing 10993
harassment 10988
tank 10986
Rem@@ 10984
spot 10981
web@@ 10979
noon 10979
travelling 10976
pas@@ 10976
Projekte 10975
regulate 10972
merits 10970
officially 10969
log 10963
parliaments 10963
facilitation 10961
Folgen 10961
intent 10953
assen 10949
earth 10948
uni@@ 10948
Polish 10947
Musik 10945
itäts@@ 10942
Puerto 10939
Mil@@ 10938
stories 10938
directions 10936
Takes 10935
tors 10935
Kraft 10934
elte 10931
lang 10930
Place 10927
medicines 10925
post@@ 10924
bevor 10922
interpreted 10919
examining 10919
customary 10917
stores 10917
eligibility 10916
schlech@@ 10916
heavily 10915
dishes 10914
jo@@ 10913
Freedom 10909
Pap@@ 10907
AI@@ 10903
hel@@ 10901
computers 10900
lim@@ 10900
separated 10899
assi@@ 10891
maintains 10890
initiate 10886
ath@@ 10882
reminded 10882
stimmen 10878
Daten@@ 10877
aktuellen 10874
Stre@@ 10873
height 10871
briefly 10868
Arms 10868
Taliban 10863
formats 10862
endeavour 10862
dinner 10861
Cap@@ 10859
Cam@@ 10857
tat@@ 10857
Soviet 10857
ky 10856
konnten 10855
neuer 10853
counselling 10853
Well 10853
G. 10850
bezüglich 10850
observe 10849
checks 10848
dam@@ 10847
recipients 10847
ag 10847
impression 10845
EADS 10844
charming 10843
gy 10842
.ca 10841
stipulates 10840
plastic 10836
ni 10835
Albania 10835
imply 10833
mes 10832
ising 10831
Update 10830
usage 10827
Pen@@ 10827
Priority 10827
Not@@ 10826
olo@@ 10822
modules 10822
ming 10816
Freiheit 10816
Bereiche 10815
größte 10815
guilty 10814
sponsor 10814
Syria 10812
literacy 10810
specialist 10808
golf 10807
conversion 10807
ingly 10806
Proposed 10805
schließlich 10803
DR@@ 10800
constructed 10800
rebate 10800
Cameroon 10800
Regeln 10797
virtual 10796
Schengen 10796
electrical 10793
acid 10793
correction 10791
commodities 10791
wenige 10789
fulfilled 10789
securities 10788
statutory 10788
Außen@@ 10787
bereit@@ 10786
fleet 10784
Fest@@ 10780
leider 10777
ath 10777
geschlossen 10776
targeting 10770
my@@ 10767
replies 10767
eingesetzt 10766
declare 10764
gener@@ 10760
MDGs 10760
renovated 10759
Palace 10759
führung 10757
deb@@ 10754
artist 10753
IR@@ 10749
arbeit 10747
hardware 10744
eigentlich 10739
wand@@ 10739
ba 10737
teacher 10737
SR 10736
timetable 10735
med 10734
SP 10733
1984 10732
verfahren 10730
Kern@@ 10730
qualify 10729
Make 10728
110 10726
publish 10725
containers 10721
existed 10716
industrie 10715
gh@@ 10710
ura 10710
Frühstück 10708
transformation 10705
bedrooms 10703
Privacy 10703
transboundary 10702
Index 10700
spar@@ 10697
engines 10697
tribute 10696
restoration 10695
fahrt 10693
Gulf 10689
DA 10687
George 10685
wir@@ 10682
perceived 10679
mere 10678
ands 10676
Wettbewerb 10674
excellence 10674
ungsver@@ 10671
ust 10670
wichtiger 10669
endorse 10668
interference 10664
Wohn@@ 10663
lag 10661
Occupied 10660
Präsidenten 10660
facto 10660
Encourages 10658
igkeit 10658
practitioners 10658
joining 10656
produces 10653
Master 10653
enf@@ 10652
Bri@@ 10651
0,@@ 10651
reliability 10650
sing 10645
horizontal 10644
assured 10644
sol@@ 10637
MA 10636
Der@@ 10634
LE 10632
Zur 10626
Bildung 10624
begins 10623
Vis@@ 10622
5,000 10620
Material 10615
certificates 10613
ease 10610
Salvador 10607
ozone 10606
itäten 10604
Landwirtschaft 10603
Appeals 10603
let@@ 10596
Kunst@@ 10595
seized 10595
videos 10594
disadvantaged 10594
Interior 10594
Express 10593
consist 10591
parliament 10590
onn@@ 10589
seed 10588
benötigen 10587
consolidate 10585
dining 10583
red@@ 10583
Anfrage 10581
bul@@ 10580
Oktober 10578
ny 10578
arbitration 10576
Developed 10575
rare 10574
Beschäftigung 10573
hr 10573
Adviser 10566
Compliance 10565
lie@@ 10564
earned 10562
ty@@ 10561
inhuman 10560
Höhe 10558
Ham@@ 10557
Golf 10557
politically 10556
einz@@ 10555
lamps 10553
Urges 10553
Nationen 10552
neighbours 10551
turning 10543
richten 10542
stän@@ 10539
durchgeführt 10533
Gi@@ 10531
Danish 10530
minimize 10528
д@@ 10525
Bild@@ 10524
sam@@ 10524
22@@ 10524
PT 10523
ong@@ 10520
allein 10520
Honourable 10519
wür@@ 10517
prime 10517
Firma 10517
ecosystems 10517
deleted 10515
Sur@@ 10513
lamp 10509
placing 10506
Meine 10506
Communities 10505
unnecessary 10504
Linie 10503
creditor 10502
bedroom 10501
skilled 10499
bene 10499
magazine 10499
confident 10498
hom@@ 10497
confidentiality 10493
poly@@ 10490
girl 10488
Cre@@ 10485
Groß@@ 10483
Bürger@@ 10482
erwarten 10481
tiven 10479
roll 10477
Latvia 10475
sta@@ 10475
miles 10475
Januar 10474
Basel 10474
Ö@@ 10469
degrading 10468
ichen 10466
Benutzer 10465
10,000 10465
mitigation 10465
Internet@@ 10464
Post@@ 10462
kannst 10456
suit 10455
char@@ 10455
pri@@ 10453
1978 10451
orally 10451
I.@@ 10451
Card 10451
Diskussion 10451
CS 10451
Wi@@ 10450
endorsement 10450
recognise 10449
Hospital 10448
delivering 10445
Restaurants 10444
Distribution 10440
peacebuilding 10439
communicated 10438
trips 10434
preservation 10434
Heute 10429
Taiwan 10428
tering 10428
clubs 10428
ander@@ 10427
äre 10426
fal@@ 10422
roots 10422
wählen 10420
tieren 10419
injuries 10419
salaries 10417
kurz 10417
Hol@@ 10417
europäischer 10416
fs 10415
dual 10415
ani@@ 10413
PS 10411
organis@@ 10411
chief 10409
angesichts 10409
Pa@@ 10408
Directors 10408
mü@@ 10407
ihres 10406
united 10399
Rec@@ 10398
dische 10395
systematically 10392
curriculum 10392
izing 10392
Four 10391
Town 10387
validity 10386
justification 10385
frage 10385
folgt 10378
supplement 10378
anische 10376
sion@@ 10372
Fehler 10371
Standpunkt 10370
drink 10367
strike 10363
beziehen 10363
Details 10362
inst@@ 10360
las 10359
Uruguay 10357
Perhaps 10357
cleaning 10356
enter@@ 10355
speci@@ 10355
Help 10351
zus@@ 10349
schafts@@ 10348
Transparenz 10346
Bemühungen 10345
smooth 10344
Download 10344
Ansatz 10341
cruel 10338
worker 10338
barkeit 10337
ame 10337
workforce 10336
treatments 10334
zation 10333
SH@@ 10330
dead 10326
öffentliche 10322
belong 10320
Marine 10316
P.@@ 10315
enshrined 10315
commonly 10313
fehl@@ 10309
nah@@ 10309
kan 10308
tribunal 10307
dischen 10305
pon@@ 10303
structured 10298
fulfilment 10296
2.0 10295
Treasury 10294
comparative 10294
Desk 10294
amounted 10293
planet 10293
eher 10293
afen 10292
e.@@ 10288
Frankfurt 10288
3D 10286
discipline 10284
macroeconomic 10284
CON@@ 10284
Current 10282
kul@@ 10280
sofort 10276
sto@@ 10274
Gründen 10274
FDI 10272
EP 10272
COM@@ 10272
uss@@ 10271
Marketing 10270
Öffentlichkeit 10268
Pu@@ 10267
notify 10266
preceding 10265
promise 10264
upcoming 10263
Fi@@ 10263
Sache 10262
refuse 10259
enforce 10258
Berichts 10257
inspections 10252
exporters 10251
genannten 10247
Credit 10244
crimin@@ 10244
Ren@@ 10237
Falls 10235
delayed 10235
entrance 10235
Flughafen 10232
unde 10231
expressing 10230
accomplishments 10230
Sim@@ 10229
OSCE 10227
S.@@ 10227
Long 10222
Mehr@@ 10220
mehr@@ 10216
Option 10213
gelten 10208
wä@@ 10205
our@@ 10204
pupils 10204
Roman 10203
erneut 10201
theory 10201
feasible 10199
fel@@ 10198
toxicity 10196
recht@@ 10195
cheap 10194
narrow 10191
Square 10191
unto 10190
Australian 10189
afford 10189
Agricultural 10189
completing 10188
vol@@ 10185
respects 10183
Sahara 10182
Syn@@ 10180
Sinne 10180
museums 10179
Gre@@ 10177
info 10175
Sign@@ 10171
freight 10169
Welfare 10168
generating 10167
guideline 10165
forecast 10165
capita 10162
tours 10160
stakeholder 10158
corner 10153
80@@ 10152
alte 10149
glich 10148
decorated 10144
gri@@ 10140
attributable 10138
gathering 10137
clarity 10137
ticket 10135
yl@@ 10134
forestry 10133
langen 10132
rou@@ 10131
entrusted 10130
SM@@ 10130
tigt 10129
Invites 10127
geworden 10127
tliche 10126
guaranteeing 10126
Jamaica 10125
iden 10125
é@@ 10124
connect 10118
ache 10115
Präsidentschaft 10111
reputation 10110
Bon@@ 10108
beitragen 10106
Tab@@ 10105
getan 10105
mid@@ 10105
Kal@@ 10102
NEPAD 10098
nahe 10096
plan@@ 10096
Fil@@ 10096
ip@@ 10093
ck@@ 10092
begrüße 10091
Bilder 10091
Rot@@ 10090
delete 10089
Educational 10089
volunteers 10089
married 10088
Protocols 10087
Dollar 10084
Druck 10084
Former 10080
GR@@ 10079
Call 10078
yer 10077
Estonia 10076
ote 10076
folgenden 10075
Casino 10075
Qatar 10073
entsprechend 10072
Schlusselwortern 10072
Selbst@@ 10070
comprising 10064
lawyer 10063
Auffassung 10062
appoint 10061
Pact 10061
CS@@ 10059
Registration 10059
participant 10058
ft@@ 10057
V. 10056
acted 10052
wirken 10049
accelerate 10046
interview 10044
sight 10044
60@@ 10044
appropriations 10042
WC 10040
ecting 10039
momentum 10036
licensing 10035
medi@@ 10034
deine 10030
termination 10029
travellers 10028
tru@@ 10028
ams 10025
Works 10021
Get 10020
upgrade 10018
Location 10017
Don 10012
arian 10010
SO@@ 10008
Platform 10005
simultaneously 10001
bew@@ 10001
humans 9997
enrolment 9996
Natürlich 9995
diejenigen 9992
achen 9991
pm 9988
ank@@ 9987
dete 9986
Den 9985
mercury 9984
modify 9984
100,000 9982
entsprechenden 9982
Bolivia 9981
boundaries 9981
Fällen 9980
AU@@ 9980
л@@ 9979
resolving 9974
Juli 9972
Specific 9971
concentrate 9969
ick 9969
filter 9968
Gra@@ 9967
Hal@@ 9967
5.2 9966
verhindern 9963
morgen 9963
hält 9962
fü@@ 9961
Urlaub 9960
tungen 9957
rock 9956
prevalence 9955
Links 9953
visibility 9952
Privat@@ 9952
inequality 9945
hosting 9944
tak@@ 9943
alismus 9942
argued 9942
disposition 9941
130 9935
ards 9933
identical 9932
persistent 9931
reflection 9930
On@@ 9929
lots 9929
ella 9929
reasonably 9926
Nr. 9924
continuously 9924
eds 9924
bulk 9923
Awards 9922
ished 9919
ok 9919
verantwortlich 9918
03@@ 9915
Mont@@ 9914
Buch@@ 9914
tern@@ 9914
paar 9913
announcement 9912
avec 9911
hi 9910
underlined 9910
earnings 9909
emphasise 9909
discretion 9908
Suite 9907
ologie 9906
challenging 9905
Equipment 9902
accessibility 9897
hätten 9897
auspices 9896
insecurity 9895
Agreements 9894
gathered 9892
Definition 9889
displacement 9889
Staats@@ 9888
killing 9885
Form@@ 9884
1979 9884
census 9882
stresses 9882
Trafficking 9881
prompt 9881
len 9880
ODA 9880
euros 9878
Outer 9877
3.4 9877
eck@@ 9876
Proliferation 9876
ero@@ 9876
Search 9874
plat@@ 9874
Bor@@ 9872
Liefer@@ 9869
aften 9868
demokratischen 9866
biennial 9862
Opportunities 9859
indispensable 9859
Islam 9858
behandelt 9856
broken 9856
attendance 9855
variable 9854
Gleich@@ 9851
col@@ 9849
reverse 9848
windows 9847
ce@@ 9845
Monaten 9843
Institutes 9843
kenn@@ 9842
tracking 9840
reten 9840
ix 9840
Dan@@ 9837
ye@@ 9837
tik 9836
Dialogue 9833
branches 9833
gruppe 9832
liquid 9831
kri@@ 9828
oper@@ 9827
Concerning 9825
suites 9823
Publications 9821
win@@ 9821
Dateien 9820
Saturday 9815
theatre 9814
Bus@@ 9811
Academy 9811
greifen 9809
Zone 9806
pillar 9806
ocean 9805
laden 9804
6.1 9802
ser 9801
All@@ 9801
Obama 9800
demobilization 9799
ensch@@ 9798
notion 9796
UNCITRAL 9795
Inn 9795
condemned 9795
Sel@@ 9794
modifications 9793
fig@@ 9792
doctor 9791
radi@@ 9791
stipulated 9790
capture 9790
tickets 9785
Or 9783
Institution 9782
statute 9782
Sü@@ 9781
Johannesburg 9781
ss 9779
Mess@@ 9779
Ban@@ 9778
fonds 9777
appropriately 9777
concentrated 9776
Knowledge 9775
Ziel@@ 9770
withdrawn 9770
Montréal 9767
hoch 9766
Provide 9766
Technologie 9765
disseminate 9765
combine 9764
180 9763
incentive 9762
gan@@ 9761
Monterrey 9761
assumption 9758
vely 9756
hospitality 9756
HTML 9755
gesetz@@ 9753
unknown 9752
endes 9750
adds 9748
tions@@ 9747
wrote 9747
undoubtedly 9747
ñ@@ 9744
Weiter@@ 9742
dor@@ 9741
alt@@ 9739
pas 9738
zo@@ 9738
Delivery 9738
murder 9737
wherever 9732
infected 9731
liabilities 9729
childhood 9727
inger 9727
demonstrates 9725
elect 9725
dienen 9723
Player 9723
battle 9723
werk 9721
Belgian 9720
tragic 9719
defines 9718
erfolgt 9717
Behandlung 9714
geographic 9714
Mas@@ 9714
arch@@ 9713
HC 9713
occupational 9712
eng 9709
OM@@ 9707
uti@@ 9707
Tat 9707
achtet 9706
tis 9706
Bürgern 9706
departmental 9703
fuels 9701
James 9700
autonomy 9698
Barroso 9697
centuries 9696
hence 9695
Tagen 9695
negotiate 9690
warum 9689
ira 9687
hazard 9686
thirds 9684
Atmosphäre 9683
ffen 9682
zen@@ 9680
dient 9679
hinter 9679
blocks 9679
aviation 9679
Cuban 9678
seite 9676
Unter 9675
rats 9675
unprecedented 9672
Advancement 9672
commended 9669
nis@@ 9668
spe@@ 9667
Welcoming 9667
iges 9660
vergessen 9657
· 9656
briefings 9655
berücksichtigt 9653
rat 9652
haus 9650
heits@@ 9649
Lakes 9646
Bil@@ 9646
ación 9644
Lam@@ 9641
tered 9640
zeiten 9639
Nation 9639
Stability 9639
aufzu@@ 9637
crossing 9633
33@@ 9631
ame@@ 9630
exact 9629
divisions 9628
differ 9628
sil@@ 9627
ail@@ 9626
sed 9626
1983 9625
folgen 9624
anderem 9621
mittel@@ 9621
Italien 9619
Additionally 9619
Single 9618
unanimously 9617
kindly 9615
tanks 9614
grain 9614
eat 9612
Limited 9611
4. 9610
allegedly 9609
poses 9608
Straf@@ 9606
meal 9606
coal 9606
у@@ 9605
fitness 9604
Ti@@ 9602
PO@@ 9602
deutschen 9602
endlich 9601
sustain 9600
trag 9600
ssen 9598
cer@@ 9594
person@@ 9593
ez 9592
Together 9592
stem 9588
transmitting 9587
handed 9584
versucht 9582
compete 9580
parental 9580
analy@@ 9577
Effects 9574
degrees 9571
gratitude 9569
tra 9568
tree 9567
buyer 9567
ball 9566
mt 9566
uro@@ 9566
unlawful 9565
definitely 9565
exercised 9560
ins@@ 9558
modernen 9557
besondere 9554
lic 9553
Ressourcen 9552
checked 9551
BR@@ 9551
stars 9551
conducive 9549
Request 9547
convening 9546
Francophone 9541
expulsion 9540
malaria 9540
arrange 9538
explicit 9536
innocent 9534
instability 9531
benefited 9527
erk@@ 9526
SBSTA 9526
Maria 9526
modern@@ 9524
Reg@@ 9522
eh@@ 9519
Viele 9519
Reserve 9518
Forest 9516
accessed 9516
m2 9515
beru@@ 9515
Commonwealth 9515
straight 9514
Appeal 9512
Datei 9511
wear 9510
int 9509
Phone 9507
debtor 9506
Nicht 9505
inland 9505
gel 9503
native 9500
technischen 9499
protective 9498
duplication 9497
FR@@ 9496
Growth 9496
überhaupt 9492
1973 9490
Wal@@ 9490
cap@@ 9485
ichte 9480
äch@@ 9478
Bürgerinnen 9478
quotas 9478
Sicht 9478
vertreten 9477
4.3 9476
directors 9474
array 9474
Rad@@ 9471
characters 9469
resume 9469
demonstration 9468
balances 9464
wines 9464
beste 9463
wahrscheinlich 9451
richtige 9449
User 9449
140 9449
ces 9448
Sciences 9447
unlikely 9446
ular 9445
utz@@ 9442
Tal@@ 9441
ow 9440
digt 9439
superior 9436
farms 9436
Tagesordnung 9435
Beach 9434
Blue 9428
Lassen 9425
erungen 9423
sixtieth 9422
ücken 9421
concerted 9420
reiterates 9420
ades 9419
Konferenz 9417
gefähr@@ 9417
wel@@ 9416
inc@@ 9415
commend 9415
Gruppen 9415
airspace 9413
Vergangenheit 9412
Winter 9412
glad 9412
Beginn 9411
coordinator 9411
run@@ 9411
ao 9410
ligen 9409
häufig 9408
ais@@ 9406
anc@@ 9404
remuneration 9401
stehenden 9401
restored 9400
assignment 9399
Officers 9399
Republik 9398
erklärt 9398
Governance 9396
Finanzierung 9395
remarkable 9392
auer 9391
Certain 9389
Balkans 9388
reactions 9386
Commissioners 9386
executed 9385
historischen 9383
shelter 9383
robust 9382
Ladies 9379
dan 9378
shipment 9376
formulate 9376
therein 9375
Live 9372
rechte 9371
Änderung 9371
erfolgreich 9369
Amnesty 9369
acc@@ 9365
18.@@ 9364
Super@@ 9364
ello 9363
lighting 9362
dy@@ 9361
excluding 9358
wild 9357
EF@@ 9356
Important 9356
sauna 9355
updating 9352
indirectly 9352
ismus 9351
ßt 9351
collecting 9349
rating 9348
neues 9346
weit@@ 9345
cat@@ 9345
Spanien 9344
musical 9343
classic 9342
W. 9342
defenders 9341
Trial 9340
ax 9340
commentary 9340
atur 9336
partially 9335
Aufenthalt 9335
Requirements 9333
erwartet 9331
ement@@ 9331
circulation 9331
gewesen 9330
Preis@@ 9330
succeeded 9329
immunity 9329
USB 9328
Sti@@ 9327
angle 9326
Twenty 9325
Uni@@ 9324
everyday 9323
mixture 9323
esten 9319
Point 9318
vertical 9318
м@@ 9317
Wochen 9317
Facility 9316
oring 9315
exciting 9314
Hö@@ 9314
ink 9313
meals 9310
securing 9310
belieb@@ 9309
CP 9308
zahlen 9307
directory 9307
treten 9307
launching 9307
nes 9305
finish 9305
restraint 9304
bonds 9304
Installation 9304
View 9302
fulfilling 9300
registry 9298
abzu@@ 9298
din@@ 9296
vollständig 9294
Bew@@ 9291
rated 9291
weekly 9290
CONF.@@ 9285
winning 9283
--@@ 9282
län@@ 9282
Olympic 9281
separ@@ 9281
fies 9280
controlling 9279
evaluating 9277
boost 9277
jeweiligen 9275
Med@@ 9274
Christ 9271
festival 9270
Zweitens 9270
lo 9270
water@@ 9269
decent 9268
Charles 9268
fan 9266
lesen 9264
tin 9260
baby 9258
zahlreichen 9256
hab@@ 9256
UNITAR 9255
ageing 9253
erfüllen 9252
doctors 9251
Baltic 9250
34@@ 9250
Mand@@ 9249
pure 9248
Rechtsvorschriften 9247
deten 9245
healthcare 9242
Apartments 9242
isolated 9242
tourists 9240
UNOPS 9240
Herausforderungen 9239
UNRWA 9238
sor@@ 9238
reaffirm 9238
Erfahrungen 9238
lösen 9238
anywhere 9236
hostels 9236
Burkina 9234
ora 9233
exploration 9232
surroundings 9229
genug 9225
Up 9225
Mad@@ 9225
appointments 9224
welches 9220
phases 9218
kam 9216
logistics 9216
stes 9216
zumindest 9215
tension 9215
installations 9214
Schritte 9212
shot 9212
Sonder@@ 9211
arranged 9210
delighted 9209
ften 9208
trä@@ 9207
purchases 9206
Procurement 9204
herr@@ 9203
Werte 9202
Vertrauen 9202
Adresse 9202
onal 9201
Five 9200
prozess 9200
emphasizes 9199
supportive 9199
haltung 9198
Sterne 9198
schützen 9196
pharmaceutical 9196
36@@ 9196
virtue 9195
Faso 9195
125 9195
Milliarden 9194
Mat@@ 9193
zug 9193
stream 9190
quantitative 9189
Van 9188
Off@@ 9188
mati@@ 9188
č@@ 9187
Auto 9186
loading 9184
Mali 9182
Alternative 9181
exported 9180
5th 9178
oning 9177
damaged 9174
z. 9174
Learning 9174
een 9174
Set 9172
Prozent 9168
Ty@@ 9167
geschaffen 9167
enacted 9166
Vision 9163
Kultur@@ 9163
popul@@ 9162
trans 9161
Crown 9160
Substances 9159
dramatic 9159
worthy 9159
rank 9155
ET@@ 9151
bek@@ 9151
layer 9151
Inland 9150
Housing 9150
supposed 9150
licensed 9149
journal 9148
seines 9146
lernen 9144
Rotary 9144
quote 9142
a.m.-1 9142
ved 9141
F. 9140
eth@@ 9139
Holy 9138
hum@@ 9137
eig@@ 9133
tensions 9132
pur@@ 9132
ico 9128
außerhalb 9127
verpflichtet 9124
Grants 9123
spectrum 9121
Zambia 9121
genutzt 9120
inherent 9119
Verkehrs@@ 9118
Ensure 9115
refusal 9115
Inhalt 9110
stets 9108
act@@ 9108
zy@@ 9107
spo@@ 9107
Valley 9104
privaten 9102
amerikanischen 9101
Guests 9100
acks 9097
alle@@ 9097
2,000 9097
ulation 9092
Korean 9090
announce 9089
101 9088
Allerdings 9084
Einige 9082
11@@ 9081
accomplished 9079
Aspekte 9079
durable 9078
ck 9078
Benin 9077
Tu@@ 9077
Teil@@ 9077
pan@@ 9076
EX 9071
materi@@ 9070
hes 9069
mach@@ 9069
Mod@@ 9069
hl 9068
husband 9068
Far@@ 9067
heutigen 9067
Parteien 9065
investigated 9062
foreigners 9061
Besides 9059
allocate 9058
consequently 9058
enemy 9058
purchasing 9057
CC 9056
verein@@ 9054
kennen 9053
scht 9053
ras@@ 9052
epidemic 9050
explains 9050
ären 9049
sprech@@ 9049
Dann 9048
Thomas 9046
handeln 9045
rein@@ 9043
networking 9042
inspired 9040
weekend 9039
utilized 9038
clothing 9037
mobilize 9037
nationale 9035
calculate 9034
ham@@ 9034
auss@@ 9033
Nicaragua 9032
comp@@ 9032
Dazu 9032
guiding 9032
Obwohl 9031
anders 9030
continuity 9029
Yemen 9029
2.2.@@ 9029
brau@@ 9028
Cro@@ 9027
IX 9026
Pan@@ 9025
ici@@ 9025
foremost 9025
severely 9024
feld 9021
philosophy 9020
kam@@ 9019
ssch@@ 9014
sektor 9012
letzte 9012
newspapers 9010
105 9009
Rahmen@@ 9006
Eing@@ 9006
tea 9004
ling@@ 9003
pillars 9002
pensions 9002
amending 9000
book@@ 9000
danke 9000
specially 9000
wireless 8999
Digital 8999
promptly 8993
invested 8992
Biological 8991
halb 8987
OT@@ 8987
firstly 8985
servants 8984
timing 8982
Senate 8981
aly@@ 8977
law@@ 8976
methodologies 8976
blog 8975
bes 8971
Ü@@ 8970
hä@@ 8969
zahl@@ 8969
Staat 8967
ava 8966
Plans 8965
SD 8965
intensify 8964
chl@@ 8964
trotz 8964
Saharan 8962
broadcasting 8962
deterioration 8961
iron 8961
Angelegenheit 8959
libraries 8958
19th 8957
balcony 8953
LO@@ 8952
fails 8952
persönlichen 8950
unfair 8949
Jewish 8949
Ul@@ 8948
Americans 8946
1.15 8946
infant 8946
servicing 8945
± 8945
everywhere 8942
attributed 8942
bessere 8942
markt 8937
readiness 8934
pass@@ 8933
ei@@ 8932
PPE 8931
judgment 8930
AB 8928
zimmer 8926
sand 8925
1975 8925
schi@@ 8923
restrict 8923
Least 8922
Spieler 8920
unemployed 8920
nung 8919
Centres 8919
nights 8917
Efforts 8913
Gebäude 8913
parks 8913
explosive 8911
sect 8910
Hin@@ 8910
leit@@ 8908
Diversity 8908
fung 8907
Impact 8907
п@@ 8906
sechs 8905
HR@@ 8905
rendered 8903
stadt 8902
Arbeitnehmer 8902
bilden 8902
WP.@@ 8898
04@@ 8898
bor@@ 8897
hem@@ 8896
feet 8896
Gesundheits@@ 8894
gruppen 8894
moderne 8892
Krieg 8892
Voll@@ 8890
imp@@ 8890
semi 8888
Organized 8887
Schwierigkeiten 8886
Praxis 8885
erlaubt 8885
sophisticated 8884
elles 8883
hall 8879
Memorandum 8875
Practice 8875
bases 8871
schwer 8869
Stat@@ 8869
CP@@ 8867
aktiv 8866
prohibit 8863
proceeding 8862
ress@@ 8859
pays 8858
lichkeiten 8858
sicher@@ 8858
certainty 8857
Libyan 8857
Enter 8856
Arctic 8856
SBI 8855
DS@@ 8855
liberalisation 8854
stoff@@ 8853
cosy 8852
earn 8849
staaten 8849
Recent 8849
ausschließlich 8849
LI@@ 8846
crew 8845
ily 8844
sy@@ 8844
profound 8844
stoffe 8844
colours 8843
enhancement 8842
pornography 8841
Hinsicht 8840
port@@ 8835
Durban 8835
beneficiary 8833
pursuit 8832
bildung 8830
Border 8830
disparities 8829
settled 8829
Workers 8828
blich 8827
refund 8826
zeichnen 8825
automatisch 8824
ei 8820
Folge 8820
Guidance 8820
Groups 8819
Wer 8818
1.6 8816
fic@@ 8816
AC.@@ 8814
motivated 8812
Cost 8811
licences 8809
mä@@ 8807
Palais 8807
Establishment 8806
eradicate 8806
TA 8806
idi@@ 8805
les@@ 8805
openness 8804
350 8803
Conduct 8803
Pierre 8802
pen 8802
stood 8801
ständig 8799
hlen 8798
Neben 8794
Sand@@ 8791
kaum 8790
Berichterstatterin 8790
participatory 8790
Konzer@@ 8790
fat 8789
recalls 8789
Available 8789
obstacle 8788
tere 8787
adjust 8786
West@@ 8784
flag 8780
verbind@@ 8779
prevailing 8778
Hamburg 8778
gardens 8773
äs@@ 8769
laufen 8767
1970 8766
Manual 8765
modification 8764
calm 8762
Projects 8759
Adopted 8757
ements 8756
Hence 8755
Berg@@ 8754
hydro@@ 8752
Einrichtung 8752
ables 8752
qui 8752
sit 8751
Arbeitsplätze 8749
Plus 8748
esti@@ 8748
zudem 8747
aquaculture 8745
gg@@ 8744
bitten 8741
rechts 8740
Resort 8739
Paragraphs 8738
ae 8738
dat@@ 8738
oni 8738
cease 8736
hervor@@ 8734
Kat@@ 8733
avoided 8733
NO@@ 8732
ney 8732
designs 8729
arbeit@@ 8728
push 8727
sem@@ 8726
viel@@ 8726
übernehmen 8725
fantastic 8724
MB 8724
mut@@ 8724
Zus@@ 8723
CCRA 8723
engaging 8722
experiencing 8722
Conflict 8722
Ihres 8722
entscheiden 8721
Views 8720
amenities 8719
mainstream 8718
ler@@ 8718
Vertreter 8718
convergence 8717
realities 8715
ais 8715
Aussch@@ 8714
wenden 8709
puts 8708
hing 8708
Tajikistan 8707
Produk@@ 8707
lounge 8706
Moscow 8705
implies 8699
Base 8697
aktionen 8696
alongside 8695
Wunsch 8692
lia 8691
clearance 8688
Reis@@ 8686
beide 8685
ack 8681
alternate 8681
Dublin 8678
tec@@ 8678
sing@@ 8677
Ban 8676
21st 8676
handled 8673
cho@@ 8673
exclude 8673
vous 8671
aux 8671
SL@@ 8670
Strip 8668
filling 8667
Opfer 8667
pat@@ 8663
gekommen 8663
micro 8662
Structural 8660
sciences 8660
scenario 8658
Studio 8656
ECU 8650
Aid 8644
Liechtenstein 8643
mediation 8643
punished 8641
didn 8639
Imp@@ 8636
hardly 8634
Denn 8632
AF 8630
habitat 8630
bewusst 8630
occurring 8629
neutral 8629
Dor@@ 8627
Armut 8627
к@@ 8624
Pre 8623
valued 8622
yield 8622
repatriation 8622
erinnern 8621
add@@ 8619
harmonized 8617
bis@@ 8617
Consultative 8614
Kir@@ 8614
Operational 8611
Email 8609
stating 8608
organisms 8607
Che@@ 8607
Schl@@ 8606
Forests 8604
contractors 8604
cancellation 8604
bald 8603
Frieden 8603
37@@ 8601
testen 8600
MEPs 8598
isolation 8595
Out 8595
readily 8594
insert 8594
finalized 8591
Hungarian 8589
locally 8588
lag@@ 8588
Organisationen 8587
Aufgaben 8585
erungs@@ 8585
50,000 8584
jahr 8583
ly@@ 8582
squ@@ 8580
harmony 8580
Angelegenheiten 8579
dynam@@ 8577
Informations@@ 8577
gelegen 8576
symptoms 8574
Solidarität 8574
warrant 8574
ange 8573
Socialist 8570
duly 8570
ktion 8569
relaxation 8566
ceasefire 8565
opens 8565
ecken 8564
Nam 8564
geo@@ 8563
minimal 8562
werk@@ 8560
qualitative 8559
corrigendum 8558
arg@@ 8558
liaison 8557
Corruption 8555
conciliation 8555
sheets 8546
importantly 8545
reinforced 8543
unten 8542
m3 8540
begrüßen 8540
ishing 8539
vacation 8536
Kh@@ 8536
find@@ 8536
disaggregated 8533
FCCC 8533
strive 8532
aller@@ 8531
dance 8529
Systeme 8527
globalen 8527
16.@@ 8527
UL@@ 8527
stein 8526
elaboration 8526
н@@ 8522
sle@@ 8520
D.@@ 8520
measurements 8520
Under@@ 8518
ecosystem 8517
admitted 8517
Independence 8517
chairs 8516
allgemeinen 8515
religions 8514
Iceland 8513
modest 8512
investigating 8511
courage 8510
irrespective 8510
destroy 8509
satz 8507
twentieth 8506
physicians 8505
aut@@ 8504
distinguished 8504
Objective 8504
nets 8504
Ass@@ 8502
Voluntary 8501
pick 8500
dg@@ 8500
Leute 8497
4.5 8496
Coast 8495
Labrador 8494
chart 8492
XI 8489
aft@@ 8487
airports 8486
custom 8485
yn@@ 8485
council 8480
det 8480
attempted 8479
linking 8478
voters 8476
distribute 8476
Nun 8476
chs 8475
stimulate 8473
р@@ 8473
enjoys 8471
li 8471
Flash 8471
Bank@@ 8471
35@@ 8470
contingent 8470
buch 8469
freuen 8469
segments 8467
liberal 8467
Matters 8465
е 8464
daten 8461
elten 8459
sensitivity 8459
usw. 8457
Elections 8455
orienti@@ 8455
Governmental 8453
Equal 8453
incorporating 8451
Annahme 8451
IL@@ 8450
syn@@ 8449
Develop 8448
indoor 8448
tag 8446
Until 8445
escape 8444
Fundamental 8442
castle 8442
abkommen 8442
Fi 8438
CTC 8436
CT@@ 8433
deduction 8433
Domestic 8431
Gesamt@@ 8431
profession 8429
108 8429
issuing 8428
Mobile 8425
Erstens 8423
größere 8422
fostering 8422
maps 8421
tal 8418
ät 8417
Shop 8416
Classification 8416
Beg@@ 8416
Organizational 8411
Queen 8410
GB 8410
criterion 8407
UNIFEM 8407
Nor 8404
rear 8400
Verfassung 8399
thereto 8398
ät@@ 8396
darstellt 8395
Tier@@ 8395
eindeutig 8393
Partei 8393
limiting 8392
19.@@ 8389
credentials 8389
Inst@@ 8389
compatibility 8388
ect 8387
broadly 8386
tim@@ 8385
aspirations 8385
preference 8384
verk@@ 8383
wonder 8383
T. 8382
Atomic 8382
dark 8381
portal 8381
aft 8377
Prohibition 8374
pressures 8372
Client 8371
gelegt 8370
mp@@ 8369
ASEAN 8367
Relief 8366
Stand 8366
newspaper 8362
emergencies 8362
aya 8361
neh@@ 8358
risen 8358
attach 8356
ACP 8354
benutzt 8352
vorgeschlagen 8351
isen 8351
Karte 8350
Wein@@ 8350
teilung 8349
tries 8348
Ha@@ 8348
Na@@ 8346
stärker 8346
subsidy 8342
и 8342
nt 8341
valuation 8340
fik@@ 8337
UM@@ 8337
disk 8333
breast 8333
wei@@ 8332
History 8331
fate 8331
zusätzliche 8328
Zi@@ 8326
combatants 8325
Hause 8323
Consensus 8322
Falle 8320
stopped 8319
Rou@@ 8318
plate 8317
Tsch@@ 8317
ballot 8316
Sitzung 8314
Idee 8314
0.5 8313
Delegation 8311
physician 8311
reportedly 8310
exceeded 8307
45@@ 8307
Verpflichtungen 8304
istic 8303
observance 8301
seconds 8301
advocate 8300
soci@@ 8297
lacking 8297
Engineering 8296
magnificent 8292
Accounts 8291
Anstrengungen 8289
15.@@ 8289
VAT 8289
infections 8288
ue@@ 8286
taxpayers 8286
vern@@ 8285
shortcomings 8283
Ist 8280
wiesen 8278
aver@@ 8278
í 8268
tiges 8267
Produkt 8267
promised 8266
nurses 8262
beginnen 8260
Seminar 8257
alike 8257
verb@@ 8257
Settlements 8256
85@@ 8255
14.@@ 8255
dies@@ 8254
condemn 8254
Osten 8254
feasibility 8253
Cape 8252
zentrum 8251
ik 8251
moder@@ 8251
swe@@ 8250
Reformen 8250
exercises 8249
unbedingt 8248
ADR 8248
ett@@ 8248
ordnung 8247
Dom@@ 8247
drought 8245
Engagement 8245
ammunition 8244
teu@@ 8244
lovely 8243
Protokoll 8242
Jahres@@ 8241
vel@@ 8240
tal@@ 8236
ücke 8236
Funktionen 8235
zeichen 8234
spare 8234
aktuelle 8231
750 8230
mindestens 8230
tief@@ 8230
Fel@@ 8230
ony 8225
Schw@@ 8225
ask@@ 8224
entspricht 8224
footnote 8224
ECA 8223
stake 8222
Strasbourg 8220
Prague 8219
keys 8218
Zimmer@@ 8218
ville 8216
Wahlen 8215
\ 8213
aktu@@ 8212
reimbursement 8211
modes 8210
Süd@@ 8208
Consultations 8204
überzeugt 8203
scre@@ 8202
Mol@@ 8202
sagt 8201
recover 8201
offen 8200
1977 8196
technique 8196
Forschungs@@ 8196
− 8195
Viet 8192
allowances 8191
sees 8190
dream 8190
GO@@ 8189
annexes 8189
dial 8189
Meanwhile 8188
miss@@ 8187
ned 8187
oni@@ 8185
schöne 8182
independently 8182
kun@@ 8178
ride 8177
gig 8176
Yukon 8175
lunch 8173
ologische 8173
concludes 8171
6.2 8171
Rein@@ 8171
leiten 8169
fishermen 8168
Kriterien 8166
audits 8166
weist 8165
National@@ 8164
maternity 8164
Prior 8163
Zustimmung 8161
labor 8159
assurances 8156
pricing 8155
frag@@ 8154
nec@@ 8154
Sommer 8154
setzung 8152
Yugoslav 8150
detected 8149
Copyright 8149
leich@@ 8149
flü@@ 8148
Rob@@ 8146
&apos;d 8145
incomes 8145
nominated 8145
pandemic 8144
chi@@ 8142
switch 8141
Vorteile 8140
Mechanism 8139
allocations 8137
translate 8133
typ@@ 8131
sa@@ 8131
104 8131
Experience 8130
Nutzen 8129
Gold 8127
Vereinbarung 8127
ungs 8127
Role 8126
ave 8124
© 8123
imposing 8121
02@@ 8121
therapeutic 8120
signals 8120
purely 8118
convenience 8116
ME@@ 8115
ück@@ 8114
clarified 8112
revolution 8112
sozi@@ 8108
Sen@@ 8106
spiritual 8106
breaking 8105
aiming 8105
ails 8104
studio 8104
Category 8100
promises 8098
Meetings 8098
removing 8098
witnessed 8096
gezeigt 8093
harmon@@ 8092
Administrator 8091
ences 8091
uner@@ 8091
Don@@ 8091
Pool 8089
Terrorismus 8089
steady 8088
Verwaltung 8088
Wann 8088
Namibia 8086
gleiche 8085
Fuß@@ 8085
dangers 8083
mouth 8082
hearings 8081
Gas 8080
overseas 8077
panels 8077
lö@@ 8076
CAP 8076
Hamas 8076
tric@@ 8076
fans 8075
steering 8073
eliminated 8071
NI 8071
avoiding 8068
unterschiedlichen 8066
contamination 8066
lease 8065
Apart 8064
zig 8063
vorher@@ 8063
Produkt@@ 8062
20th 8062
sche@@ 8061
tain 8061
convene 8061
surely 8060
Homepage 8059
psych@@ 8059
inv@@ 8057
summarized 8057
graduate 8056
Technologien 8055
Direct 8055
brake 8055
tracks 8052
split 8052
Responsible 8052
IG@@ 8051
thermal 8050
Spi@@ 8050
premium 8049
summits 8048
genannt 8044
Combat 8041
glauben 8040
wheel 8040
hazards 8038
sand@@ 8037
fähigkeit 8037
Chance 8036
Straße 8035
Wi 8034
vorgelegt 8034
ws 8034
oten 8034
cultivation 8033
ania 8033
radioactive 8030
livestock 8028
deserve 8028
liked 8028
wahr@@ 8027
oceans 8027
JavaScript 8026
restriction 8026
arbeitung 8025
Gipfel 8017
SO 8017
kap@@ 8015
selbstverständlich 8013
Lag@@ 8013
dringend 8011
evolving 8010
.htm 8010
gesprochen 8010
Netz@@ 8008
pack@@ 8007
intervene 8007
Telephone 8006
mi 8004
bike 8004
entsprechende 8003
Nonetheless 8001
freund@@ 8001
ön@@ 8000
Stabilität 8000
ceiling 7999
globally 7999
Content 7997
ual 7996
io 7996
RC 7996
margin 7995
titles 7995
Citizens 7991
70@@ 7989
ía 7987
länder 7985
heim@@ 7985
Gam@@ 7983
hy@@ 7982
Dat@@ 7979
Anerkennung 7977
Sum@@ 7977
ITC 7976
Sektor 7976
boats 7974
Inhalte 7974
Haup@@ 7974
continental 7973
Generally 7973
converted 7973
Format 7970
Nu@@ 7969
Practices 7969
Mur@@ 7969
genen 7969
prüfen 7968
Multilateral 7968
Age 7966
fragile 7965
ains 7964
gear 7963
recruited 7962
ager 7961
Edward 7961
gerecht 7960
lending 7958
raises 7958
pollutants 7957
deprivation 7956
forming 7953
möglicherweise 7953
ump@@ 7952
by@@ 7952
Pass@@ 7952
reb@@ 7952
Zudem 7952
Storage 7951
cel@@ 7950
Binnenmarkt 7948
Werk@@ 7947
far@@ 7947
mehreren 7946
Transnational 7946
verfügbar 7946
perception 7945
Sou@@ 7943
ops 7941
predictable 7941
Produkten 7940
Clinical 7939
innovations 7938
ero 7937
diabetes 7935
Haushalt 7933
Sar@@ 7933
NL 7931
passport 7931
Unless 7930
Policies 7925
tragedy 7925
Sun@@ 7925
Release 7924
barrier 7924
subregion 7924
Bed@@ 7923
esa 7923
Att@@ 7921
erwähnt 7920
Partnerships 7920
mitigate 7919
variables 7919
valley 7917
Micro@@ 7916
Sy@@ 7915
intake 7915
1971 7915
intensity 7913
mechanical 7913
underground 7913
Kab@@ 7912
intentions 7912
compounds 7911
metals 7911
corrected 7911
iche 7909
kel 7908
wan@@ 7907
regulating 7905
eless 7905
gather 7904
wünschen 7902
Bot@@ 7901
Besuch 7899
ы@@ 7899
lä@@ 7895
socially 7895
Über 7894
Ethics 7893
Democracy 7892
dia 7892
bedau@@ 7890
2.6 7890
undertakings 7887
Decisions 7887
turen 7886
broadcast 7881
cope 7879
generous 7879
divide 7877
impartial 7876
pretty 7875
identifies 7875
failing 7875
refrain 7875
entrepreneurs 7874
zustellen 7872
Objectives 7870
exploring 7870
nursing 7870
preparedness 7868
änden 7868
itr@@ 7862
harbour 7862
heim 7861
wesentlich 7860
vier@@ 7860
nachdem 7858
Medien 7858
Reaffirms 7858
Smoking 7857
prominent 7854
comprised 7854
hoffen 7854
maximize 7853
Schließlich 7853
investing 7849
berücksichtigen 7849
frozen 7846
renowned 7844
ett 7843
convey 7843
Mac 7841
buying 7840
COM 7838
Geld@@ 7838
egen 7837
axis 7837
plenty 7837
conditioned 7837
Bearing 7834
erfahren 7832
enst@@ 7832
Einsch@@ 7831
Subsection 7831
SS 7829
bestimmt 7829
Sho@@ 7828
kommenden 7826
spectacular 7825
Zunächst 7823
atively 7821
Nieder@@ 7820
kosten 7820
famili@@ 7818
stylish 7817
drinks 7813
proactive 7811
AI 7811
logic 7810
alisation 7809
Volk 7808
elaborate 7808
Ausschuß 7807
nam@@ 7806
oned 7803
Increased 7803
desertification 7802
steig@@ 7800
factory 7800
countryside 7799
Bru@@ 7799
Applause 7799
ving 7797
vice 7796
Jesus 7792
claiming 7791
workload 7789
digung 7782
thereon 7781
ching 7781
functionality 7779
ancy 7779
Daily 7776
cycles 7775
deserves 7775
6th 7775
characteristic 7773
subsidiarity 7772
appendix 7770
Discussion 7770
carries 7769
hostel 7769
phones 7767
WFP 7766
iler 7765
threatening 7765
answered 7764
saved 7764
inadmissible 7761
itä@@ 7760
curricula 7759
hinweisen 7759
Star@@ 7758
loads 7758
K. 7758
akzeptieren 7757
formen 7757
1976 7755
gaben 7752
globalisation 7748
recreational 7748
cancelled 7748
lobby 7748
Maritime 7747
Much 7745
Putin 7744
Kunst 7743
schö@@ 7742
taught 7742
tional 7742
Louis 7742
47@@ 7737
PH@@ 7737
Via 7736
ICC 7736
influenced 7735
Chargé 7735
render 7734
Overview 7734
doubts 7733
outlines 7732
seller 7732
pers@@ 7731
contractor 7731
corrections 7730
confusion 7729
ro 7724
Honduras 7723
13.@@ 7723
UST 7722
Michel 7722
sicherzustellen 7719
Jugend@@ 7719
bestehenden 7718
Lang@@ 7718
athletes 7718
Fischerei@@ 7718
wave 7718
hän@@ 7717
Pun@@ 7717
emerge 7716
org@@ 7715
ward 7715
portable 7713
redress 7713
erzielt 7713
hostilities 7713
dropped 7713
Durchführung 7712
Augen 7711
Panama 7711
Ke@@ 7710
rejection 7707
Kontakt 7706
1974 7705
Racism 7705
Est@@ 7705
Eins@@ 7704
RI@@ 7703
Focus 7699
aquatic 7697
La@@ 7692
wars 7690
&apos;affaires 7689
benutzen 7687
breakdown 7685
Mitteilung 7683
las@@ 7682
sc 7682
erre@@ 7681
Sound 7681
battery 7681
terminal 7680
Identification 7680
Mah@@ 7679
dos 7679
angen 7678
edi@@ 7677
Richard 7676
Meter 7676
zeu@@ 7675
Kenn@@ 7674
salt 7674
trifft 7674
jah@@ 7668
DE@@ 7666
Leg@@ 7665
promising 7665
grew 7664
Cat@@ 7662
Judge 7661
fälle 7661
relatives 7658
Mozambique 7658
conf@@ 7658
moves 7657
Benefit 7657
technische 7657
lad@@ 7654
counterparts 7653
accompanying 7652
suicide 7651
Las@@ 7650
besonderen 7648
FI 7648
55@@ 7648
GM 7647
Einfluss 7644
routine 7644
flo@@ 7643
Allow 7641
Mari@@ 7640
Cabinet 7639
protein 7639
Schi@@ 7639
terror 7637
eck 7636
serv@@ 7636
Anwendungen 7635
Show 7634
amb@@ 7634
sincere 7633
births 7632
ille 7631
Liber@@ 7631
Rather 7631
Suche 7628
suited 7628
def@@ 7626
unified 7626
accorded 7625
rechten 7624
emergence 7621
trägt 7620
Aligned 7620
warten 7619
concert 7619
passage 7618
euch 7617
B.@@ 7617
moderate 7615
Mongolia 7615
compare 7614
geändert 7612
Einrichtungen 7611
SD@@ 7611
snow 7611
inn@@ 7610
tar@@ 7610
Sor@@ 7609
Eu@@ 7607
Prodi 7607
bedarf 7606
gebiet 7606
brain 7605
Event 7605
conscience 7603
17.@@ 7603
top@@ 7602
möglichen 7601
Rau@@ 7601
FS 7600
Others 7599
Unterkategorien 7598
Iranian 7598
efficacy 7597
mag@@ 7595
Early 7594
tical 7594
penal 7594
mo 7592
apparently 7591
ließ@@ 7591
annt 7591
Illicit 7590
institutes 7590
geber 7590
licht 7589
öp@@ 7588
baseline 7588
zuletzt 7586
institute 7586
lichten 7584
Sec@@ 7583
VIII 7579
Bahrain 7579
mil@@ 7579
sters 7577
39@@ 7575
eating 7575
prohibits 7574
umgesetzt 7574
novel 7572
surprise 7572
Missions 7572
At@@ 7570
BSE 7569
objections 7569
jene 7569
Joseph 7567
break@@ 7567
licherweise 7566
siehe 7566
Over@@ 7566
BO@@ 7565
5. 7565
Tit@@ 7565
Haltung 7564
rie@@ 7564
Vehicle 7563
beam 7563
qualifying 7561
hole 7561
solar 7560
abandoned 7558
zeug 7557
Acts 7555
Ausbildung 7554
Fonds 7553
empty 7553
atischen 7553
schließen 7553
ading 7551
111 7551
Garden 7551
nationally 7550
106 7550
38@@ 7547
glob@@ 7545
AU 7544
FC 7541
Wettbewerbsfähigkeit 7539
Cr@@ 7539
Examples 7539
Tel@@ 7538
Subsequently 7538
Read 7538
Jan@@ 7537
Irak 7537
finanziellen 7537
20.@@ 7534
peak 7534
Airbus 7534
was@@ 7533
Counsellor 7532
OL 7532
contaminated 7531
notwendigen 7529
pa 7529
centers 7528
toll 7528
erfüllt 7527
ht@@ 7527
gewal@@ 7526
detect 7526
generic 7526
Zeichen 7525
quarters 7525
commencement 7524
kar@@ 7520
eu 7519
Monate 7518
PM@@ 7515
upgrading 7514
kün@@ 7514
diet 7513
ema 7513
fried@@ 7511
gallery 7510
BA 7509
traditionally 7507
carriers 7507
UNAIDS 7506
Mitte 7505
üsse 7505
µg 7504
floors 7504
labels 7503
fand 7501
terung 7501
Dam@@ 7498
ssig 7497
1980s 7496
getroffen 7496
Pin@@ 7496
Legislation 7495
Likewise 7492
fly 7492
fall@@ 7492
Bou@@ 7492
blo@@ 7492
Information@@ 7490
bond 7489
ätzen 7487
äm@@ 7485
hatred 7485
gradual 7484
wastes 7483
accessing 7483
GU@@ 7482
en- 7481
darunter 7480
bought 7479
vo 7479
collapse 7477
zeichnung 7476
anderes 7474
sizes 7474
stimme 7474
profiles 7473
Promoting 7471
preserved 7470
etten 7470
draws 7469
imagine 7469
Adobe 7469
Pres@@ 7468
wach@@ 7467
inform@@ 7467
argue 7465
Contribution 7465
guides 7464
5.3 7461
107 7461
fold 7461
d. 7460
venture 7460
eingerichtet 7460
politischer 7459
vermeiden 7458
kn@@ 7458
vegetables 7458
Schweiz 7457
substitute 7456
bright 7454
Generation 7453
fur@@ 7453
Kindern 7453
May@@ 7451
gelöst 7451
adherence 7449
arten 7449
Eurostat 7448
issen 7448
massage 7447
aggregate 7447
bewe@@ 7447
privileged 7447
Kin@@ 7446
Nutrition 7445
Mark 7445
emen 7444
Partners 7442
hidden 7441
entries 7440
aforementioned 7439
läuft 7437
voller 7436
prospect 7436
Los 7435
360 7435
frei@@ 7433
Avenue 7432
a.i. 7432
shortage 7432
delicious 7431
jederzeit 7429
entlich 7429
hyper@@ 7428
ú@@ 7427
ergreifen 7427
chose 7426
ó 7426
wise 7425
Industri@@ 7425
punishable 7424
wil@@ 7424
angel@@ 7423
prescription 7423
Bus 7422
prosecutors 7419
inappropriate 7418
Back 7417
üh@@ 7415
ätz@@ 7414
ATION 7414
moreover 7413
tation 7412
possess 7409
compiled 7408
reinforcing 7407
coalition 7405
responsive 7405
festgelegt 7404
maß@@ 7403
egt 7403
aw 7400
nomination 7400
behalten 7399
extends 7398
103 7398
Familien 7398
permanently 7396
Thirty 7395
Operating 7394
inequalities 7394
verfolgen 7393
luxurious 7393
diagnosis 7393
meantime 7392
explanations 7391
knew 7391
Pf@@ 7390
illa 7390
Inc. 7390
studying 7389
stände 7389
Approval 7388
Procedures 7387
enheit 7386
Mir@@ 7386
End@@ 7386
Anspruch 7385
Expresses 7384
115 7384
aking 7383
utility 7380
freie 7379
richtungen 7379
WH@@ 7378
erhöhen 7378
isierung 7378
Ol@@ 7378
Mexican 7377
ibid 7377
pping 7376
Regulatory 7375
Java 7374
Hier@@ 7373
aka 7373
boot 7372
Seine 7372
advancing 7372
them@@ 7371
är 7370
everybody 7367
cool 7367
Would 7365
thoroughly 7364
disciplines 7364
Back@@ 7362
José 7362
movie 7359
decree 7359
ond@@ 7357
ali 7355
ignored 7354
sharp 7354
ther 7351
SC@@ 7350
Mass@@ 7349
clauses 7348
ion@@ 7348
geeignet 7347
fix 7347
s. 7346
Menge 7346
song 7346
102 7345
tailored 7345
Problems 7343
thin 7342
weaknesses 7342
heraus@@ 7342
preferences 7341
extrabudgetary 7340
aded 7337
charitable 7334
7th 7332
slavery 7330
thanked 7330
Erzeu@@ 7330
Events 7329
Primary 7326
essi@@ 7324
112 7324
lei@@ 7324
Fried@@ 7323
abortion 7323
Dro@@ 7321
Personnel 7321
servers 7321
edited 7321
jeweils 7321
Gem@@ 7320
wären 7320
sake 7320
außer 7319
Mann 7318
10,@@ 7317
Collection 7316
associate 7311
alk@@ 7310
Link 7310
consecutive 7310
skill 7309
Vielfalt 7307
sensible 7306
beef 7305
hinter@@ 7304
undertook 7302
art@@ 7302
Han@@ 7301
settle 7300
ont@@ 7299
4.4 7299
hot@@ 7298
Partner@@ 7297
teilweise 7294
zul@@ 7294
pul@@ 7294
experimental 7293
erzielen 7292
schen@@ 7292
Changes 7291
Leistungen 7289
bid 7289
Edition 7287
inspectors 7285
designation 7284
Lie@@ 7283
losen 7282
temperatures 7282
fällt 7282
sicherlich 7282
shadow 7280
councils 7278
tischer 7278
whatsoever 7277
importer 7277
0.00 7275
Konzept 7274
volumes 7273
prosecutor 7273
Munich 7273
verified 7272
verz@@ 7271
roof 7269
ags 7268
tag@@ 7268
ori 7267
lichem 7267
Enforcement 7265
Cup 7261
entschieden 7260
fen@@ 7259
Addendum 7259
essence 7256
wert@@ 7254
sounds 7253
Detailed 7253
Brazilian 7253
CH 7250
Bangkok 7250
reduces 7249
KGM 7248
Nos 7246
Judicial 7246
funktioniert 7245
boxes 7245
Nature 7244
intense 7244
play@@ 7244
§ 7244
ilen 7243
celebrate 7242
Stand@@ 7242
mess@@ 7242
Wege 7241
Großbritannien 7241
ors@@ 7241
ran 7240
proximity 7239
angezeigt 7239
tiv 7237
gab@@ 7237
yang 7237
standardized 7235
bonus 7235
HS 7234
mistake 7234
hle 7232
aug@@ 7230
ration@@ 7229
wand 7229
Ay@@ 7229
abolition 7228
deposits 7227
staatlichen 7227
Vill@@ 7227
welcher 7226
privileges 7226
Garten 7226
declining 7225
ills 7224
entweder 7223
übernachten 7223
Webseite 7223
mineral 7222
incorporation 7222
newsletter 7221
antly 7221
compilation 7220
Proposal 7219
younger 7216
sleep 7214
stat@@ 7213
compact 7212
atik 7210
Stimme 7210
budgeting 7209
Staat@@ 7206
combines 7205
Budapest 7203
chairman 7203
spielt 7202
ome@@ 7202
Vertrags 7201
alists 7198
Disabilities 7197
tissue 7195
besuchen 7193
restrictive 7193
sse 7192
incompatible 7191
Situated 7191
ECB 7191
venue 7190
1.0 7189
Regular 7189
appropriation 7189
accepting 7188
reaffirms 7187
verbessert 7184
Technologies 7184
gelangen 7183
Vereinten 7183
keits@@ 7183
Veränderungen 7182
123 7181
prop@@ 7181
ols 7180
adjacent 7179
tiv@@ 7179
vi 7179
GNU 7178
itz@@ 7178
advisers 7176
revisions 7174
Wohl@@ 7173
pf@@ 7173
Februar 7172
New@@ 7172
BI@@ 7172
varying 7172
führ@@ 7170
harmonisation 7169
Ker@@ 7169
temporarily 7166
bot 7166
128 7165
deny 7164
Warum 7164
anis@@ 7161
chem@@ 7161
tennis 7159
Sprachen 7158
Gener@@ 7157
gebaut 7156
Instrumente 7155
radical 7155
tropical 7154
Jetzt 7153
tremendous 7153
Congolese 7152
utz 7152
nor@@ 7152
platforms 7151
bild@@ 7151
posi@@ 7150
losing 7149
Fern@@ 7148
Clearly 7146
Gentoo 7145
Modell 7144
racist 7142
SI 7141
amazing 7139
Dre@@ 7138
braking 7138
rati@@ 7137
Leider 7136
Dominican 7135
sage 7135
pledged 7134
Energi@@ 7134
alise 7134
Vietnam 7133
arises 7131
feeding 7131
prize 7131
caught 7131
destinations 7128
solving 7126
cin@@ 7126
Jamahiriya 7125
exceeds 7124
municipality 7123
Minimum 7123
dige 7122
diamonds 7122
recourse 7121
EG@@ 7120
Us 7119
resistant 7118
comprise 7118
ago@@ 7117
Bat@@ 7117
án 7116
verbale 7113
Spr@@ 7112
lungen 7110
p.@@ 7110
Registrar 7107
erleben 7107
punkt 7102
accelerated 7101
Abschließend 7098
son@@ 7097
Ret@@ 7096
Catholic 7095
¶ 7095
ord 7094
irgend@@ 7093
grass 7092
Ausgaben 7090
seas 7090
loaded 7089
investigators 7087
shareholders 7086
collectively 7085
GA 7081
18th 7081
GRE 7078
klicken 7078
colonial 7078
klare 7076
reiben 7075
lle 7075
ahn@@ 7072
Sitz@@ 7071
festi@@ 7071
46@@ 7070
mun@@ 7069
zü@@ 7069
idung 7068
és 7067
validation 7067
Tätigkeit 7067
VE 7067
annexed 7066
zustimmen 7066
sson 7065
Kenntnis 7065
choosing 7064
Construction 7064
PD@@ 7063
Berichte 7063
benchmarks 7062
stärken 7060
fairness 7057
Abschluss 7057
44@@ 7056
autonomous 7054
Mö@@ 7054
meter 7053
ister 7051
Arbeiten 7050
rigorous 7049
Benefits 7048
A5 7048
volunteer 7047
supervisory 7044
Forderung 7044
sport@@ 7044
cul@@ 7044
lights 7041
begr@@ 7040
Principal 7040
а 7040
Medicine 7039
R.@@ 7039
Zeiten 7038
HD 7038
CB@@ 7038
Den@@ 7036
competing 7036
Vergleich 7036
Sin@@ 7035
impetus 7030
Initiativen 7029
Teile 7028
marginalized 7028
dependence 7027
sü@@ 7026
siert 7025
betr@@ 7025
collections 7025
Prize 7023
zählen 7021
system@@ 7020
Lebensmittel@@ 7019
indications 7019
insist 7018
erstellt 7018
Deutsche 7018
durchaus 7015
Analyse 7015
Attorney 7015
DI 7014
diameter 7013
sicht 7012
executions 7009
Traffic 7007
pan 7007
preserving 7007
football 7007
gewinnen 7007
submits 7003
mäß@@ 7003
dagegen 7002
Period 7002
Disabled 7000
stro@@ 7000
ausdrücklich 7000
Bonn 6999
landlocked 6998
Cur@@ 6997
clicking 6997
autumn 6997
Herausforderung 6996
produ@@ 6996
authorize 6994
tro 6992
varies 6992
logistical 6990
tier@@ 6989
Outcome 6989
wollte 6988
Woods 6988
ologischen 6986
synergies 6986
cro@@ 6985
Title 6984
kernel 6983
tackling 6983
Poker 6982
Erd@@ 6981
eld 6981
Grenz@@ 6981
Finnish 6978
costly 6978
projections 6977
speziell 6976
performances 6975
zentrale 6973
a. 6973
OC@@ 6971
hill 6970
Ann@@ 6969
GE 6969
attr@@ 6969
correspondence 6969
wind@@ 6969
ented 6966
activated 6964
Besucher 6963
ll 6960
Afrika 6958
Schutz@@ 6956
Punishment 6956
unge@@ 6956
TD 6954
vorgesehen 6954
unusual 6954
determines 6953
listening 6952
CCA 6951
betonen 6950
ssystem 6950
Pil@@ 6950
gehalten 6950
57@@ 6949
üb@@ 6949
3,000 6948
Fish 6947
Vit@@ 6947
schwer@@ 6946
Sports 6946
kan@@ 6945
wa 6944
Initiatives 6944
Victoria 6942
Vielen 6942
ola 6941
pertinent 6940
kit 6940
informieren 6940
kulturellen 6937
48@@ 6937
Kunden@@ 6937
automati@@ 6935
villa 6935
deposited 6932
1949 6931
1972 6930
Economy 6928
ey@@ 6927
super 6927
infectious 6927
Turkmenistan 6927
dominant 6925
backs 6924
kin 6924
Sw@@ 6923
sionen 6923
abilities 6922
Smith 6922
medicinal 6921
Seg@@ 6921
prerequisite 6919
discount 6919
och 6917
ignore 6915
Abgeordnete 6913
beliefs 6912
victory 6912
Regelung 6911
sin 6909
cia 6909
bilingual 6908
HRC 6907
ton@@ 6906
RRSP 6904
angeboten 6903
Which 6903
Urban 6901
Fü@@ 6901
Fun@@ 6900
donations 6899
refined 6899
luß 6899
analysed 6897
MP 6895
täglich 6891
scenarios 6891
SE 6890
ees 6889
Registry 6887
Hil@@ 6886
els@@ 6886
textile 6886
exercising 6885
Logistics 6884
vorhanden 6883
Komfort 6880
imposition 6879
deciding 6877
denial 6877
möglichst 6877
Refer@@ 6876
disclose 6875
beschlossen 6874
stick 6874
Feu@@ 6874
Customer 6873
Harbour 6873
Poly@@ 6872
Ja 6871
pped 6871
designing 6871
eta 6869
prin@@ 6869
CEO 6867
intermediate 6867
Sony 6867
Otherwise 6866
Angaben 6865
ace 6864
rationale 6864
Dienste 6864
wenigen 6864
diversification 6862
OC 6862
gesellschaft 6862
flying 6861
chapters 6858
Excise 6858
welt 6858
initi@@ 6856
neighbourhood 6853
Skype 6852
ativ 6851
Christmas 6851
develops 6850
arb@@ 6850
beer 6849
ruled 6849
lokalen 6849
leitung 6848
Sto@@ 6848
wondered 6847
qualität 6847
werte 6846
rarely 6846
kel@@ 6845
Stil 6845
Conferences 6844
gens 6844
forwarded 6844
suspect 6844
Loc@@ 6842
founding 6842
postal 6842
pools 6841
Men@@ 6840
clock 6839
erer 6839
shipments 6839
Menschen@@ 6838
itz 6838
450 6837
elaborated 6836
ande 6836
ont 6836
conform 6834
regrets 6831
Ka@@ 6830
minis@@ 6829
symbols 6827
ination 6827
Parlament@@ 6825
SW@@ 6825
fication 6824
quest 6821
Americas 6821
economics 6820
zeugen 6819
Forty 6819
CR 6818
creativity 6817
gem 6817
Mitgliedstaat 6815
threaten 6815
fault 6815
NE@@ 6809
songs 6808
finances 6808
sich@@ 6807
testimony 6807
CE 6806
Deposit 6805
Disaster 6803
Jahrhunderts 6803
emotional 6803
variations 6802
belongs 6802
actor 6801
führer 6801
roughly 6800
spouses 6798
legi@@ 6798
Dal@@ 6797
magnitude 6797
gefordert 6797
qualification 6796
authentic 6796
gte 6795
ENT 6794
None 6792
developers 6792
preise 6792
Zeitraum 6792
benötigt 6791
änder@@ 6790
richtigen 6790
Währung 6790
Various 6789
PE@@ 6789
acht@@ 6788
attain 6787
konzentrieren 6787
Tip 6787
inconsistent 6786
gestellten 6785
Sab@@ 6785
finanzielle 6784
mögliche 6784
ri 6784
erc@@ 6784
SR@@ 6783
lawful 6783
enjoying 6783
ble@@ 6782
bi 6781
führte 6781
läu@@ 6781
explored 6781
abstentions 6780
Produktions@@ 6779
Tim@@ 6779
dominated 6778
5.5 6778
isch@@ 6778
PE 6778
turns 6776
Understanding 6775
Klicken 6774
dank 6773
recycling 6773
Gef@@ 6773
Verb@@ 6772
brauch 6772
starke 6769
accreditation 6768
Unternehmens@@ 6768
instalment 6768
veröffentlicht 6767
indi@@ 6765
122 6764
konkrete 6763
übersch@@ 6763
Wissen 6762
Newsletter 6761
Kong@@ 6756
wake 6754
surprised 6753
smuggling 6753
Hy@@ 6752
deficits 6751
9th 6748
Musik@@ 6746
nonetheless 6746
führenden 6746
timber 6743
Apple 6743
wellness 6743
Suppression 6741
Dennoch 6741
lt 6741
Christ@@ 6739
Gebieten 6739
Hauses 6739
Embassy 6738
interactions 6735
Bay@@ 6734
Emirates 6733
FL@@ 6733
earliest 6733
etzt 6733
RO 6730
positively 6729
staying 6727
Rede 6727
rational 6727
ched 6726
graphics 6725
TB 6725
discovery 6724
formulating 6723
lick 6721
minim@@ 6721
betre@@ 6720
nächste 6719
commissioned 6718
monitors 6718
freue 6716
prü@@ 6715
Rel@@ 6715
insured 6714
Revolution 6714
argues 6714
sprach@@ 6713
ст@@ 6713
Institutional 6713
fte 6711
automated 6711
Terrasse 6711
strengths 6710
Open@@ 6706
öffnen 6703
Rich@@ 6701
deferred 6700
General@@ 6700
busy 6699
betrachtet 6699
rolling 6697
darstellen 6697
complied 6695
Zw@@ 6695
reveal 6693
passes 6692
yl 6691
Österreich 6691
aggressive 6690
Sexual 6688
benen 6688
Mio. 6687
bere@@ 6687
komm@@ 6686
struck 6686
entstehen 6684
gewährleistet 6684
endeavours 6684
tery 6683
designate 6682
dau@@ 6682
outs 6681
munitions 6681
erfolgen 6680
basically 6680
GS 6679
cooking 6679
slowly 6679
resses 6679
vacancy 6677
.2 6676
aner 6676
wheat 6675
oppose 6675
erscheint 6674
eres 6674
1960 6672
tings 6672
multinational 6672
merit 6671
kommun@@ 6670
vertre@@ 6670
regrettable 6669
quarterly 6668
PI@@ 6667
ace@@ 6665
fru@@ 6665
terrible 6665
tivität 6664
nutritional 6664
Betrieb@@ 6662
realise 6661
ario 6661
erklären 6661
systemic 6659
cam@@ 6659
dennoch 6658
Kyrgyzstan 6655
conc@@ 6655
hil@@ 6654
Funktion@@ 6654
Large 6652
Pic@@ 6651
Kop@@ 6650
rap@@ 6647
Verk@@ 6646
Improving 6646
grav@@ 6646
Kirche 6644
Budgets 6644
schwierig 6644
ries 6643
erstellen 6643
etzen 6642
Beitritt 6642
Hom@@ 6640
49@@ 6640
jo 6639
circum@@ 6639
violate 6639
aliens 6638
58@@ 6638
Tools 6638
genuinely 6638
INF.@@ 6637
blind 6636
Worte 6636
aci@@ 6636
dating 6636
Indicators 6636
zählt 6634
distinguish 6633
miss 6633
anges@@ 6632
Vari@@ 6632
Sehr 6631
ho 6631
Programms 6630
underway 6630
thereafter 6628
accredited 6628
Einigung 6626
awa 6626
vent 6625
Nachfolgend 6624
ament 6623
Tradition 6623
ques 6622
ases 6621
achte 6620
10th 6619
currencies 6618
Zweifel 6618
honest 6618
Herstellung 6617
Universität 6617
SS@@ 6616
End 6615
schönen 6614
formerly 6611
Zweck 6610
üren 6609
fris@@ 6609
nit@@ 6607
vielfäl@@ 6602
fläche 6601
till 6601
Griechenland 6601
arium 6601
mod@@ 6597
einger@@ 6597
Vel@@ 6597
ESCAP 6596
tendency 6595
Angesichts 6595
icherung 6594
ECOWAS 6593
hire 6593
ots 6592
unabhängig 6592
bag 6591
attempting 6590
unterschiedliche 6590
sul@@ 6589
freiheit 6588
pt 6588
Watch 6587
ami 6584
chron@@ 6584
versus 6584
Antrag 6583
MySQL 6582
agt 6582
guard 6581
read@@ 6581
smoke 6578
assault 6578
konstruk@@ 6577
gegenseiti@@ 6575
tätig 6575
Serious 6574
slip 6574
ATE 6573
transported 6573
disclosed 6572
Tom@@ 6571
FI@@ 6571
Solidarity 6571
biotechnology 6570
FM@@ 6570
Forderungen 6570
atoren 6570
Tar@@ 6570
prosecute 6568
ceremony 6567
Je@@ 6567
Rental 6567
Las 6567
salmon 6567
tionally 6565
clearer 6565
circle 6564
Dimension 6563
gestalten 6563
underline 6562
amen 6560
bedeut@@ 6560
Infrastructure 6559
react 6559
CIS 6558
onia 6558
stor@@ 6557
Sprach@@ 6557
gegründet 6556
Visit 6554
protest 6554
shell 6553
til@@ 6551
facilitates 6551
Interest 6550
spann@@ 6549
belt 6549
Ms 6548
Materials 6548
aligned 6547
Ki@@ 6546
ji 6546
lesser 6545
Regel 6545
deadlines 6545
Frei@@ 6544
silence 6544
TE 6542
resumption 6542
Sun 6541
System@@ 6541
reicht 6539
geschrieben 6539
116 6539
clo@@ 6537
Fab@@ 6537
umfasst 6536
Tas@@ 6533
bol@@ 6532
Benutzer@@ 6532
talent 6530
iste 6529
Revision 6528
Substantive 6528
ander 6528
oun@@ 6527
frames 6527
Cou@@ 6526
MP3 6526
calculations 6525
Goal 6524
aqu@@ 6524
Stabil@@ 6522
rescue 6521
deficiencies 6521
fir@@ 6520
geschehen 6519
acknowledges 6519
Making 6519
zentr@@ 6518
bit@@ 6517
tech 6516
Friendly 6516
appraisal 6516
infrastructures 6514
accessories 6514
Select 6514
Held 6514
legacy 6514
absolut 6513
revise 6513
fa 6512
Aufnahme 6512
sicherheit 6511
laboratories 6511
vernünf@@ 6510
Multi 6510
grand@@ 6510
CANADA 6509
Paket 6509
zogen 6509
Beru@@ 6509
б@@ 6508
Band 6508
nä@@ 6508
gifts 6507
featuring 6507
Venice 6506
profitieren 6505
encing 6504
bericht 6502
od 6500
main@@ 6499
Commander 6499
inge 6499
Low 6498
Dangerous 6498
preis 6498
inability 6497
Menschenrechts@@ 6497
Rep@@ 6496
bruch 6493
Fair 6492
tent@@ 6492
overlooking 6490
Einhaltung 6488
nehmer 6488
Integr@@ 6487
Indien 6486
successes 6486
urr@@ 6486
Som@@ 6485
promotional 6485
Conservation 6484
Monaco 6484
fabric 6483
steigen 6483
tips 6482
Belgrade 6481
manifestations 6480
unchanged 6477
fiziert 6476
Texte 6475
Fran@@ 6475
pot 6475
twelve 6475
photographs 6475
..... 6475
California 6473
hafte 6471
größ@@ 6470
Friedens@@ 6470
LDCT 6470
bekann@@ 6469
MA@@ 6468
simplified 6468
fang@@ 6467
Sehenswürdigkeiten 6467
Israelis 6466
Farm 6466
Nos. 6463
harmonize 6463
diskutieren 6463
developmental 6461
PD 6460
eingehen 6460
debts 6459
uer 6457
Stellungnahme 6457
opt 6455
schie@@ 6452
ish@@ 6451
tigten 6451
warming 6449
density 6449
geleistet 6448
Gleichzeitig 6447
stellungen 6447
toilet 6447
Ged@@ 6446
owed 6446
atives 6445
Abend 6444
Wil@@ 6442
folgende 6442
Add.2 6440
aufen 6440
59@@ 6439
classical 6439
deiner 6436
occurrence 6436
regionalen 6435
Greater 6435
transformed 6435
Pak@@ 6435
pledges 6434
cancel 6434
mouse 6433
ci 6433
wirkt 6433
Tokyo 6433
ando 6432
trailer 6431
Fuß 6431
duc@@ 6431
Banken 6430
ranking 6429
Stellen 6428
Marina 6428
az 6426
NH@@ 6425
Accounting 6424
aire 6423
coordinators 6423
safeguarding 6423
Hintergrund 6423
äumen 6420
modelling 6420
117 6419
ort 6419
convert 6419
interpreters 6418
kaufen 6418
desktop 6417
awaiting 6415
sein@@ 6414
seal 6414
ups 6414
aring 6413
charm 6411
Entwicklungen 6411
erv@@ 6411
ete 6407
engen 6407
arti@@ 6407
toren 6406
Polen 6405
Kuwaiti 6405
endgül@@ 6404
mag 6404
bild 6404
Hersteller 6404
legung 6403
versorgung 6403
TO@@ 6402
centr@@ 6402
Analy@@ 6400
Sorge 6400
Wet@@ 6399
Radi@@ 6399
dramatically 6399
homo@@ 6398
2.7 6398
icher 6397
Achtung 6397
Vielzahl 6397
unbe@@ 6396
zeichn@@ 6396
hygiene 6394
ared 6393
claimants 6392
englis@@ 6392
stance 6392
extr@@ 6391
Kommunikation 6391
urs 6390
personality 6390
disappearance 6389
dur@@ 6389
selben 6388
selecting 6387
verlassen 6387
adhere 6386
Bis@@ 6386
Rei@@ 6385
sig@@ 6383
birds 6382
Muslims 6381
isation 6381
Money 6380
Annan 6380
gering@@ 6379
will@@ 6378
Bad@@ 6378
stringent 6378
challenged 6376
systeme 6376
mak@@ 6376
Interpretation 6375
inn 6375
verfolgt 6373
mäßig 6373
liebe 6372
Throughout 6372
sia 6372
exporting 6370
spricht 6369
dge 6369
renew 6368
Census 6368
sights 6368
neuro@@ 6368
cooperating 6368
kets 6367
identi@@ 6367
Test@@ 6367
dan@@ 6367
consultant 6366
mailing 6364
sou@@ 6364
fiz@@ 6364
Stim@@ 6363
Doppel@@ 6362
Arbeitslosigkeit 6362
nissen 6361
Gri@@ 6361
Prioritäten 6360
stuff 6360
ati 6359
firearms 6358
Supply 6357
earmarked 6354
packing 6353
solved 6352
glau@@ 6351
LES 6351
Dokument 6349
Moment 6348
patents 6348
disorders 6347
Gü@@ 6347
Nacht 6344
Car 6344
precious 6343
devastating 6342
Chemicals 6339
Aspekt 6339
females 6338
Les@@ 6337
sn@@ 6337
Arten 6336
Niger 6336
combining 6336
zeug@@ 6335
tening 6334
Nachbar@@ 6333
istischen 6332
ium 6332
keiten 6331
Miss@@ 6331
ank 6330
forgotten 6330
199@@ 6329
Tun@@ 6328
reliance 6326
References 6326
garantiert 6326
lesson 6324
RIGHTS 6324
einiger 6324
immigrant 6323
bir@@ 6323
questioned 6323
reads 6322
CA@@ 6321
weiterer 6320
BE 6317
überprüfen 6316
differently 6316
seeds 6314
Conclusions 6313
foot@@ 6313
Price 6311
lik@@ 6311
Marie 6310
tube 6310
Gesetz 6309
mö@@ 6309
ERS 6309
genital 6308
vacancies 6307
ungsan@@ 6307
Coalition 6306
bien 6303
controversial 6303
distributors 6303
rivers 6303
Sinn 6302
Rechnung 6301
rev@@ 6301
selective 6299
Paraguay 6299
Partnerschaft 6298
A4 6297
metro 6297
alities 6297
dental 6296
feststellen 6296
verwal@@ 6296
demonstrating 6295
unforgettable 6295
schreiben 6295
low@@ 6293
sers 6293
periodically 6291
Maz@@ 6291
Maastricht 6288
121 6286
Nordic 6286
recession 6285
diagnostic 6285
acceded 6283
Programmes 6283
subscribe 6282
vari@@ 6281
ika 6281
Hostelsclub 6281
Provision 6281
incomplete 6281
exploit 6279
7.2 6277
reproduction 6277
checking 6276
Scotland 6276
AA 6275
aying 6275
reaches 6275
assumptions 6275
effek@@ 6274
TE@@ 6274
8th 6273
punkte 6273
aktive 6272
tariffs 6272
inviting 6272
admit 6271
ail 6271
accurately 6270
miteinander 6269
varieties 6269
problem@@ 6269
Everyone 6268
Gazette 6267
Stärkung 6267
tribunals 6266
belie@@ 6266
Grant 6265
Individual 6264
breite 6264
Spring 6264
trains 6263
llen 6262
empfehlen 6261
chairmanship 6260
simplify 6259
Students 6259
6.3 6259
persönlich 6259
warmly 6258
gutes 6258
Provisions 6257
15th 6256
Areas 6254
Trends 6250
Aspects 6250
Violations 6249
streng@@ 6248
endet 6247
Ideen 6247
Ba@@ 6247
empowered 6246
neglect 6246
Schwe@@ 6245
appealed 6244
ba@@ 6244
tain@@ 6243
UNDAF 6243
aling 6242
bezeichnet 6242
aked 6240
s- 6240
öl@@ 6239
Shi@@ 6239
Near 6239
enes 6239
oldest 6239
prestigious 6239
Bretton 6239
malnutrition 6238
PC@@ 6238
Mobil@@ 6238
charities 6237
exemptions 6236
anger 6235
fires 6234
übrigen 6234
donation 6234
ately 6234
gaining 6233
esses 6232
airlines 6231
lakes 6231
contributors 6230
gigen 6229
7.1 6229
rice 6229
Comp@@ 6229
tum 6227
PAR@@ 6227
lays 6225
1969 6225
alled 6224
chamber 6224
WP.30 6224
EPA 6223
Leistung 6222
Europol 6222
dioxide 6221
teren 6221
französischen 6221
II.@@ 6221
Verkehr@@ 6219
vaccine 6218
kin@@ 6218
deliberate 6218
zeichnet 6217
mes@@ 6216
Barbados 6214
beit@@ 6213
exploited 6213
confirms 6213
Ca@@ 6212
gegenwärtig 6211
99@@ 6211
airline 6210
eingeführt 6209
correspond 6209
1.7 6209
Problemen 6208
fruits 6208
steam 6207
Motor@@ 6207
prof@@ 6206
sequence 6206
Wellness 6206
medication 6205
uten 6204
Has 6204
groß 6201
keit 6201
insul@@ 6201
garage 6199
Bedürfnisse 6198
ollen 6196
Klein@@ 6196
Castle 6195
Wall 6195
suche 6194
Verwaltungs@@ 6194
precautionary 6194
demonstrations 6193
Anre@@ 6193
equi@@ 6192
employ 6192
Northwest 6191
buses 6189
Term 6187
eted 6186
Oil 6186
Rand@@ 6185
überall 6185
adversely 6185
aussch@@ 6185
Jan 6183
Submitted 6183
likewise 6183
exporter 6180
Formen 6180
Leu@@ 6180
ices 6180
decentralization 6178
gam@@ 6178
einfachen 6177
Anteil 6177
Lim@@ 6176
einges@@ 6176
educated 6176
Betrieb 6176
Go 6175
precision 6175
subsistence 6174
Nation@@ 6174
angesprochen 6174
debated 6173
sexually 6173
Rate 6171
Titel 6171
149 6170
ratifying 6170
passion 6169
etz@@ 6169
ausschuss 6167
äger 6166
Sie@@ 6166
script 6165
Kas@@ 6164
geschützt 6164
congratulations 6162
gig@@ 6162
cru@@ 6162
stag@@ 6161
logy 6160
senden 6159
excise 6158
109 6157
Previous 6157
ideally 6157
zufrieden 6157
Harmonization 6156
Irland 6156
Apartment 6155
atin@@ 6155
overwhelming 6155
Mak@@ 6154
erhält 6154
schrift 6153
Ec@@ 6152
scrutiny 6152
devote 6152
ROM 6151
Commons 6150
bathrooms 6150
Beschreibung 6150
Cypriot 6149
0.1 6149
visas 6149
Dol@@ 6149
ij@@ 6148
heated 6148
Fiji 6147
Hum@@ 6147
gegenwärtigen 6146
ford 6146
mankind 6145
Technik 6145
hectares 6144
mobil@@ 6144
hes@@ 6144
yellow 6143
mäch@@ 6143
Gast@@ 6143
demokratische 6143
nehmer@@ 6143
replacing 6142
6.5 6140
Botswana 6140
Plat@@ 6140
hingewiesen 6140
practically 6140
nearest 6139
commenced 6138
uring 6138
positiv 6137
accepts 6136
holistic 6136
Consultation 6136
fort 6136
maybe 6135
ader 6135
DNA 6134
fordert 6134
expects 6133
Eng@@ 6133
plain 6132
Hü@@ 6129
Parts 6129
alleviate 6129
protects 6128
Submission 6128
Canon 6128
lifestyle 6127
dri@@ 6127
1.8 6127
dit@@ 6127
Lauf@@ 6127
thanking 6126
entail 6125
hard@@ 6124
Hour 6124
IMO 6124
cy@@ 6124
berech@@ 6123
bills 6123
winner 6123
ting@@ 6122
ranges 6122
170 6121
Holiday 6119
tot@@ 6119
alo@@ 6119
danach 6119
ect@@ 6118
Elemente 6118
1968 6117
commence 6116
liefer@@ 6115
echte 6113
16th 6113
EG 6113
ausreichend 6113
mas 6112
Providing 6112
aining 6112
ep 6111
beginnt 6111
itable 6111
135 6111
Preparation 6110
druck 6110
Priorität 6109
Core 6108
churches 6108
collaborate 6107
Motor 6107
einsetzen 6107
Challenges 6106
uphold 6106
Märkte 6106
verständ@@ 6105
Globalisierung 6105
ennen 6104
Evidence 6102
enswert 6102
conver@@ 6102
illustrated 6100
moments 6100
ography 6099
arer 6098
Fortschritt 6098
slight 6097
56@@ 6097
motor@@ 6097
Richtlinien 6096
romantic 6095
olive 6093
geis@@ 6092
Cancer 6092
agu@@ 6092
stayed 6092
Lesung 6092
Industrie@@ 6092
jährigen 6090
Kredit@@ 6089
3.0 6088
komplett 6087
Out@@ 6087
unlike 6087
zur@@ 6086
SG 6086
Tou@@ 6086
Norwegian 6086
funktion@@ 6085
tenen 6085
paths 6085
andes 6085
6. 6084
ethn@@ 6084
großes 6083
regi@@ 6083
è 6082
Lö@@ 6082
N. 6081
stär@@ 6080
umfassende 6079
neg@@ 6078
string 6077
alignment 6076
chter@@ 6075
Verantwor@@ 6074
Überwachung 6074
bot@@ 6073
Ukrainian 6073
Prof@@ 6073
Politiker 6072
backed 6070
disseminated 6070
06@@ 6070
Jeder 6069
max 6068
Albanian 6067
tied 6067
Subprogramme 6067
Demokrati@@ 6066
anden 6065
einfache 6063
prevail 6063
32@@ 6062
Verhältnis 6062
ceased 6060
Wä@@ 6060
Fri@@ 6060
113 6060
competitors 6060
unanimous 6059
größeren 6058
...... 6057
keinerlei 6057
ösen 6055
encies 6055
offen@@ 6054
Considering 6053
unterstütze 6052
defects 6051
spiel@@ 6050
Il@@ 6050
rus@@ 6049
Gemeinsamen 6049
Nov@@ 6048
OK 6048
Meg@@ 6048
icher@@ 6048
ländern 6046
Kritik 6046
Modern 6044
dog 6044
captured 6044
craft 6043
CI 6042
EST 6042
rechtlichen 6042
govern 6042
ć 6041
ungss@@ 6041
gol@@ 6041
aufmerksam 6041
infringement 6041
introductory 6040
nationaler 6040
apo@@ 6040
logo 6040
conditional 6039
Ster@@ 6039
sup@@ 6039
pesticides 6037
rup@@ 6037
catalogue 6037
Physical 6035
Brüssel 6035
productions 6035
länger 6035
nominal 6035
Florence 6035
dismissed 6034
erforderlichen 6033
arbitral 6033
egel 6033
cotton 6032
Madagascar 6032
livelihoods 6031
Regelungen 6031
survive 6031
pack 6031
Wettbewerbs@@ 6030
Geb@@ 6030
Togo 6030
Eis@@ 6029
5.4 6028
ehr@@ 6028
Times 6027
Families 6027
commented 6027
demanded 6027
ão 6026
20,000 6025
illegally 6025
exhibitions 6024
3.6 6022
yp@@ 6022
beteiligt 6021
EM 6020
feels 6020
sämtliche 6019
inquiries 6018
17th 6016
nötig 6016
ministry 6015
NR@@ 6015
ped 6015
electronically 6015
britischen 6014
Bewertung 6013
steadily 6012
itation 6012
mem@@ 6012
Coordinating 6011
besitzt 6010
Geschäftsordnung 6010
dung 6010
receipts 6009
Comment 6009
bestätigt 6008
heben 6008
sonst 6008
Größe 6007
mögen 6007
kor@@ 6006
sofern 6005
prosecuted 6004
unpaid 6004
Meiner 6004
counts 6004
criminals 6004
teach 6002
Example 6002
scourge 6002
width 6001
enrolled 6000
ausgewo@@ 6000
organise 5999
polling 5998
contextual 5998
hier@@ 5998
schwe@@ 5998
sions 5997
ologists 5997
mol@@ 5996
ose 5996
isl@@ 5996
spezielle 5995
William 5995
financially 5994
alarm 5994
fres@@ 5994
continually 5994
dedication 5994
NRC 5993
Bulletin 5992
90@@ 5992
committing 5992
Il 5991
Opera 5990
Öl@@ 5990
importers 5989
straße 5988
breaches 5988
Narcotic 5988
Safe 5986
custom@@ 5986
herself 5986
attaches 5985
Cab@@ 5985
attacked 5984
Finan@@ 5983
confined 5982
examinations 5982
Pot@@ 5982
magazines 5981
7.5 5979
з@@ 5979
aker 5978
banned 5978
describing 5977
genannte 5977
spä@@ 5975
internationaler 5974
gangs 5973
erst@@ 5973
doc@@ 5970
adventure 5970
voluntarily 5970
Golan 5969
french 5969
Calgary 5969
starken 5969
vorliegenden 5968
Prinzip 5967
Granting 5965
asks 5962
Train@@ 5961
akti@@ 5960
chi 5960
sam 5960
ingredient 5960
affiliated 5960
Strategies 5958
Wol@@ 5958
millennium 5957
Water@@ 5957
deutsche 5957
suspend 5956
eo 5956
originating 5955
cookies 5955
Georgian 5954
aki 5954
bears 5954
iner 5953
Av@@ 5953
Play@@ 5953
Slovak 5952
ox@@ 5949
Straßen@@ 5948
bold 5948
offensichtlich 5948
batteries 5947
prolonged 5947
viability 5946
ähr@@ 5945
invoked 5945
intensified 5945
CAT 5945
Roh@@ 5944
ç@@ 5944
114 5944
AK@@ 5943
gezogen 5941
amounting 5941
keeps 5939
rech@@ 5937
breiten 5937
horse 5937
contest 5936
normal@@ 5936
viewing 5935
pak@@ 5935
Altstadt 5935
tle 5933
shi@@ 5933
artificial 5932
bigger 5931
remainder 5930
Verpflichtung 5928
worrying 5928
sav@@ 5928
warehouse 5927
conce@@ 5927
nennen 5927
reisen 5927
verbundenen 5926
Nunavut 5925
Criteria 5925
Tariff 5925
jurisprudence 5924
zahlung 5924
brother 5924
hof 5924
killings 5923
spots 5923
Element 5922
Indi@@ 5921
CP.@@ 5921
rau@@ 5920
eggs 5919
stö@@ 5919
Complete 5918
descent 5918
Prosecution 5917
bereiten 5916
NO 5916
panoramic 5915
Bis 5915
Entwurf 5913
dienst 5912
Mul@@ 5912
Bahn 5910
dynamics 5910
Notices 5909
INC 5909
Sau@@ 5909
ea 5909
voices 5909
Bir@@ 5909
motions 5909
і@@ 5908
pride 5908
coupled 5908
expiry 5907
ions 5907
vorzu@@ 5907
icon 5907
lis 5906
adolescent 5906
forecasts 5905
г@@ 5904
Obje@@ 5904
Six 5904
conscious 5903
Helsinki 5902
knowing 5900
Up@@ 5900
Agentur 5900
kostenlos 5899
its@@ 5898
Regions 5898
disappeared 5898
ous@@ 5896
Mauritania 5896
layout 5896
Higher 5896
archives 5895
highlighting 5895
divorce 5895
chern 5895
colors 5893
PP 5893
immune 5892
vermi@@ 5892
ida 5891
Tag@@ 5891
Worten 5891
casino 5890
assuming 5889
220 5888
tened 5887
outlook 5887
pay@@ 5887
dorf 5887
XML 5886
Fir@@ 5886
19. 5885
attainment 5885
tho@@ 5885
Hinter@@ 5884
tos 5884
tis@@ 5884
Maße 5884
ests 5883
garantieren 5883
Monat 5883
bü@@ 5882
prevents 5882
hergestellt 5881
centred 5880
Mitteln 5879
MAR@@ 5879
Medium 5877
safer 5877
dok@@ 5876
Gibraltar 5876
Istanbul 5876
uck 5876
bo 5875
stock@@ 5873
mittels 5872
wooden 5871
138 5870
stunning 5870
shuttle 5870
demokrati@@ 5869
zep@@ 5869
trouble 5869
reti@@ 5868
Gründe 5868
Refugee 5868
Treffen 5868
ausschusses 5868
onic 5867
hn 5867
ats@@ 5867
Unity 5867
Risiken 5866
hnung 5866
Colonial 5866
Reise 5865
odi@@ 5865
charter 5864
audited 5863
stattfinden 5862
h. 5862
höch@@ 5861
Lab@@ 5861
tu 5860
Powers 5860
sy 5860
dilution 5859
Import 5857
diesel 5857
Rock 5857
eff@@ 5856
129 5855
Stresses 5855
TER 5854
predecessor 5854
fassen 5854
Sz@@ 5854
dal 5854
diplomacy 5853
circular 5853
Kommissions@@ 5853
Ci@@ 5853
seiti@@ 5851
riding 5850
Niveau 5848
haven 5847
surgery 5847
respiratory 5846
ranks 5845
ktionen 5845
males 5844
INTER@@ 5844
Sc@@ 5843
kill 5842
domin@@ 5842
Auftrag@@ 5840
attained 5840
Updated 5840
erosion 5839
ories 5839
Fal@@ 5838
werke 5838
Fotos 5838
Cu@@ 5837
arriving 5837
likelihood 5837
bekannten 5837
Mine 5836
harvest 5836
Druck@@ 5835
stones 5835
Dun@@ 5835
betrachten 5834
spheres 5833
MP@@ 5833
movies 5833
medizin@@ 5832
Gallery 5831
zusätzlich 5830
afraid 5830
counter@@ 5829
importing 5828
Nicht@@ 5827
moratorium 5827
deeper 5827
ziellen 5827
relativ 5827
Unterkunft 5824
editor 5824
behavior 5823
etzung 5823
Umfang 5823
zufolge 5823
otel 5823
hesitate 5822
Malawi 5822
Ly@@ 5820
eness 5819
pdf 5819
has@@ 5819
Mes@@ 5818
Plan@@ 5818
grand 5816
lifting 5815
plug 5815
beinhaltet 5813
ith 5813
documentary 5813
aps 5812
Gott 5812
Temporary 5812
verloren 5810
administrations 5810
nat@@ 5808
für@@ 5808
Info@@ 5808
Bali 5807
tigte 5807
Air@@ 5806
teri@@ 5805
unfortunate 5804
äum@@ 5804
Thousands 5804
irgen@@ 5804
Egyptian 5804
Victims 5803
halt@@ 5803
tunnel 5803
EMEP 5803
hosts 5802
Az@@ 5802
Familien@@ 5801
surprising 5801
petition 5800
Patienten 5800
Regime 5797
bulletin 5796
ffe 5796
Aviation 5795
spezi@@ 5795
£ 5794
sums 5794
ativ@@ 5793
Transportation 5792
eman@@ 5792
esp@@ 5792
terminology 5792
UNIFIL 5791
Image 5791
43@@ 5790
hear@@ 5790
CD@@ 5789
rufen 5789
änder 5788
Tribunals 5787
utilize 5786
simplification 5785
Akti@@ 5785
postponed 5784
übertragen 5784
Verkehr 5784
Chem@@ 5783
downloaded 5782
alisiert 5782
TM@@ 5781
ungsverfahren 5780
cou@@ 5780
buyers 5780
zuvor 5779
optical 5778
Again 5778
Certificate 5777
lek@@ 5777
ﬁ@@ 5775
shaped 5775
118 5775
CAR@@ 5775
erien 5773
Europäer 5773
Handbook 5772
skiing 5771
ound 5771
kunft 5771
Sav@@ 5770
aga 5769
fang 5767
visitor 5767
tina 5766
Gegensatz 5766
hängt 5766
inserted 5765
premiums 5765
kü@@ 5765
Map 5762
shore 5762
Investigation 5762
gebun@@ 5761
throw 5761
Payments 5761
publishers 5758
ito 5758
alliance 5758
stabilization 5757
Erklärungen 5756
descriptions 5756
ession 5754
Tokelau 5754
Zivil@@ 5753
zte 5753
solcher 5753
ector 5751
fears 5751
Agrar@@ 5750
ost@@ 5747
Module 5745
Beteiligung 5745
trieben 5743
Maj@@ 5743
Outlook 5743
Risiko 5742
Djibouti 5741
politisch 5740
wesentlichen 5739
prohibiting 5739
por 5738
usch@@ 5737
Residence 5737
jüngsten 5736
exhausted 5735
1945 5735
multimedia 5733
nitrogen 5733
deck 5732
qualifiz@@ 5731
drück@@ 5730
umen 5730
1540 5730
Mental 5729
lem@@ 5729
KB 5728
Rub@@ 5728
gerung 5727
entsprechen 5727
globale 5727
clinics 5727
vic@@ 5727
SV 5726
Men 5726
Netzwerk 5725
ierter 5723
Counsel 5722
Mary 5719
K1A 5719
ects 5718
ry@@ 5718
Approach 5717
nic@@ 5717
offender 5717
inhal@@ 5716
finde 5716
safely 5715
religi@@ 5714
Tower 5714
Aussicht 5713
gtr 5713
QC 5713
dien@@ 5713
ux 5711
problematic 5710
Führung 5709
clearing 5708
Zentral@@ 5707
informing 5707
210 5707
unclear 5705
Methode 5705
theit 5705
priv@@ 5704
teenth 5703
Chairs 5702
Ali 5702
0.2 5701
Mitgliedern 5700
Jacques 5699
Kompromiss 5699
altern@@ 5699
transform 5697
iled 5697
bers 5695
taxi 5694
TP 5693
abide 5693
Innen 5691
grün@@ 5691
Ereignisse 5691
deduct 5688
reunification 5687
Payment 5687
Flexibilität 5687
Organic 5685
Mindest@@ 5684
Eindruck 5684
Dok@@ 5684
stabil@@ 5682
File 5680
Aufbau 5680
zusetzen 5679
taus@@ 5679
han 5678
samen 5677
Mot@@ 5676
erfordert 5676
fassung 5675
speziellen 5675
succession 5675
Red@@ 5674
Patent 5674
lin 5673
Sometimes 5673
Entschließungsantrag 5672
trägen 5671
Citizenship 5670
PN@@ 5669
Botschaft 5668
Recently 5667
encounter 5666
su 5666
fähig 5665
theoretical 5664
Rezeption 5664
Beim 5663
Credentials 5663
catering 5663
superb 5662
decolonization 5662
erhöht 5662
aching 5661
Gold@@ 5660
guter 5660
vendor 5659
connecting 5659
EI 5659
cle@@ 5657
twin 5657
Versch@@ 5657
Wirkung 5657
interdependence 5656
manchmal 5655
mistakes 5655
Summer 5655
doctrine 5654
Fiscal 5654
Nachdem 5654
enters 5654
daraus 5654
equ@@ 5654
verse 5653
painting 5653
Grün@@ 5652
gegangen 5652
Aktionen 5650
produktion 5650
tone 5649
iten@@ 5647
supporters 5647
.net 5646
mar 5646
mang@@ 5646
PO 5646
virtu@@ 5645
urs@@ 5645
delicate 5645
Infrastruktur 5644
Firmen 5644
static 5644
Bour@@ 5643
Weitere 5643
exklu@@ 5643
enge 5643
bags 5643
albeit 5643
mern 5643
weite 5643
Presentation 5642
SK 5641
Gan@@ 5640
llt 5640
Hill 5639
cit@@ 5639
Abu 5638
benach@@ 5638
atur@@ 5638
setzungen 5637
PR 5637
oma 5637
stops 5636
ode 5636
Audio 5635
deploy 5635
immunization 5634
administer 5634
UM 5633
abgeschlossen 5632
wünsche 5632
Arbitration 5632
keen 5631
stic@@ 5631
Verständnis 5630
PRO@@ 5630
decken 5630
cattle 5628
Alexander 5628
tight 5627
gers 5627
score 5627
comm@@ 5626
guardian 5625
indic@@ 5625
Absatz 5624
kostenfre@@ 5624
mounted 5623
UNM@@ 5622
benchmark 5622
ausführ@@ 5622
fangen 5621
geöffnet 5621
Increase 5621
inner@@ 5620
Erde 5618
Winnipeg 5618
Daniel 5616
Qualitäts@@ 5616
Tests 5615
WLAN 5614
searching 5614
chains 5614
wrongful 5612
∗ 5611
ständigen 5611
Hoffnung 5611
å@@ 5610
aben 5610
seasonal 5609
1958 5609
ausgesetzt 5609
Realität 5608
reden 5608
normative 5607
jen@@ 5607
sigen 5607
ights 5606
Begriff 5605
gas@@ 5605
operation@@ 5604
schlägt 5604
ened 5603
Gebiete 5602
fers 5602
Promote 5601
informiert 5600
124 5600
zieht 5600
rad@@ 5600
Nord 5600
hauptsächlich 5600
ray 5598
ierungen 5597
Anlagen 5596
Empfehlungen 5596
ideale 5595
Ash@@ 5595
atische 5594
displays 5593
spatial 5593
Winter@@ 5592
Sudanese 5592
Guard 5592
rigen 5591
fertility 5591
gle@@ 5591
Autom@@ 5591
lem 5590
evolved 5589
Vermittl@@ 5589
letz@@ 5589
GC 5589
2.8 5589
reader 5589
physically 5589
wet 5586
oll 5585
gravity 5585
passen 5585
yard 5584
Libya 5584
denk@@ 5584
127 5583
perpetrated 5583
ush 5582
Sonn@@ 5582
couples 5582
NAFTA 5581
vicinity 5579
plates 5579
shorter 5578
compensate 5577
defending 5577
182 5577
Fort@@ 5576
drän@@ 5576
acquiring 5575
positioned 5574
präsentiert 5573
invoice 5573
ae@@ 5572
damals 5568
persecution 5567
Key@@ 5566
Farb@@ 5566
celebration 5565
sponsoring 5564
hei@@ 5564
RES 5563
Teilen 5563
Kit@@ 5563
groß@@ 5563
intensi@@ 5563
allies 5562
www.c@@ 5562
ister@@ 5562
Cash 5561
tuberculosis 5561
cli@@ 5560
Nutzer 5560
flav@@ 5560
Intelligence 5559
bone 5559
reck@@ 5559
pic@@ 5559
med@@ 5558
Minder@@ 5558
ska 5558
Bahnhof 5558
boasts 5557
real@@ 5557
touris@@ 5557
Compensation 5556
Š@@ 5556
füh@@ 5555
geared 5555
Somali 5555
tape 5555
Accountability 5554
regeln 5554
Volunteers 5553
1951 5552
izes 5552
Kompl@@ 5551
paramount 5551
atz 5550
Aires 5549
Klima@@ 5549
TM 5548
stieg 5547
setz@@ 5545
bert 5545
jungen 5544
Heating 5544
rests 5544
CRP.@@ 5544
registri@@ 5543
dah@@ 5542
variation 5542
Responsibility 5542
intimidation 5541
sick 5539
Bewer@@ 5539
Notwithstanding 5539
reiche 5539
Gesam@@ 5538
Purpose 5538
appearing 5538
illustrate 5537
beh@@ 5536
ao@@ 5535
outbreak 5535
investor 5534
entails 5534
Debt 5534
fed 5534
picturesque 5533
Stein@@ 5532
mende 5531
regul@@ 5531
tie 5531
CIAT 5528
Decolonization 5527
architectural 5527
college 5527
posting 5527
tells 5526
opp@@ 5526
beachten 5525
assis@@ 5525
ause 5525
norm 5524
RES@@ 5524
zum@@ 5523
Urlau@@ 5523
Buenos 5523
rid 5522
incumbent 5522
Wahr@@ 5521
Marg@@ 5521
Hälfte 5521
daughter 5520
Nothing 5519
gh 5518
lively 5518
mischen 5517
Economics 5517
tongue 5517
geh@@ 5515
supplemented 5515
stellte 5515
parameter 5514
breeding 5514
undermined 5514
accord 5514
activists 5513
intelligent 5513
ständige 5512
striking 5511
stoff 5511
Stock 5511
soul 5510
Chairmen 5510
competitions 5510
ele@@ 5509
Spezi@@ 5509
Registered 5509
nied@@ 5509
12,@@ 5508
Konflik@@ 5508
Almost 5508
globe 5507
Det@@ 5507
furthermore 5507
ids 5507
tran@@ 5505
gio 5505
aktiven 5505
ron@@ 5504
permitting 5503
Translation 5503
recovered 5502
missile 5502
allgemeine 5502
Inseln 5501
Membership 5501
indicative 5501
Vom 5500
zugleich 5499
sau@@ 5499
TRADE 5499
tine 5498
ening 5497
è@@ 5496
Being 5496
hang 5495
Ebenso 5495
Instruments 5494
Krank@@ 5494
itet 5494
igt 5494
cod 5494
wichtigste 5494
unauthorized 5492
Sit@@ 5492
dens@@ 5492
7. 5491
berühmten 5490
Teams 5490
parliamentarians 5489
kol@@ 5489
caution 5488
Appointment 5487
Depending 5487
immer@@ 5486
tender 5485
Grundsatz 5485
geschieht 5485
alive 5484
Gegenteil 5484
accede 5484
oms 5483
punish 5483
unstable 5483
jährlich 5481
nachhaltige 5481
mapping 5481
lifetime 5481
Milan 5480
einzigen 5480
technically 5480
arity 5479
benefiting 5478
sobald 5478
writer 5475
failures 5475
ained 5474
gten 5474
consolidating 5474
tes@@ 5473
notable 5471
tem@@ 5471
evil 5471
Revised 5470
Hostel 5470
instrumental 5470
cheese 5470
Elevator 5469
SAP 5469
administrator 5468
abe 5468
sieren 5468
sible 5467
amed 5467
medieval 5467
Vorteil 5465
dun@@ 5465
illed 5465
rang@@ 5464
es.@@ 5464
Consulting 5464
ann 5461
XP 5461
Wur@@ 5460
noticed 5459
Park@@ 5458
veto 5457
cessation 5457
conceptual 5456
Hinweis 5456
sorry 5456
monuments 5455
teten 5454
Verein@@ 5454
Städte 5454
ziert 5454
hebung 5454
HP 5453
minds 5453
53@@ 5452
regelmäßig 5451
persönliche 5451
Bedarf 5449
fizierung 5448
referral 5448
Spirit 5448
Neither 5447
motorway 5444
Quartet 5443
Herz@@ 5443
Aqu@@ 5442
thoughts 5442
ayed 5441
Activity 5441
sz@@ 5438
graduates 5437
Schlüssel@@ 5437
leistungs@@ 5436
Golf@@ 5436
Ausland 5434
226 5434
bewegen 5433
festgestellt 5433
eurozone 5433
erie 5433
mb@@ 5432
Big 5432
Target 5432
Wales 5432
investigative 5430
advocates 5430
holen 5430
142 5430
usefulness 5430
region@@ 5429
lengthy 5428
encouragement 5428
Grunde 5428
einverstanden 5428
idet 5427
ichs 5427
utzes 5426
Hauptstadt 5426
Forsch@@ 5425
ute 5425
tioning 5424
terminated 5423
laying 5423
nahm 5423
Kofi 5423
Internationalen 5423
schaft@@ 5421
worfen 5421
tende 5421
fs@@ 5420
Organ@@ 5420
ire 5420
spiel 5420
maturity 5420
foreseen 5419
eleventh 5419
Beschäftigungs@@ 5418
Voraussetzungen 5418
competencies 5417
DG 5417
fän@@ 5417
usses 5417
liste 5416
industri@@ 5415
enth@@ 5415
Islam@@ 5415
sab@@ 5412
betroffen 5411
Dien@@ 5410
wire 5410
Versicher@@ 5410
Solutions 5409
M.@@ 5409
rubber 5409
ordnungs@@ 5408
specification 5407
dictat@@ 5407
ef 5406
resettlement 5405
Towards 5404
Amerika 5404
praktisch 5403
Kür@@ 5403
Welche 5403
sierung 5403
childcare 5402
Fraktionen 5401
Institut 5400
Beihilfen 5399
boarding 5399
Though 5399
authorised 5398
Envoy 5398
echn@@ 5398
fifteen 5398
MC 5397
isn 5397
GHS 5396
119 5395
favorite 5394
engineers 5394
Unlike 5393
signi@@ 5393
imbalances 5391
Py@@ 5391
Sauna 5390
tene 5390
pel@@ 5389
TA@@ 5388
successive 5388
disappointed 5387
veranst@@ 5387
DA@@ 5387
Includes 5386
Actions 5386
spre@@ 5386
Sl@@ 5385
Scope 5385
burning 5385
Burma 5384
sts 5383
Bestandteil 5382
plex 5382
pil@@ 5381
ME 5381
Laboratory 5381
Bhutan 5381
Temper@@ 5381
Ed@@ 5381
races 5380
Step 5380
pä@@ 5379
Buch 5379
C.4 5379
ausger@@ 5378
contr@@ 5378
Des 5376
ambi@@ 5375
Kontroll@@ 5375
ech 5375
vorgeschlagenen 5374
abolished 5374
Wind@@ 5373
Königreich 5371
wodurch 5371
0,000 5371
mobilizing 5371
Flü@@ 5371
holes 5371
debating 5370
WG.@@ 5370
hon@@ 5370
modernization 5370
Lux@@ 5370
gewählt 5369
circuit 5369
mungen 5369
u. 5368
iPhone 5367
celebrated 5367
definitive 5367
signatures 5366
Lis@@ 5366
rotation 5365
relocation 5365
impartiality 5365
akes 5365
reveals 5363
05@@ 5362
Uses 5361
bahn 5361
gliche 5360
Cairo 5360
recreation 5360
sid@@ 5359
Farben 5358
sign@@ 5358
BY 5358
anbieten 5357
pipe 5357
Landschaft 5357
schneller 5357
fi 5357
Reich@@ 5357
Maintenance 5356
traditionellen 5356
importation 5355
wisdom 5355
stays 5354
secondly 5354
Proposals 5354
Eradication 5353
Brand@@ 5353
Prüfung 5352
immense 5352
DD 5351
Dienst 5351
advocated 5351
QU@@ 5350
Virgin 5350
132 5348
lige 5348
corn 5347
wholly 5344
20. 5344
combustion 5344
B5 5344
aters 5343
chances 5343
Unabhängigkeit 5343
damaging 5343
ule 5343
ilfe 5342
Recovery 5342
restoring 5341
Courts 5340
rac@@ 5340
osten 5340
hung 5339
hinzu@@ 5339
band@@ 5338
oli 5338
profitable 5336
phenomena 5335
Trotz 5332
Zahlen 5331
Klimaanlage 5331
lass@@ 5330
Veranstaltungen 5328
Resident 5328
auff@@ 5328
Committed 5326
alling 5326
zunehmen 5326
administrators 5325
Ruhe 5325
kommens 5325
ham 5325
betroffenen 5324
wahl@@ 5322
hend 5322
angeht 5322
RID 5321
Captain 5320
Close 5320
fired 5319
organ@@ 5319
komfor@@ 5319
Tool 5318
Zahl@@ 5318
öst@@ 5318
sincerely 5317
Eigent@@ 5317
ł@@ 5317
gran@@ 5316
anne 5315
Serie 5315
successor 5315
wann 5314
doses 5313
Wes@@ 5313
Reise@@ 5312
Mountain 5311
complemented 5311
phased 5311
purchaser 5310
beschäftigt 5310
Wien 5310
tigh@@ 5309
uranium 5309
Manufacturing 5309
silent 5308
Spezial@@ 5308
schooling 5308
äten 5308
dir 5307
J.@@ 5306
schied@@ 5306
gate 5306
Golden 5306
auto@@ 5306
wäl@@ 5306
Unternehmens 5305
ungsm@@ 5305
Word 5304
früher 5303
Urspr@@ 5302
writers 5302
Angebote 5301
junge 5301
ž@@ 5300
herzlich 5298
Average 5298
Aufgrund 5298
haf@@ 5297
audiences 5297
Drive 5296
builds 5296
dest@@ 5294
äfte 5294
weig@@ 5293
brands 5293
sern 5292
corresponds 5291
.html 5291
civilizations 5291
begann 5291
Männer 5290
agr@@ 5290
att 5289
Village 5289
Vista 5288
Companies 5288
C.6 5287
Proz@@ 5287
kop@@ 5287
yearly 5286
stoffen 5284
receivable 5284
Erhöhung 5283
transferring 5283
77@@ 5282
.de 5282
alisieren 5281
inventories 5281
klar@@ 5280
underscored 5280
Je 5278
König@@ 5278
calculating 5278
Similar 5277
multidisciplinary 5276
methodological 5276
kürzlich 5275
origins 5275
BE@@ 5275
Licht 5275
nom@@ 5274
1961 5274
Trusteeship 5274
11. 5273
Coll@@ 5273
sichern 5273
Kü@@ 5272
Struktur 5271
tough 5270
Potential 5270
Tau@@ 5269
instituted 5269
Industries 5268
Tages@@ 5268
Fähigkeit 5268
Len@@ 5267
NOT 5267
enne 5267
admissible 5267
vorschlagen 5266
eco 5266
gesellschaften 5265
By@@ 5264
Managing 5264
weiteres 5264
XX@@ 5264
ew 5262
besseren 5262
use@@ 5262
bug 5262
Liberal 5261
inevitably 5261
festivals 5261
Specifically 5260
Gesetzgebung 5260
tsunami 5259
Clean 5258
welchen 5258
atisch 5258
Zimmern 5257
passi@@ 5257
stereotypes 5257
synthesis 5257
Globalization 5256
ört 5256
о 5256
ailing 5255
Hi@@ 5254
pap@@ 5254
sporting 5254
pipeline 5251
Log@@ 5251
vollkommen 5251
graf@@ 5251
marketplace 5250
Cli@@ 5250
reagieren 5250
Wander@@ 5248
ious 5244
Sicherheit@@ 5243
üch@@ 5243
dairy 5242
PCH 5242
Mehr 5240
Früh@@ 5240
Klimawandel 5239
yen 5239
mature 5238
accumulated 5238
coordinates 5238
gang@@ 5237
Ky@@ 5237
pin@@ 5236
wie@@ 5236
NEW 5235
Entsch@@ 5235
assung 5235
weakness 5235
cc@@ 5234
interviewed 5233
endung 5232
schedules 5232
0.7 5232
Tax@@ 5232
watching 5231
Television 5231
pump 5231
Vene@@ 5231
schön 5230
educate 5230
Charakter 5230
Methoden 5229
Elek@@ 5229
Power@@ 5228
elegan@@ 5228
Rotterdam 5228
Juan 5226
Bewegung 5226
Territorial 5225
alarming 5225
Beitritts@@ 5225
Gay 5225
schlagen 5224
ells 5223
Lounge 5223
lac@@ 5221
Lan@@ 5221
ached 5221
contingency 5221
iben 5221
Obviously 5220
credited 5220
Ori@@ 5220
align 5220
Ess@@ 5219
pp 5219
alising 5219
aquifer 5218
Points 5218
spreading 5218
Agri 5218
Überprüfung 5217
Nam@@ 5217
preferential 5217
uncertain 5216
editorial 5216
gewin@@ 5216
ounding 5215
Luggage 5215
rige 5215
feelings 5214
USS 5214
elli 5213
automotive 5213
Advanced 5213
synchron@@ 5212
68@@ 5212
Week 5212
Laufe 5211
SIS 5209
edy 5209
126 5209
mutilation 5209
Ordnung 5208
Freedoms 5208
inevitable 5208
consumed 5206
ín 5206
smart 5206
Doc@@ 5206
atmospheric 5203
14th 5203
diskutiert 5203
See@@ 5203
abhängig 5202
treating 5202
preambular 5202
freeze 5200
igh@@ 5200
bian 5200
bindung 5200
alistic 5199
mL 5199
liert 5198
Tan@@ 5198
privilege 5198
abil@@ 5198
Pau@@ 5198
featured 5196
veterinary 5195
missiles 5195
Above 5194
innov@@ 5194
CDs 5194
particulate 5193
musi@@ 5192
aster 5192
ento 5192
166 5192
eth 5191
etes 5191
fertigt 5191
boundary 5190
Vors@@ 5189
notwithstanding 5189
WG 5189
accomplish 5188
11th 5188
ult@@ 5187
Handel@@ 5187
13th 5186
Westen 5186
Caucasus 5185
2.1.@@ 5184
adi 5183
Liberalisierung 5183
Reaktion 5181
Stadtzentrum 5181
Teilnehmer 5180
arose 5180
11,@@ 5180
residual 5179
VER@@ 5179
linie 5179
highway 5179
fühlen 5179
permissible 5179
Inner@@ 5179
Consolidated 5179
confront 5178
DO@@ 5178
natur@@ 5178
Intellectual 5178
folder 5177
Work@@ 5177
Et@@ 5177
rain 5176
entrepreneurship 5175
cameras 5174
Holz@@ 5174
convince 5172
cour@@ 5172
TI 5171
designer 5171
я 5171
Waren 5170
Items 5170
nobody 5169
Better 5169
Gran 5169
Verbraucher@@ 5168
tenure 5167
date@@ 5167
organisationen 5166
einzelne 5165
weg@@ 5165
Santiago 5164
Docs 5164
werten 5163
readers 5163
viol@@ 5162
echten 5161
DR 5161
Consider 5160
adv@@ 5160
qualities 5160
UNAMSIL 5160
Detail 5160
hills 5159
Diskriminierung 5159
hlte 5159
Desertification 5158
dol@@ 5158
ample 5158
Auditor 5158
telling 5157
stimmt 5157
Francisco 5157
val 5157
XV 5156
Presidential 5156
21.@@ 5155
renovation 5155
Re 5154
vereinbar@@ 5154
entes 5154
replied 5153
editing 5153
Authorities 5153
sym@@ 5152
Liebe 5152
centrally 5152
bezieht 5151
construct 5151
MT@@ 5151
Romanian 5148
DND 5148
reib@@ 5148
Resolutions 5148
Bos@@ 5147
favoured 5147
Grenze 5147
GO 5146
Verification 5146
liquidity 5146
Initial 5145
ga@@ 5145
snow@@ 5144
lend 5144
fossil 5144
diamond 5144
Down@@ 5143
Ã 5143
hiking 5142
Telefon 5141
Gästen 5139
samer 5137
part@@ 5137
bewer@@ 5137
dust 5137
attracted 5136
lauf@@ 5136
cut@@ 5135
concessions 5135
verbatim 5135
initiation 5134
optimi@@ 5134
Bridge 5133
Ratspräsident 5132
PA@@ 5132
ki@@ 5132
Kind 5132
lows 5132
Ware 5131
inal 5131
Ds 5131
bay 5130
accumulation 5129
inspiration 5129
153 5129
21. 5128
nation@@ 5128
6.4 5127
RA 5127
fits 5125
extensively 5124
disseminating 5124
gelassen 5124
oria 5124
seriousness 5124
4.6 5123
Rab@@ 5122
contacted 5122
Rico 5122
wes@@ 5122
Besu@@ 5121
Respect 5121
affen 5120
overcoming 5120
Blo@@ 5120
fare 5119
bequem 5119
grades 5119
Bol@@ 5119
fought 5119
DM@@ 5118
competences 5117
publicity 5117
Lehr@@ 5116
haft 5116
interpretations 5115
borrowing 5115
500@@ 5114
Kör@@ 5113
ua 5113
eigen@@ 5112
Websites 5112
Fälle 5111
enlarged 5111
rooted 5111
suspects 5110
ч@@ 5110
emi@@ 5110
bildet 5109
EIA 5109
cumulative 5109
bureaucratic 5109
downtown 5107
entitlement 5106
skon@@ 5106
able@@ 5106
Versuch 5106
ole 5106
glück@@ 5105
alert 5105
wasser@@ 5105
explosives 5105
tower 5104
grü@@ 5103
Symbol 5103
ALL 5103
Continue 5103
deckt 5103
subscription 5102
blame 5102
Issue 5102
TR 5102
struk@@ 5101
della 5101
merger 5100
Gefühl 5100
fundamentally 5100
e- 5100
proceeded 5100
IM 5099
verlieren 5099
boy 5099
chocolate 5098
depl@@ 5098
ility 5097
entliche 5097
industrialized 5097
CCCT 5095
viruses 5095
gent 5094
surfaces 5094
rot@@ 5094
Meeres@@ 5093
kür@@ 5093
twelfth 5093
uck@@ 5093
öse 5092
ierenden 5092
Insert 5091
nehm@@ 5090
bing 5090
Bewe@@ 5090
Trek 5090
rem@@ 5090
seitens 5090
strikes 5089
fäl@@ 5089
diger 5089
Wikitravel 5088
loo@@ 5086
Balkan 5086
Oslo 5085
Freunde 5085
■ 5085
asi 5084
Tibet 5084
Tatsächlich 5083
asting 5083
archive 5082
Essen 5082
rebel 5082
regionale 5081
Editor 5081
cad@@ 5080
volatile 5080
prot@@ 5080
ра@@ 5080
recruit 5080
presently 5079
ple 5077
smo@@ 5077
mirror 5077
disadvantage 5077
Kombination 5077
Nat@@ 5076
Ple@@ 5075
eva 5074
Gol@@ 5074
Gesundheit@@ 5074
Choose 5074
strategie 5074
zunehmend 5074
missed 5073
Nag@@ 5073
Living 5072
umwelt@@ 5071
seniors 5071
NS 5070
positiven 5069
arbe@@ 5069
contributor 5068
disposed 5067
Dokumente 5067
Improved 5066
Wand@@ 5066
Bak@@ 5066
violating 5065
akzeptiert 5065
Touris@@ 5064
listened 5064
En 5064
betont 5062
margins 5062
Individuals 5062
Discover 5061
Tiere 5059
representations 5059
Willen 5059
Ra@@ 5059
civic 5058
gungen 5058
managerial 5057
arians 5057
schnit@@ 5057
offshore 5056
ländlichen 5056
consuming 5055
TER@@ 5054
glichen 5054
iting 5054
Anpassung 5054
angeb@@ 5054
Parti@@ 5053
Koordinierung 5053
Fas@@ 5053
shock 5053
Schiff@@ 5053
freundliche 5052
Baghdad 5052
Unterschiede 5051
vaccines 5051
coll@@ 5050
sicherstellen 5050
Spiele 5049
analysing 5049
Kapital@@ 5048
Dry 5048
Lau@@ 5047
unt 5045
Fot@@ 5045
Everything 5045
Atom@@ 5045
weltweiten 5044
consisted 5044
Ten 5044
lern 5043
deputy 5043
incorrect 5043
ünd@@ 5042
Certification 5042
ody 5040
Dadurch 5039
ahn 5039
ca@@ 5038
ahl@@ 5038
Conventional 5036
GRSG 5034
corporal 5034
Railway 5034
EDC 5034
kehren 5034
railways 5033
Bab@@ 5033
Know 5032
pointing 5032
interfere 5032
splendid 5031
Schools 5031
Umständen 5031
Mann@@ 5031
Körper 5030
Lit@@ 5030
1970s 5029
illing 5029
Offices 5029
Strategien 5029
Shanghai 5029
OP 5028
12th 5028
GPS 5027
erter 5027
verstärkt 5026
SB@@ 5026
undergo 5026
ott@@ 5025
Gesetze 5025
äh@@ 5024
eckt 5024
fahrens 5024
ehemaligen 5022
Struktur@@ 5021
seien 5021
einzel@@ 5021
orial 5021
übernommen 5021
formul@@ 5020
Theatre 5020
Disability 5020
culturally 5018
IDB.@@ 5018
wards 5017
Studie 5016
affirmed 5015
eries 5015
Sanktionen 5014
Campaign 5014
bling 5014
Transport@@ 5013
höchste 5012
druc@@ 5012
policymakers 5011
Zustand 5010
seiten 5010
Stunde 5010
FA 5010
Asyl@@ 5009
favourite 5008
städ@@ 5008
het 5007
home@@ 5007
Maison 5006
misuse 5006
ansch@@ 5006
dialog 5003
cap 5002
2.45 5002
genetically 5001
Hans 5000
olo 4999
Wegen 4999
instantly 4999
compound 4998
inception 4998
Active 4998
statutes 4998
abs@@ 4997
Auff@@ 4997
sches 4995
lens 4995
deliberately 4994
geteilt 4994
schwar@@ 4993
random 4993
äus@@ 4993
Christians 4993
Could 4993
ians 4993
arrears 4992
amm@@ 4991
Poli@@ 4991
Allah 4991
gemä@@ 4991
nationwide 4990
tract 4989
dritten 4989
prob@@ 4989
Vorbereitung 4988
Ob 4988
Vielleicht 4987
1963 4987
Mach@@ 4987
wiederum 4987
Come 4986
urg@@ 4986
obesity 4985
Süden 4985
CAN 4985
oth@@ 4984
NOTE 4984
BIP 4984
fruitful 4983
Short 4983
Maß@@ 4983
ergeben 4983
Hon@@ 4983
Naz@@ 4981
bereiche 4981
Them@@ 4981
extrajudicial 4981
Mein 4980
Gesetz@@ 4979
amerikanische 4978
relaxed 4978
Teilnahme 4978
13,@@ 4978
loved 4977
Kamp@@ 4976
vacuum 4976
template 4976
Timorese 4975
ICH 4975
este@@ 4974
kids 4974
nominations 4974
plas@@ 4974
accompany 4974
Transition 4973
Schule 4973
rough 4972
Antonio 4972
ühr@@ 4972
Lun@@ 4972
Anliegen 4971
begrenz@@ 4971
elen 4969
Diskussionen 4969
shocks 4969
SU@@ 4969
Kraft@@ 4969
bed@@ 4968
ato@@ 4968
inmates 4968
overnight 4968
koordin@@ 4968
cons@@ 4968
basiert 4967
Hot@@ 4967
precedent 4967
Studi@@ 4967
Einklang 4967
High@@ 4966
expressions 4966
tas@@ 4966
bürger@@ 4966
Kirk 4965
amp 4964
Cer@@ 4964
sucht 4963
Gemein@@ 4963
exc@@ 4963
Ken@@ 4963
ppm 4962
Anlage 4962
deportation 4962
CHF 4961
andererseits 4960
dev@@ 4959
erei 4958
ø@@ 4958
brackets 4957
Save 4957
injection 4957
nochmals 4957
iser 4956
Saddam 4956
measurable 4956
emia 4955
underlines 4955
Pir@@ 4955
lovers 4954
7.3 4954
Eigenschaften 4954
sinn@@ 4954
zwei@@ 4953
gewisse 4953
liefern 4953
ambition 4952
she@@ 4950
Neuro@@ 4950
Airlines 4949
2.30 4948
Explorer 4948
Century 4946
PI 4946
Herr@@ 4945
opti@@ 4945
Looking 4945
Bedenken 4945
Pack 4945
stab@@ 4944
Sac@@ 4944
bility 4944
Bau 4943
omb@@ 4943
PSE 4942
olu@@ 4941
Cy@@ 4941
Fig@@ 4941
condi@@ 4940
matching 4940
Database 4939
drives 4938
ж@@ 4938
auto 4937
expectancy 4937
derzeitigen 4936
Papua 4935
temp@@ 4934
repercussions 4934
lacks 4934
shelf 4933
basin 4932
bureaucracy 4932
ping 4932
152 4930
Double 4930
führten 4930
trace 4929
sieben 4929
145 4929
förder@@ 4928
vente 4928
karte 4928
motivation 4928
kost@@ 4927
vielmehr 4927
SQL 4926
gent@@ 4926
Such@@ 4926
IBM 4925
assistant 4922
sequ@@ 4922
liver 4922
München 4921
Method 4921
ober@@ 4921
CERD 4921
worry 4921
acies 4921
debris 4920
gos 4920
professions 4920
Prec@@ 4920
Ach@@ 4919
complying 4918
Sup@@ 4918
commends 4918
defense 4917
floods 4917
residing 4917
tau@@ 4917
Sources 4917
insight 4917
Fa@@ 4916
explanatory 4916
trademark 4916
Fenster 4916
Roll@@ 4915
reorganization 4915
metric 4915
169 4915
Navigation 4915
www.un@@ 4914
bacteria 4914
wildlife 4913
prospective 4913
holdings 4913
Samoa 4912
deductions 4912
quoted 4912
SL 4912
detail@@ 4910
thumbnail 4910
trotzdem 4909
eing 4909
Foto 4909
Kunde 4909
oy@@ 4909
äußer@@ 4909
egel@@ 4909
stag 4908
Written 4908
fällen 4907
burdens 4906
delivers 4906
Geist 4906
Claims 4905
Nutz@@ 4904
auction 4904
engag@@ 4903
URL 4903
OIC 4903
AW@@ 4903
angen@@ 4903
tier 4902
beizu@@ 4902
universality 4901
suggesting 4901
höhere 4901
berge 4900
turnover 4900
ock@@ 4900
isting 4899
Halifax 4899
gnis 4899
keiner 4899
Quad@@ 4899
tends 4899
gestern 4899
reser@@ 4898
complic@@ 4898
Ungleich@@ 4898
Inn@@ 4897
Measurement 4897
oils 4896
specifies 4895
umfassenden 4895
orie 4895
mittl@@ 4895
Canal 4895
Amend 4894
Freude 4894
speaks 4893
echo@@ 4893
88@@ 4893
kits 4892
packed 4892
activate 4892
Bed 4892
Trinidad 4892
wa@@ 4892
silver 4892
mittag 4891
schein@@ 4891
Salzburg 4890
nut@@ 4890
asp@@ 4889
rein 4888
Verfügbarkeit 4888
verlangen 4888
attracting 4887
CAD 4887
landmines 4887
Profile 4887
vegetation 4887
aming 4886
gearbeitet 4886
30,000 4886
Vertrags@@ 4884
frü@@ 4884
behörden 4884
fak@@ 4883
wirtschaft 4883
Voraussetzung 4882
&apos;S 4882
influences 4881
NET 4881
optimum 4880
obstruc@@ 4880
Tod 4879
zielt 4878
dopp@@ 4878
II@@ 4878
planes 4877
Architektur 4876
absent 4876
bet 4876
studi@@ 4876
143 4876
lying 4876
Gor@@ 4875
Mun@@ 4875
stattung 4874
Methods 4873
inalienable 4873
jährige 4873
MIN@@ 4873
landing 4872
sco@@ 4872
detrimental 4872
Turning 4872
unlimited 4872
Hilfs@@ 4872
signatories 4872
registrant 4871
zielle 4870
sli@@ 4870
Absch@@ 4869
doubled 4869
Kollege 4868
AGE 4868
reich 4867
erwar@@ 4867
Record 4867
arena 4867
bern 4866
Approximately 4866
1966 4866
zo 4866
vention 4866
fissile 4865
factual 4865
Fischer@@ 4863
unternommen 4863
schlim@@ 4863
Führ@@ 4863
bread 4862
nas@@ 4861
convictions 4861
RI 4860
brutal 4860
Famili@@ 4860
Eig@@ 4860
elementary 4860
Karten 4860
tap@@ 4859
Rest 4859
mitten 4858
genauso 4858
Steel 4857
Friends 4857
lossen 4856
copper 4856
fire@@ 4856
tica 4856
clothes 4854
weis@@ 4853
colleges 4853
137 4853
lor@@ 4851
Antworten 4851
133 4850
Fon@@ 4850
Sche@@ 4849
verab@@ 4849
erneuerb@@ 4849
openly 4848
groundwater 4847
Quali@@ 4847
marriages 4846
Oral 4845
historische 4844
ktion@@ 4844
ESS 4843
ima 4843
Liaison 4842
regelmäß@@ 4842
Nikon 4842
induced 4842
concerts 4842
Allgemeinen 4841
Peaceful 4841
TN@@ 4840
wichtiges 4840
Grundrechte 4839
tures 4839
heraus 4839
enthusiasm 4838
anerkannt 4838
Prison 4837
thr@@ 4837
Brit@@ 4837
CER@@ 4836
KT 4836
herrscht 4836
RSS 4835
leverage 4835
dom@@ 4835
affiliate 4835
lungs@@ 4834
respek@@ 4833
quo 4833
Effizienz 4833
marginal 4832
Comm@@ 4832
richtlinie 4831
rück@@ 4831
Erkenn@@ 4828
zir@@ 4828
cooling 4828
Tra@@ 4828
Datenbank 4827
Stra@@ 4827
locked 4827
packaged 4826
Game 4826
tory 4825
bath@@ 4825
Verhalten 4825
sag@@ 4825
Untersuchung 4824
DIN 4824
particles 4824
Commitment 4823
ologist 4823
winners 4823
forder@@ 4823
Bud@@ 4822
vibrant 4821
Leistungs@@ 4821
Options 4821
rig 4820
flowers 4819
annten 4818
BL@@ 4817
explaining 4817
Serbian 4816
Raum@@ 4816
befassen 4816
undermining 4815
hilft 4814
flash 4814
vendors 4814
ämp@@ 4814
Thai 4813
proclaimed 4813
й 4813
Organis@@ 4812
bauen 4812
HUMAN 4811
Sitz 4811
Rail 4811
gia 4810
Spann@@ 4809
encumbered 4809
Trag@@ 4809
Extr@@ 4809
hoher 4809
Disease 4809
dium 4808
Zugriff 4808
sta 4807
wend@@ 4807
trademarks 4807
Ta@@ 4807
det@@ 4806
geehr@@ 4806
dividends 4805
assign 4805
SAR 4805
rigid 4805
decreasing 4805
behandeln 4805
ziemlich 4804
Currency 4804
err@@ 4804
roman@@ 4804
chat 4802
VIP 4802
schutz@@ 4802
condemnation 4801
1950 4801
fulfill 4800
190 4800
aktion 4800
INE 4799
GHG 4798
Volume 4798
earthquake 4797
Os@@ 4796
ierende 4796
alli@@ 4796
kleiner 4795
similarly 4794
kulturelle 4794
judged 4793
sound@@ 4793
heu@@ 4792
Maximum 4792
führende 4791
fulness 4791
Formular 4790
seh@@ 4790
Prevent 4790
67@@ 4789
interpret 4789
Nachfrage 4788
Verde 4787
niemand 4787
OF@@ 4787
Design@@ 4787
Supporting 4787
dring@@ 4787
disproportionate 4786
jemand 4782
UNCCD 4782
15,@@ 4782
Pollution 4782
175 4782
Black@@ 4782
sorgt 4781
requisite 4780
ball@@ 4780
waves 4780
synthetic 4779
warranted 4779
Ambiente 4778
iness 4778
antes 4778
kungen 4778
Übereinkommen 4777
breaks 4777
ügen 4775
lok@@ 4775
Tex@@ 4775
Danube 4775
erzeu@@ 4774
Blog 4774
Lebens 4774
Healthy 4774
Beyond 4774
Need 4774
Jews 4774
pledge 4774
Max 4774
terminate 4774
livelihood 4773
Mü@@ 4771
broaden 4771
train@@ 4771
wirtschafts@@ 4770
Berücksichtigung 4770
electors 4770
researcher 4769
Norden 4769
gefä@@ 4769
vegetable 4768
confronted 4768
ünsti@@ 4768
influenza 4768
persistence 4768
Briefing 4767
trigger 4767
genes 4767
ities 4767
Mau@@ 4766
Küste 4765
SME 4765
anlagen 4765
avi@@ 4764
shipped 4763
240 4763
expectation 4763
counting 4762
500,000 4762
Replace 4762
codecision 4762
werfen 4762
aces 4762
raft 4761
bands 4761
aush@@ 4761
ARE 4760
Klima 4760
talked 4760
gastronom@@ 4759
Mün@@ 4759
SF 4759
booked 4759
Speakers 4758
casualties 4758
ano@@ 4758
äumt 4758
ruhigen 4757
menschlichen 4756
Schwer@@ 4756
repairs 4755
tural 4754
oren 4754
mile 4754
ESA 4754
Schäden 4753
Fisch@@ 4753
cab@@ 4752
conceived 4752
adjournment 4751
intervals 4751
Anonymous 4751
manages 4750
ides 4750
Conclusion 4750
fri@@ 4750
GRRF 4749
negotiable 4749
Tobago 4748
c.@@ 4748
Erwä@@ 4747
hate 4746
eler@@ 4746
emphasised 4745
Zy@@ 4745
grid 4745
repression 4744
dependency 4744
noble 4743
ätzung 4743
atti@@ 4743
haften 4742
willkommen 4742
incorporates 4742
beträgt 4740
Inhuman 4739
esch@@ 4739
distant 4739
betreffen 4738
Ordinance 4738
inzwischen 4738
zi 4738
experiments 4738
konkreten 4738
Adop@@ 4738
IPCC 4737
Fischer 4737
Reconciliation 4736
Degrading 4736
stopping 4735
RC@@ 4735
ington 4735
Rwandan 4735
Auftrag 4734
1948 4734
filament 4734
deceased 4734
Verfass@@ 4733
briefed 4733
ares 4733
Abuse 4732
buchen 4732
Greens 4732
powered 4732
effizi@@ 4732
aids 4731
Jur@@ 4730
fon@@ 4730
translations 4730
Mt 4729
sexu@@ 4729
270 4728
D.C. 4728
außergewöhn@@ 4728
backing 4728
Suites 4728
tut 4727
Verträge 4727
bio 4727
emphasizing 4726
kommer@@ 4726
30.@@ 4725
welt@@ 4725
taten 4725
gerufen 4725
Beifall 4725
attributes 4724
ascertain 4724
wohl@@ 4724
exhibit 4722
Direc@@ 4722
Bs 4722
tags 4722
Grundsätze 4721
erhältlich 4719
ischem 4719
legality 4719
qu 4718
produkte 4718
monopoly 4717
afft 4717
insofar 4716
GP 4716
filters 4716
beruf@@ 4716
folge 4715
regulators 4715
Sixtieth 4714
131 4714
Ensuring 4714
Seven 4714
Recognizes 4710
Still 4710
WW@@ 4710
ogr@@ 4709
beu@@ 4709
ausgestat@@ 4709
Specialized 4708
Kauf@@ 4708
Aktu@@ 4708
hide 4708
offensive 4708
incitement 4707
shoulder 4707
Ok@@ 4707
ALE 4706
DC2 4706
pressed 4706
dienste 4705
icks 4704
API 4704
14,@@ 4704
faire 4704
afforded 4704
intr@@ 4704
ault 4704
EV@@ 4703
elben 4703
petroleum 4702
Appartement 4702
Kategorie 4702
finalize 4701
WP.1 4700
Hussein 4700
erscheinen 4699
trags 4699
bemer@@ 4699
235 4699
Real@@ 4699
Experten 4698
staat@@ 4698
sulphur 4698
N.@@ 4698
prosperous 4697
misleading 4697
Expressing 4697
sonsti@@ 4696
shelters 4695
Lao 4695
staatliche 4695
Signature 4694
Brown 4694
spek@@ 4693
Playa 4693
speedy 4693
preis@@ 4693
moon 4692
räume 4692
Browser 4692
Wahrheit 4690
illustrates 4690
blic@@ 4690
retailers 4689
bank@@ 4689
öff@@ 4688
8.1 4687
Ven@@ 4686
cleaner 4686
maj@@ 4686
wat@@ 4686
Reform@@ 4686
understands 4685
schnell@@ 4685
8. 4684
geord@@ 4684
Werk 4684
contexts 4684
suppression 4683
retro@@ 4683
footing 4683
[...]
