#version: 0.2
t i
e s</w>
e n
a n
o n
i n
t h
p o
e r
o n</w>
r e
d e</w>
po s
th e</w>
a ti
a r
q u
& a
&a pos
i s
r o
i t
&apos ;</w>
o r
o u
l e</w>
e r</w>
en t</w>
t r
e n</w>
o f</w>
e s
e m
a l
o m
i c
e t</w>
e d</w>
an d</w>
a t
l a</w>
u r
ati on</w>
a i
u n
a c
l es</w>
a l</w>
e l
e c
d es</w>
t o</w>
p ro
c on
s i
i n</w>
t s</w>
s u
on s</w>
a u
d i
l i
l &apos;</w>
c h
in g</w>
i s</w>
@ -
@- @</w>
ti on</w>
r é
c e</w>
o r</w>
p l
i l
a s
r e</w>
a s</w>
c om
a t</w>
o t
a b
r i
d &apos;</w>
a p
a m
qu e</w>
a g
s t
c i
em ent</w>
a v
u r</w>
e x
a n</w>
d u</w>
en t
a d
o l
t er
p ar
an t</w>
d é
f f
po r
l e
o p
re s
t e</w>
v i
m e</w>
u s
d e
an s</w>
v er
T h
f or
qu ot
ati ons</w>
quot ;</w>
& quot;</w>
0 0
m ent</w>
a r</w>
u l
f or</w>
i t</w>
e t
tr e</w>
a u</w>
i m
2 00
p er
en ts</w>
v e</w>
th at</w>
u n</w>
g r
é s</w>
au x</w>
a in
un e</w>
es t</w>
ou r
d u
é t
on t</w>
s e</w>
po ur</w>
s e
p r
l o
l y</w>
d ans</w>
Th e</w>
on n
n o
i g
ti n
it é</w>
en d
m o
r es</w>
i r</w>
c es</w>
si on</w>
t e
w h
g i
s er
p e
ou s</w>
ti ons</w>
su r</w>
d er</w>
it y</w>
for m
é r
ati on
com m
b e</w>
f i
n i
ur e</w>
m in
C om
n e</w>
it h</w>
em b
b e
c l
u s</w>
er s</w>
at e</w>
p ré
an ce</w>
en ce</w>
p ar</w>
w ith</w>
ar e</w>
u m
b y</w>
s o
é e</w>
c o
qu i</w>
it s</w>
d is
v el
o u</w>
p u
in ter
t u
ai t</w>
ou n
s h
b u
C an
m is
re c
n ation
tr i
i l</w>
t en
é es</w>
ti c
o c
e l</w>
ur s</w>
ai re</w>
o b
ag e</w>
ab le</w>
s p
I n
ac c
c h</w>
m a
1 9
C on
n e
t er</w>
m es</w>
ou r</w>
ro u
an g
ic h</w>
qu es</w>
a le</w>
por t</w>
an d
er e</w>
v en
l d</w>
ser v
t ed</w>
m e
du c
f in
es s
th e
d er
t es</w>
a y
s tr
v is
ti es</w>
tin g</w>
e u
p ri
l is
&apos ;
ad a</w>
c er
é g
e ff
l ic
d s</w>
Can ada</w>
vel op
i e</w>
th er</w>
por t
al l</w>
w or
L e</w>
a f
ro m</w>
g an
s ec
ou ld</w>
é n
an ts</w>
qu &apos;</w>
s ti
as s
en ti
ar i
è re</w>
f rom</w>
no t</w>
is t
p re
ou t</w>
ic e</w>
v o
at ed</w>
a di
w e
av e</w>
s t</w>
th is</w>
el le</w>
m an
é ri
in e</w>
un d</w>
it e</w>
pl us</w>
u e</w>
w as</w>
&apos; s</w>
m ar
p on
ver n
i r
r ap
il l</w>
f ic
ai res</w>
es s</w>
ac ti
ur es</w>
nation al</w>
P ro
s ont</w>
s s
t h</w>
d o
gr am
ét é</w>
ci p
em ents</w>
t at
é c
re l
pu b
t ec
com p
a k
h ave</w>
m on
L es</w>
b i
v e
p as</w>
di e</w>
in form
e p
so ci
w ill</w>
h t</w>
s o</w>
ec ti
an s
v es</w>
ar y</w>
. .
a y</w>
v al
per s
pro c
i on</w>
p res
ic es</w>
wh ich</w>
R e
par ti
s y
19 9
av e
mis sion</w>
d ing</w>
t o
é l
cl u
or gan
t é</w>
su l
è s</w>
f ac
it és</w>
an n
pl o
m i
s es</w>
a is
in t
v er</w>
h e
f r
L a</w>
g o
h as</w>
qu i
g e</w>
pré s
s ch
on e</w>
el l
ai n</w>
p e</w>
tr es</w>
as e</w>
pro gram
or e</w>
ai l
in g
ave c</w>
a d</w>
P ar
c ri
si b
sti tu
o ff
at e
u c
ar d</w>
al es</w>
C h
u ro
ai s</w>
ay s</w>
i v
U n
or d
en c
ê tre</w>
E uro
pub li
pos i
comm un
& #
en s</w>
i d
s &apos;</w>
tr ans
si d
d em
re r</w>
ati ve</w>
i z
d en</w>
m it
ol l
re g
al l
I n</w>
g e
su b
r en
su p
d ro
ic i
ec t</w>
ac h
et te</w>
ol u
con t
the ir</w>
s ou
sy st
tr av
u t
an c
p h
u m</w>
e ar
il l
al ly</w>
g u
qu es
in d
on al</w>
inform ation</w>
ap pro
or s</w>
c re
f on
m ents</w>
pro j
vi r
Com mission</w>
i es</w>
U ni
s i</w>
un g</w>
prés ent
ai ent</w>
u ti
r is
im port
en tre</w>
&# 9
al so</w>
ol o
con cer
es t
el les</w>
di ff
a re
f er
el s</w>
ac e</w>
par t
tri bu
f o
en er
ch e</w>
tr a
en s
in v
c oun
o ther</w>
pe u
res pon
es e</w>
n &apos;</w>
m emb
i c</w>
li g
è me</w>
e d
pl ic
S ec
al is
es ti
r u
pers onn
c our
L &apos;</w>
serv ices</w>
d es
e ur</w>
h n
be en</w>
e in
po li
pro vi
m ent
si g
s on</w>
de velop
a ff
al s</w>
g én
S t
u ation</w>
le ur</w>
t en</w>
em plo
ab il
in clu
m il
ec i
a m</w>
j u
di rec
A c
pro duc
in s</w>
em ent
e m</w>
E n
A n
A r
tat s</w>
t ure</w>
ai l</w>
N ations</w>
is tr
ri g
r it
au t
c an
w ere</w>
ic h
w e</w>
0 0</w>
organ is
s it
w i
si ons</w>
en g
it ed</w>
I l</w>
au tres</w>
o d</w>
ch ang
wor k</w>
ig n
k ing</w>
t ou
c or
con s
us t</w>
p ays</w>
A l
pr is
ven tion</w>
gén ér
l a
ci al</w>
e v
en ces</w>
e w</w>
n ot
em p
ex am
m ore</w>
n on</w>
lo c
m et
ur r
m p
tic le</w>
res s
f l
par tic
c ap
k e
le v
sh ould</w>
i que</w>
our ces</w>
y ou</w>
in t</w>
b er
ap p
r a
c u
al ement</w>
b l
om e</w>
d ec
c ette</w>
c an</w>
t ak
parti cip
s el
g rou
f s</w>
re t
velop p
è res</w>
D e
is s
h e</w>
com pl
con tr
d oc
h o
ic al</w>
k s</w>
te ur</w>
d onn
inter national</w>
th o
h um
dé c
d ur
1 0</w>
con tin
n ous</w>
le urs</w>
c ul
olu tion</w>
ou vern
g l
m é
w ould</w>
de v
k e</w>
i ti
en vir
b er</w>
re d</w>
d ed</w>
i re</w>
fic ation</w>
dé velopp
acti v
c ar
bu t</w>
ap plic
t ain
ob j
n om
u x</w>
ac h</w>
eu x</w>
s ur
in cip
publi c</w>
op er
concer n
on g</w>
t y</w>
an ti
ex p
D i
Can adi
lo w
te e</w>
emb er</w>
or i
e urs</w>
an y</w>
con si
an de</w>
b o
g en</w>
E n</w>
poli ti
sid ent</w>
Th is</w>
In ter
us e</w>
at es</w>
g es
S tat
ag es</w>
n ou
i b
is t</w>
g h</w>
sib le</w>
ar g
en ne</w>
t ro
ati n
m es
S u
uti lis
pr incip
in di
com me</w>
I t</w>
i ons</w>
en tr
ati ves</w>
b et
con om
f ait</w>
c oll
w el
s an
as t</w>
atin g</w>
al th</w>
po lic
ab lis
il s</w>
or y</w>
en n
C oun
emplo y
ener al</w>
con n
Un ited</w>
m un
se il</w>
ré gi
développ ement</w>
en d</w>
f ü
qu al
str uc
f u
pro tec
ad op
v ent</w>
par t</w>
h ad</w>
Com mit
ne w</w>
h ts</w>
su ch</w>
m ati
posi tion</w>
m ain
fin an
program me</w>
our n
por ts</w>
ac t</w>
ti me</w>
pro pos
tri es</w>
ti onn
m at
es sion</w>
200 5</w>
f a
is su
pro du
pro v
ver s
an t
z u</w>
re ment</w>
con tribu
ab les</w>
P re
ac tion</w>
200 6</w>
fi r
m s</w>
Euro pe
g ouvern
v ous</w>
the y</w>
vern ment</w>
ter min
wi th
res p
min istr
g y</w>
s a</w>
d om
p end
Commit tee</w>
M in
o w
ul ation</w>
tr y</w>
t ur
Europe an</w>
t w
m it</w>
ab or
e ts</w>
sh i
A ss
re qui
Q u
ti ve</w>
200 4</w>
as ed</w>
eu ro
Stat es</w>
ver y</w>
th er
th ese</w>
d r
Con seil</w>
ent re
E x
ma y</w>
un der</w>
ag ement</w>
t ant</w>
sp eci
an te</w>
ci l</w>
el y</w>
re comm
n um
ch er
p é
f ol
ag rap
am e</w>
tec hn
le g
peu t</w>
re n</w>
Coun cil</w>
m er
is ion</w>
.. ..
É tats</w>
T I
b re</w>
ec ts</w>
c ep
rap port</w>
h i
d g
f e
at t
a si
in iti
trav ail</w>
inter nation
develop ment</w>
su iv
m ê
an ces</w>
u es</w>
G o
f aire</w>
f un
re e</w>
O r
dro its</w>
ég alement</w>
in stitu
v on</w>
1 ;</w>
&#9 1;</w>
A d
N o
on om
ve au</w>
n o</w>
c ré
200 7</w>
e w
er v
A u
olo gi
ec tion</w>
200 3</w>
av o
per i
m en
ar ticle</w>
g ro
w w
é conom
l u
ain si</w>
a h
O N
e u</w>
b r
3 ;</w>
&#9 3;</w>
t ous</w>
obj ecti
ain e</w>
sig n
re port</w>
op ér
e g
is e</w>
u v
at s</w>
enc y</w>
C o
par agrap
we en</w>
m ust</w>
is ation</w>
coun tries</w>
con di
st at
vo ir</w>
mil li
en f
t out</w>
Uni on</w>
th an</w>
T r
p s</w>
éc ur
su s</w>
con sul
ent e</w>
au ss
s ession</w>
in to</w>
po p
m ais</w>
vi ew</w>
te urs</w>
i e
s c
bet ween</w>
our s</w>
b es
th rou
im pl
pl ace</w>
200 2</w>
u ment</w>
re gi
sp é
V er
1 2
vis ion</w>
ad ministr
end re</w>
protec tion</w>
s écur
th ere</w>
ation al</w>
Canadi an</w>
i a</w>
h ig
wh o</w>
eff or
serv ice</w>
on ly</w>
p en
F r
A g
h el
ti onal</w>
um ents</w>
sup port</w>
ar ds</w>
de ux</w>
fon c
i li
al y
B u
un i
G eneral</w>
d el
d ic
mê me</w>
ind us
form ation</w>
c ad
im p
ai r
mis e</w>
00 0</w>
1 5</w>
j o
is l
200 1</w>
M ar
a w
é li
t ari
import ant</w>
f ér
1 2</w>
y e
é v
n or
in cre
dé r
200 0</w>
cour s</w>
sécur ité</w>
R es
A N
Com ité</w>
t re
san té</w>
sib il
s in
tic al</w>
memb res</w>
ques tion</w>
euro pé
program mes</w>
U N
Con vention</w>
t or</w>
F or
y our</w>
u p</w>
é d
om m
pro f
for e</w>
po int</w>
ma de</w>
I N
wel l</w>
as s</w>
ec onom
f am
Ass emb
au se</w>
ing s</w>
u li
l ég
é val
au f</w>
t ;</w>
él é
ab out</w>
un der
W e</w>
fü r</w>
b re
d ay</w>
c as</w>
w er
activ ités</w>
3 0</w>
can adi
j us
auss i</w>
p er</w>
é gi
applic ation</w>
in es</w>
il d
cer tain
b ec
ur ity</w>
G rou
ic ht</w>
pl ac
c urr
n at
l ement</w>
ic ul
h om
se ign
ot e</w>
E S</w>
p ai
ar m
em s</w>
avo ir</w>
st and
organ iz
at er</w>
ord in
ec ted</w>
ét u
1 .
h ab
con tre</w>
pe op
g en
f em
pri v
a ur
in st
proj et</w>
i f</w>
res s</w>
id enti
re sul
ecti ve</w>
O ff
S erv
comm er
pos sible</w>
m ul
s ite</w>
ques tions</w>
c ou
pro bl
or der</w>
sit uation</w>
h en</w>
E N
1 1</w>
dev r
re présent
do it</w>
throu gh</w>
O n</w>
d ont</w>
m er</w>
c li
v ari
t y
ye ar</w>
B o
pre mi
ate urs</w>
r è
Euro pe</w>
m is</w>
tho se</w>
2 0</w>
partic uli
d at
ter s</w>
rig hts</w>
duc ation</w>
emb re</w>
shi p</w>
P l
abil ity</w>
cad re</w>
ear ch</w>
syst em</w>
n éc
dro it</w>
ment al</w>
s ous</w>
néc ess
ch o
mo st</w>
re cher
ou t
ré s
pris es</w>
2 0
an tes</w>
inclu ding</w>
or d</w>
r ati
cap ac
p i
M on
D ans</w>
ch en</w>
fo is</w>
mes ures</w>
mar ch
ear s</w>
con stitu
us ed</w>
e z</w>
pres ent
personn es</w>
es p
s ome</w>
ac tu
au th
ten tion</w>
t ot
est ablis
f ul
r ais
M o
d o</w>
pl an</w>
o ver</w>
M .</w>
k no
tw o</w>
1 3</w>
2 .
c ro
p es</w>
om en</w>
h er
for c
R é
he alth</w>
soci al</w>
d as</w>
an aly
v ement</w>
d ate</w>
200 8</w>
y ears</w>
sh all</w>
t ation</w>
af t</w>
i m</w>
com pr
H e
cri min
g t;</w>
& gt;</w>
spé ci
peop le</w>
met tre</w>
partic ul
ges tion</w>
t ain</w>
commun ic
et y</w>
p ur
di t</w>
fol low
b il
Or gan
prov in
parti e</w>
f é
f ourn
c us
W or
ô le</w>
as es</w>
e ine</w>
vi ol
g ar
vi ties</w>
es si
num ber</w>
t at</w>
ement ation</w>
ati s
bi en</w>
lo w</w>
b en
fi ed</w>
h is</w>
fi c</w>
ét ait</w>
fir st</w>
condi tions</w>
af in</w>
Uni es</w>
am ment</w>
effor ts</w>
l ang
st u
nom bre</w>
ar s</w>
p ass
s é
donn ées</w>
or ig
e in</w>
ex t</w>
posi tions</w>
fer ence</w>
contin u
ir d</w>
ist ance</w>
h al
H o
mati ère</w>
g re
chang e</w>
par ties</w>
app li
wh ere</w>
ag re
on g
ar ge</w>
no v
gr am</w>
lo b
E l
R ec
au t</w>
5 0</w>
consi der
pe ti
mo y
c entr
h er</w>
19 8
génér al</w>
wh en</w>
so it</w>
ent es</w>
onn ement</w>
è mes</w>
O N</w>
A m
mo ins</w>
ver s</w>
er c
rec e
for m</w>
me e
with in</w>
l in
ré sul
ten ir</w>
t t
provi de</w>
man y</w>
com e</w>
i le</w>
m u
ne ed</w>
Pro gram
ain es</w>
ot h</w>
cl ar
s ans</w>
bu dg
u b
syst ème</w>
r ès</w>
acti vities</w>
me as
d am
ind ic
C O
Di rec
P o
off ici
S o
ad di
al ité</w>
c i</w>
an is
ma j
j ur
vi du
ap rès</w>
b el
comp te</w>
B e
1 0
re st
v ue</w>
hum an</w>
ci d
P r
as su
re qu
M an
c e
on es</w>
ain ing</w>
d on
Com mun
w n</w>
P our</w>
iv ent</w>
at égi
ent ly</w>
aut or
we ver</w>
h ed</w>
t emp
oper ation</w>
S p
the m</w>
p le</w>
un gen</w>
O n
or ity</w>
s ol
or s
3 .
w ay</w>
pré c
cri p
mp ;</w>
&a mp;</w>
Go vernment</w>
i ques</w>
am ent</w>
j our</w>
N ous</w>
il le</w>
ac k</w>
polic y</w>
n er
proc ess</w>
ob lig
tak e</w>
v ol
au s
envir on
oc cu
mo di
gr ap
be ing</w>
peu vent</w>
respon s
us in
recher che</w>
1 4</w>
av ail
de m</w>
nou vel
fem mes</w>
politi que</w>
.. .</w>
pop ulation</w>
fu l</w>
ré pon
Inter national</w>
oun d</w>
fin anc
indi vidu
L o
b le</w>
ild ren</w>
produc tion</w>
o ù</w>
finan ci
doc ument</w>
diff ér
as soci
al i
o ire</w>
n er</w>
I C
appro pri
it er</w>
W e
ress ources</w>
fér ence</w>
A b
po ur
abil ité</w>
s en
si ve</w>
concern ant</w>
po urr
c ould</w>
ai r</w>
l and</w>
enf ants</w>
I I</w>
pl u
A s</w>
publi que</w>
au tre</w>
re m
e f
R o
produ its</w>
lev el</w>
E R
duc tion</w>
p éri
c c
li eu</w>
ap pe
S ch
am éli
F in
c ent</w>
do ivent</w>
ti ce</w>
P ré
comm it
D ec
dem ande</w>
h ol
us es</w>
econom ic</w>
P er
i er
der ni
d y</w>
ti on
ob serv
a x
F or</w>
gouvern ement</w>
w omen</w>
on d
1 8</w>
b ased</w>
A R
ell ement</w>
dis cus
f ur
o l</w>
exam in
ec t
coun try</w>
mar k
tr uc
ain s</w>
ét ab
b un
ig ht</w>
c lo
Min is
diff er
tou tes</w>
resp ect</w>
ain st</w>
A p
ter rit
v ed</w>
ex erc
es sus</w>
mo d
199 9</w>
pris e</w>
ni veau</w>
l ong</w>
inv esti
s ci
pub lic
institu tions</w>
gr ation</w>
int é
j e
m en</w>
m an</w>
man agement</w>
ex per
un g
é qu
A f
str atégi
oun t</w>
ex emp
er a</w>
t rou
ma ke</w>
bes o
b oth</w>
S ie</w>
ar r
on d</w>
it al</w>
E C
ch es</w>
politi ques</w>
Pre sident</w>
ad d
ec tu
rig ht</w>
n et</w>
f is
v en</w>
ar ly</w>
ac tions</w>
sig ni
t l
2 5</w>
Sec ret
proc essus</w>
M ember</w>
r .</w>
ag ainst</w>
acc ep
ec tr
b ase</w>
ac i
re au</w>
St ate</w>
1 6</w>
Re g
man i
issu es</w>
ul ations</w>
é qui
I s
n icht</w>
É tat</w>
génér ale</w>
D é
ac t
su ff
é ment</w>
min is
eff ic
sec tion</w>
po in
ap pu
pos e</w>
ä n
com b
b asi
ag r
Ar ticle</w>
a que</w>
seign ements</w>
end ed</w>
emb le</w>
A C
c le
ate ur</w>
l ée</w>
pu is</w>
avail able</w>
provi ded</w>
la w</w>
e y</w>
Ac t</w>
personn el</w>
d ou
dur ing</w>
dat a</w>
é ch
u i</w>
ens ure</w>
péri o
p ay
4 .
it ation</w>
Off ice</w>
temp s</w>
and s</w>
go vernment</w>
not amment</w>
a z
I S
follow ing</w>
wer den</w>
ati f</w>
ti s
au g
ai d</w>
qu er</w>
u al</w>
me di
internation ale</w>
h ni
G u
abor ation</w>
i ème</w>
t ob
con clu
fac il
con form
it es</w>
c ol
usin ess</w>
ch ildren</w>
o g
av ait</w>
su cc
si e</w>
e ach</w>
S e
éval uation</w>
t ail
F e
o m</w>
meas ures</w>
li ke</w>
l ine</w>
wh at</w>
Program me</w>
œ uv
ig n</w>
indus tri
y ing</w>
m or
af ter</w>
str ate
E U</w>
A us
ten u</w>
b an
av ant</w>
s s</w>
pro vis
ass istance</w>
ex is
M e
f ut
s or
g lob
j e</w>
mon di
ti en</w>
1 7</w>
L e
h y
s ame</w>
s al
olo gy</w>
dé clar
doc uments</w>
ti que</w>
t able</w>
i de</w>
ess enti
f e</w>
s om
m and
li mit
finan cial</w>
ser a</w>
D E</w>
n ing</w>
w .
esti m
c ase</w>
occu p
ar t</w>
3 1</w>
is ions</w>
pl y</w>
d ass</w>
ré alis
i ent</w>
k ed</w>
pr ati
our ce</w>
pr ès</w>
vi e</w>
pro m
opér ation</w>
ww w.
o rer</w>
di es
tec hni
De velop
ci vi
particip ation</w>
iz ation</w>
enc our
économ ique</w>
ot el</w>
res olution</w>
re present
d oll
o p</w>
c al
ais s
di es</w>
h ar
l l
ori ties</w>
v ing</w>
tur al</w>
s et</w>
techn ologi
tr ès</w>
ai de</w>
résul tats</w>
tot al</w>
1 9</w>
Sec ré
.... ....
po u
D ie</w>
s ich</w>
su m
import ance</w>
impl ementation</w>
su ite</w>
are as</w>
res earch</w>
x im
t és</w>
ex e</w>
europé enne</w>
go vern
prof essi
ré un
s k
tak en</w>
dé termin
o k</w>
E S
ve aux</w>
s ed</w>
con f
z e</w>
G r
au c
il y</w>
j ou
j ect</w>
proc éd
g s</w>
h at</w>
ex plo
enn es</w>
ci r
1 8
min ist
par ten
h r
memb ers</w>
sec urity</w>
He alth</w>
ter n
for me</w>
D e</w>
grap h
mee ting</w>
ren seignements</w>
hom me</w>
inv ol
o f
ann ée</w>
budg et</w>
N or
gl ement</w>
ch arg
ad v
ow n</w>
fa ç
exam en</w>
se e</w>
no w</w>
l s</w>
cl ai
consul t
are a</w>
h ist
ablis s
C e</w>
H er
a i</w>
ro ris
th ou
n ec
œuv re</w>
cont ro
dé fin
re lev
are d</w>
T R
vo tre</w>
e ds</w>
il d</w>
rés olution</w>
qual ity</w>
ex pres
w ir</w>
U n</w>
res ources</w>
contin ue</w>
c et</w>
2 4</w>
re li
n u
er i
I f</w>
D is
C ette</w>
dec ision</w>
acc ess</w>
sec teur</w>
peri od</w>
le t
vel y</w>
ic a</w>
am e
S y
no tre</w>
d ge</w>
rel ated</w>
commun ity</w>
f av
pr endre</w>
o ver
N ational</w>
an i
fur ther</w>
paragrap he</w>
as si
sub st
is chen</w>
ari at</w>
g h
trav ail
isl ation</w>
S tr
5 .
2 1</w>
st e
tou te</w>
B er
f in</w>
t ent</w>
U ne</w>
ac k
nec ess
signi fic
M r</w>
ur al</w>
in str
re ad
h r</w>
re as
pro g
mil it
in fr
mé di
commun i
pro mo
sur ve
part ment</w>
e qu
re co
cer tain</w>
m al
j ours</w>
Develop ment</w>
mul ti
ten ti
lo i</w>
th ree</w>
tra it
doll ars</w>
b ro
wor ld</w>
R ap
P R
in s
au ch</w>
dem an
s m
in al</w>
am p
bec ause</w>
éri eur</w>
P ub
oc c
ti c</w>
On tari
n es</w>
dis tribu
bun al</w>
C ol
ec h
co ordin
sel on</w>
si eurs</w>
particul ar</w>
ho w</w>
olo g
M r.</w>
be fore</w>
Assemb ly</w>
th en</w>
is sion</w>
re ven
Ontari o</w>
as p
Par li
proj ect</w>
op port
a î
organis ations</w>
ex ig
lu i</w>
A TI
mes ure</w>
con struc
recomm and
Serv ice</w>
un d
faç on</w>
c a</w>
ren forc
hig h</w>
acc ès</w>
f il
6 0</w>
T ri
vi ew
v ic
fé dér
étab li
dis crimin
mark et</w>
c el
Assemb lée</w>
ter roris
in te
j et</w>
C entre</w>
déc ision</w>
per met
ther e
leg al</w>
C es</w>
B r
c at
it er
issu e</w>
tr aining</w>
te l</w>
f ig
i tion</w>
proj ets</w>
not e</w>
Pré sident</w>
pro b
m et</w>
aug ment
milli on</w>
ex c
olu tions</w>
C I
Grou p</w>
Th ere</w>
ro le</w>
ec tions</w>
199 8</w>
grou pe</w>
fac e</w>
l ess</w>
ch aque</w>
crip tion</w>
entre prises</w>
C or
se in</w>
pério de</w>
loc al</w>
pr acti
wor k
tro is</w>
acc or
l ich</w>
t aire</w>
in f
de termin
der al</w>
z u
dé f
re ments</w>
T o</w>
J e</w>
c in
fonc tionn
2 2</w>
ar ri
N ew</w>
i res</w>
ent ation</w>
O R
mis sions</w>
ét abliss
fi er</w>
a x</w>
re por
co opération</w>
po tenti
ty pe</w>
ann ées</w>
I m
ti v
or ies</w>
requi red</w>
at ory</w>
devr ait</w>
tr ic
4 0</w>
, 000</w>
le ad
tr adi
proc ed
s af
ben ef
m y</w>
J o
ens emble</w>
per form
f y</w>
for ce</w>
ti ques</w>
ass ess
se p
t ors</w>
pres ent</w>
af f</w>
ac ts</w>
. g
trans port</w>
l ors
ti tre</w>
pro gram</w>
organiz ations</w>
ti mes</w>
envir onnement</w>
can di
co û
assu rer</w>
d ence</w>
i d</w>
S i</w>
de pend
eff ective</w>
initi atives</w>
P ol
av ant
reg ul
sin d</w>
communic ation</w>
b usiness</w>
t el
utilis ation</w>
ag er</w>
on c
recomm end
enc ore</w>
t ures</w>
regi onal</w>
du e</w>
1 00</w>
acc ord
f t</w>
Ho wever</w>
D es</w>
P ri
qu é</w>
Grou pe</w>
s atis
administr ation</w>
vo y
En vir
sit u
am end
be c</w>
L i
do es</w>
è rement</w>
pend ant</w>
én é
Lo i</w>
ô t</w>
inclu de</w>
fut ure</w>
In stitu
ét aient</w>
Parli ament</w>
so li
ê t</w>
l arge</w>
el d</w>
ch t
certain s</w>
s pe
with out</w>
2 3</w>
Organ isation</w>
co s
l l</w>
t or
Tr ans
co operation</w>
ex te</w>
wor king</w>
A I
speci fic</w>
dom aine</w>
poli tical</w>
h ic
r a</w>
exemp le</w>
qual ité</w>
Bu reau</w>
de fin
pos sibil
int ro
acti ve</w>
al im
qu elle</w>
sel f</w>
inform ations</w>
necess ary</w>
A T
paragrap h</w>
Bo ard</w>
w ater</w>
ent al</w>
n en</w>
c ent
imp act</w>
C our
6 .
ati fs</w>
int ér
t ab
o ds</w>
h ere</w>
A fr
e au</w>
ke y</w>
t aux</w>
ectr on
no s</w>
E r
A u</w>
hab it
particuli er</w>
Secret ary</w>
Th ese</w>
D es
objecti fs</w>
wh e
12 4
f re
is er</w>
comp ét
emplo i</w>
T er
ré gl
organis mes</w>
e th
at ure</w>
end ant</w>
ac y</w>
nation ale</w>
commun aut
differ ent</w>
po l
g é
as se</w>
iz ed</w>
e ducation</w>
plu sieurs</w>
dis positions</w>
march é</w>
al ity</w>
s em
. ca</w>
ch i
si de</w>
w ird</w>
200 9</w>
ou s
an k</w>
w le
C E
basi s</w>
ex éc
ord re</w>
av ons</w>
r ôle</w>
fic ations</w>
Serv ices</w>
p age</w>
ég ard</w>
ess es</w>
milli ons</w>
re conn
re view</w>
grou p</w>
s et
P ar</w>
ne eds</w>
ü ber</w>
o s</w>
i er</w>
don c</w>
l ong
nom bre
fl u
c r
g ener
diff icul
f er</w>
h and
2 6</w>
to co
ou th</w>
A D
enn ent</w>
w ie</w>
gro w
relev ant</w>
dé b
ven ir</w>
ame work</w>
om s</w>
o le</w>
S I
ph y
produc ts</w>
H um
si s</w>
en ci
A s
v re</w>
é tr
ch er</w>
ou ver
t on</w>
li c</w>
su g
sec tor</w>
pri or
poin ts</w>
g n
- -
124 ;</w>
&# 124;</w>
st ain
f oc
2 8</w>
bu il
er t</w>
F o
sin ce</w>
1 ,
d en
vers ity</w>
personn e</w>
effic ac
wh ile</w>
po n</w>
au v
at ely</w>
ex ist
n et
at te
z e
U R
ju d
grou pes</w>
au s</w>
ex peri
A mer
ê te</w>
1 3
régi on</w>
nou veau</w>
tr an
g eneral</w>
resul ts</w>
ti m
l er</w>
ass ur
tic s</w>
2 9</w>
2 7</w>
ili ties</w>
1 7
compr is</w>
t ement</w>
c rit
n ég
end a</w>
s ex
a de</w>
Sec urity</w>
qu el
prés ent</w>
lo g
soci été</w>
con ven
ser ont</w>
hel p</w>
iv ed</w>
chang es</w>
con duc
particip ants</w>
au té</w>
pen ses</w>
b éné
am ong</w>
dr aft</w>
c eux</w>
éri e
at tention</w>
C E</w>
u le</w>
qu ement</w>
p a
trav aux</w>
ang e</w>
o w</w>
eff ectu
b ur
incre ase</w>
st aff</w>
eff ecti
Com mis
u tion</w>
ic k
fonc tion</w>
199 7</w>
mani ère</w>
tra de</w>
ö n
con se
appropri ate</w>
ter m</w>
1 5
requi rements</w>
Tri bunal</w>
étr ang
un es</w>
inst all
ac qu
nat ure</w>
pai x</w>
alis ation</w>
curr ent</w>
ic an</w>
compl e
. 1</w>
Secré taire</w>
ten ant</w>
ev en</w>
air s</w>
ter n</w>
im prov
pers on</w>
de b
c are</w>
onn e</w>
ch ar
c &apos;</w>
li fe</w>
ib le</w>
per man
l at
hum an
ü r
C R
de puis</w>
El le</w>
pro t
eff et</w>
se ul
t ly</w>
str eng
I T
E M
grou ps</w>
discrimin ation</w>
ig hts</w>
al og
ur g
w er</w>
kno wle
si on
eng ag
exam ple</w>
pr is</w>
gi ven</w>
viol ence</w>
ie ve</w>
d ar
Con ference</w>
is h</w>
c y
ré e</w>
ré s</w>
por te</w>
establis hed</w>
ay ant</w>
K o
A t</w>
Un is</w>
pl ans</w>
es ts</w>
aff aires</w>
mon de</w>
Inter net</w>
No v
as truc
financ ement</w>
lang u
hel d</w>
commer ci
mit ted</w>
vis ant</w>
e qui
syst ems</w>
n am
del i
c ases</w>
contr ôle</w>
dé lég
O c
in a</w>
i di
Minis ter</w>
concer ne</w>
19 7
l ors</w>
cons équ
nouvel les</w>
u e
régi on
whe ther</w>
t u</w>
w ays</w>
gr ande</w>
1 4
Re gi
m ain</w>
ec hn
me ans</w>
go od</w>
éval u
por teur</w>
reg ard</w>
initi ative</w>
thou gh</w>
z en</w>
in c
adop ted</w>
tre at
consi dér
premi ère</w>
ol s</w>
m om
en h
in nov
x ième</w>
com par
ti g
min im
gi e</w>
i en</w>
cep tion</w>
s aid</w>
u p
l arg
sup pl
ab o
beso ins</w>
sci enti
In formation</w>
at ors</w>
rel atives</w>
au to
in ation</w>
re fl
sec ond</w>
con fi
ris k</w>
read y</w>
é lev
es tin
A L
re ç
i ev
resul t</w>
di ver
develop ing</w>
o der</w>
N o</w>
alog ue</w>
us ing</w>
ful l</w>
or t</w>
De partment</w>
der n</w>
v ou
o graph
organis ation</w>
qu el</w>
proj ects</w>
F ir
there fore</w>
jus tice</w>
orig inal</w>
val uation</w>
mé tho
présent e</w>
h en
d ent</w>
ur ing</w>
ad ap
T ou
m ed</w>
f aut</w>
g er
an im
u les</w>
se ver
c op
ex clu
0 1</w>
ab s
ri er</w>
Sp eci
w s</w>
Hum an</w>
so ient</w>
employ ment</w>
rap ports</w>
des tin
b al
fon ds</w>
t a</w>
b en</w>
ann u
cor por
Par ties</w>
ung s
be g
ré du
d re</w>
ful ly</w>
o se</w>
We b</w>
fav or
ain ed</w>
G e
V i
199 6</w>
promo tion</w>
probl èmes</w>
glob al</w>
end er</w>
b ri
inv est
p .</w>
w ard</w>
rais on</w>
0 .
P e
A ff
maj or</w>
r ic
t élé
Dec ember</w>
v éri
des ign
pri m
j ust</w>
te fois</w>
pré v
fun c
R us
J une</w>
cer ti
il le
z ed</w>
r adi
acc ord</w>
av is</w>
Ch ar
mon it
ou tre</w>
contro l</w>
R ights</w>
consider ed</w>
c entre</w>
Ag ency</w>
l ut
i h
premi er</w>
ju st
speci al</w>
ser ve</w>
u t</w>
hab en</w>
tic les</w>
O M
rel ations</w>
v al</w>
h tt
contribu tion</w>
Com p
conform ément</w>
U E</w>
en qu
an n</w>
gouvern ement
S ep
addi tion</w>
propos ed</w>
A P
ch e
end s</w>
th s</w>
construc tion</w>
améli orer</w>
g ni
or ation</w>
cro iss
htt p</w>
ein en</w>
vari ous</w>
h a
pers ons</w>
V I
seul ement</w>
mat eri
nou veaux</w>
le m</w>
h av
Pub lic</w>
c all
rè glement</w>
In di
qu a
di d</w>
h ing</w>
qual i
ti t
1 6
or ing</w>
ê ts</w>
mo is</w>
appro ach</w>
z i
part y</w>
v or
dis pon
sub ject</w>
environ mental</w>
capac ity</w>
exper ts</w>
agre ement</w>
p ä
pro pri
coordin ation</w>
provi des</w>
fi x
ver tu</w>
ex t
ex pl
pro per
P al
vel s</w>
m enti
K om
provis ions</w>
la quelle</w>
no m</w>
r ent</w>
polic e</w>
ter me</w>
fic i
ein er</w>
indus try</w>
fac t</w>
A S
An n
su jet</w>
ul y</w>
syst èmes</w>
b les</w>
R E
ma king</w>
agr icul
g o</w>
k en</w>
o th
G ouvern
Envir on
t ax
Th ey</w>
strate gi
déc embre</w>
sm all</w>
employ e
dé e</w>
s avoir</w>
pu t</w>
develop ed</w>
en ing</w>
pourr ait</w>
J an
op in
com pos
sp ec
at or</w>
l ab
lic hen</w>
li b
c ause</w>
s ure</w>
sit es</w>
t sch
sibil ity</w>
con st
re ign</w>
aff ir
eff ici
U S</w>
t al
n ess</w>
pl e
c le</w>
infr astruc
in cid
cos ts</w>
polic ies</w>
C l
professi onn
nouvel le</w>
comp li
com peti
es se</w>
ch ez</w>
r ate</w>
gr an
jur idi
G er
C &apos;</w>
re f
le vels</w>
sch o
plo y
Commun ity</w>
é ment
environ ment</w>
sti ll</w>
oblig ations</w>
mi gr
étu de</w>
regi on</w>
j à</w>
ex tr
ma xim
car act
adop tion</w>
enci es</w>
ni e</w>
coll ecti
ch all
cor respon
ver sion</w>
er ing</w>
ju in</w>
O b
it en</w>
hig h
re ques
stand ing</w>
Cour t</w>
canadi enne</w>
jud ici
li m
rè g
qu ent</w>
comm on</w>
ét at</w>
dé jà</w>
k ön
dé penses</w>
Sep t
ist an</w>
d ers</w>
ag ne</w>
exp éri
memb er</w>
surve ill
par ation</w>
D oc
dé mo
exerc ice</w>
reco gni
acc ount</w>
tari at</w>
ach iev
moy en</w>
ou se</w>
mar y</w>
m us
fam ili
o ires</w>
ter ms</w>
fr amework</w>
é ducation</w>
b our
pri x</w>
l ast</w>
reg ar
re ports</w>
add ress</w>
mu ch</w>
n ers</w>
commer ce</w>
form ul
accord ance</w>
Pro gram</w>
sup por
inter ven
d i</w>
ri r</w>
de l</w>
Al l</w>
Re public</w>
én er
As soci
canadi en</w>
ti ves</w>
t em
Sy st
candi d
I P
E conom
c en
mom ent</w>
Gouvern ement</w>
bi li
e k</w>
dem and
en reg
b ru
be au
Sept ember</w>
asp ects</w>
Mar ch</w>
val eur</w>
fr on
con centr
T ra
E m
i x</w>
tin gs</w>
ch arge</w>
c ar</w>
qu o
al low
certain es</w>
su stain
S el
fe deral</w>
M it
buil ding</w>
étu des</w>
Pl an</w>
v ote</w>
program s</w>
C C
si x</w>
prog ress</w>
human it
cons omm
appu i</w>
cul ture</w>
D &apos;</w>
b on</w>
c .ca</w>
t s
er en</w>
cht ones</w>
C ar
s ources</w>
ic i</w>
c ris
vi ent</w>
p at
technologi es</w>
dé p
devr aient</w>
hal f</w>
op h
gr ès</w>
pe u</w>
z one</w>
trait ement</w>
Fir st</w>
op e</w>
qu ar
u it</w>
T re
man u
contribu tions</w>
inte gr
particul arly</w>
coll aboration</w>
be i</w>
knowle dge</w>
rece ived</w>
Wor ld</w>
nécess aire</w>
in ce</w>
l ed</w>
in flu
ob tenir</w>
g ht</w>
obj et</w>
perform ance</w>
A L</w>
Co de</w>
f ree</w>
lig ne</w>
dis tin
aut om
Par lement</w>
Re port</w>
f ound</w>
il li
Min ist
er ed</w>
élé ments</w>
H otel</w>
is te</w>
car ri
M ay</w>
cou p</w>
min u
am ount</w>
direc t</w>
abo ve</w>
p p
activ ité</w>
o y
cor rec
ch am
s olution</w>
je unes</w>
B el
f ais
m ö
E C</w>
ou v
is se</w>
I V</w>
o ci
w en
qu ant</w>
pl ann
ex pos
pro ve</w>
b est</w>
fi eld</w>
M emb
inter est</w>
priv ate</w>
co st</w>
analy se</w>
l es
al ready</w>
lig ht</w>
T H
En g
signific ant</w>
ré se
h au
del eg
ord onn
communic ations</w>
c o</w>
z ur</w>
C N
por ter</w>
G re
fi que</w>
ti ent</w>
U S
instr uments</w>
Minist ère</w>
m éc
li ber
ic s</w>
dé pend
end ement</w>
199 5</w>
jo int</w>
olog ical</w>
Ré publique</w>
k t</w>
re fer
sou tien</w>
h é
fun ding</w>
techni ques</w>
auth orities</w>
Res earch</w>
gar anti
ag en</w>
europé en</w>
M me</w>
ti l</w>
Man agement</w>
mar s</w>
produ it</w>
oun d
incre ased</w>
leg islation</w>
stand ards</w>
w ards</w>
Su b
c elle</w>
grow th</w>
in ten
A C</w>
tran si
J us
av aient</w>
M al
individu al</w>
ar b
struc ture</w>
C .
capac ité</w>
O p
E R</w>
app el
Pro toco
bet ter</w>
it able</w>
en se</w>
g er</w>
ser ait</w>
Is ra
m .</w>
aw a</w>
val ue</w>
an ci
G es
gu id
con fir
prati ques</w>
er e
nor mes</w>
tu rel
vi dence</w>
rel ative</w>
addi tional</w>
ne u
in sp
nécess aires</w>
N e
ne x</w>
c it
techn ical</w>
internation ales</w>
il les</w>
fo od</w>
nor m
G R
C .</w>
cel ui</w>
ak e</w>
Pre mi
pr en
vel op</w>
opér ations</w>
tob er</w>
è ne</w>
p re</w>
beso in</w>
ic k</w>
direc tion</w>
H e</w>
con serv
consult ations</w>
loc ation</w>
L a
sep t
assess ment</w>
ar ticles</w>
j our
f our</w>
M a
vers ité</w>
ét ant</w>
ill et</w>
A pri
cour se</w>
vi er</w>
ho wever</w>
h or
économ iques</w>
entre prise</w>
Apri l</w>
investi ss
étu di
minis tre</w>
mon tant</w>
ed ed</w>
D as</w>
un s</w>
ag ed</w>
w ar</w>
suff is
p ati
acc oun
conf lic
cu st
sept embre</w>
ang l
industri e</w>
ris que</w>
su per
c .</w>
ru p
go ti
c am
le ar
ig h
sever al</w>
probl ems</w>
re main
gr and</w>
end en</w>
ir s</w>
Sec tion</w>
i de
ag enda</w>
donn é</w>
ac ro
di alogue</w>
sou ha
w o
occ a
so ins</w>
fam ily</w>
d a
recommand ations</w>
m i</w>
J uly</w>
ain t</w>
cont act</w>
Nov ember</w>
cap ital</w>
d ra
do m</w>
mé dic
g a
In d
for ces</w>
go ing</w>
p én
è le</w>
st ell
inclu ded</w>
mat éri
Fr ance</w>
Jan u
ru les</w>
s si
é co
au près</w>
lis te</w>
g ation</w>
stu dy</w>
ener gy</w>
et ed</w>
si mil
ret ur
th em
si mp
au f
view s</w>
C H
h es</w>
gu es</w>
ti f</w>
d ang
i ve</w>
en seign
B ri
Oc tober</w>
t an
Con férence</w>
.g c.ca</w>
distribu tion</w>
p li
s .</w>
n ext</w>
ri que</w>
th ird</w>
n ed</w>
ch ild</w>
p les</w>
po uv
réun ion</w>
fr an
G en
objecti f</w>
m ech
Qu é
he ures</w>
gu eur</w>
r an
fi ques</w>
communi ties</w>
ge ther</w>
ol d</w>
D ate</w>
cle ar</w>
déc isions</w>
s ource</w>
V o
R el
j an
ü n
re le
A M
recommend ations</w>
o eu
w ar
lis t</w>
3 5</w>
ri l</w>
t ax</w>
8 0</w>
établiss ement</w>
al ors</w>
mondi ale</w>
pre u
dur able</w>
cré ation</w>
c elles</w>
ce la</w>
eff ets</w>
n i</w>
un ser
ré es</w>
jus qu&apos;</w>
ATI ON</w>
tak ing</w>
7 .
concern ed</w>
ch ap
O tt
ti fication</w>
trans par
fin s</w>
moy ens</w>
cli ents</w>
ty pes</w>
co ver
Speci al</w>
l ar
th ing</w>
nég oci
h ô
v ul
propos al</w>
w ur
ke it</w>
0 ,
ci ti
u k
W ith</w>
di re</w>
ou vel
éri que</w>
4 5</w>
dom aines</w>
techni que</w>
méc anis
ann exe</w>
Qué bec</w>
de u
ati sti
intér êt</w>
Su p
5 5</w>
exis ting</w>
Ac cor
er ship</w>
So cial</w>
m a</w>
port ant</w>
f ai
Ott awa</w>
Janu ary</w>
st ate</w>
avant age</w>
croiss ance</w>
o k
res t</w>
duc ed</w>
2 ,
saf ety</w>
at er
can not</w>
techn ology</w>
in d</w>
acc es
fis c
0 3</w>
cri b
Econom ic</w>
as k</w>
procéd ure</w>
gr ad
9 0</w>
tou jours</w>
res tric
li e
on ds</w>
pou voir</w>
potenti al</w>
de velop</w>
mi gration</w>
fin al</w>
0 5</w>
Associ ation</w>
0 2</w>
D em
b ack</w>
s w
qu anti
iss ent</w>
. m.</w>
soci ety</w>
un ity</w>
envir onn
sub mitted</w>
â ce</w>
p ens
suiv i</w>
tob re</w>
de f
commun auté</w>
T echn
Ind us
im prove</w>
r on
mi eux</w>
t i</w>
lut te</w>
j ourn
v é
U R</w>
li v
val u
aiss ance</w>
m on</w>
I ch</w>
S C</w>
im pos
appe l</w>
em er
fourn ir</w>
régi ons</w>
cul tural</w>
ve z</w>
r ich
an other</w>
Commis sion
lors que</w>
No .</w>
h ui</w>
ne goti
om b
a k</w>
él aboration</w>
T ur
kön nen</w>
p ment</w>
consul tation</w>
our is
lic he</w>
explo itation</w>
el t</w>
ma i</w>
f ab
n al</w>
organiz ation</w>
Ag re
c ell
ous ly</w>
respon sible</w>
at en</w>
A N</w>
opin ion</w>
pre vi
p ap
reli gi
Y ou</w>
coû ts</w>
A n</w>
l it
e very</w>
ju illet</w>
E s</w>
qu els</w>
d ays</w>
6 3</w>
surveill ance</w>
u pon</w>
autor ités</w>
le ast</w>
soci ale</w>
J ah
reg is
ti fs</w>
E T</w>
uti ve</w>
av ril</w>
experi ence</w>
h otel</w>
oc tobre</w>
Ad ministr
w ä
ind re</w>
ai der</w>
an ni
nat u
P h
tr ad
at tribu
t els</w>
jour d&apos;</w>
to gether</w>
ac e
g es</w>
199 4</w>
e i
treat ment</w>
plac ement</w>
ré c
L E</w>
con cep
requ est</w>
d ents</w>
per tin
fi ve</w>
m ag
fin d</w>
discus sion</w>
cl assi
ati c</w>
as se
m ari
esp è
bec ome</w>
tit ul
déclar ation</w>
c rati
facil it
per mis</w>
st en</w>
renforc er</w>
al ités</w>
R è
it r
y er</w>
nation ales</w>
is che</w>
pur su
pro grès</w>
wor ks</w>
D S</w>
s ing</w>
pe ace</w>
pres sion</w>
ner ship</w>
sch en</w>
g el
a th
auc une</w>
av er
d ated</w>
pro ch
qua tre</w>
nov embre</w>
beau coup</w>
ais on</w>
trans fer
de part
com es</w>
e ur
langu age</w>
au di
dis pos
gi ve</w>
ab lement</w>
not ed</w>
me et</w>
pré occup
invol ved</w>
de tail
form s</w>
direc tive</w>
ar mes</w>
o t</w>
c as
minist ère</w>
in come</w>
ré g
go ods</w>
h ment</w>
Wor king</w>
mar ke
objecti ves</w>
it em</w>
add ress
ris ques</w>
mech anis
EN T</w>
stitu tion</w>
ar ing</w>
prot ég
port ation</w>
représent ants</w>
ur y</w>
employ és</w>
f ont</w>
Di vision</w>
h t
deu xième</w>
n av
Th at</w>
environn ement
benef its</w>
S .</w>
r y</w>
d enti
wi de</w>
nombre ux</w>
an ies</w>
démo crati
jan vier</w>
concern ing</w>
do wn</w>
ch em
re té</w>
ar ti
tu de</w>
o x
st oc
Con t
M ission</w>
incre as
end ing</w>
ail leurs</w>
ag it</w>
C er
qu elles</w>
s er</w>
i an</w>
V or
mis es</w>
ici p
inté ress
auto chtones</w>
0 4</w>
sib les</w>
iss ant</w>
gr é</w>
suppl ément
pro position</w>
as k
t ée</w>
Go vern
probl ème</w>
20 10</w>
ten ue</w>
stratégi e</w>
O P
é ro
O u
mal adi
ro om</w>
R C</w>
oper ations</w>
ic ro
ap par
Canadi ans</w>
shi ps</w>
p an
en ting</w>
du ce</w>
at oire</w>
infrastruc ture</w>
ar ch
j et
él ectron
Afr ica</w>
or g</w>
Af rique</w>
di g
z t</w>
cit oy
ex cep
uni ties</w>
ein em</w>
T or
T able</w>
doc um
Str ate
sy n
in tention</w>
7 0</w>
le au</w>
pre st
respon se</w>
kno w</w>
respon sibility</w>
to day</w>
civi l</w>
in k</w>
........ ........
respons abilité</w>
of ten</w>
dom esti
fr ais</w>
sou vent</w>
0 6</w>
cen tres</w>
s olutions</w>
ag encies</w>
activ ity</w>
ent er</w>
tr ait</w>
E L
nation aux</w>
cat ég
r ange</w>
is sions</w>
esp eci
ther n</w>
pro por
uc le
un ique</w>
Al ber
collecti v
f our
ér o</w>
prom ote</w>
ex ten
prob lem</w>
strate gy</w>
spé cial</w>
ur b
cin q</w>
proced ures</w>
ati onn
Tre at
especi ally</w>
S an
res se</w>
analy sis</w>
différ ents</w>
D el
S T
pop ulations</w>
C our</w>
Commission er</w>
L .
deman des</w>
har mon
ter ed</w>
eff ect</w>
proper ty</w>
ét és</w>
In v
P or
ate g
O ther</w>
ter r
el ines</w>
Aff airs</w>
gre at</w>
provin cial</w>
S te
suiv re</w>
citi z
cal cul
li k
établi r</w>
re v
T e
ten us</w>
provi ding</w>
ü c
in e
W hat</w>
ib il
consider ation</w>
c um
st re
tec tion</w>
it re</w>
sh e</w>
p auv
mand at</w>
1 er</w>
ni ti
as te</w>
on ce</w>
stat us</w>
ap ply</w>
produc t</w>
ou voir</w>
pl ani
è ve</w>
loc ated</w>
C ro
bi a</w>
ill er</w>
posi tive</w>
cont ext</w>
P .
t le</w>
détermin er</w>
ss en</w>
dec isions</w>
dé pos
I niti
è te</w>
n ach</w>
provin ce</w>
ti ers</w>
g et</w>
ill s</w>
vi gueur</w>
gouvern ements</w>
arr ang
su sp
Ab original</w>
c aus
l am
gu ar
to wards</w>
N um
ib les</w>
exc ell
un ter
parti r</w>
N ord</w>
lis h</w>
efficac ité</w>
C ON
is es</w>
d ri
gre ater</w>
administr ative</w>
3 3</w>
practi ces</w>
op en</w>
m ess
off ice</w>
per met</w>
commer cial</w>
oeu vre</w>
rec ent</w>
tr im
cli m
T S</w>
fi le</w>
E in
D P</w>
princip es</w>
sh ow
t est</w>
al le</w>
F ren
pers onal</w>
of f</w>
8 .
p ê
m ach
éli min
hist or
regar ding</w>
Pal estin
fi é</w>
ab ly</w>
envir on</w>
Rap port</w>
procéd ures</w>
depend ent</w>
5 7</w>
invest ment</w>
Per s
chang ements</w>
ven ant</w>
exis te</w>
délég ation</w>
si a</w>
distin c
S h
s ing
sustain able</w>
Agre ement</w>
- -</w>
exp ected</w>
3 2</w>
d ru
Pol ic
sec teurs</w>
mee tings</w>
si m
v ot
form es</w>
I ra
fon dam
f ew</w>
int érieur</w>
z um</w>
e la</w>
h on
particuli èrement</w>
it ä
Organ ization</w>
plu part</w>
ear ly</w>
comp any</w>
appro che</w>
me tho
dé tail
Par ti
per mettre</w>
A ir</w>
R i
règ les</w>
n é</w>
Canadi ens</w>
auc un</w>
provin ces</w>
W hen</w>
Fren ch</w>
comp anies</w>
continu ed</w>
rel ati
I M
donn er</w>
gro und</w>
ser i
an g</w>
co m</w>
mon ths</w>
é ti
dem oc
manu fac
ell ectu
b onne</w>
ann ual</w>
économ ie</w>
consi der</w>
tr ac
utilis er</w>
alim ent
oun g</w>
Uni versity</w>
W ir</w>
istr y</w>
di ese</w>
ucle ar</w>
Euro pä
. org</w>
po wer</w>
M ad
chall eng
subst anti
monit oring</w>
ais e</w>
off re</w>
fam ille</w>
ü ber
agre ed</w>
emb l
mat ter</w>
e vidence</w>
fo reign</w>
j &apos;</w>
st ar
t end
w ant</w>
I R
pre hen
cons ist
op tion</w>
parten aires</w>
perman ent</w>
6 1</w>
it ure</w>
repor ted</w>
er ia</w>
I ls</w>
5 8</w>
aî tre</w>
i k
I II</w>
consi dé
eng agement</w>
Qu e
b t</w>
n ur</w>
st e</w>
Fe bru
ne h
ari an</w>
m ight</w>
sug ges
memb re</w>
occa sion</w>
érie ure</w>
dur ch</w>
i i</w>
au jourd&apos;</w>
st and</w>
acro ss</w>
5 6</w>
li t</w>
cul turel
ON U</w>
A .</w>
gr av
princip al</w>
pos te</w>
Polic y</w>
oblig ation</w>
sec ond
dis position</w>
ag ing</w>
foc us</w>
Ac tion</w>
per sp
Bu t</w>
ec utive</w>
l and
ne eded</w>
Com me</w>
sid ence</w>
milit ary</w>
sé ance</w>
march és</w>
on str
acc ro
Po li
rel ation</w>
m ing</w>
mo der
ven ess</w>
en vis
f ar</w>
call ed</w>
O F</w>
fun ds</w>
B an
ér ation</w>
Au g
opport unity</w>
spéci alis
proc e
199 0</w>
capac ités</w>
d y
S er
ph ase</w>
exig ences</w>
en ni
E P
vis e</w>
al tern
t exte</w>
pur pose</w>
expéri ence</w>
eff ects</w>
cl é
cl ass
rédu ire</w>
e p</w>
applic ations</w>
prom ouvoir</w>
û t</w>
reven u</w>
al low</w>
public ation</w>
5 9</w>
régi me</w>
abs ence</w>
è ge</w>
p ast</w>
p al
employe es</w>
ter mes</w>
v a</w>
S um
I r
Ro y
jus ti
s am
tain ed</w>
pl ay
bel ow</w>
p il
equi pment</w>
e valuation</w>
curr ently</w>
hav ing</w>
Z e
enf ant</w>
int ég
se urs</w>
P C
ve hic
derni er</w>
ex es</w>
effic ace</w>
f ail
conflic t</w>
on to</w>
in ter</w>
5 00</w>
plann ing</w>
actu ellement</w>
examin er</w>
opport unities</w>
k ann</w>
O ne</w>
quel ques</w>
iz e</w>
Febru ary</w>
B i
applic able</w>
ré férence</w>
repor ting</w>
A v
domesti c</w>
bi ens</w>
tr a</w>
ö r
he it</w>
mun icip
sou lig
part ners</w>
li min
identi fied</w>
représent ant</w>
anc ed</w>
d a</w>
preu ve</w>
z er
ent u
pré vention</w>
D er</w>
ologi e</w>
char ac
internation aux</w>
Un ter
practi ce</w>
con du
d one</w>
proced ure</w>
minim um</w>
So ci
z ones</w>
St and
es sions</w>
nat ural</w>
w ir
k omm
ar ound</w>
vo s</w>
to o</w>
l ack</w>
cour t</w>
al ized</w>
es ted</w>
ar t
s pr
F onds</w>
K on
gr âce</w>
7 5</w>
F und</w>
govern mental</w>
Treat y</w>
r ates</w>
succ ess
benef it</w>
Tou tefois</w>
Rè glement</w>
éner gie</w>
ré serv
ér ic
v or</w>
centr al</w>
do ssi
pro vision</w>
n ame</w>
acc ue
adop té</w>
comp ag
ni veaux</w>
augment ation</w>
V ous</w>
d avantage</w>
l i</w>
2 4
condi tion</w>
quo i</w>
se u
bel ieve</w>
fl ex
exéc ution</w>
princip les</w>
lors qu&apos;</w>
3 4</w>
territ ori
ais san
oth ers</w>
ê tes</w>
S tu
represent ative</w>
lég islation</w>
mo bil
prati que</w>
par l
dev ant</w>
su it</w>
import ante</w>
form er</w>
ég alité</w>
att ach
A P</w>
Secret ariat</w>
enqu ête</w>
ic ally</w>
kno wn</w>
concer n</w>
in struc
represent atives</w>
limit ed</w>
l anc
th re
Rap porteur</w>
iss ement</w>
nu clé
P S
con curr
an dis
pl ay</w>
tis h</w>
un til</w>
f ri
Alber ta</w>
som mes</w>
E N</w>
L ab
CO M
fédér al</w>
v ille</w>
ma k
agre ements</w>
auth or
z ation</w>
pos es</w>
pourr aient</w>
d ical</w>
s él
st atisti
y l
el l</w>
r ac
ect or
resp ec
bo dy</w>
dé es</w>
t é
hig her</w>
an e</w>
F i
crib ed</w>
d its</w>
prehen sive</w>
rel ating</w>
3 ,
Commun ic
préc éd
f f</w>
l em
autor is
observ ations</w>
9 .
vé hic
er n
auth ority</w>
comple te</w>
F ur
lég isl
3 6</w>
re al</w>
princip e</w>
financi ère</w>
A tl
citiz ens</w>
L u
inclu des</w>
év rier</w>
Ad d
mondi al</w>
c ru
aissan ces</w>
no ch</w>
Pro c
c ô
al ization</w>
stat ement</w>
emer g
main tenant</w>
conclu sions</w>
La w</w>
M us
ad equ
assur ance</w>
aw ar
S outh</w>
ac te</w>
O S
cri me</w>
av en
TH E</w>
199 3</w>
innov ation</w>
situ ations</w>
u sion</w>
par ents</w>
cons ac
ar d
t ext</w>
aff ec
scho ol</w>
ag ents</w>
C ap
discus sions</w>
dies er</w>
comm ission</w>
p ay</w>
di vers</w>
pl ain
he ad
vo ie</w>
t ung</w>
natu rel
dé t
offici al</w>
ave ur</w>
hom mes</w>
en ed</w>
an a</w>
ver ty</w>
public s</w>
di x</w>
ré duction</w>
0 7</w>
es ting</w>
Des cription</w>
phy s
on ed</w>
b is</w>
pre par
t ouris
subst ances</w>
st a
en e</w>
econom y</w>
clo se</w>
ch ac
V al
off er</w>
er ont</w>
h ren</w>
suff ici
plac ed</w>
direc tly</w>
L A</w>
pri ority</w>
Ac c
N ew
or ité</w>
e aux</w>
stand ard</w>
pai d</w>
ob st
R en
f au
h eu
work ers</w>
3 7</w>
f évrier</w>
comp ens
satis fac
tl ed</w>
S ci
tra î
mon tr
e k
Bri tish</w>
s l
ab ilities</w>
maxim um</w>
rec ours</w>
sing le</w>
lic h
sp ace</w>
In c</w>
I D
com pon
ei ther</w>
com ité</w>
Fin an
Aug ust</w>
ä r
mon t
hi le</w>
inter vention</w>
6 2</w>
possibil ité</w>
Pr ä
mi lieu</w>
Ag ence</w>
se l</w>
Y or
ing ly</w>
dic tion</w>
différ entes</w>
cont exte</w>
Af gh
s éri
f aveur</w>
essenti al</w>
sec ré
individu als</w>
199 2</w>
Tra de</w>
f est
et ary</w>
g em
répon dre</w>
jo in
A S</w>
dem onstr
vol on
Environ ment</w>
i ties</w>
aur ait</w>
fig ur
l ing</w>
Ch ina</w>
Ch air
commit ment</w>
fran ç
all s</w>
h ome</w>
l t</w>
re ference</w>
deb ate</w>
ro ad</w>
uni vers
li er</w>
in dépend
nécess ité</w>
répon se</w>
Direc tor</w>
effor t</w>
des ign</w>
pre p
pub lis
c ateg
q u</w>
i or</w>
6 5</w>
compét ences</w>
at ti
fac ilities</w>
0 9</w>
present ed</w>
int ellectu
instr ument</w>
con cl
Reg ulations</w>
O ur</w>
s ay</w>
l ands</w>
y oung</w>
t elle</w>
d it
b or
W hile</w>
princip aux</w>
t elles</w>
cré er</w>
tou ch
be half</w>
rése au</w>
par ce</w>
medi a</w>
O T
plani fication</w>
ell ing</w>
off ic
suiv ants</w>
3 9</w>
rel ation
spec ies</w>
ver y
orig ine</w>
ag ent</w>
dé s
2 00</w>
n ations</w>
E D</w>
resp ecti
rap id
tr ices</w>
pré vo
import ants</w>
y s</w>
5 4</w>
enseign ement</w>
territ oire</w>
guar an
a o
S ou
t ex
rap p
Yor k</w>
comb in
5 1</w>
4 1</w>
ér is
ph ot
6 7</w>
cl in
in é
présent é</w>
ak e
lo o
T o
fondam ent
hum aines</w>
demand é</w>
rati c</w>
jur is
TI ON</w>
am éric
tem por
pol lu
métho des</w>
propos als</w>
con férence</w>
B ank</w>
en ess</w>
si eur</w>
associ ated</w>
lik ely</w>
en traî
r endement</w>
For um</w>
con soli
San té</w>
com ment</w>
é di
a ï
cap it
4 8</w>
équi p
tra ite</w>
ar be
me ille
dé sign
indi qué</w>
Nor th</w>
con su
challeng es</w>
et tes</w>
Jo h
propri été</w>
transi tion</w>
bu reau</w>
hol ders</w>
comm enc
st er</w>
A G
M c
soci aux</w>
for ward</w>
hi er</w>
m é</w>
ch te</w>
bro ad
vis ory</w>
pos t</w>
canadi ennes</w>
ge ts</w>
si an</w>
co de</w>
ci pl
em ph
éch elle</w>
sel ves</w>
bi o
wh ole</w>
juridi que</w>
Ch am
Eng lish</w>
y p
g ender</w>
fon d
s at
a b</w>
main tien</w>
prior ités</w>
s po
Afr ican</w>
ON S</w>
0 8</w>
rit anni
ü t
or ie</w>
pré sident</w>
id ed</w>
S O
strategi c</w>
M ed
C F
r endre</w>
carri ed</w>
is ième</w>
A U
respons abil
Amer ican</w>
ét ro
For ce</w>
simil ar</w>
m ü
Kom mission</w>
us er</w>
constitu e</w>
previ ous</w>
ad ul
contr ô
regi ons</w>
da ß</w>
t ées</w>
l ines</w>
institu tion</w>
e an</w>
cre ate</w>
lic ence</w>
ad mis
agr ic
Tor onto</w>
C ri
qu és</w>
sh are</w>
st ates</w>
exp li
ach ieve</w>
pur poses</w>
199 1</w>
en en</w>
agricul ture</w>
a su
direc tement</w>
&apos; t</w>
d ess
dis e
e f</w>
concern s</w>
we b
cust om
dur ée</w>
fonc tions</w>
li és</w>
citoy ens</w>
to ok</w>
gh out</w>
Con stitution</w>
angl ais</w>
ab orer</w>
Mon sieur</w>
h aut</w>
n uclear</w>
reg ulations</w>
f en</w>
con c
com ing</w>
di men
ri t</w>
obst ac
S T</w>
A D</w>
B ar
Sel on</w>
sid ents</w>
establis h</w>
W omen</w>
L ors
k l
b as
ag e
cont ained</w>
menti onn
t ance</w>
technologi e</w>
ex tern
déb at</w>
C ela</w>
wur de</w>
sign ed</w>
inté gr
bo dies</w>
4 4</w>
ju g
pré par
er re</w>
r ural</w>
par ts</w>
bili ties</w>
val eurs</w>
appro ved</w>
An nex</w>
re duce</w>
et er</w>
reques ted</w>
at ch
fab ric
ad or</w>
conn aissances</w>
P D
Cor por
Su d</w>
h ib
-- --
civi le</w>
materi al</w>
N ote</w>
ab er</w>
R ep
fol low</w>
véri fication</w>
Atl anti
cir cul
ot al</w>
ber e
olu me</w>
réun ions</w>
b ar
ici le</w>
dé s</w>
stu dies</w>
for t</w>
h u
requi re</w>
le ad</w>
hol d</w>
appro uv
fac teurs</w>
S ur
er re
en z
refer red</w>
k r
P O
Secré tariat</w>
nombre uses</w>
r é</w>
tra ff
9 5</w>
dé but</w>
cri t</w>
proc esses</w>
objecti ve</w>
march andis
expres sed</w>
princip le</w>
hi m</w>
diver ses</w>
Jus tice</w>
address ed</w>
présent er</w>
to x
ag ers</w>
design ed</w>
Amer ica</w>
di pl
ie f</w>
s ens</w>
li bre</w>
onn es</w>
lar ation</w>
ich er
équi pe</w>
cho is
3 8</w>
lab our</w>
i ers</w>
intér êts</w>
atis tics</w>
th ink</w>
ep ing</w>
issu ed</w>
A gr
S ome</w>
chang ement</w>
E F</w>
. com</w>
P L
ou ti
com prehensive</w>
z w
over all</w>
ig e</w>
financi ères</w>
migr ants</w>
str ong</w>
derni ères</w>
Institu te</w>
u is
financi ers</w>
M en
m icro
particip er</w>
ré gu
H IV</w>
at ures</w>
5 2</w>
ari es</w>
ou l
ave z</w>
ement ed</w>
c anc
av anc
D I
inté gration</w>
améli oration</w>
H ig
ten d</w>
at h</w>
it self</w>
prep ared</w>
dis cipl
priv é</w>
st ances</w>
commit tee</w>
deleg ation</w>
béné fic
s anc
investi g
évalu er</w>
travail leurs</w>
phy si
s ement</w>
s ais
dispon ibles</w>
m al</w>
cent age</w>
inter nal</w>
contr at</w>
J &apos;</w>
accor ding</w>
cher ch
B ul
ig en</w>
F re
ad ress
F un
lo is</w>
po verty</w>
al ways</w>
pro positions</w>
Con sul
crit ères</w>
é missions</w>
es tern</w>
dur ant</w>
D ES</w>
im mer</w>
fé lic
ét ap
sex u
4 9</w>
not es</w>
a j
pos tes</w>
c amp
si bilities</w>
multi lat
under standing</w>
th é
vis i
ra ther</w>
au x
fa its</w>
5 3</w>
mand ate</w>
ul ar</w>
mo del</w>
de t
î tre</w>
pauv reté</w>
un ion</w>
ap s</w>
le quel</w>
ao ût</w>
soci étés</w>
W h
mê mes</w>
M s.</w>
f tw
rece ive</w>
ach es</w>
T O</w>
t ar
establis hment</w>
hn en</w>
mo sp
N on</w>
communaut aire</w>
m ation</w>
re l</w>
minu tes</w>
as ter</w>
Ex ecutive</w>
m ot
conclu sion</w>
O per
ap pr
du s</w>
se par
direc teur</w>
li ées</w>
rest e</w>
eth ni
S ask
ati que</w>
ag ain</w>
in er</w>
renforc ement</w>
encour age</w>
ven ue</w>
A F
ectron ic</w>
I C</w>
T el
accor ds</w>
D o
tionn els</w>
impl ement</w>
b ar</w>
val ues</w>
a jou
Fe deral</w>
wen n</w>
derni ère</w>
c au
ev ents</w>
p un
A T</w>
cir cum
marchandis es</w>
Ira q</w>
T otal</w>
avant ages</w>
s û
Que bec</w>
h and</w>
mod èle</w>
vic ti
b ass
B es
aver age</w>
P aci
op tions</w>
B y</w>
basi c</w>
a qu
Pro tection</w>
Her r</w>
I L
w is
étab li</w>
P N
du le</w>
fac tors</w>
inte gration</w>
li ving</w>
Am end
m ail</w>
streng th
conséqu ent</w>
S C
v o</w>
out side</w>
modi fications</w>
régi onal</w>
6 4</w>
S al
forc ement</w>
Am érique</w>
électron ique</w>
s ent</w>
rel atifs</w>
ag no
F l
it u
mat ters</w>
le y</w>
PR O
h ér
increas ing</w>
en sus</w>
e very
en de</w>
reç u</w>
al en</w>
throu ghout</w>
suppor ted</w>
exist ence</w>
ét aire</w>
vi a</w>
plic ation</w>
cont ent</w>
M ex
vic times</w>
aven ir</w>
4 2</w>
2 8
ph one</w>
I T</w>
retur n</w>
sur ance</w>
er ait</w>
D r
w ish</w>
ak ing</w>
B .</w>
suiv ant</w>
E ff
AN D</w>
R om
se hr</w>
organis me</w>
.g .</w>
S en
sh ort</w>
th us</w>
dy nam
pr ice</w>
9 9</w>
Par ty</w>
ant ly</w>
difficul t</w>
ti n</w>
améli or
opér ationn
M E</w>
matéri el</w>
off ers</w>
li on</w>
P an
i x
con stat
conduc ted</w>
F is
c all</w>
inter ests</w>
ä t
diff usion</w>
is on</w>
lang ues</w>
it aires</w>
mü ssen</w>
appli ed</w>
p ack
A R</w>
e .g.</w>
sen sibil
minist ères</w>
gouvernement ales</w>
y et</w>
comm ent
â ge</w>
rest aur
seri ous</w>
régl ement
stratégi que</w>
sor te</w>
g ri
r s</w>
lang ue</w>
al iné
au teur</w>
4 3</w>
con sid
en jo
govern ments</w>
compli ance</w>
qu ées</w>
all er</w>
struc tures</w>
A B
st ated</w>
dé cid
fais ant</w>
re z</w>
in cl
uni ver
C entr
al ia</w>
P A</w>
t arg
h ours</w>
én onc
canadi ens</w>
vis ed</w>
re ad</w>
supplément aires</w>
crit eria</w>
U N</w>
lo ok</w>
hy dro
S ince</w>
C ep
Rec omm
enreg ist
se ur</w>
régl ementation</w>
plic ations</w>
ex change</w>
ent er
cy cle</w>
mar k</w>
C T
p rec
Pro ject</w>
ev ent</w>
enti tled</w>
Min istry</w>
pri orities</w>
permet tant</w>
tu al</w>
pi ed</w>
Afgh an
rup tion</w>
d ot
im medi
i tions</w>
is me</w>
Cep endant</w>
te am</w>
B ien</w>
pos t
exp end
at a</w>
re duction</w>
vis ions</w>
Ch ap
provin ci
tra ité</w>
espè ces</w>
par mi</w>
comp et
AI DS</w>
fü hr
pe ace
n s</w>
b ul
re mo
c ity</w>
em ment</w>
s oll
i al</w>
L ib
N et
. .</w>
suiv antes</w>
ke eping</w>
J u
long er</w>
it aire</w>
Afghan istan</w>
é der</w>
g t</w>
B ro
dec ided</w>
f ying</w>
Syst em</w>
coû t</w>
tionn el</w>
pl an
it age</w>
inter pre
travail l
pre vent</w>
k er</w>
competi tion</w>
aur a</w>
ru le</w>
wh y</w>
am es</w>
op s</w>
ori ent
wor ds</w>
amend ments</w>
expres sion</w>
conserv ation</w>
publi ques</w>
Aus tr
ac tes</w>
terroris me</w>
mécanis mes</w>
D A</w>
fun dam
h l
it ob
Reg ulation</w>
Mit g
stu dents</w>
or ds</w>
Par t
i des</w>
Ar be
atte indre</w>
am ents</w>
P I</w>
rem ain</w>
re form</w>
z ung</w>
k m</w>
initi al</w>
An d</w>
low er</w>
indic ated</w>
caract éris
t â
è de</w>
élev é</w>
fin d
Ter rit
Q U
a p</w>
st ake
ul t
determin e</w>
pati ents</w>
p .m.</w>
satisfac tion</w>
regul ar</w>
ê me</w>
trans fer</w>
D I</w>
4 6</w>
part ement</w>
B en
a éri
fron ti
actu elle</w>
p ul
possibil ités</w>
ftw are</w>
bu d
B ur
respons able</w>
entr ée</w>
trou ver</w>
n ah
2 7
L eg
Initi ative</w>
suffici ent</w>
certi fic
ot es</w>
w rit
contribu te</w>
co ordonn
P C</w>
pl ut
fu ge
arrang ements</w>
import antes</w>
u st
tr ice</w>
appro xim
simp le</w>
tr é
as h
bu re
réalis ation</w>
pu is
fai ble</w>
in corpor
tain s</w>
B usiness</w>
2 9
con seil</w>
ep s</w>
b res</w>
g et
me dical</w>
E .</w>
Man itob
imp li
C S
net work</w>
Hig h</w>
er ung</w>
end ra</w>
re ach
propos e</w>
sup pli
de al
. S.</w>
W in
C al
adv ant
prévo it</w>
s on
Protoco l</w>
c are
strategi es</w>
fo res
ti se</w>
bo ard</w>
protég er</w>
stratégi es</w>
ré serve</w>
d re
5 ,
investiss ement</w>
ch im
établiss ements</w>
6 6</w>
marke ts</w>
D uring</w>
communaut és</w>
appli quer</w>
ap port
am in
identi fy</w>
tro isième</w>
viol ations</w>
collectiv ités</w>
hel p
ro oms</w>
Rep res
respons ables</w>
qu ée</w>
ap ons</w>
s en</w>
me hr</w>
compl eted</w>
tou tefois</w>
üc k
deli very</w>
let ter</w>
w it
comm un</w>
oun c
am bi
cho ix</w>
pri or</w>
clim ate</w>
fi l</w>
w al
sch aft</w>
proc ess
adequ ate</w>
enreg istr
impl emented</w>
aff ected</w>
C M
com port
concep t</w>
M ill
som e
tab leau</w>
Direc tion</w>
ad ver
pro pre</w>
régu li
ologi que</w>
urg ence</w>
Manitob a</w>
commit ted</w>
j ets</w>
M ais</w>
4 ,
succ ès</w>
4 7</w>
cle arly</w>
in titul
professi onal</w>
cre ated</w>
fonctionn ement</w>
Direc tive</w>
ch ec
n é
fu gi
fre e
sup ply</w>
ges ch
Memb res</w>
l ing
pr es</w>
produc ed</w>
U m
ritanni que</w>
Re view</w>
I tal
ant i</w>
ais se</w>
financi er</w>
protec t</w>
él abor
E ast</w>
is ts</w>
it ement</w>
C am
at mosp
charg é</w>
pre vention</w>
te es</w>
em enting</w>
lead ership</w>
succ ess</w>
emph asi
us am
as ked</w>
poin ted</w>
guid elines</w>
terroris m</w>
Au th
a c</w>
Administr ation</w>
pay ment</w>
inter pré
sci ence</w>
k a</w>
mon ey</w>
bil lion</w>
che f</w>
l t;</w>
& lt;</w>
s cep
i ère</w>
E X
des sus</w>
vis it
In form
me th
pri mary</w>
nu tri
leg isl
is ol
Au f
gran des</w>
depart ments</w>
ré qu
con vient</w>
v it
sur tout</w>
v eu
ven tions</w>
val id
per f
v olume</w>
em e</w>
er ve</w>
e valu
propos é</w>
plut ôt</w>
bal ance</w>
For ces</w>
v ente</w>
h ou
e .</w>
aî t</w>
l à</w>
d ation</w>
conduc t</w>
vol un
M ac
materi als</w>
P E</w>
Qu es
de x</w>
du m</w>
mati que</w>
docum entation</w>
sec tors</w>
direc tives</w>
co ver</w>
cover ed</w>
crimin al</w>
év olution</w>
C AN
ologi ques</w>
influ ence</w>
install ations</w>
Al though</w>
s emble</w>
e duc
UN IC
S af
donn e</w>
décid é</w>
ex port
Doc ument</w>
sub si
z ing</w>
pré ci
I h
l y
liber té</w>
la un
dies em</w>
Res pon
VI H</w>
H ouse</w>
in dependent</w>
fi e</w>
érie ures</w>
di s</w>
utilis é</w>
j am
dis pens
requi res</w>
ploy ment</w>
con str
L oc
la ws</w>
prés ence</w>
au dit</w>
u te</w>
pen sion</w>
fér ences</w>
al ong</w>
defin ed</w>
J ap
reas ons</w>
me il
gu ide</w>
sur face</w>
pro pres</w>
k o
m ement</w>
st age</w>
tionn elle</w>
re ti
organ es</w>
metho ds</w>
and a</w>
he ad</w>
cons ensus</w>
sh ow</w>
Col um
ti gen</w>
év entu
déf ense</w>
fl its</w>
e uses</w>
hô tel</w>
ent ative</w>
ré v
dev ons</w>
déclar é</w>
g le
gr at
reg istr
it ures</w>
us age</w>
um s</w>
D C</w>
ich en</w>
humanit arian</w>
de al</w>
reas on
circum stances</w>
fig ure</w>
streng then</w>
P S</w>
ex tre
tradi tional</w>
6 13</w>
et c</w>
s essions</w>
ren d</w>
l ater</w>
neh men</w>
Po int</w>
ho sp
success ful</w>
them selves</w>
K ing
E A</w>
sti m
charac ter
pre ci
consist ent</w>
pur ch
secré tariat</w>
enni um</w>
awar eness</w>
g ens</w>
z es</w>
ac cid
br ing</w>
con flits</w>
con v
fi ée</w>
W i
hand ic
re a</w>
él aborer</w>
publis hed</w>
F ol
h in
h ope</w>
s embl
cli ent</w>
conse ils</w>
Se e</w>
7 7</w>
incid ence</w>
stat ut</w>
ex tent</w>
integr ated</w>
conse qu
t ori
Centr al</w>
rel atif</w>
Res ources</w>
év én
se qu
facil iter</w>
negoti ations</w>
ré us
komm en</w>
fonctionn aires</w>
séri e</w>
e as
Dé clar
Bu dg
maj ority</w>
Memb ers</w>
per cent</w>
modi fication</w>
itä t</w>
atch ew
p sy
moy enne</w>
Col omb
li ens</w>
cris is</w>
exper tise</w>
der ation</w>
p u</w>
el ements</w>
man ner</w>
s mo
orig in
ti ge</w>
E ducation</w>
T C</w>
Sask atchew
st art</w>
I S</w>
mechanis ms</w>
b ou
fourn is
S aint</w>
fisc al</w>
métho de</w>
af ric
de ut
vi e
Un der</w>
Saskatchew an</w>
is m</w>
B al
rec ru
correspon d
as t
Accor d</w>
ét aires</w>
Br un
rec ord</w>
tain ing</w>
sc ol
propor tion</w>
int ended</w>
D ur
négoci ations</w>
O R</w>
gen ous</w>
6 8</w>
er y</w>
béné fici
responsabil ités</w>
ré fugi
er ous</w>
W o
equ al</w>
n ation</w>
J ourn
Pro duc
tionn elles</w>
rou te</w>
r ue</w>
Regi onal</w>
. ht
accep table</w>
Ko so
ten ues</w>
to p</w>
ich e</w>
et c.</w>
C oll
we b</w>
arb itr
vou l
utilis és</w>
prév ues</w>
dé ci
Par t</w>
chap itre</w>
N ouvel
le ase</w>
dom in
y a</w>
habit at</w>
compl ain
associ ations</w>
st eps</w>
compr end</w>
effici ent</w>
ad resse</w>
Environ mental</w>
un ter</w>
aliné a</w>
Commis s
vo irs</w>
com pu
jo b</w>
L et
c s</w>
inform ed</w>
trou ve</w>
in ning</w>
in qui
D U</w>
è rent</w>
pos s
G lob
fundam ental</w>
anc ing</w>
dru g</w>
U L
ar ms</w>
en able</w>
h app
anti ll
O C
con vention</w>
tri al</w>
la i</w>
lit tle</w>
oper ational</w>
ß en</w>
er ie</w>
achiev ed</w>
R ich
Colomb ie</w>
9 8</w>
ten ance</w>
seu l</w>
Con tr
li eux</w>
E UR</w>
acces sible</w>
S M
sk ills</w>
inter ne</w>
mer ci
garanti r</w>
vis it</w>
accro ître</w>
trav el</w>
su scep
En er
suscep ti
w id
de partment</w>
po int
ti g</w>
menti oned</w>
C re
cri tical</w>
appro val</w>
Me e
gu erre</w>
u su
médi as</w>
A ut
pursu ant</w>
vou dr
identi fication</w>
transfer t</w>
Amend ment</w>
end r
esti me</w>
consult atif</w>
remain s</w>
am en</w>
3 00</w>
Pro v
N at
ein es</w>
comm ents</w>
vi v
mo bili
al though</w>
lig nes</w>
alim ents</w>
Ann exe</w>
des cription</w>
t et</w>
fi f
relati vement</w>
part nership</w>
li ve</w>
juridi ques</w>
étrang er</w>
rais ons</w>
Europä ischen</w>
dé lai</w>
off ices</w>
coll ection</w>
I F
to ols</w>
contr act</w>
o s
su is</w>
ag o</w>
Joh n</w>
présent ation</w>
er al</w>
candid ats</w>
clai rement</w>
clai m</w>
famili es</w>
ste p</w>
conf lit</w>
G ro
mati ères</w>
ti er</w>
défin ition</w>
rap porteur</w>
pê che</w>
région ales</w>
t ables</w>
ac es</w>
essenti el</w>
v ill
9 7</w>
Koso vo</w>
T ro
éri eurs</w>
ation en</w>
mé dec
Ger many</w>
sid enti
o v
wh ose</w>
ju dg
sc ope</w>
r ite</w>
hist ory</w>
comp tes</w>
des cribed</w>
Protoco le</w>
région aux</w>
ad ded</w>
po s</w>
el ectronic</w>
determin ed</w>
7 3</w>
Par is</w>
un ité</w>
recomm ended</w>
f réqu
am ent
esti onn
fis h</w>
ille z</w>
de ur</w>
annu el</w>
ré forme</w>
concurr ence</w>
ass ist</w>
num éro</w>
des truc
pr ac
re mar
public ations</w>
e ver</w>
dem and</w>
ens uring</w>
mu si
sec ret
l ung</w>
ter res</w>
reg ulation</w>
Par agrap
comp ati
y le</w>
un ds</w>
mati ques</w>
res ource</w>
sug g
pl ement</w>
gener ally</w>
F am
H R</w>
pap er</w>
Déclar ation</w>
e ure</w>
rou ght</w>
w ich
deman der</w>
N O
éch antill
associ ation</w>
emp ê
el ig
proc u
Af ter</w>
F C</w>
loc aux</w>
pass é</w>
it s
6 ,
rapid ement</w>
compr endre</w>
ori entation</w>
particip ate</w>
se e
us e
Finan cial</w>
regul atory</w>
consomm ation</w>
pou vez</w>
sign al
intro duction</w>
f ast</w>
tro ph
si ze</w>
lear ning</w>
view ed</w>
sch e</w>
Gu ide</w>
sél ection</w>
prév u</w>
cri mes</w>
enti ss
oper ating</w>
im médi
ec ture</w>
l ac
é change</w>
A ir
au me</w>
Mitg li
J .</w>
at el
atte in
ec h</w>
langu ages</w>
Colum bia</w>
ser ies</w>
ad ic
cre dit</w>
install ation</w>
arm ac
Fo od</w>
H ar
financ ing</w>
at oires</w>
ä u
H ome</w>
web site</w>
di a</w>
catég orie</w>
D eu
ex ception</w>
reas on</w>
exper t</w>
9 6</w>
stake holders</w>
her ies</w>
ecti ves</w>
ge b
minist éri
k on
pi è
fédér ale</w>
i p
8 5</w>
T im
re merci
en ge</w>
élé ment</w>
op pos
l abor
chi ff
te ach
cré dit</w>
cre ation</w>
franç ais</w>
us ement</w>
persp ective</w>
t un
dem n
milit aires</w>
sou mis</w>
R .
or ti
E d
w ise</w>
tak es</w>
re pres
impl ementing</w>
C R</w>
De puis</w>
fi és</w>
aliment aire</w>
t ol
Pro du
centr ale</w>
facilit ate</w>
C ul
w ers</w>
us ers</w>
D éc
Pe op
us tr
caract ère</w>
comm une</w>
f lo
s ent
writ ten</w>
com mod
Agr icul
i vi
acqu is
6 9</w>
génér alement</w>
milit aire</w>
pri mer</w>
con tenu</w>
di versité</w>
ol es
ed ings</w>
jur y</w>
m as
Institu t</w>
B l
lig h
E P</w>
form at</w>
UNIC EF</w>
y outh</w>
hi bi
d ès</w>
t ali
terr ain</w>
am s</w>
tur ing</w>
bi et
is ed</w>
E T
clai ms</w>
cons ci
p ages</w>
respon sibilities</w>
im age</w>
app are
mö chte</w>
ga z</w>
recher ches</w>
tor ture</w>
S .
ph o
r ant</w>
a des</w>
présent ant</w>
cr aft</w>
U .S.</w>
i .
5 0
i ds</w>
fon d</w>
pr end</w>
investiss ements</w>
soci ales</w>
cré é</w>
conn ection</w>
th y</w>
L is
spéci ale</w>
gl ements</w>
ple ase</w>
sy m
Pri v
E tats</w>
exerc ise</w>
F ac
tra ités</w>
go als</w>
consomm ateurs</w>
e ding</w>
us s
ne g
loc ales</w>
b lo
L im
statisti ques</w>
provis oire</w>
b at
mak es</w>
trans ports</w>
prior ité</w>
viol ation</w>
off rir</w>
e ing
se en</w>
M u
ach e</w>
continu er</w>
pl ein
fau dr
coll ective</w>
pour quoi</w>
H au
z we
candid ates</w>
ser vi
hé sion</w>
at tr
relation ship</w>
dis par
B C</w>
pro toco
hal ten</w>
l ande</w>
g as</w>
engag ements</w>
m ét
sec tions</w>
chac un</w>
M at
dé cl
w o</w>
préc is
rec ue
Uni versité</w>
ill ed</w>
Off ic
F rom</w>
coll abor
we ek</w>
im porte</w>
f ound
S &apos;</w>
Ch ine</w>
s av
rem bour
dis tric
se ule</w>
lead ing</w>
spéci fiques</w>
ex tra
ann ounc
gr ands</w>
bu ild</w>
ex prim
ren ouvel
p ic
IP O</w>
p a</w>
func tion</w>
sh own</w>
me asu
L ang
b ir
f all
er n</w>
cl ari
maladi es</w>
tro p</w>
f all</w>
st ation</w>
quel que</w>
Char ter</w>
sal le</w>
adop ter</w>
duc ing</w>
ci v
R ob
b ack
main tain</w>
prog res
con ci
Ge or
M ich
mo tion</w>
parten ariat</w>
phys ical</w>
outi ls</w>
pollu tion</w>
pr ices</w>
b es</w>
ent h</w>
ell en</w>
U kr
Mon tré
k te</w>
interven ants</w>
tiv ité</w>
él ec
Ho w</w>
inv ent
omm et</w>
is hed</w>
M i
k ind</w>
follow s</w>
stat ements</w>
ç u</w>
Ou est</w>
dis pose</w>
al li
we apons</w>
A près</w>
free dom</w>
Num ber</w>
R O
ag ree</w>
amp les</w>
représent e</w>
b ation</w>
ep h
improv ed</w>
mor t
sid a</w>
employe e</w>
Montré al</w>
prest ations</w>
chi ves</w>
ér é</w>
tiv ity</w>
D .</w>
maj orité</w>
si è
ac ht</w>
aff aire</w>
im migration</w>
con ver
obstac les</w>
enh ance</w>
st o
G O
diff icile</w>
lo ss</w>
re d
par a</w>
inst ance</w>
o les</w>
sel ection</w>
an ch</w>
com pro
t ability</w>
è les</w>
ati ques</w>
prof it</w>
tin e</w>
organiz ed</w>
ul aire</w>
é ni
excell ent</w>
él è
appu yer</w>
off er
ris e</w>
s cre
constitu ent</w>
on going</w>
crip tions</w>
el im
lo t</w>
recogni zed</w>
reques ts</w>
S k
oper ate</w>
el ess</w>
Chair man</w>
réfugi és</w>
victi ms</w>
entre pren
év iter</w>
ä ch
enc ed</w>
les quels</w>
surve y</w>
M il
ver b
habit u
sanc tions</w>
do w
un .org</w>
maladi e</w>
st üt
ai med</w>
les quelles</w>
dou ble</w>
b ers</w>
detail ed</w>
Ban que</w>
le ft</w>
meille ure</w>
ass en</w>
Roy aume</w>
v acc
a tri
altern ative</w>
C O</w>
esp ace</w>
ve iller</w>
th è
intro duced</w>
hum ains</w>
Ro om</w>
ag ue</w>
clo sure</w>
appe al</w>
ne w
â g
pen se</w>
en voy
ré per
souha it
Pr incip
it ems</w>
Pro f
effecti veness</w>
br ing
promo ting</w>
re ach</w>
cou ver
I N</w>
extern al</w>
T ous</w>
estim ated</w>
PD F</w>
appli que</w>
f air</w>
examin é</w>
reven us</w>
t lement</w>
vo m</w>
detail s</w>
con ference</w>
dipl om
st ay</w>
b order</w>
gén é
sp on
eur o</w>
L t
contribu er</w>
H aut</w>
r y
9 4</w>
approxim ately</w>
ar ab
ih re</w>
main tenance</w>
W est</w>
comp ared</w>
pro venant</w>
D r.</w>
v ér
S ous</w>
3 8
sci ences</w>
work sh
ac ting</w>
gi bt</w>
indus tries</w>
let tre</w>
ch ed</w>
pou voirs</w>
Vo ir</w>
h abil
h ö
mp tion</w>
w ing</w>
Mee ting</w>
te z</w>
concentr ation</w>
véhic ules</w>
mon th</w>
an y
An aly
under taken</w>
è tres</w>
sp i
S lo
autor ité</w>
mess age</w>
En tw
l ation</w>
fam illes</w>
sch e
h ors</w>
f requ
no ti
li en</w>
P lease</w>
jam ais</w>
ti ennent</w>
sch l
em issions</w>
aw ay</w>
in demn
I P</w>
are n</w>
u its</w>
L in
li r</w>
app ell
aut onom
r acy</w>
Palestin ian</w>
di versity</w>
Strate gy</w>
F ri
nav ig
industri al</w>
princip ales</w>
ari ats</w>
ch ers</w>
a pon</w>
Isra el</w>
ar es</w>
restric tions</w>
e use</w>
W IPO</w>
com position</w>
rec ently</w>
T out</w>
ther more</w>
gl ich</w>
urb an</w>
él arg
sel y</w>
indi que</w>
Ü ber
a h</w>
insp ection</w>
D ar
bure aux</w>
i. e.</w>
gi que</w>
radi o</w>
AN S</w>
meas ure</w>
ou gh</w>
d ly</w>
imp ôt</w>
fa ite</w>
e il</w>
euro pä
sch i
V anc
re duced</w>
effecti vely</w>
E st</w>
Brun sw
le ave</w>
C L
f eu
am oun
actu al</w>
W estern</w>
ap preci
h s</w>
exp en
de g
Off ici
g am
classi fication</w>
é th
T ab
ad équ
qu and</w>
enregist rement</w>
cau ses</w>
re fuge
all ég
plein ement</w>
ré mun
Mitgli ed
discus sed</w>
stell en</w>
y ond</w>
10 .
ris ks</w>
scienti fic</w>
pro li
Fr an
larg ement</w>
Prä sident</w>
interven tions</w>
7 2</w>
ier t</w>
trim o
en suite</w>
ap porter</w>
em pl
civi li
improv ing</w>
ré vis
prest ation</w>
h ouse</w>
dé si
sc ale</w>
ou ver</w>
ibil ity</w>
M IN
ré si
coll ec
ah l
A in
S E
9 1</w>
R E</w>
entiss age</w>
ic o</w>
ai rement</w>
tion en</w>
en forcement</w>
l et</w>
destruc tion</w>
end ro
agricul tural</w>
W el
st or
func tions</w>
t op
dis tance</w>
f ä
Vanc ouver</w>
ic king</w>
peu ples</w>
r ang
cl és</w>
Brunsw ick</w>
élimin ation</w>
S ite</w>
con sum
wel come</w>
af t
Ass ess
scho ols</w>
7 ,
rap ide</w>
Accor ding</w>
plac es</w>
9 2</w>
dispon ible</w>
legisl ative</w>
proce edings</w>
an nex</w>
S P
pour suivre</w>
B ritannique</w>
ord ers</w>
lin ks</w>
Dec laration</w>
efficac es</w>
professionn els</w>
vehic le</w>
ä f
mo de</w>
d le</w>
arm ed</w>
trans mission</w>
val ent</w>
de ed</w>
Parti cip
X X
v ac
an ia</w>
usam men
defin ition</w>
il lic
difficul tés</w>
res olutions</w>
confi denti
uti le</w>
offici als</w>
trimo ine</w>
port ée</w>
E st
ar ts</w>
li qui
conséqu ences</w>
Ain si</w>
lin ed</w>
mani fest
D E
â ti
King dom</w>
CN .
bo ok</w>
ai m</w>
Rus sian</w>
secret ariat</w>
nuclé aires</w>
Govern ments</w>
démocrati que</w>
contin ues</w>
comple x</w>
pass er</w>
communaut aires</w>
ü r</w>
li ation</w>
pol y
al le
I A</w>
3 0
pai ement</w>
S o</w>
o il</w>
subst ance</w>
ai gn
str ic
ous ing</w>
ke ep</w>
D C
vi ennent</w>
suiv ante</w>
grow ing</w>
on t
deli ver
ren ew
travail ler</w>
c ot
Ad visory</w>
min or
fem me</w>
EM ENT</w>
ser aient</w>
Ver sion</w>
exam ine</w>
Lors que</w>
rè glements</w>
al o
ari a</w>
al most</w>
adap tation</w>
th ings</w>
personn els</w>
b rought</w>
en sion</w>
ali ties</w>
ven u</w>
so wie</w>
minis tres</w>
M or
Fo reign</w>
L ES</w>
ac compl
sub mit</w>
G ar
cl am
M es
compens ation</w>
té mo
mécanis me</w>
comb at</w>
dies es</w>
al leg
im mun
Budg et</w>
ON U
ill ing</w>
ar m</w>
compét ence</w>
appr entissage</w>
8 00</w>
effici ency</w>
Atlanti c</w>
cep endant</w>
EC E</w>
quar ters</w>
Sup port</w>
regis tered</w>
Del eg
Pub lic
fi les</w>
fic ally</w>
se ar
déclar ations</w>
P AR
radi o
princip alement</w>
scienti fiques</w>
requi rement</w>
S om
tr ag
tri bunal</w>
S he</w>
car ry</w>
ne y</w>
V ice</w>
t ests</w>
et é</w>
rais onn
registr ation</w>
arm ement</w>
W P.
Communic ations</w>
nor d</w>
pro sp
set ting</w>
bec om
o d
st än
strength ening</w>
te il
aut ant</w>
ch t</w>
ext érieur</w>
Un i</w>
w in
zw ischen</w>
offic ers</w>
ad em
norm al</w>
he ure</w>
g ue</w>
T y
h l</w>
m y
Repres entative</w>
ge ben</w>
ag g
Cont act</w>
mo dern</w>
ré parti
A t
mi x
suppor ting</w>
trou v
198 9</w>
Nouvel le</w>
we iter
tr ain</w>
dise ase</w>
ater al</w>
inter médi
cor ruption</w>
ban k</w>
sh or
A M</w>
dis posi
under stand</w>
Tr av
ob s</w>
res ol
Rus sie</w>
éch é
pro pos</w>
Am endement</w>
aw are</w>
op ti
cro ss</w>
cherch eurs</w>
milli ards</w>
att emp
Saf ety</w>
Ag enda</w>
déf is</w>
abor d</w>
subsi di
wor d</w>
in surance</w>
is ter</w>
dossi er</w>
acquis ition</w>
lo ad</w>
él ections</w>
di ri
re mp
cont ains</w>
Sur ve
voudr ais</w>
R .</w>
s tri
8 8</w>
Jap an</w>
ap point
investi gation</w>
territ oires</w>
m age</w>
v u</w>
indic ateurs</w>
cris e</w>
Trans port</w>
F ig
Ch ildren</w>
so ftware</w>
ev a</w>
on line</w>
A sie</w>
Fur thermore</w>
M ul
U r
col on
pr u
1. 1</w>
R et
Indus try</w>
étudi ants</w>
concentr ations</w>
détail l
adv ice</w>
priv ée</w>
g estionn
S i
g est
offici elles</w>
humanit aire</w>
asse ts</w>
naturel les</w>
t ory</w>
ro ul
ad just
respec ter</w>
just e</w>
amend ment</w>
ad s</w>
C y
eph one</w>
Entw ick
S im
charg es</w>
produ ce</w>
ur red</w>
Im pl
en n</w>
tu des</w>
C op
sp ati
hal b</w>
commit ments</w>
H on
trans actions</w>
chall enge</w>
M O
vari ety</w>
govern ance</w>
stratégi ques</w>
d eci
emplo is</w>
O ut
judici aire</w>
C et</w>
bre ak
pu isse</w>
oc h</w>
al co
région ale</w>
lie ß
ner ships</w>
Dem oc
d an</w>
Minis tre</w>
be hav
entr y</w>
so on</w>
go al</w>
li mit</w>
peti tes</w>
dow n
étrang ers</w>
sat ell
ro g
ne ar</w>
è que</w>
conn aissance</w>
territ ory</w>
P ak
territori al</w>
pal estin
confi ance</w>
handic ap
ist ant</w>
I G
pr on
Con tro
lis ted</w>
délég ations</w>
pl as
str ong
permet tent</w>
favor iser</w>
P a
peop les</w>
ë l</w>
min es</w>
particuli ers</w>
S ur</w>
ri el</w>
médic aments</w>
7 8</w>
par li
l um
L ake</w>
A sia</w>
c ore</w>
Ukr aine</w>
as troph
ector al</w>
reach ed</w>
Ch ief</w>
IN G</w>
rése aux</w>
applic ant</w>
pres ence</w>
ar gu
ex ce
De f
use ful</w>
direc trices</w>
e b
s ales</w>
pres s</w>
ri es</w>
9 3</w>
un it</w>
h a</w>
V ol
S cho
m én
ier en</w>
COM M
rem plac
commerci ales</w>
Co ordin
G az
fer ences</w>
Su ch</w>
H el
s port</w>
Minis ters</w>
ob tained</w>
reason able</w>
ch l
rais ed</w>
conform ité</w>
S A</w>
bo o
mer g
eg t</w>
m ou
servi r</w>
s au
on en</w>
saf e</w>
dé ploy
Per man
con cre
pré paration</w>
exp an
7 1</w>
pay ments</w>
arm ament</w>
Dé partement</w>
uni quement</w>
ordin aire</w>
sex ual</w>
intellectu elle</w>
b in
res erv
d on</w>
répon ses</w>
actu el</w>
recommand ation</w>
caractéris tiques</w>
ibil ité</w>
be yond</w>
re ly</w>
réc emment</w>
fa ites</w>
re over</w>
t ard</w>
étrang ères</w>
sex es</w>
e quality</w>
ch ron
canc er</w>
d an
parl ement
dé plac
En fin</w>
i les</w>
autor isation</w>
Techn ology</w>
r aci
allow ed</w>
con ception</w>
con tient</w>
Mar k
M any</w>
imp acts</w>
ques tionn
min d</w>
arch it
hy po
ren du</w>
dat ab
Con go</w>
tr u
min al</w>
S pe
refl ect</w>
cam pai
o di
dé l
a g</w>
réalis er</w>
C as
institu tional</w>
Th e
communi quer</w>
Premi ères</w>
comm iss
Mitglied sta
meth od</w>
de ath</w>
p as
ch au
gar de</w>
beg inning</w>
an der</w>
d ates</w>
Par l
V is
conn aître</w>
b li
hist oire</w>
fa x</w>
t ary</w>
Por tu
lead ers</w>
speci fied</w>
st able</w>
ac compli
cri re</w>
mechanis m</w>
pré al
eu m</w>
sup érieur</w>
cir const
O ver
dess ous</w>
sign ature</w>
at ér
Regi on</w>
fr ont</w>
Ir an</w>
au teurs</w>
prac tical</w>
do ing</w>
in en</w>
C ub
mus s</w>
comm and
ent ed</w>
v oc
mo ve</w>
dis pu
L än
sen si
Al lem
pres sure</w>
s a
résul tat</w>
ess ai</w>
S m
th ank</w>
recommend ation</w>
el ection</w>
ter re</w>
el ds</w>
R ou
ma le</w>
P age</w>
Glob al</w>
is tes</w>
dec re
encour ager</w>
is tics</w>
pu ty</w>
iv ing</w>
Z u
man que</w>
ac compag
ling uis
Al so</w>
separ ate</w>
su d</w>
L and</w>
d .</w>
Ri ver</w>
high ly</w>
sou tenir</w>
ex port</w>
o ther
cul tures</w>
targ et</w>
. -
inten si
process ing</w>
observ ation</w>
serv er</w>
ak es</w>
anc oph
se a</w>
El les</w>
ne ver</w>
Th ere
Pl us</w>
comment aires</w>
e asi
su b</w>
198 8</w>
rele ase</w>
democ ratic</w>
di agno
parten ariats</w>
appel ant</w>
follow ed</w>
catég ories</w>
cus sions</w>
sup ports</w>
Ob j
Char te</w>
pre paration</w>
am en
répon d
Perman ent</w>
gi c</w>
ass ess</w>
tion ing</w>
U M
b usin
re in
S P</w>
T E</w>
vul ner
he al
cons iste</w>
C C</w>
pri t</w>
è vement</w>
ann onc
C D</w>
ier ung</w>
sem in
abs olu
4 00</w>
er o
w ür
ing t</w>
off ered</w>
étap e</w>
P .</w>
priv il
in sc
M et
c ess
rec ords</w>
op position</w>
ai ly</w>
sear ch</w>
establis hing</w>
Fr amework</w>
soulig né</w>
produ ire</w>
ke ine</w>
rou gh</w>
for der
M ore</w>
ch ets</w>
indic ators</w>
sid ency</w>
peti t</w>
F A
st ability</w>
se g
employ ed</w>
in fl
grap hi
m m</w>
anc ement</w>
E sp
S ign
indic ate</w>
im es</w>
deb t</w>
2. 1</w>
bl an
a éro
publi é</w>
é rer</w>
ag ency</w>
dé mar
glob ale</w>
po or</w>
unser e</w>
génér ales</w>
Ber icht</w>
develop ments</w>
i um</w>
sti mul
Ber e
ro w</w>
main tenir</w>
J ean</w>
educ ational</w>
ah r
Corpor ation</w>
Euro pa</w>
v is</w>
favor is
ectr ic
m l</w>
l ate</w>
ox y
asp ect</w>
permet tra</w>
CAN AD
Agricul ture</w>
conven tions</w>
éc rit</w>
7 6</w>
fav our</w>
Assess ment</w>
Commun auté</w>
show s</w>
por ting</w>
an ie</w>
développ er</w>
st abilité</w>
ouver ture</w>
res ses</w>
ag issant</w>
ent ente</w>
dés armement</w>
C he
Gu id
environnement ale</w>
O L
out come</w>
r ur
re t</w>
Pl ann
N eu
cl asse</w>
cl ass</w>
si x
ent en
Y uk
comp ter</w>
sub s
tur n</w>
ri e</w>
O f</w>
du es</w>
ay er</w>
Offic er</w>
mon tre</w>
employ é</w>
judici al</w>
ph armac
schi ed
exclu si
F OR
C ity</w>
eth ing</w>
pp ed</w>
ser t</w>
j obs</w>
7 4</w>
re ally</w>
ex position</w>
lig ence</w>
intro du
4 0
ag ir</w>
St re
T ER
lo ss
Dec ision</w>
appro bation</w>
min e</w>
ap préci
fon dée</w>
possibil ity</w>
ri en</w>
Fin ally</w>
Peop le</w>
en ough</w>
L .</w>
T élé
mar ine</w>
I hnen</w>
conséqu ence</w>
B et
ß e</w>
Bo s
me an
f arm
at tend</w>
Offici al</w>
scienti fique</w>
Tr aining</w>
hor iz
depend ence</w>
9 ,
bro ad</w>
There fore</w>
Parl ament</w>
clo sed</w>
acc ent</w>
conclu ded</w>
S it
r i</w>
A k
C ivi
W here</w>
pl ein</w>
Ex per
o ir</w>
modi fier</w>
treat y</w>
elig ible</w>
ö ff
H ist
b arri
g ab
es prit</w>
mod èles</w>
e x</w>
utilis ateurs</w>
R is
compon ent</w>
è nes</w>
r o</w>
b loc
di vision</w>
Ac coun
k il
expan sion</w>
m ant</w>
Pan el</w>
mo bi
ro y
vehic les</w>
Comp any</w>
r ut
pén ale</w>
simp li
enqu êtes</w>
s enti
deg ree</w>
cham bres</w>
P ap
peti ts</w>
éco les</w>
men er</w>
part ner</w>
differ ences</w>
ri ting</w>
D om
E UR
pro fon
t ask</w>
sim ply</w>
our able</w>
Allem agne</w>
utilis ées</w>
ad oles
Parti e</w>
fin den</w>
no tice</w>
z eu
e ig
sel ected</w>
circul ation</w>
arri v
E t</w>
dossi ers</w>
la w
iss ons</w>
z ie
tail le</w>
sem aine</w>
198 7</w>
198 5</w>
limit es</w>
du ty</w>
n ér
tax es</w>
é p
ob tain</w>
l aiss
Ger man</w>
compon ents</w>
ab in
gi r
al ie</w>
sum é</w>
C B
Yuk on</w>
sugges ted</w>
res ear
ar a</w>
cap able</w>
particip é</w>
compl ète</w>
sid ente</w>
B ra
P M
mar g
marke ting</w>
som ething</w>
ill ustr
Nor thern</w>
L ond
a ther</w>
Ques tions</w>
accep ted</w>
D ru
Gen eva</w>
car b
Envir onnement</w>
indi genous</w>
c a
Com mer
for te</w>
mar que</w>
am ended</w>
consu mer</w>
cent ury</w>
mo vement</w>
inv ited</w>
medi um</w>
sequ ently</w>
préoccup ations</w>
chim iques</w>
cont amin
es te</w>
and eren</w>
re vised</w>
resul ting</w>
de urs</w>
vul nér
tic ul
pe ine</w>
lim ite</w>
ré d
heu re
ament ary</w>
dér ation</w>
Journ al</w>
Au tres</w>
effectu er</w>
tri bun
si mul
inform al</w>
psy ch
pro p
air craft</w>
und i</w>
R em
tem per
de p
at ement</w>
is ing</w>
T V</w>
S ol
comp éti
bes ond
derni ers</w>
lib ér
ex plic
Chap ter</w>
Mitgliedsta aten</w>
OM PI</w>
aff ich
wi e
acc ur
F é
cru cial</w>
administr atives</w>
me an</w>
jou er</w>
euro s</w>
st es</w>
sp re
provis i
V I</w>
de o</w>
Auth ority</w>
syst é
alis m</w>
règ le</w>
el n</w>
lin k</w>
gran ted</w>
el ections</w>
speci fically</w>
fournis seurs</w>
appro visi
ni es</w>
analy ses</w>
pré vue</w>
act ors</w>
ac qui
un its</w>
diri ge
Mo reover</w>
Paci fic</w>
discipl in
emerg ency</w>
cal end
busin esses</w>
rés olutions</w>
th an
democ racy</w>
b âti
fr ag
g yp
chang ed</w>
inter ested</w>
stoc ks</w>
N ou
circonst ances</w>
tradi tion</w>
conn exes</w>
P E
tl ich</w>
allow s</w>
peu ple</w>
physi que</w>
signific antly</w>
sensibil isation</w>
Em ployment</w>
s ts</w>
rapp el
ll ed</w>
arr ê
al location</w>
grad u
Cri minal</w>
ec ting</w>
ex .</w>
dro gues</w>
aff ect</w>
recomm ande</w>
M rs</w>
fourn i</w>
avo id</w>
lic k</w>
D ata</w>
T A</w>
anc y</w>
agric oles</w>
m &apos;</w>
qu ite</w>
li ance</w>
cons is
tic ally</w>
cat astroph
high est</w>
We b
di tion</w>
part i</w>
appro aches</w>
behav i
adop tée</w>
sou ff
ç ant</w>
op p
we ise</w>
sh ared</w>
S ource</w>
produc teurs</w>
commerci aux</w>
C N</w>
f und</w>
H am
anis h</w>
Sec ond</w>
tri e</w>
c ur
évén ements</w>
ess ais</w>
appe ar</w>
h aus
D u
me dic
c les</w>
St atistics</w>
In te
pu issent</w>
st ations</w>
Con form
n it
requ ér
enti re</w>
j ects</w>
r un</w>
guid ance</w>
produc tive</w>
w riting</w>
sub section</w>
Pro jet</w>
8 3</w>
av i
appu y
Con si
CE E</w>
orig in</w>
ent y</w>
invol ving</w>
wir k
e ar</w>
E ach</w>
par le</w>
P I
espè ce</w>
b as</w>
pl at
auth or</w>
so l</w>
ju ge</w>
N om
e ks</w>
ab and
Indi an</w>
duc tions</w>
concl u</w>
resp ective</w>
nom ination</w>
accue il</w>
intitul é</w>
é po
t as
pa rer</w>
ke iten</w>
Au to
c ents</w>
8 ,
pl ant</w>
po wer
fourn it</w>
Isra ël</w>
particuli ère</w>
coll è
génér aux</w>
professionn elle</w>
ac ks</w>
P au
to ol</w>
dimen sion</w>
r its</w>
form al</w>
candi date</w>
im ages</w>
qu ante</w>
Ré union</w>
o is</w>
Is land</w>
k om
12 .
con g
co hér
c y</w>
reco very</w>
acqu it
loc ations</w>
tr ue</w>
contr ats</w>
ail s</w>
w at
tan dis</w>
S we
la g</w>
P T</w>
h ne</w>
lich keit</w>
sen se</w>
O U
W enn</w>
hau te</w>
ouver t</w>
ti s</w>
k g</w>
v r
improv ement</w>
soli dar
E D
ben e
t ations</w>
rec rut
Par k</w>
hosp it
occup ation</w>
h ard</w>
2 5
inv ite</w>
1 .</w>
ai e</w>
te m</w>
C ust
g ung</w>
represent ed</w>
E ur
neg ative</w>
f ass
ver i
ear lier</w>
recue illi
Ar t</w>
ord ed</w>
di minu
determin ation</w>
Wor k</w>
tra iter</w>
8 1</w>
Direc teur</w>
princip ale</w>
Fe deration</w>
graphi ques</w>
i dée</w>
di vi
amoun ts</w>
wh ere
pay er</w>
dev ait</w>
europé ens</w>
gouvern ance</w>
je un
é ré
loo king</w>
consum ers</w>
con dam
s ich
8 7</w>
2 3
l ess
employ er</w>
cho ice</w>
larg est</w>
ir a</w>
gen re</w>
rece voir</w>
h ousing</w>
ex portation</w>
n és</w>
A uc
dé chets</w>
re pe
l on
st er
réalis és</w>
observ ed</w>
fabric ation</w>
invol vement</w>
continu ing</w>
cour ts</w>
volon té</w>
acc um
P op
Impl ementation</w>
inclu sion</w>
conci liation</w>
num bers</w>
adv ance</w>
8 9</w>
approuv é</w>
T i
g al</w>
ist en</w>
ti a</w>
Sum mit</w>
interpré tation</w>
gro unds</w>
respon d</w>
anim aux</w>
iter ran
U D</w>
par ole</w>
w end
W ir
appro fon
to wn</w>
arg ent</w>
custom ers</w>
tr ust</w>
augment é</w>
alis er</w>
trans formation</w>
D en
organis é</w>
por ted</w>
applic ables</w>
ON G</w>
z o
caus ed</w>
wor ked</w>
B .
t om
an des</w>
clo sely</w>
categ ories</w>
traff icking</w>
Su stain
ap pointed</w>
ty p
announc ed</w>
en th
d ann</w>
multilat ér
un ités</w>
éco le</w>
be h
professi on
gi es</w>
Z usammen
pres se</w>
Ges ch
pré venir</w>
in dispens
anti cip
Mo st</w>
usu ally</w>
P P</w>
8 4</w>
observ er</w>
Con tribu
ot echn
Br anch</w>
forc ed</w>
8 2</w>
R ess
v ues</w>
ass emb
Net work</w>
ho od</w>
juris diction</w>
M id
mari time</w>
D ro
formul aire</w>
R I
acc us
Gen ève</w>
1. 2</w>
Def ence</w>
ge gen</w>
t esting</w>
Li ber
fondament aux</w>
é changes</w>
agric ole</w>
In tro
R égi
I m</w>
e h
s ound</w>
ar k</w>
pré hen
w aste</w>
ö s
n is</w>
A F</w>
représent ent</w>
Ap pe
contr acts</w>
h az
instruc tions</w>
con cours</w>
end ent</w>
fri end
sh aring</w>
qua tri
reconn aissance</w>
cho se</w>
part nerships</w>
plann ed</w>
bur g</w>
Fig ure</w>
grav es</w>
se z</w>
adop t</w>
mo i</w>
am b
competi tive</w>
fin ance</w>
re viewed</w>
ati c
discus s</w>
Wor k
consequ ences</w>
hum aine</w>
b s</w>
innov ative</w>
paragrap hes</w>
z a</w>
fe el</w>
ti di
8 6</w>
V ic
rati fication</w>
er k
cré dits</w>
pério di
aff ect
ouver te</w>
pertin entes</w>
cre ating</w>
compu ter</w>
w est</w>
ter a</w>
call s</w>
A V
for um</w>
Ar ab</w>
0 s</w>
hibi tion</w>
an es</w>
tox ic
ge ograph
voy age</w>
el en</w>
elim in
No tre</w>
paragrap hs</w>
Ch ild</w>
atte int</w>
ab use</w>
recogni tion</w>
infrastruc tures</w>
eng age</w>
fil m</w>
de pos
advant age</w>
présent ée</w>
am a</w>
ot ed</w>
regi me</w>
comm issions</w>
corpor ate</w>
ir ing</w>
men ées</w>
spe ak
7 9</w>
2 12</w>
montr é</w>
guaran tee</w>
Pak istan</w>
in king</w>
et h</w>
quatri ème</w>
ing ton</w>
protec ted</w>
Ch ris
y l</w>
3. 1</w>
ement ary</w>
tot ale</w>
Ar chives</w>
gre at
par venir</w>
li ves</w>
Cer tains</w>
D av
déc oul
fac tor</w>
categ ory</w>
recommand é</w>
ré vision</w>
distric t</w>
civ ils</w>
j a</w>
G l
expen ses</w>
def ence</w>
l in</w>
e e</w>
li es</w>
V en
mul ti</w>
dépos é</w>
ß er
sti c</w>
du ties</w>
tâ ches</w>
intermédi aire</w>
fis hing</w>
ic ations</w>
gouvernement aux</w>
f um
th i
f low</w>
immedi ately</w>
Am bass
fédér aux</w>
dé liv
élè ves</w>
Lang u
second ary</w>
im plications</w>
fu sion</w>
bec ame</w>
al ty</w>
j eux</w>
Jo int</w>
K y
Ad option</w>
collectiv ité</w>
du mp
dies en</w>
reç o
f le
no tification</w>
Sci ence</w>
iz ing</w>
M y
buil t</w>
dé part</w>
D N
f ight</w>
consul ter</w>
augment er</w>
he art</w>
m ass</w>
se ek</w>
défin ir</w>
C o</w>
an moins</w>
Re présentant</w>
dam age</w>
car te</w>
M y</w>
L and
nah men</w>
détermin ation</w>
persp ectives</w>
L I
suffis amment</w>
Pr ince</w>
mu tu
che fs</w>
Soci ety</w>
G ol
L E
re present</w>
pro sec
N ot
dang er</w>
di rig
dam it</w>
tel e
av ing</w>
fu el</w>
enjo y</w>
l eng
le tin</w>
Conform ément</w>
2. 2</w>
figur ant</w>
au lt</w>
log ici
we eks</w>
K in
other wise</w>
st ress</w>
évalu ations</w>
enn al</w>
Fé dération</w>
pourr a</w>
eas y</w>
pati ent</w>
................ ................
ai ms</w>
transpar ence</w>
jo int
supplément aire</w>
wur den</w>
suscepti bles</w>
accep t</w>
appli es</w>
ex empl
el ine</w>
tra fic</w>
comp t
tu red</w>
syst em
Wi th
ul ed</w>
Co operation</w>
pour centage</w>
is i
net works</w>
fi ées</w>
su jets</w>
vis ible</w>
transpar ency</w>
par c</w>
U se</w>
ex ec
s auf</w>
équip ement</w>
H and
f are</w>
fe atures</w>
sk i</w>
rec ettes</w>
1 00
condu ite</w>
destin és</w>
atis tical</w>
mod alités</w>
monit or</w>
fun ded</w>
pro u
ac commod
b le
réparti tion</w>
Cub a</w>
j ed
exéc uti
d aily</w>
présent és</w>
Indi a</w>
rit es</w>
Tab leau</w>
tu rel</w>
pr êts</w>
onn er</w>
ethni c</w>
meil leur</w>
bo is</w>
2 50</w>
n or</w>
acti f</w>
hi li
camp agne</w>
K ol
g ag
col le
ad hésion</w>
S E</w>
1 50</w>
Lt d</w>
particip ating</w>
dru gs</w>
gr ave</w>
P at
Rus sia</w>
proc éder</w>
fo rest</w>
c ame</w>
ad d</w>
fr au
W H
m em
St .</w>
ac teurs</w>
l d
ain c
m auv
lin ked</w>
premi ers</w>
compr ennent</w>
Num éro</w>
Di ese</w>
foc used</w>
donn ée</w>
H is</w>
log ement</w>
particip ant</w>
O ri
6 00</w>
det te</w>
ac ted</w>
achiev ing</w>
m ér
P OR
er te</w>
n ach
ob tenu</w>
exclu sion</w>
fronti ères</w>
trav ers</w>
st atistics</w>
H y
fi elds</w>
UN DP</w>
N un
main ly</w>
con férences</w>
a .m.</w>
R adi
P acte</w>
Commiss aire</w>
alis t</w>
S am
T reas
im possible</w>
find ings</w>
st ly</w>
pro xim
out comes</w>
author ized</w>
acti fs</w>
it ant</w>
low ing</w>
m ol
Recomm end
f ro
démocrati e</w>
deleg ations</w>
ex ist</w>
consoli dation</w>
réserv es</w>
wo od</w>
ag ré
ph én
commun es</w>
mar ily</w>
port é</w>
ein z
sem aines</w>
fourn is</w>
cop y</w>
r Ã</w>
dra w</w>
Tra ité</w>
M P
sec ure</w>
per te</w>
C li
mö g
d û</w>
S t</w>
éner gé
C D
B ay</w>
thre at</w>
gen e
serv ation</w>
Communic ation</w>
ig er</w>
confi dence</w>
Leg al</w>
sy mp
www. un.org</w>
ans wer</w>
re ducing</w>
Lab our</w>
ro b
ad minis
dép ôt</w>
Ap pen
Str atégi
or g
G C</w>
T rés
Ze it</w>
ati es</w>
cont acts</w>
quo tidi
G em
H ol
Pol ice</w>
increas ingly</w>
ti l
in vo
E M</w>
actu ally</w>
trait ements</w>
exten sion</w>
vis u
religi on</w>
stoc k</w>
souha ite</w>
perman ente</w>
pouv ant</w>
st yle</w>
utilis ée</w>
atmosp h
on ie</w>
lum ière</w>
Ener gy</w>
men tion</w>
Contro l</w>
trans portation</w>
véhic ule</w>
se as
gr ade</w>
pro per</w>
v aste</w>
e i</w>
ne igh
Ap plication</w>
compl ément
ah l</w>
P res
s ale</w>
Fr au</w>
Sum mary</w>
Ital y</w>
Roy al</w>
moder n
trou ver
Ac cu
E valuation</w>
ach at</w>
nuclé aire</w>
Appen dix</w>
Stat us</w>
man agers</w>
An y</w>
Af in</w>
J apon</w>
St a
un less</w>
tribun aux</w>
expend iture</w>
b ases</w>
él éc
rémun ération</w>
br an
w an
A U</w>
ch ô
commerci ale</w>
De puty</w>
appoint ment</w>
aus ge
pass age</w>
sep t</w>
sibil ité</w>
deal ing</w>
ti ens</w>
ven us</w>
ap parten
f el
gem ein
av oc
D et
play ed</w>
se quent</w>
ide a</w>
associ és</w>
l iter
P lu
temp ér
exig e</w>
Ch aque</w>
pri marily</w>
habit ants</w>
pai ements</w>
excep t</w>
Mex ico</w>
oc tro
---- ----
volun tary</w>
asse z</w>
be k
a rer</w>
tri c</w>
cont aining</w>
lo s</w>
N ach
tend ance</w>
T u
B ür
P ur
Un it</w>
s exe</w>
S co
Lab r
Tur key</w>
Doc uments</w>
g n</w>
Inv esti
dra wn</w>
ret our</w>
aur ont</w>
U p
go sl
mess ages</w>
al t</w>
ow er</w>
f as
fe u</w>
al a</w>
larg er</w>
Is su
reg ards</w>
n on
H CR</w>
S ing
sub ventions</w>
appell ant</w>
cont ain</w>
c ut
h ä
proc ès</w>
vo l</w>
ro und</w>
destin ation</w>
considér é</w>
A l</w>
spéci ales</w>
long ue</w>
C F</w>
con forme</w>
identi té</w>
resp ect
att a
Treas ury</w>
re views</w>
o ro
dem eure</w>
design ated</w>
es ter</w>
pl ants</w>
Labr ador</w>
u er</w>
compl et</w>
prepar e</w>
iti é</w>
avail ability</w>
Scho ol</w>
m ely</w>
se ts</w>
CO M</w>
ch in
A .
ir ation</w>
abin et</w>
aux quels</w>
N ation</w>
R u
O S</w>
Res ul
beg an</w>
collec te</w>
mi d
pré sidence</w>
s .
vo ire</w>
examin ation</w>
Aff aires</w>
compl aint</w>
Ih re</w>
m t</w>
ori al</w>
Public ations</w>
accoun ts</w>
m g</w>
sub mission</w>
restaur ant</w>
li e</w>
TR ANS</w>
he aring</w>
ATI ONS</w>
he av
N i
devr a</w>
C A</w>
onn ées</w>
mo tiv
P hili
pu iss
Trés or</w>
unser er</w>
hou se
ext ended</w>
previ ously</w>
Ar c
in dex</w>
W TO</w>
re traite</w>
gé rer</w>
198 6</w>
se ine</w>
sh e
1 1.
plain te</w>
cour ses</w>
tex tes</w>
t our</w>
Per form
reg rou
us s</w>
gr ant</w>
dem eur
di min
e y
Acc ess</w>
Pri me</w>
ag u
Or .</w>
part age</w>
br au
se ven</w>
L ic
sen ior</w>
it ary</w>
re jet
Sp ain</w>
proch aine</w>
prév us</w>
certi fication</w>
v ital</w>
provisi onal</w>
sig ht</w>
K ar
effectu é</w>
tr ä
PN UD</w>
S ER
sig n</w>
indi quer</w>
réper cussions</w>
én aire</w>
p ét
mat ern
histor ique</w>
cô té</w>
le gi
ac comp
D É
accoun tability</w>
onn és</w>
par fois</w>
in form</w>
hab e</w>
b ot
inter nes</w>
M ême</w>
Ch in
ass ure</w>
tor al</w>
Com ment</w>
é vi
extre mely</w>
fil les</w>
h at
Sustain able</w>
st en
di am
minor ités</w>
europé ennes</w>
bi d</w>
qu ick
af ts
considér ation</w>
j eu</w>
h es
ari b
Nou veau</w>
g ent
hon or
li br
gi ving</w>
peti te</w>
u rer</w>
im migrants</w>
en ab
Isra el
Portu gal</w>
re fer</w>
consu mption</w>
con vic
port ent</w>
por teurs</w>
ay ing</w>
a e</w>
US A</w>
considé rée</w>
siè cle</w>
pack age</w>
bi ais</w>
Fur ther</w>
wo hl</w>
acc order</w>
m its</w>
Con tin
limin ary</w>
bel ie
em ed</w>
men ace</w>
we ight</w>
quanti té</w>
acc o</w>
an o</w>
puis que</w>
ologi es</w>
re ur</w>
exécuti f</w>
all ing</w>
vir us</w>
satell ite</w>
faudr ait</w>
T el</w>
provinci aux</w>
com préhen
p d
Ad di
D G
export ations</w>
potenti el</w>
W G
Fi f
fil ed</w>
instruc tion</w>
qu it
resear chers</w>
n ung</w>
Intro duction</w>
affec tation</w>
traff ic</w>
ec e</w>
con tenant</w>
t onnes</w>
éri ques</w>
dé pu
Jus tification</w>
jed och</w>
on de</w>
In st
de venir</w>
élev és</w>
P ays</w>
ter ial</w>
su c
po wers</w>
atic ally</w>
r ace</w>
F ound
E L</w>
cad res</w>
Deleg ation</w>
élimin er</w>
con fron
four th</w>
C urr
wir tsch
Her itage</w>
chem ical</w>
T ax</w>
sé par
son dern</w>
ma ison</w>
E as
dél ais</w>
laun ched</w>
in suffis
d in
éléc op
haus se</w>
différ ences</w>
rec ev
I B
approvisi onnement</w>
adi es</w>
V e
do ws</w>
questionn aire</w>
tra g</w>
produc ers</w>
reconn u</w>
In don
n ant</w>
adop tées</w>
d ens
amend ements</w>
an z
Ma j
friend ly</w>
am én
bl ess
datab ase</w>
pr in
Man u
jus qu</w>
j ected</w>
al d</w>
vill age</w>
New s</w>
En tsch
consid ère</w>
univer sit
per centage</w>
F OR</w>
v el</w>
em por
tim ate</w>
expend itures</w>
memb ership</w>
tax e</w>
religi ous</w>
peace keeping</w>
sum mary</w>
nor me</w>
gi ves</w>
alim entation</w>
audi ence</w>
plain tes</w>
vir tu
de z</w>
res truc
el ement</w>
appli quent</w>
relati vely</w>
aiss ent</w>
oc k
lim its</w>
dou te</w>
incl ure</w>
expos ure</w>
un den</w>
sur vi
re construction</w>
aur aient</w>
S ommet</w>
m ut
Europä ische</w>
differ ence</w>
F R
qu ez</w>
exc essi
ret rou
Ann ual</w>
rec orded</w>
W ater</w>
po ids</w>
b us</w>
pron onc
vi ous</w>
m oun
ne ue</w>
w as
v .</w>
pl en
co des</w>
aliment aires</w>
pouv ait</w>
g ang
tempor ary</w>
alis ts</w>
repres ents</w>
inf ection</w>
difficul ties</w>
bes te
piè ces</w>
OS CE</w>
consider able</w>
D ay</w>
Lu x
encour aged</w>
I denti
enter prises</w>
ac he
T A
sé ances</w>
cop ies</w>
Soci été</w>
F ax</w>
B ru
l än
on i
onn el</w>
comb us
présent ées</w>
vis ite</w>
premi ères</w>
Add .
sim plement</w>
ge w
refuge es</w>
por tion</w>
expres s</w>
ot els</w>
ér ance</w>
A ve
estim ates</w>
dé tention</w>
mod els</w>
pl éni
sign é</w>
Accu eil</w>
In nov
tar gets</w>
ec o
res sion</w>
culturel s</w>
Men schen</w>
Av is</w>
Gre at</w>
Administr ative</w>
iss en</w>
s end</w>
do or</w>
fail ure</w>
Z i
us h</w>
S icher
é cl
um es</w>
exéc u
substanti al</w>
P H
h aps</w>
essenti ellement</w>
Bra z
budg étaires</w>
Premi er</w>
T wo</w>
se x</w>
recommend s</w>
compl et
com ités</w>
y cl
ri f
C P</w>
ci de</w>
dump ing</w>
Nov a</w>
l as
Po si
compet ent</w>
Stratégi e</w>
exerc er</w>
chec k</w>
let z
le gen</w>
and er
pre v
mis s
Cro ati
ho st</w>
e br
commenc é</w>
int el
anim al</w>
deliver ed</w>
ail way</w>
3. 2</w>
Con clu
conn u</w>
k le
pre ven
ch aî
sch ed
P ay
Ar gen
CI HR</w>
T M
bes ch
th ème</w>
met tant</w>
diver si
fac teur</w>
present ation</w>
at ten
U K</w>
gir ls</w>
E E</w>
ti rer</w>
set tlement</w>
vo ix</w>
pos er</w>
bil atér
annu elle</w>
comport ement</w>
offic er</w>
pos sibles</w>
au en</w>
R ules</w>
invest ments</w>
es day</w>
beg in</w>
heu te</w>
is ent</w>
spéci fique</w>
intég rée</w>
cham p</w>
nom in
Strate gic</w>
cou v
art .</w>
GO s</w>
Ter re</w>
immedi ate</w>
rele ased</w>
K en
défin iti
address ing</w>
rév él
dis abilities</w>
den en</w>
B ec
ec i</w>
PC T</w>
Found ation</w>
Q UE</w>
i ii</w>
ö g
actu elles</w>
depart mental</w>
min ority</w>
il legal</w>
pres que</w>
pos ed</w>
Prov in
per mit</w>
on der
uti li
facil ity</w>
par am
ç ons</w>
appe ars</w>
h op
ati n</w>
culturel les</w>
Th us</w>
wh om</w>
198 0</w>
incre ases</w>
Ave c</w>
complain ts</w>
en z</w>
AC .
pro hib
dét ail</w>
al ign
gestionn aires</w>
ins cription</w>
lut ter</w>
S ier
ur s
int éri
on y</w>
fin e</w>
B re
g ress</w>
ouv rir</w>
Mill ennium</w>
Jah r</w>
serv ed</w>
cu l</w>
2 6
fi re</w>
r ing</w>
a .
P u
ag é</w>
R É
o ts</w>
mobi le</w>
pouv ons</w>
urg ent</w>
conc rè
ar ily</w>
distin gu
électron iques</w>
compl y</w>
Fam ily</w>
In uit</w>
ni a</w>
Ne ther
om mun
thou s
r age</w>
ir y</w>
Y outh</w>
conv ainc
félic ite</w>
P our
H ab
v illes</w>
M ari
c ard</w>
ad ing</w>
W ar
el ected</w>
Tou tes</w>
Mon it
d or
l égi
H u
exp and
thè se</w>
ad t</w>
édi tion</w>
sum mer</w>
ent en</w>
dis cu
signi fie</w>
r ying</w>
quick ly</w>
for table</w>
bil ity</w>
4. 1</w>
de gré</w>
Ress ources</w>
él ector
knowle dg
correc t</w>
Aus tri
musi c</w>
T V
loc ale</w>
chang ing</w>
class es</w>
cons ent</w>
opin ions</w>
veu t</w>
e .
ass is
in o</w>
ly mp
ü h
program ming</w>
Paci fique</w>
hol ds</w>
territ ories</w>
réguli èrement</w>
pris on</w>
EN TS</w>
Nether lands</w>
Sier ra</w>
uc k</w>
om e
o is
préc ise</w>
acqu is</w>
Comp te</w>
nou vel</w>
Democ ratic</w>
bud gets</w>
concern és</w>
al one</w>
9 63</w>
Inv est
man age</w>
fa hren</w>
I ts</w>
perf ecti
ress ed</w>
ó n</w>
cas ting</w>
le ts</w>
Par mi</w>
Mus eum</w>
Tim or</w>
n ight</w>
A ux</w>
emb our
ref us
sub sequent</w>
étudi er</w>
coun ter
g ent</w>
contr aire</w>
star ted</w>
fe es</w>
on a</w>
In c.</w>
g ains</w>
num erous</w>
as tr
ö l
Dr aft</w>
immédi atement</w>
hol der</w>
ch ann
acc rue</w>
ét en
pa trimoine</w>
trac ting</w>
T un
quali fied</w>
F il
intég rer</w>
ur ch</w>
trans form
del à</w>
au quel</w>
n a</w>
ent ered</w>
Bel gi
N GOs</w>
sel b
pourr ont</w>
c k</w>
è lement</w>
P R</w>
ph en
uti les</w>
Perform ance</w>
exten sive</w>
con ç
Ä n
élabor é</w>
t abliss
interpre tation</w>
pre dic
lig hts</w>
s por
Co venant</w>
ré clam
second aire</w>
econom ies</w>
sor ti
vis és</w>
pré limin
character istics</w>
I s</w>
entre tien</w>
multilat eral</w>
bere its</w>
flo or</w>
Proc ed
se au</w>
si l
resul ted</w>
él ection</w>
è tes</w>
F .
distinc tion</w>
IR SC</w>
gam me</w>
S on</w>
R ule</w>
ex hau
acc ession</w>
affir me</w>
extr ê
Civi l</w>
habil itation</w>
compati ble</w>
gan g</w>
oll en</w>
pass eng
er ro
C an</w>
tion ally</w>
enti al</w>
ci bl
ch ance</w>
L O
m us</w>
ex er
tr ends</w>
av ut</w>
pend ing</w>
i dées</w>
v ice</w>
Al l
Lim ited</w>
po ol</w>
m ir</w>
b aisse</w>
D F
O lymp
amend ement</w>
bil ateral</w>
ell er</w>
att én
situ é</w>
préal able</w>
adver tis
main tained</w>
cli matiques</w>
dis armament</w>
dirige ants</w>
Contr act</w>
des p
vis ées</w>
établi s</w>
tel ephone</w>
s auv
sor mais</w>
vo is
cul turel</w>
lear n</w>
unter stüt
L ou
D on
mar ks</w>
ve ts</w>
occ ur</w>
Me dia</w>
it ent</w>
utilis ant</w>
is ra
is en</w>
contribu é</w>
h uit</w>
anni vers
e ase</w>
th ir
sym bo
tor ate</w>
K ey</w>
O ce
Ass istance</w>
a trice</w>
Produc ts</w>
Ar ab
aj out
is son</w>
ein fac
dé crit</w>
th ers</w>
attein te</w>
employ eur</w>
li aison</w>
se ems</w>
Gr und
su pr
ati vement</w>
recrut ement</w>
europä ischen</w>
jur id
vulner able</w>
constitu tion</w>
Fis heries</w>
par k</w>
chac une</w>
S pr
Lond on</w>
t ent
pris on
efficac ement</w>
g g
y right</w>
ge gen
ß nahmen</w>
cor po
commiss aire</w>
di gn
k in
charg ée</w>
is h
b est
tim ely</w>
man aged</w>
al ize</w>
1 1
b and</w>
P en
appu ie</w>
Techn ical</w>
Dav id</w>
Plu sieurs</w>
mo itié</w>
ab sor
U C
metho d
identi fier</w>
transi t</w>
v ingt</w>
I tali
fo li
ber g</w>
combin ed</w>
desp ite</w>
ver th
ine ering</w>
individu s</w>
afric aine</w>
Rel ations</w>
ste hen</w>
spe ed</w>
id en</w>
garanti e</w>
not é</w>
IN C</w>
verth eless</w>
respecti vely</w>
st op</w>
examin ed</w>
Än der
soll te</w>
al ed</w>
adul tes</w>
lanc é</w>
offici elle</w>
remain ing</w>
I tem</w>
ep t</w>
tre ated</w>
actu els</w>
bene fici
Mon t
Ty pe</w>
pertin ents</w>
acti vely</w>
ze ic
as p</w>
St atisti
S S
I mp
enh anced</w>
ih rer</w>
Re v
b ande</w>
détail s</w>
Israel i</w>
procu rement</w>
terroris t</w>
Jah ren</w>
intellectu al</w>
inter diction</w>
sur ro
Resul ts</w>
sé min
P un
m ich</w>
cham bre</w>
D an
O ver</w>
M ain
j un
form ulation</w>
sou dre</w>
mor t</w>
ob tenus</w>
oc k</w>
hum ain</w>
exemp les</w>
as sign
cri be</w>
Austr alia</w>
éché ant</w>
val oir</w>
m és</w>
com ed</w>
it ations</w>
mo tifs</w>
c k
Ch air</w>
dé roul
g ain</w>
an dum</w>
r us
I E</w>
Pro vi
neu en</w>
bi bli
si ège</w>
ide as</w>
saf e
respon ses</w>
Pro bl
pro long
quali fications</w>
enten du</w>
ch é</w>
reli ef</w>
ograph ique</w>
C a
I .</w>
Nun avut</w>
for tun
diff us
rembour sement</w>
y ers</w>
rece iving</w>
fi es</w>
assess ed</w>
f oun
inter net</w>
indispens able</w>
sou ligne</w>
dé pendant</w>
o hne</w>
velopp ement</w>
concre te</w>
fir ms</w>
endro it</w>
l age</w>
D R
Te am</w>
tâ che</w>
pl ur
rég imes</w>
jud ice</w>
exam ples</w>
dise ases</w>
EN T
Sco tia</w>
is é</w>
nutri tion</w>
deci de</w>
établi e</w>
excell ence</w>
Auto chtones</w>
limit ée</w>
or al</w>
z er</w>
lo in</w>
führ t</w>
Y ear</w>
ren contr
coll ected</w>
CO 2</w>
culturel le</w>
improv ements</w>
de dic
veu illez</w>
A no
stre am</w>
accid ents</w>
ré ception</w>
tas ks</w>
remain ed</w>
R est
empê cher</w>
super vision</w>
spéci aux</w>
lat est</w>
gr ö
j an</w>
he ard</w>
indic ation</w>
ti ère</w>
is ations</w>
tend ances</w>
B asi
finan ces</w>
fab ri
Re ference</w>
P i
F P</w>
and ere</w>
val ence</w>
trou vent</w>
don ateurs</w>
ti ss
A tt
cont re
No t</w>
M ag
C are</w>
1 st</w>
l ati
S U
lic her</w>
op ening</w>
uc tion</w>
Rec h
vo i</w>
CANAD A</w>
C ré
enti er</w>
mes ur
identi ty</w>
compr en
au m</w>
ell ed</w>
fig ures</w>
étap es</w>
Con cer
s qu
ver se</w>
Fin ance</w>
Stre et</w>
compréhen sion</w>
pro vo
fa hr
li egt</w>
M icro
fond é</w>
con join
For m</w>
h am
fin ding</w>
wel comed</w>
Gem ein
Add .1</w>
n our
Y our</w>
fo re
O m
déb ats</w>
chô mage</w>
politi k</w>
rel and</w>
r ation
lic ences</w>
vi dé
re cip
budg étaire</w>
Or der</w>
M ol
requ is</w>
S S</w>
Mid dle</w>
0 4
im ag
prob ablement</w>
campai gn</w>
st a</w>
estim é</w>
ap pl
öff ent
emphasi s</w>
pré parer</w>
sched uled</w>
st ages</w>
Surve y</w>
dé sormais</w>
fix ed</w>
end ers</w>
ff en</w>
respecti vement</w>
multi ple</w>
équ itable</w>
modi fié</w>
ajou ter</w>
contr ac
M un
her itage</w>
jurid ic
devr ont</w>
S wit
Th em
L aur
ang e
av es</w>
nam es</w>
cho ses</w>
télé vision</w>
cas h</w>
sensi tive</w>
sp ending</w>
b is
en a</w>
bud s
12 0</w>
bil ing
pe g</w>
Gr and</w>
terroris tes</w>
Pre vention</w>
occa sions</w>
si ties</w>
dig ital</w>
purch ase</w>
I .
organis ée</w>
l le</w>
bre vets</w>
Eur o</w>
p asse</w>
I reland</w>
represent ation</w>
économ ies</w>
ent ement</w>
m ie</w>
cor ps</w>
sugges tions</w>
rur ales</w>
dem ment</w>
sam ple</w>
ban ks</w>
ad re</w>
Di es
s ports</w>
transpar ent</w>
leng th</w>
chang er</w>
ér on
compl ex
il la</w>
f low
navig ation</w>
r un
direc te</w>
refl ected</w>
conf ig
S pi
e ight</w>
contro ls</w>
stu di
ou til</w>
ô ts</w>
rais e</w>
confir med</w>
rec ens
Ano ther</w>
K u
l t
pri me</w>
activ ement</w>
as ing</w>
infr action</w>
R at</w>
g ol
prog ress
for êts</w>
Mo di
Guid elines</w>
ep tion</w>
fem ale</w>
lem en</w>
chiff res</w>
alis me</w>
cho ose</w>
éti qu
Mon tre
Cham bre</w>
témo ign
read ing</w>
Ac ti
import ation</w>
lo st</w>
pat ent</w>
ré alité</w>
inform er</w>
figur ent</w>
Lors qu&apos;</w>
Paragrap h</w>
Premi ère</w>
Dé f
appropri ées</w>
l assen</w>
su ites</w>
off rent</w>
spe aking</w>
z us
perform ed</w>
w ick
not er</w>
essenti els</w>
im pose</w>
C at
In fr
Fol lowing</w>
ec ommun
ais es</w>
cin quante</w>
au che</w>
professionn el</w>
SI ON</w>
vi deo</w>
as h</w>
certain e</w>
é duc
mont rer</w>
mo ts</w>
every one</w>
an ties</w>
adv oc
tit le</w>
admis sibles</w>
Wir tsch
ad a
G .</w>
some times</w>
d est
preu ves</w>
si onn
dec l
ré soudre</w>
L iste</w>
zwe i</w>
all en</w>
télé phone</w>
super vis
b ord</w>
ou re
st abil
pu ts</w>
speci alized</w>
gosl av
D r</w>
W ar</w>
ur ation</w>
remp lir</w>
import ations</w>
G al
v ar
ci ties</w>
pd f</w>
neu f</w>
emerg ing</w>
Sp anish</w>
contribu ted</w>
proper ly</w>
co tis
rel ève</w>
On ly</w>
Win ni
sou mettre</w>
Recomm and
i ens</w>
gan z</w>
c tion</w>
préc is</w>
déploy és</w>
inst ances</w>
médic aux</w>
St aff</w>
horiz ont
Entwick lung</w>
E l</w>
soll ten</w>
ple ased</w>
behavi our</w>
h rend</w>
n t</w>
ou est</w>
per tes</w>
pil ot</w>
sig ne</w>
at o
Oper ations</w>
x i
inter action</w>
pro active</w>
y en</w>
anim als</w>
gener ation</w>
1 A</w>
Eas tern</w>
biet et</w>
a just
ch ing</w>
OM C</w>
fac ts</w>
différ ence</w>
V ER
Su per
ex ports</w>
b ab
u ire</w>
di um</w>
R ome</w>
ar ité</w>
Winni peg</w>
Sch e
tur b
He ad
contr act
en vers</w>
tele vision</w>
is ch</w>
pl aign
ré formes</w>
im position</w>
incid ents</w>
offer ts</w>
20 11</w>
re forms</w>
indépend ance</w>
dr af
N ig
el s
meille ures</w>
adoles cents</w>
commit tees</w>
régl er</w>
T ari
Fr age</w>
m ée</w>
we it
adress ée</w>
raisonn able</w>
dé plo
see king</w>
f res
Le one</w>
pers on
Al liance</w>
Pop ulation</w>
F er
Indus trie</w>
harmon isation</w>
oblig atoire</w>
arr êt</w>
montr ent</w>
it ment</w>
mar ri
B ased</w>
cover age</w>
di g</w>
H or
P ER
enti èrement</w>
ver e
mont ants</w>
t age</w>
in put</w>
sû reté</w>
en dum</w>
modi fied</w>
di tions</w>
impos ed</w>
cour ant</w>
temper ature</w>
dur ch
atel ier</w>
r ich</w>
véri fier</w>
O r</w>
Re ports</w>
R ES
be wer
rele ver</w>
spe ak</w>
fu t</w>
er ves</w>
N ame</w>
ix ante</w>
g a</w>
Ex amen</w>
N E
pauv res</w>
h än
b in</w>
al t
on ia</w>
gent lemen</w>
2 2
lat ter</w>
inform é</w>
phén om
conflic ts</w>
de tention</w>
C S</w>
Th ose</w>
aff ili
Ital ie</w>
f elt</w>
Pau l</w>
Syst ème</w>
équi libre</w>
organ e</w>
su sc
occ urred</w>
soulig ner</w>
assess ments</w>
S an</w>
sp ir
K r
fur n
F N
z z
ti an</w>
enti ties</w>
mach en</w>
ch ro
E tat</w>
bi ennal</w>
beh ind</w>
infr actions</w>
ch ances</w>
D ou
j ac
esti val</w>
Bu il
ti veness</w>
stoc k
tu rer</w>
Poli tical</w>
Se ver
dimin ution</w>
éc ou
cal cul</w>
touris m</w>
Direc torate</w>
Au dit</w>
entre pris</w>
ri d</w>
rem pl
l au
ant wor
M ise</w>
nam ely</w>
substanti ve</w>
envis ager</w>
soci o</w>
trans action</w>
por te
pr o</w>
ai d
L atin</w>
représent ation</w>
Mill énaire</w>
car rying</w>
M AR
res erve</w>
P ME</w>
s ays</w>
administr ations</w>
W al
admis sible</w>
ail le</w>
oc cid
exp ect
go v
constitu te</w>
intégr ité</w>
ess en</w>
mani f
Swit zer
f lic
Sit uation</w>
bre v
Commer ce</w>
Stand ards</w>
n ent</w>
établi es</w>
f ers</w>
comple tion</w>
ban ques</w>
dev ices</w>
Poli tique</w>
V eu
engag ed</w>
bes ser
W A</w>
In de</w>
b an</w>
municip al</w>
G ener
Arbe its
V E</w>
ac adem
un employment</w>
enti tés</w>
ver schied
Ber ich
ri vi
rou tes</w>
In dic
b onnes</w>
i j
ig ne</w>
ld wide</w>
syn dic
experi ences</w>
do se</w>
ar us</w>
présent ent</w>
ap e</w>
Ex cell
s ac
7 00</w>
pén al</w>
bi g</w>
Syst ems</w>
Cust oms</w>
élec tri
histor ical</w>
C lu
contr ain
Ges tion</w>
fe e</w>
Mex ique</w>
bénéfic ier</w>
Switzer land</w>
TI ONS</w>
in ser
contin ent</w>
profession als</w>
sidenti al</w>
c m</w>
Le ban
tabliss ement</w>
b it
environnement ales</w>
up dated</w>
autom ob
so ft</w>
Ar ticles</w>
s age</w>
é rés</w>
sal ari
ow ned</w>
sugg est</w>
Veu illez</w>
C lo
B ret
vot es</w>
oper ative</w>
worksh op</w>
in dependence</w>
conven u</w>
experi enced</w>
vis ée</w>
relation ships</w>
le ist
M er
Montre al</w>
Trans portation</w>
d am</w>
th ro
in j
tab ac</w>
fac ing</w>
in deed</w>
Palestin e</w>
star ting</w>
proli fér
se hen</w>
ai ment</w>
M it</w>
mit tel
R w
ad joint</w>
Se a</w>
fer ation</w>
long temps</w>
uti l
6 0
ag ues</w>
M A
i dé
ph on
complet ely</w>
esp ère</w>
éch el
concep ts</w>
expl oration</w>
M aur
.ht ml</w>
et age</w>
E in</w>
mu tual</w>
cos se</w>
d Ã</w>
Is lam
in sul
conse ill
achiev ement</w>
pen sions</w>
re ve
all er
stor age</w>
easi ly</w>
Dé veloppement</w>
équi pes</w>
J am
ell t</w>
strong ly</w>
W ash
ac knowledg
be an</w>
odi c</w>
no thing</w>
for d</w>
gouvernement ale</w>
mo des</w>
appropri ée</w>
préoccup ation</w>
a éron
B as</w>
priv acy</w>
Nat ural</w>
com porte</w>
C onn
ild ings</w>
accompli s</w>
Cham ber</w>
expos é</w>
in tr
all ant</w>
main taining</w>
organis er</w>
is pi
ho li
gar anties</w>
exist ants</w>
mar ques</w>
eg en
procéd é</w>
crimin alité</w>
Par ks</w>
equi pped</w>
ter ing</w>
invol ve</w>
Mad am</w>
cin qui
Nom bre</w>
Geor gi
N otes</w>
z ur
T ask</w>
O C</w>
ent end</w>
ti ème</w>
spécialis tes</w>
incid ences</w>
ge ht</w>
doll ar</w>
Av ant</w>
st atistical</w>
nor thern</w>
handicap ées</w>
Sch l
UN ES
F ree</w>
h in</w>
e ad</w>
comb at
stre am
pre liminary</w>
cle an</w>
i g</w>
clim at</w>
peri ods</w>
détermin é</w>
r ent
ze it</w>
we alth</w>
sup érieure</w>
find et</w>
extr a</w>
ri v
commun s</w>
r ont</w>
integr ity</w>
continu ent</w>
touch ant</w>
vie le</w>
fü hren</w>
fis heries</w>
demonstr ated</w>
civili an</w>
chem in</w>
ess or</w>
consid ers</w>
pos ts</w>
n ement</w>
is ant</w>
C ô
contro lled</w>
wel t
exten d</w>
me ub
M é
2. 3</w>
at s
besond ere</w>
re alis
sexu elle</w>
part out</w>
B oth</w>
met tent</w>
meil leurs</w>
in ner
inst ead</w>
protoco le</w>
t ative</w>
v as
so il</w>
Rob ert</w>
Atlanti que</w>
deli ver</w>
k o</w>
gi ques</w>
dec laration</w>
W elt</w>
vi g
fer a</w>
uc tu
bi ennium</w>
en st
F u
ter res
budg etary</w>
É l
Th om
Pro per
prolifér ation</w>
expli que</w>
destin ées</w>
sou lev
chap ter</w>
P ress</w>
R ES</w>
inv itation</w>
ad vis
mark ed</w>
fir m</w>
bo x</w>
ouver ne
ti endra</w>
Dé penses</w>
R ah
alis é</w>
im parti
thou ght</w>
quar ter</w>
b ac
comm is</w>
s é</w>
g ave</w>
ke ts</w>
D o</w>
ins crit</w>
accoun ting</w>
heal thy</w>
f al
sto od</w>
ild life</w>
isra éli
To day</w>
favor able</w>
Wash ington</w>
P A
dat ée</w>
ph r
ol der</w>
in dépendant</w>
touris me</w>
le ge</w>
Lux embour
New found
hol ding</w>
e te</w>
H .</w>
A zer
v entes</w>
M ög
ab road</w>
im ports</w>
accommod ation</w>
alis és</w>
cl ause</w>
provi ders</w>
fo ot
becom ing</w>
viv ant</w>
Pro cu
pru dence</w>
Pré sidente</w>
b ound
t aires</w>
déc ès</w>
permet tr
sec tori
rece ip
val id</w>
utilis e</w>
élev ée</w>
Part nership</w>
On ce</w>
rati o</w>
Acti vities</w>
r ad
D at
e es</w>
fail ed</w>
enregistr é</w>
bi otechn
to ire</w>
no tion</w>
En ter
k ur
collè gues</w>
s per
Pro motion</w>
Th ird</w>
Chin ese</w>
charg ed</w>
as ser
g ame</w>
ég al</w>
demonstr ate</w>
l aid</w>
tempér ature</w>
e ties</w>
reven ue</w>
manufac tur
U ti
ten s</w>
l ang</w>
cinqui ème</w>
fourn iture</w>
financ er</w>
pr ennent</w>
back ground</w>
N AT
ress orti
offici el</w>
g ène</w>
bri ef
du les</w>
Unter nehmen</w>
chau ff
dé grad
incorpor ated</w>
biet en</w>
R ed</w>
Newfound land</w>
fic it</w>
graph ique</w>
S alle</w>
buds man</w>
am pl
législ atives</w>
Coun tries</w>
d af
famili ale</w>
4. 2</w>
o b</w>
ass ist
EC D</w>
ô les</w>
Esp agne</w>
UNES CO</w>
i der</w>
L ors</w>
annonc é</w>
dimen sions</w>
D u</w>
C arib
pan el</w>
expéri ences</w>
adv anced</w>
re production</w>
Ko rea</w>
B ed
al located</w>
concl ure</w>
vo ting</w>
tre aties</w>
po ll
correspon d</w>
précéd ent</w>
fac ult
form ed</w>
t our
s elling</w>
accor dée</w>
considér ablement</w>
fronti ère</w>
ch al
i ther</w>
ap eu
pro ven
re sidence</w>
environnement aux</w>
expl an
Com m
t ourn
da zu</w>
compl exe</w>
certain ly</w>
a tre</w>
zeic hn
enf ance</w>
su itable</w>
ne ws</w>
cell ules</w>
aux quelles</w>
valu able</w>
ent ail</w>
struc tural</w>
t ons</w>
equi valent</w>
at l
Luxembour g</w>
M ain</w>
Cul tural</w>
arab e</w>
Gr âce</w>
direc ted</w>
recogni ze</w>
natu rel</w>
ail l
et zt</w>
pr ä
dit or</w>
O rig
C amp
n ings</w>
ti k
Ob serv
ch ten</w>
qu ie</w>
appropri é</w>
bl er</w>
Inte gr
Her r
tin a</w>
techn ological</w>
sub stitu
vari ables</w>
lead er</w>
es en</w>
è mement</w>
D iv
B ou
T it
Rec her
di vul
ah er</w>
Ch em
administr atif</w>
Monit oring</w>
sél ecti
univers ités</w>
répond ants</w>
Win dows</w>
ful f
ma î
li ée</w>
in no
ét er</w>
appro u
indi quent</w>
Tur quie</w>
fer red</w>
susp ension</w>
un anim
Ab out</w>
multi ples</w>
do c</w>
distribu ted</w>
titul aire</w>
custom er</w>
fi ant</w>
cu t</w>
every thing</w>
C T</w>
reconn aît</w>
d ings</w>
anci en</w>
targ eted</w>
In f
re sident</w>
gi ble</w>
Ad v
tr ack</w>
is hment</w>
we i
parlement aire</w>
M S</w>
pr êt</w>
sti pul
in qu
endr ait</w>
compl exes</w>
particuli ères</w>
bénéfici aires</w>
Sci enti
as signed</w>
Braz il</w>
pharmac eu
r ain
C ase</w>
Mich a
D ev
exclu sive</w>
O H
négoci ation</w>
ung san
cy cl
mean ing</w>
flex ible</w>
extrê mement</w>
Con tracting</w>
sou ght</w>
appreci ation</w>
Stand ard</w>
n ur
we il</w>
un a</w>
sû r</w>
atel iers</w>
L ist</w>
cro ss
1. 3</w>
es tre</w>
proch ain</w>
wie der</w>
Ch ange</w>
out standing</w>
som me</w>
Cer tain
mentionn é</w>
M D
e vi
direc teurs</w>
équ ité</w>
jet zt</w>
découl ant</w>
P endant</w>
investig ations</w>
hô p
under take</w>
bi an</w>
be d
e fs</w>
histor ic</w>
candid at</w>
re si
M C</w>
kön n
beau ti
ad en</w>
par ent</w>
tw enty</w>
sh op</w>
ins crire</w>
sé jour</w>
y st
omm en</w>
obstac le</w>
fron tali
Pre sidency</w>
ver g
statisti que</w>
oc curr
Austr alie</w>
énergé tique</w>
précéd ente</w>
G DP</w>
li s</w>
anci ens</w>
ré sidents</w>
con ferences</w>
n esses</w>
hist ori
Mad ame</w>
li ability</w>
o to</w>
h onn
th es
è tre</w>
mi d</w>
indic ates</w>
men ée</w>
peace ful</w>
inc enti
ar di
ten sion</w>
Ber lin</w>
É cosse</w>
ma p</w>
am ination</w>
on y
Mes ures</w>
ren seign
effectu ées</w>
rec ycl
pré voir</w>
âg ées</w>
ad er</w>
dec line</w>
Slo v
cust oms</w>
éth ique</w>
f it
Ré sul
vi ation</w>
E qu
per haps</w>
ét ats</w>
G iv
Ris k</w>
dom m
continu era</w>
c éré
archit ecture</w>
manufac turing</w>
Me as
re sidents</w>
care er</w>
pour suite</w>
Med ical</w>
En t
en rich
F IN
vis ent</w>
déf i</w>
L ev
Vor sch
bor n</w>
initi ated</w>
p aci
app elle</w>
Azer b
fer me</w>
Ch r
flex ibility</w>
attach ed</w>
B ill</w>
fif th</w>
N ic
AN T</w>
app els</w>
cu is
tig t</w>
se iner</w>
a po
bour g</w>
cris es</w>
Plann ing</w>
fo rec
complain ant</w>
mo t</w>
s ond
fut ures</w>
ré sidence</w>
essi onal</w>
in fir
appare ils</w>
m ar</w>
charg és</w>
scol aire</w>
car tes</w>
corpor ation</w>
démar che</w>
Inter nal</w>
Pe ace</w>
H a
É tant</w>
help ing</w>
vulnér ables</w>
feu ille</w>
entrepren eurs</w>
de tec
el ec
grö ß
présent es</w>
per form</w>
Stat ement</w>
S ession</w>
el er
.. ..</w>
fr ancoph
E ven</w>
farm ers</w>
opti mis
ordin ary</w>
im prim
Ori ent</w>
cont empor
N av
Al ban
b ed</w>
EN D
arm és</w>
E v
m ung</w>
we it</w>
disposi tif</w>
det ail</w>
re ality</w>
const ant</w>
organiz ational</w>
tol er
en de
m ic
In str
univers al</w>
un able</w>
v end
log is
G ew
C abinet</w>
nav ires</w>
De part
th ly</w>
ul l</w>
L age</w>
op ened</w>
3 5
re b
dra w
ê tres</w>
par all
k ten</w>
ari o</w>
dem ands</w>
ach et
CR TC</w>
uni versity</w>
af ten</w>
Th rough</w>
struc tion</w>
Swe den</w>
is ons</w>
acc éder</w>
rédu it</w>
pre stat
ég ét
travaill ent</w>
den n</w>
infl ation</w>
ré pu
correspond ant</w>
vr aiment</w>
mach ine</w>
A rea</w>
TR E</w>
particip ated</w>
milli ers</w>
hl en</w>
ag nes</w>
Gaz a</w>
fif ty</w>
réalis é</w>
reco gn
blo od</w>
Qu ality</w>
liber tés</w>
em in
s icher
v ité</w>
Buil ding</w>
sp h
oc é
G I
el ectoral</w>
Appe al</w>
r ay
Em plo
wor ldwide</w>
C ES</w>
ecommun ications</w>
li é</w>
min eurs</w>
ac ul
propos ée</w>
pers ist
Mul ti
Giv en</w>
pr int</w>
ent wick
S B
The ir</w>
thre ats</w>
ig t</w>
constitu er</w>
Bec ause</w>
L ear
atti tude</w>
épo que</w>
facil ement</w>
internation ally</w>
sol d
M illi
Cap ital</w>
Co sta</w>
A G</w>
M ob
Proper ty</w>
arg uments</w>
Cal g
Fr anc
eng ager</w>
Inform ationen</w>
thi op
chois ir</w>
exist antes</w>
Par lam
suiv ent</w>
mi tig
In sp
O ECD</w>
Territ ories</w>
H R
dar auf</w>
am i</w>
No m</w>
un il
ide al</w>
In cre
Tur k
pos session</w>
Mark et</w>
u min
al ph
expl ained</w>
F .</w>
sou tenu</w>
H ali
determin ing</w>
198 2</w>
g ar</w>
propos ées</w>
vér itable</w>
Head quarters</w>
conform es</w>
Calg ary</w>
v an</w>
C enter</w>
m b
contribu ting</w>
ég ale</w>
offici els</w>
show ed</w>
2. 5</w>
sp ent</w>
IS O</w>
Tou te</w>
dipl ô
min orities</w>
consci ence</w>
Sec tor</w>
ter ne</w>
Re venue</w>
effecti f</w>
mak ers</w>
Bere ich</w>
fac es</w>
argu ment</w>
Lib r
reconn aître</w>
For m
con grat
dev aient</w>
arbe it</w>
lu x
clin ical</w>
préc iser</w>
ge hen</w>
ograph ic</w>
In surance</w>
5. 1</w>
arri ve</w>
étro ite</w>
ich t
pro che</w>
concern ées</w>
V II</w>
Hab it
G i
y n
S R
satis faire</w>
moder ne</w>
comb ination</w>
Rest aur
inté gré</w>
lis ts</w>
enn a</w>
v égét
t ête</w>
omm aire</w>
po issons</w>
indic ations</w>
humanit aires</w>
val s</w>
améric ain</w>
Cri me</w>
Di ff
dev ice</w>
fondament ales</w>
Y u
W illi
o zone</w>
Con se
affir mé</w>
Ar ch
rap id</w>
bir th</w>
P ier
constat é</w>
ge h
prov ed</w>
dis cre
priv és</w>
Su isse</w>
al ties</w>
all em
plen ary</w>
la c</w>
coordin ated</w>
k re
w ai
car bon</w>
intéress és</w>
comp il
oth èque</w>
ail ing</w>
mal gré</w>
barri ers</w>
E F
198 4</w>
im pression</w>
journ ée</w>
cu p
D esp
r h
compag nie</w>
Carib bean</w>
docum ent
consider ing</w>
3. 3</w>
ar ance</w>
up date</w>
recru itment</w>
larg ely</w>
Mu si
aut our</w>
bil ité</w>
ow nership</w>
bur den</w>
Ma ßnahmen</w>
In t
op tim
sch on</w>
contrô les</w>
dynam ique</w>
l our
ici ans</w>
destin é</w>
simul tan
Cl assi
ab ei</w>
dé tenus</w>
ed oms</w>
Sm all</w>
it et</w>
D .
limit er</w>
dit ors</w>
worksh ops</w>
w r
rec ouv
I L</w>
expos és</w>
de vez</w>
del ay</w>
surro un
tradi tionnels</w>
out lined</w>
Cl ass</w>
allow ing</w>
regrou p
cl air</w>
Finan z
selb st</w>
Program s</w>
daf ür</w>
reven ues</w>
réc ente</w>
mon o
ch ev
estim ations</w>
onn é</w>
T I</w>
ju ges</w>
accid ent</w>
st on</w>
accum ul
volun te
invol ves</w>
high ligh
Sche dule</w>
so zi
I D</w>
Desp ite</w>
at z</w>
l adies</w>
cell s</w>
f ur</w>
en contre</w>
w estern</w>
c er</w>
bu ildings</w>
prob ably</w>
st ressed</w>
gen u
vo ies</w>
Rw anda</w>
&apos; re</w>
H ung
fac ile</w>
an che</w>
H om
ti k</w>
rem placement</w>
rais ing</w>
under taking</w>
priv ées</w>
l ä
FA O</w>
ein ige</w>
nom s</w>
bri dge</w>
en ship</w>
m asse</w>
b ate
L et</w>
men aces</w>
Hali fax</w>
s cap
remerci er</w>
é vo
F all</w>
a trices</w>
détermin ée</w>
im pres
pre gn
fortun ately</w>
F lu
form ule</w>
effecti vement</w>
measu red</w>
C le
certific at</w>
sé qu
intitul ée</w>
Län der</w>
ges am
No tice</w>
re ib
judici aires</w>
al .</w>
oph ob
w ait</w>
FOR M
der a</w>
teach ers</w>
E stim
Ph ase</w>
B as
IN TER
or es</w>
jo in</w>
effectu ée</w>
Coordin ation</w>
de ad
exprim é</w>
guaran te
re iter
CM P</w>
AU X</w>
fi able</w>
clai med</w>
CN U
ro les</w>
Obj ecti
enseign ants</w>
ab u
are t
N G</w>
fl ux</w>
E gyp
in jury</w>
u red</w>
b anc
dispos al</w>
cel l</w>
Commiss ariat</w>
k i</w>
ok rati
wid ely</w>
tari ff</w>
s co
peri odic</w>
equ ity</w>
there by</w>
end ors
com fortable</w>
S I</w>
than ks</w>
énonc és</w>
vot ed</w>
inv ités</w>
particip ent</w>
re placed</w>
tob acco</w>
cli ent
Su ite</w>
er aient</w>
ass es</w>
accord é</w>
ré action</w>
co opér
M .
em ark</w>
ment ale</w>
pay able</w>
mort alité</w>
Phili pp
dang ere
exp ect</w>
effectu és</w>
aéri en</w>
é vidence</w>
ap art
respon dents</w>
dispu te</w>
boo ks</w>
proch aines</w>
st ade</w>
wor th</w>
k ept</w>
p ass</w>
con ce
J e
amélior ations</w>
ic als</w>
consac ré</w>
Al tern
V ir
Reg istr
reç ues</w>
bi om
F IC
suppli es</w>
Res olution</w>
bring ing</w>
pren ant</w>
Analy sis</w>
dispon ibilité</w>
perfecti onnement</w>
habitu ellement</w>
v ont</w>
orient ations</w>
musi que</w>
No s</w>
exemp tion</w>
Cô te</w>
z ahl
cl é</w>
. asp</w>
n ar
pres erv
atl anti
calend rier</w>
decre ase</w>
cel ebr
incid ent</w>
T ER</w>
dom icile</w>
h our</w>
ent endre</w>
de emed</w>
ti tres</w>
cor rig
In dex</w>
3 7
w are</w>
vis é</w>
par ler</w>
atmosp here</w>
L ast</w>
gr ants</w>
ent entes</w>
pho to</w>
1. 5</w>
Fac il
off ering</w>
K no
H il
func tioning</w>
pério des</w>
é b
compos é</w>
appro ches</w>
vi el</w>
b estim
bin ding</w>
en jeux</w>
sent ence</w>
Chair person</w>
M em
Pr acti
tr end</w>
beauti ful</w>
E .
Col lege</w>
transfer red</w>
S ix
bi d
É qui
Ben ef
C z
Canadi ennes</w>
l ecture</w>
p et
identi fying</w>
acquit ter</w>
pass ant</w>
lo ro
M and
SER V
is és</w>
mö glich</w>
pl eine</w>
ordonn ance</w>
D eux</w>
ci des</w>
accep ter</w>
ih ren</w>
gu t</w>
ment ation</w>
Ky oto</w>
domm ages</w>
in nen</w>
Ed mon
ATI ON
S D
Jah re</w>
et t
mach ines</w>
et en</w>
Provin cial</w>
regul arly</w>
i hr</w>
franç aise</w>
Mad rid</w>
mo ving</w>
we ak
men é</w>
re mise</w>
f air
Invest ment</w>
Innov ation</w>
off ence</w>
P eter</w>
inv ité</w>
B R
ser vers</w>
le ver</w>
stell ung</w>
pp ing</w>
adver se</w>
Vic tori
ti schen</w>
V .</w>
isl and</w>
ectric ité</w>
Ass istant</w>
commerci alisation</w>
P ass
mot eur</w>
employ eurs</w>
Com ment
Habit at</w>
g ence</w>
re p
B il
off ences</w>
st aff
v oll
situ ated</w>
mas sive</w>
wis hes</w>
competi tiveness</w>
contribu e</w>
help ed</w>
cour riel</w>
aff airs</w>
améric aine</w>
al er</w>
coun ter</w>
w ater
l ying</w>
Un der
w om
Déf ense</w>
dis ability</w>
mou vement</w>
Déc ision</w>
Bes ch
f .</w>
hy dr
pro mp
F ond
r ait</w>
enjo y
Dru g</w>
G ra
employ ers</w>
car di
cop ie</w>
Cor ée</w>
produc tivity</w>
Lis bon</w>
migr ant</w>
SM Es</w>
u tes</w>
excep tions</w>
thous ands</w>
w ent</w>
ax ée</w>
im pu
con joint</w>
wat ers</w>
expect ations</w>
Prov ince</w>
candi dat
lic ens
apparten ant</w>
un ft</w>
W ä
Pro b
Austri a</w>
D ies</w>
é mission</w>
onn age</w>
W il
É R
S truc
autoris é</w>
E ine</w>
M E
tion s
échantill ons</w>
scre ening</w>
ass embl
Cont ents</w>
co her
pop ul
gé ographique</w>
Télé phone</w>
A sian</w>
dr am
P M</w>
govern ing</w>
pass ed</w>
Posi tion</w>
becom es</w>
P rés
N u
Q ue</w>
m el
î le</w>
lim ité</w>
visit eurs</w>
carri ère</w>
valid ité</w>
An t
exp ul
insc rits</w>
es h</w>
att acks</w>
ag és</w>
ali tion</w>
spo ke</w>
d ite</w>
s ch</w>
Su dan</w>
Cul ture</w>
Kom miss
break fast</w>
ch en
E ar
A B</w>
disposi tifs</w>
sm aller</w>
ex primer</w>
inter n
a qui
it ung</w>
Ir lande</w>
r ats</w>
lear ned</w>
h und
infir mi
se v
al ten</w>
Arbe it</w>
cover ing</w>
i red</w>
vi able</w>
ste ht</w>
attemp t</w>
M ess
st an</w>
mer c
Ac tiv
UR L</w>
considé rer</w>
Sever al</w>
distinc t</w>
speak ers</w>
assu jet
cons ists</w>
sou th</w>
Herr n</w>
ho l</w>
Dis closure</w>
re m</w>
wür de</w>
g ènes</w>
k ers</w>
aff en</w>
In deed</w>
H ere</w>
adap ter</w>
gro s</w>
maxim ale</w>
198 1</w>
voy ag
ograph ie</w>
3 6
certific ate</w>
Su b</w>
appl ying</w>
w es
sm enti
tempor aire</w>
cons entement</w>
spi rit</w>
Certain es</w>
uss els</w>
program mation</w>
su smenti
sign al</w>
fr uits</w>
defin e</w>
alis ée</w>
ch ement</w>
bre ak</w>
for tement</w>
pop ulaire</w>
safe gu
concer t</w>
Sim il
so vere
Br ussels</w>
seg ment</w>
ci es</w>
m él
univer sities</w>
limit ation</w>
Sup pl
fai bles</w>
pres cribed</w>
att le</w>
stell t</w>
Mar ine</w>
J ac
commenc er</w>
al lem</w>
te ams</w>
mit ting</w>
Indus trial</w>
des crip
er b
.ht m</w>
dedic ated</w>
th èmes</w>
po isson</w>
Neu ve</w>
pap ier</w>
mi que</w>
gu ests</w>
ra i</w>
Issu es</w>
progres si
palestin ien</w>
resol ve</w>
qual it
c .
prepar ing</w>
pre me</w>
T ouris
arrang ement</w>
be l</w>
N é
ent ure</w>
œ ur</w>
él ectricité</w>
extra ordinaire</w>
f ar
Radi o</w>
fac ed</w>
essenti elle</w>
éri r</w>
it ée</w>
ain ts</w>
T .</w>
Ren seignements</w>
M ENT</w>
n ée</w>
avo irs</w>
protec ting</w>
il os
head ing</w>
fédér ales</w>
requ ises</w>
ver fü
Vo ici</w>
requér ant</w>
regis ter</w>
bu ts</w>
s agen</w>
vit esse</w>
mondi alisation</w>
Ven e
wor den</w>
est y</w>
L aw
S e</w>
isl am
fer ro
estim ate</w>
fic hier</w>
inform atique</w>
Deu tsch
curr ency</w>
parli amentary</w>
S ah
dé lin
PI B</w>
Organ iz
10 5</w>
certain ty</w>
contribu ent</w>
all ou
mort ality</w>
N E</w>
ré el</w>
le ich
en sch
No w</w>
K ir
Dem ande</w>
M ot
ple as
Be au
w ach
grou p
tri e
di ab
pléni ère</w>
i eur</w>
con vi
Recher che</w>
marg in
ation s
go es</w>
appel é</w>
dépu tés</w>
appare il</w>
to ward</w>
L an
tion ed</w>
B rési
équip ements</w>
deal t</w>
Micha el</w>
visit ors</w>
aw ard</w>
in sol
tr au
Stu dies</w>
judg es</w>
B L
reg ret
ré di
M I</w>
t lin
me ine</w>
sou thern</w>
0 3
a sion</w>
pil ote</w>
m acro
pré visions</w>
Corpor ate</w>
her e
sche dule</w>
Med iterran
produc tivité</w>
professionn elles</w>
cul tiv
surve ys</w>
man aging</w>
tern s</w>
Edmon ton</w>
mi lieux</w>
cht one</w>
trad uction</w>
établi t</w>
poss ède</w>
échantill on</w>
couver ture</w>
exc éd
K 1A</w>
J .
satis fied</w>
Aus sch
considé rés</w>
Ken ya</w>
Op en</w>
Bur undi</w>
catastroph es</w>
nor th</w>
prim aire</w>
s or</w>
ré sumé</w>
Let ter</w>
co op
voy ages</w>
ap parti
sp ect
emb all
acc ess
success fully</w>
expli quer</w>
tax ation</w>
prior itaires</w>
inter rog
w ollen</w>
ti le</w>
médec ins</w>
organ ic</w>
N RC</w>
Com mon</w>
Particip ation</w>
Reg is
inter governmental</w>
th west</w>
fin ale</w>
he iten</w>
ad mission</w>
Li fe</w>
hes ion</w>
in com
construc tive</w>
évén ement</w>
pét role</w>
P ort</w>
Uti lis
de vient</w>
remo ved</w>
Pers ons</w>
pop ular</w>
cour age</w>
Mo yen</w>
fé rer</w>
im port</w>
ver sions</w>
f alls</w>
con version</w>
er ons</w>
D A
si xième</w>
unser en</w>
Pl ans</w>
Fam ili
n d</w>
industri elle</w>
nom mé</w>
ul ent</w>
Ter roris
Pap er</w>
matéri aux</w>
ec k</w>
re medi
Div ul
é lo
Islam ic</w>
Un d</w>
num érique</w>
Ques tion</w>
t ôt</w>
ap er
wan ted</w>
J ames</w>
sec onde</w>
co vers</w>
gro ss
Z immer</w>
Rel ated</w>
F ür</w>
cont ain
Om budsman</w>
M A</w>
c ast</w>
2. 4</w>
B ack
faudr a</w>
pré voy
assu me</w>
pê ches</w>
Ch ang
ex cl
G L
st ein</w>
Vi enna</w>
cli matique</w>
Sec ond
ois eaux</w>
sol d</w>
strength ened</w>
accue ill
S at
H igh
neu tr
C AR
ab led</w>
L L
p assi
arriv ée</w>
r ance</w>
u la</w>
proli feration</w>
ref ers</w>
mon étaire</w>
donn ent</w>
sch en
enh ancing</w>
vis its</w>
réc entes</w>
Brési l</w>
Infr astruc
ry th
sor t</w>
dic tions</w>
Mat eri
Po st</w>
al ität</w>
4 5
vi el
G M</w>
evalu ate</w>
n ine</w>
ex act
ar ity</w>
wh ite</w>
Pe ace
M as
formul ées</w>
v ity</w>
advertis ing</w>
Pers onal</w>
direc ts</w>
ve get
streng th</w>
charac ter</w>
cre di
ann t</w>
reli able</w>
e igh
Re ques
Sp ace</w>
ali en</w>
N et</w>
3 3
intro duce</w>
erre ur</w>
v ements</w>
puiss ance</w>
manifest ations</w>
É valuation</w>
Pier re</w>
trad ing</w>
sep tième</w>
restaur ants</w>
C adre</w>
P D</w>
améric ains</w>
1 5.
considér able</w>
o de</w>
ie le</w>
encour aging</w>
parti s</w>
wel comes</w>
calcul ated</w>
gle ich
T al
compar able</w>
et z
um entation</w>
de ployment</w>
jou e</w>
ab us</w>
dang erous</w>
pai r</w>
ic t</w>
h am</w>
them e</w>
gr o</w>
Mediterran ean</w>
sh o
Est ablis
ne arly</w>
m aire</w>
V ari
sp read</w>
tr o</w>
diver se</w>
crimin ation</w>
b all</w>
ter i
Z im
Proced ure</w>
four nies</w>
S earch</w>
UN CT
ampl eur</w>
st är
cum ul
bi ological</w>
l ou
con çu</w>
I ON</w>
teach ing</w>
in ess</w>
Bul g
Belgi um</w>
ann ul
sou ver
pro te
cri tique</w>
NAT O</w>
fr uit</w>
vari ation</w>
correspon ding</w>
exis ts</w>
déf en
enc ing</w>
fil ms</w>
essenti elles</w>
K e
as er</w>
off ert</w>
trans lation</w>
Geor ge</w>
Col om
seas on</w>
w inter</w>
p esti
loss es</w>
bi ologique</w>
effecti fs</w>
sch eme</w>
P ower</w>
C I</w>
intéress ées</w>
air port</w>
har d
arm ées</w>
sustain ability</w>
dur ation</w>
én um
compéti tivité</w>
o red</w>
stu dent</w>
initi ale</w>
Web site</w>
vi vent</w>
compét entes</w>
ex ecutive</w>
Hau sh
measu rement</w>
or der
ten eur</w>
B S</w>
smo king</w>
ut en</w>
fourn issent</w>
7 0
é pi
fé min
ect ors</w>
CE D</w>
Im migration</w>
sup érieurs</w>
por ters</w>
vers ement</w>
accomp ani
ell s</w>
exempl aires</w>
Victori a</w>
limit ations</w>
B on
r end
accur ate</w>
ar ising</w>
Pro je
contr ary</w>
TI C</w>
exéc ut
T op</w>
ed back</w>
Proc ess</w>
S port</w>
Paragrap he</w>
engag é</w>
recomm end</w>
public ité</w>
Hist or
continu ous</w>
radio diffusion</w>
m ère</w>
EUR OP
men u</w>
UNCT AD</w>
inst aur
S ar
g anda</w>
Fran ç
s ommet</w>
phr ase</w>
G ST</w>
re place</w>
um b
dis aster</w>
chaî ne</w>
R S</w>
gest ellt</w>
dep th</w>
f arm</w>
compar ison</w>
Fun ding</w>
Man ager</w>
Libr ary</w>
i ement</w>
H al
ich ts</w>
sou tient</w>
wä hrend</w>
n isse</w>
constitu tional</w>
repres enting</w>
mes urer</w>
ho st
pro file</w>
cap abilities</w>
refl ects</w>
répon du</w>
accro issement</w>
Bal k
Mon day</w>
em ic</w>
L ös
second aires</w>
mag az
p tion</w>
S a
Ré seau</w>
inf érieur</w>
Par cs</w>
car bur
Pro pos
auto chtone</w>
maî tr
et was</w>
sc en
di re
as yl
S et
Sy ri
b orders</w>
mé mo
m in</w>
acc eler
n in
gé o
élarg issement</w>
ap ti
conserv er</w>
Chap itre</w>
prélimin aire</w>
uti n</w>
Activ ités</w>
arm ée</w>
affec ting</w>
WP. 29</w>
Con ditions</w>
S H
év olu
bring en</w>
vari able</w>
raci ale</w>
ess els</w>
all ed</w>
réd action</w>
proxim ité</w>
lich keiten</w>
9 00</w>
ak tion</w>
S il
norm ally</w>
habit ats</w>
ut z</w>
alis tes</w>
de vi
J er
rapp elle</w>
té moins</w>
ar rest
n un</w>
utilis ent</w>
men ac
broad er</w>
K B</w>
J ord
décl are</w>
Commun ities</w>
jeun esse</w>
im mobili
serv ing</w>
cuis ine</w>
oper ators</w>
is cher</w>
great est</w>
doc h</w>
acc élé
endr ont</w>
ev ol
ad o</w>
G ren
G N
dis closure</w>
Consul tations</w>
w aren</w>
Mo d
heav y</w>
modi fiée</w>
m ir
inten s
restric ted</w>
neigh bour
stand s</w>
Ro ad</w>
qu ants</w>
amén agement</w>
Su ède</w>
pl ais
C r
vis ual</w>
s se</w>
comm ence</w>
appe ared</w>
ak h
annu els</w>
Mil itary</w>
octro i</w>
C. 3</w>
S UR</w>
hy per
Ti me</w>
minu te</w>
atti tudes</w>
puis qu&apos;</w>
nah me</w>
0. 00</w>
pres criptions</w>
f ice</w>
Addi tional</w>
olog ne</w>
m ous</w>
accompani ed</w>
bi ologiques</w>
wirtsch aft
aéri enne</w>
continu é</w>
Dis tribu
gener ated</w>
Divul gation</w>
travail le</w>
piè ce</w>
constitu é</w>
W ie</w>
tl ements</w>
AU T
don ors</w>
Tr an
Loc al</w>
asyl um</w>
sch ließ
n aissance</w>
pursu e</w>
grat u
ectric ity</w>
ati vely</w>
W .</w>
ache v
télé communications</w>
Stu dy</w>
cro y
M oun
G H
bal anced</w>
expl ain</w>
sol di
w arr
view ing</w>
emp s</w>
cou p
Philipp ines</w>
dé g
avi ation</w>
étrang ère</w>
serv ant</w>
liv raison</w>
Hon ourable</w>
tr ained</w>
congrat ul
Cro wn</w>
Cz ech</w>
mor al</w>
mon etary</w>
pr ê
spécialis ées</w>
administr atifs</w>
accep té</w>
év entail</w>
occu pe</w>
C ES
pos ent</w>
pl ate</w>
deli ber
R ot
H in
tel l</w>
solidar ity</w>
ci g
v es
T D</w>
Recommend ation</w>
fon dées</w>
fe ature</w>
let ters</w>
t ungen</w>
T PS</w>
Com peti
exist ent</w>
per mitted</w>
Sy n
w a</w>
loc k</w>
adul ts</w>
conn ected</w>
éc r
k tion</w>
tradi tions</w>
Bu d
1 60</w>
th ér
Rom a</w>
R CMP</w>
Gre en</w>
cong é</w>
h im
N ext</w>
réus site</w>
vari ations</w>
apport ées</w>
Itali an</w>
estim ation</w>
ang le</w>
colle agues</w>
cul p
198 3</w>
z entr
parlement aires</w>
min ing</w>
rel ate</w>
dr y</w>
H .
gene tic</w>
fran ch
Pol and</w>
fix e</w>
ambi ti
OC DE</w>
less ons</w>
ho c</w>
receip t</w>
Unter stüt
retur ned</w>
F our
AL E</w>
ang er</w>
esp agno
re y</w>
dro gue</w>
ar c
CR A</w>
ai mer
incl us</w>
chl or
off res</w>
simil aires</w>
decl ared</w>
réglement aires</w>
asi le</w>
applic ants</w>
Scienti fic</w>
ri e
capit aux</w>
rec ou
elimin ate</w>
W at
Mar tin</w>
Su preme</w>
ann once</w>
phot os</w>
li vre</w>
f light</w>
Car aï
consider ations</w>
guaran tees</w>
Go als</w>
exam ens</w>
S é
Ph ot
alleg ed</w>
So ftware</w>
um n</w>
GR C</w>
cho sen</w>
Bel l</w>
ke y
remplac er</w>
k ün
Auc une</w>
3 9
e ous</w>
D istr
contrô l
b it</w>
int ol
Sci ences</w>
acc r
rivi ère</w>
exhau sti
d av
éc art</w>
ga p</w>
mand atory</w>
8 0
ro gation</w>
ent ale</w>
R ol
suscepti ble</w>
exper im
er fol
we ek
Fr ancoph
sold ats</w>
autonom ie</w>
symp t
b on
deman deur</w>
ga ther
ut ory</w>
ici de</w>
be gr
per ce
gr ain</w>
hi ers</w>
sch n
ret ard</w>
E X</w>
heure usement</w>
it i</w>
enti ty</w>
G E</w>
our c
précis ément</w>
fri ends</w>
Priv acy</w>
déci der</w>
Res ource</w>
opérationn elles</w>
écl air
awar ded</w>
proven ance</w>
proc é
depend ing</w>
labor atoire</w>
F ut
Mal gré</w>
G el
se it</w>
Com pu
f it</w>
É S</w>
än der
dou bt</w>
ä m
acces sibles</w>
mo dule</w>
vis ites</w>
législ atif</w>
défin i</w>
cle an
raci al</w>
S hi
inst amment</w>
wel fare</w>
em ission</w>
expl ore</w>
élécop ieur</w>
Gr ande</w>
Fin ancing</w>
En tre
se em</w>
B ib
pl ays</w>
R appelant</w>
CN. 4</w>
bel iev
enz a</w>
sav ings</w>
ru bri
Coun try</w>
2 .</w>
par king</w>
Caraï bes</w>
s li
B O
lin ing</w>
gre en</w>
kl är
t ested</w>
under stood</w>
produc ing</w>
end ance</w>
With in</w>
Ar ts</w>
s ens
em ail</w>
N ATION
mér ite</w>
be ar</w>
vidé o</w>
appropri és</w>
Si ège</w>
D G</w>
Fri day</w>
è dent</w>
développ és</w>
dép end</w>
In come</w>
excessi ve</w>
S he
l uc
att endre</w>
honor able</w>
gl au
hu ge</w>
can ada
spr ing</w>
alis ed</w>
ow n
belie ves</w>
I bid</w>
er halten</w>
obj ets</w>
détail lée</w>
béné vo
E I</w>
av ance</w>
soli de</w>
Sen ior</w>
enn eté</w>
conform ity</w>
lo gique</w>
G O</w>
personn elles</w>
vol .</w>
pré server</w>
don or</w>
Dis crimination</w>
prom ot
de grad
dispos er</w>
leg ally</w>
Prob lem</w>
Indon es
UN F
E merg
ins besondere</w>
indépend ants</w>
délég u
ch és</w>
mor ning</w>
complément aires</w>
Bar cel
pouv aient</w>
ag t</w>
de ep</w>
rac isme</w>
Rec og
Infrastruc ture</w>
r ailway</w>
dou anes</w>
comb ating</w>
der ived</w>
occ asi
A mon
ür lich</w>
én or
re affir
allég ations</w>
C P
inter esting</w>
F I
énonc é</w>
enab ling</w>
sa w</w>
iti ème</w>
contr adic
K .</w>
ak ti
cro is</w>
c œur</w>
carb one</w>
Del i
opp ing</w>
rés istance</w>
physi ques</w>
Nor way</w>
Stand ing</w>
K az
fig h
ag o
pr int
manufac turer</w>
Add ress</w>
technologi que</w>
pat terns</w>
sal aire</w>
is tic</w>
insp ections</w>
dynam ic</w>
let tres</w>
perf ect</w>
nu it</w>
in side</w>
lac unes</w>
pen alty</w>
sp ap
Ver fü
y i
im m
ind ex
hib it</w>
discu ter</w>
ät z
S a</w>
p t
a head</w>
in ée</w>
L ine</w>
S cot
CN RC</w>
prés ents</w>
ferro vi
wal k</w>
investi s
func tional</w>
get ting</w>
UR E</w>
z un
posi tifs</w>
un ions</w>
Statisti que</w>
top ic</w>
su m</w>
illic ite</w>
Rom ania</w>
In clu
D V
Classi fication</w>
bel ong
er sten</w>
ad visory</w>
B rit
exce ed</w>
üc k</w>
acqui red</w>
tis ts</w>
fut urs</w>
or andum</w>
inter dit</w>
ti ble</w>
E th
tradi tionnelles</w>
occu pied</w>
com po
er ten</w>
cig aret
fix é</w>
ag ées</w>
t esti
const ate</w>
Ex plo
an i</w>
ec .gc.ca</w>
w in</w>
r ail</w>
jou é</w>
phénom ène</w>
inser tion</w>
pun kt</w>
clai mant</w>
T ob
cam ps</w>
M AN
S EC
seul s</w>
invent ory</w>
S au
necess arily</w>
Ne vertheless</w>
ê t
classi fied</w>
flow s</w>
le aux</w>
compet ence</w>
ut or</w>
o li
ab sten
en tres</w>
compar aison</w>
fil ing</w>
né anmoins</w>
observ ateurs</w>
N H
dispos ent</w>
compro mise</w>
acul ture</w>
discipl ine</w>
ran g</w>
P hy
Ho sp
sch ein
Acc ord
Fond ation</w>
A re</w>
souhait ent</w>
sal u
wom an</w>
sembl ent</w>
conclu de</w>
sc r
W as</w>
v essels</w>
avanc és</w>
Loc ation</w>
Reques ts</w>
C eci</w>
Clu b</w>
concrè tes</w>
organis ationn
fournis seur</w>
t old</w>
ti mat
lati ne</w>
obj ection</w>
Ad resse</w>
preven ting</w>
o dy</w>
re di</w>
Rec ords</w>
su mer</w>
annu ally</w>
facult atif</w>
sh el
reach ing</w>
crip t</w>
m 2</w>
exp and</w>
ph ases</w>
ord nung</w>
déf aut</w>
pl ing</w>
des crib
lo be</w>
ilos oph
rel ax
ig u
dri ve</w>
ze iti
fam ous</w>
su i
so ixante</w>
joint ement</w>
es po
sel l</w>
ren contre</w>
frequ ently</w>
w age</w>
hel ps</w>
expand ed</w>
mis si
g ouverne
sou s
diagno stic</w>
dis placed</w>
top ics</w>
N ut
génér ation</w>
ge wä
qu ête</w>
C H</w>
en nie</w>
sol s</w>
réalis ations</w>
p .
en or
6. 1</w>
permettr ont</w>
gr and
regis tre</w>
iss ait</w>
sy ner
m ouv
A y
inter venir</w>
angl ad
is ées</w>
PO UR</w>
direc tions</w>
supr ême</w>
foli o</w>
fre edoms</w>
play ing</w>
tr ying</w>
so i</w>
spre ch
énonc ées</w>
nation alité</w>
û ment</w>
Rec alling</w>
st ar</w>
sever e</w>
Per i
pos é</w>
lis tes</w>
al em</w>
histori ques</w>
f r</w>
em placement</w>
déplo iement</w>
t ch
Pro active</w>
éri e</w>
vol et</w>
197 8</w>
per s</w>
client èle</w>
A A</w>
Unterstüt zung</w>
ag ée</w>
w all</w>
ministéri elle</w>
six th</w>
1. 4</w>
re prise</w>
am ine</w>
Gre ece</w>
ber t</w>
reserv ation</w>
rec ti
Al g
Pro sec
thre at
communi qué</w>
Accord ingly</w>
inter im</w>
4. 3</w>
prob able</w>
per ception</w>
ent rer</w>
ye z</w>
Län dern</w>
Rah men</w>
Let tre</w>
contrô ler</w>
pres ents</w>
Vi ol
ch ain</w>
man n</w>
UN IT
shor t
four nie</w>
T PS
Em ploy
sub sequently</w>
phot o
we ather</w>
rég issant</w>
Fin land</w>
Tun is
ach ats</w>
tion ary</w>
sum mari
pl antes</w>
att entes</w>
hom olog
Parli amentary</w>
Exper ts</w>
rest er</w>
ll en</w>
aci d</w>
E qui
G h
capac ities</w>
conse iller</w>
C in
vi ème</w>
chois i</w>
Recog ni
ré flex
spect ac
étro itement</w>
197 0</w>
exig ence</w>
highligh ted</w>
re habilitation</w>
Langu age</w>
le z</w>
il t</w>
serv ent</w>
M B</w>
00 1</w>
industri els</w>
geograph ical</w>
AC T</w>
reç us</w>
ci ble</w>
appli quées</w>
Be fore</w>
Arc tic</w>
3 4
P WG
I M</w>
âg és</w>
C lim
logici el</w>
Gaz ette</w>
d less</w>
Mo del</w>
bu ff
politi schen</w>
volon taires</w>
mo tif</w>
ajou té</w>
em pr
ai des</w>
timat ely</w>
att ended</w>
20 13</w>
corpor ations</w>
play ers</w>
disciplin ary</w>
con jointement</w>
sh ares</w>
vers er</w>
AN N
UN EP</w>
is ée</w>
médec ine</w>
lo ans</w>
Pr ai
Bib li
in su
limin ation</w>
Des ign</w>
AN CE</w>
enregistr és</w>
combat tre</w>
run ning</w>
Her z
propos és</w>
St ock
gab e</w>
Trav el</w>
Op tional</w>
formul er</w>
j ard
brev et</w>
PWG SC</w>
Is lands</w>
OM S</w>
honn eur</w>
Par ten
ill age</w>
mon ter</w>
concurr enti
ve ill
dur ables</w>
ban que</w>
vis a</w>
C iti
restric tion</w>
IC T</w>
Gesch äf
al and</w>
P U
G ender</w>
dé cre
ci e</w>
Program mes</w>
vi vre</w>
I voire</w>
For t</w>
permet trait</w>
lo se</w>
comm ande</w>
hand ling</w>
where as</w>
graph ie</w>
ß t</w>
he its
Cour riel</w>
pro uv
hi ver</w>
un de</w>
Pro duction</w>
M D</w>
cont amination</w>
hosp ital</w>
Pro jects</w>
es seur</w>
sugges ts</w>
ici an</w>
i v</w>
Zusammen arbeit</w>
Trans ports</w>
per ç
pens er</w>
fin ally</w>
O .</w>
sh ore</w>
pré fér
s amples</w>
ordin ateur</w>
Distr ict</w>
hu itième</w>
Bul letin</w>
ste el</w>
gro ss</w>
Pa trimoine</w>
ow ner</w>
propos er</w>
clin iques</w>
in em</w>
f ou
regul ated</w>
extern es</w>
au rer</w>
re ich
F R</w>
Te il</w>
fic hiers</w>
ob serve</w>
ab ord
laun ch</w>
por tu
prot é
Meas ures</w>
ais ons</w>
Leban on</w>
Bel gique</w>
fi du
fi z
agg reg
défin is</w>
C ir
f ill</w>
pro stitution</w>
S in
encour age
b ons</w>
rappel er</w>
be im</w>
B anglad
liv res</w>
tri p</w>
spe zi
sol lic
reço ivent</w>
Résul tats</w>
offici euses</w>
it eur</w>
as ts</w>
. 2</w>
SERV IC
f ung</w>
N A</w>
Amon g</w>
add resses</w>
ne ither</w>
capit ale</w>
i enne</w>
éri a</w>
ti ères</w>
indi quant</w>
requ iring</w>
he ar</w>
ho sti
T U
rit ure</w>
re ply</w>
O B
rem ote</w>
moy ennes</w>
endro its</w>
assi n</w>
TPS GC</w>
contin g
opérationn el</w>
S un
5 9
rest ent</w>
fall ait</w>
e ven
ard ous</w>
préc é
t ack
ver age</w>
adul t</w>
p y
pr ü
rapid ly</w>
sol l</w>
se where</w>
mauv ais</w>
att ack</w>
Fin al</w>
at em
Ambass ador</w>
avoc at</w>
H C</w>
P ot
proce ed</w>
signal é</w>
ber g
beste ht</w>
si des</w>
Lo g
5. 2</w>
coordonn er</w>
em i
dangere uses</w>
arbe iten</w>
Govern or</w>
accep tance</w>
academ ic</w>
schl ä
mobil ity</w>
Deu xième</w>
re cht
fe a
work place</w>
Parlam ents</w>
10 1</w>
ell ers</w>
en su
IT S</w>
197 9</w>
Do ha</w>
Bos nia</w>
Res erve</w>
1 10</w>
1 ,000</w>
Tr ust</w>
cent er</w>
dre w</w>
alph ab
conduc ting</w>
am m
Be ij
consult ants</w>
S én
ré dig
join ed</w>
Re porting</w>
S TR
cl ick</w>
indépend ante</w>
désign é</w>
gr und</w>
in spec
acqu érir</w>
modern isation</w>
ör der
x elles</w>
Manu fac
so le</w>
equ ally</w>
wich tig
s am</w>
ab ili
aiss ant</w>
T é
jo indre</w>
aci er</w>
com pe
ay ed</w>
ol y
e id
set zen</w>
arm ing</w>
journ al</w>
E li
enti té</w>
sel ect</w>
min or</w>
pré judice</w>
dre i</w>
Georgi a</w>
r ôles</w>
ven ues</w>
surveill er</w>
ff s</w>
W ed
UN HCR</w>
b ath
bul letin</w>
H all</w>
occu per</w>
enter prise</w>
Govern ing</w>
incom be</w>
adjust ment</w>
associ é</w>
hon our</w>
i ding</w>
Langu ages</w>
vill ages</w>
refuge e</w>
SC T</w>
serv i</w>
Pre vious</w>
Rap ports</w>
neu vième</w>
Beij ing</w>
condu it</w>
tr ation</w>
au ses</w>
fo ster</w>
man ie</w>
sem ination</w>
dis t
re pose</w>
engag és</w>
ic ing</w>
titul aires</w>
Th ree</w>
a ths</w>
Ze aland</w>
ethni que</w>
gouvernement al</w>
suc ce
im ported</w>
M erc
ful fil</w>
itu de</w>
Bru xelles</w>
publi és</w>
G ames</w>
tr on
lib ération</w>
ch air</w>
Bro ad
suppli ers</w>
ress ort</w>
prof iter</w>
s icht</w>
t un</w>
B ase</w>
struc turel
method ology</w>
dis semination</w>
dé tec
Prof essional</w>
réglement aire</w>
z ü
jug ement</w>
posi tif</w>
Bi o
s ait</w>
tur ation</w>
réus si</w>
abor der</w>
concern ent</w>
W est
r am
recueilli r</w>
scol aires</w>
t ä
Ver ein
Y ou
tr agen</w>
éten due</w>
provinci ales</w>
utilis ateur</w>
de hors</w>
Che f</w>
dang er
mo ther</w>
zu g</w>
st one</w>
CO R
ass er</w>
er adic
r on</w>
el i
eas tern</w>
télé phon
res erves</w>
plac ements</w>
He ad</w>
ré tro
apport é</w>
ag s</w>
ro se</w>
advant ages</w>
Dru gs</w>
i ed</w>
z ième</w>
inf ecti
Änder ungsan
industri el</w>
m ètres</w>
progres sive</w>
conv inc
param ètres</w>
Med ic
résul tant</w>
élector ale</w>
solidar ité</w>
révis é</w>
préc ises</w>
CNU CED</w>
einfac h</w>
rap portant</w>
g al
sub vention</w>
ast al</w>
tal k</w>
M s</w>
SI S</w>
AG E</w>
consul t</w>
entre prendre</w>
Tran si
St adt</w>
épi dé
staff ing</w>
fréqu ence</w>
Vorsch lag</w>
bo t</w>
diminu é</w>
G é
différ ends</w>
IT É</w>
constat er</w>
privil égi
lanc ement</w>
accue illi
Be i</w>
P P
8 5
it ées</w>
set zung</w>
ti les</w>
1 30</w>
legi timate</w>
jug é</w>
ethni ques</w>
con ten
en largement</w>
eng ine</w>
head quarters</w>
3. 5</w>
l é
dec ade</w>
sign s</w>
entre mise</w>
b ound</w>
pl om
D er
pass agers</w>
cir cu
Gu atem
WH O</w>
autom ne</w>
he im
Chr ist
DF O</w>
sec ret</w>
arti stes</w>
lo ts</w>
bri ef</w>
médec in</w>
bro ch
te il</w>
Sou dan</w>
qual ités</w>
re trait</w>
par avant</w>
Zi el</w>
ré tablissement</w>
Str eng
k es</w>
maj eure</w>
Lear ning</w>
mon thly</w>
tot alité</w>
CI DA</w>
in n
Lev el</w>
R ight</w>
Pro z
Op port
Am ster
N uclear</w>
spécialis és</w>
am end</w>
compag nies</w>
&apos; ll</w>
assess ing</w>
zie h
Rich tlin
co operate</w>
termin ation</w>
as i</w>
pres sions</w>
proper ties</w>
l ec
remo ve</w>
enn en</w>
L am
Équi pe</w>
è tent</w>
analy ser</w>
bi en
Bür ger</w>
C ER
dec ades</w>
ministéri el</w>
p ain
Bos nie</w>
sib ly</w>
found ation</w>
Ex p
compos ante</w>
trans fers</w>
de venu</w>
li re</w>
sec ours</w>
re vision</w>
K ing</w>
di visions</w>
ligh tly</w>
lo ssen</w>
argu ed</w>
H ong</w>
Maj or</w>
m ä
ot y
be ach</w>
ther ap
se inen</w>
encour ages</w>
sub jects</w>
mobil isation</w>
af ter
M r
um p
Pri e</w>
pro of</w>
remerci e</w>
re vue</w>
Banglad esh</w>
B or
10 ,
B eg
mouv ements</w>
i ères</w>
wä re</w>
confir mation</w>
ur ities</w>
am or
ow ners</w>
mo ved</w>
Mo ro
naturel s</w>
ON N
emphasi zed</w>
l ungen</w>
Emplo ye
Contribu tions</w>
Kno wle
att ente</w>
è vent</w>
eng ineering</w>
Men schen
rev end
clu b</w>
hy gi
off rant</w>
l ad
el ectr
mach in
esp ér
Me di
to m</w>
gar der</w>
è ques</w>
Fr agen</w>
al loc
Por t
si zed</w>
il i</w>
dépend ance</w>
phot ograph
dé tection</w>
relev ance</w>
ab ol
ne au</w>
Th urs
G U
sond age</w>
seri ously</w>
considé rées</w>
inf ections</w>
Re qui
E mp
ren voy
requ ête</w>
letz ten</w>
Vi enne</w>
Priv ate</w>
soli d</w>
Plann ed</w>
alis te</w>
h ang</w>
déb ou
B ot
1 40</w>
wich tig</w>
N .
trav er
Né anmoins</w>
ca .</w>
pour suites</w>
ein mal</w>
over view</w>
Mar ie</w>
c ence</w>
0 2
potenti els</w>
Mol do
ad ed</w>
de voir</w>
help ful</w>
ame ters</w>
resol ved</w>
care fully</w>
convic tion</w>
clo ser</w>
er ies</w>
cohér ence</w>
Bo x</w>
serv es</w>
foun ded</w>
M ail</w>
prof ession</w>
Con sequently</w>
Me tho
co ff
b ens
r ul
car rier</w>
ich te</w>
expos ed</w>
d abei</w>
intel ligence</w>
Territ ory</w>
S tra
Clim ate</w>
indemn ité</w>
des cribe</w>
Egyp t</w>
Cap ac
cont ents</w>
dang ers</w>
class ement</w>
Bel arus</w>
explo iter</w>
exp iration</w>
Al ors</w>
ex terne</w>
enf in</w>
altern atives</w>
onn ée</w>
accor de</w>
ri ver</w>
sé ment</w>
trouv é</w>
mic ro</w>
audi o
fis her
technologi ques</w>
dou bl
T O
us alem</w>
ät ze</w>
î les</w>
h ands</w>
inter actions</w>
le icht</w>
el ectricity</w>
H ô
führ ung</w>
land scap
it eurs</w>
Vene zu
du quel</w>
usu al</w>
élev ées</w>
Con gress</w>
app ing</w>
sub missions</w>
Initi atives</w>
compos antes</w>
Produc t</w>
phen om
eu rement</w>
trans l
Knowle dge</w>
ress ource</w>
handicap és</w>
sou mises</w>
Se ite</w>
fres h</w>
i ting</w>
Recommand ation</w>
voyag eurs</w>
ré elle</w>
im meub
tu ber
o re
Nor v
mobil ité</w>
envoy er</w>
our selves</w>
dot ation</w>
har v
T ext</w>
me hr
erro r</w>
Ad vis
favor ables</w>
D ut
Ap p
W er
poin te</w>
C el
ag grav
Mus ée</w>
am bass
canada .gc.ca</w>
ab outi
depend s</w>
3. 4</w>
W G</w>
der en</w>
ret ourn
go t</w>
e en</w>
wel che</w>
CN. 9</w>
Thurs day</w>
ass et</w>
Val ue</w>
stre et</w>
mé th
fr ame</w>
joint ly</w>
pr Ã</w>
T ex
K ong</w>
ju dge</w>
pres s
b ie</w>
ressorti ss
us ses</w>
wend ung</w>
itä ten</w>
s aison</w>
hand elt</w>
fondam ental</w>
alco ol</w>
ett bewer
ER S</w>
l agen</w>
ble ib
re jected</w>
Fi eld</w>
soci o
ach ten</w>
head s</w>
nat ur
s un
wi der</w>
Trans fer</w>
ä mp
orient ed</w>
jun ction</w>
sc ène</w>
divi ded</w>
prop ag
S ri</w>
w ill
N amen</w>
D ig
enqu ê
E very</w>
Entsch eid
exist ant</w>
con dem
S w
res istance</w>
H TM
civili ans</w>
gener ate</w>
Amster dam</w>
consis ten
TI C
r d</w>
auth ors</w>
20 20</w>
enti rely</w>
inten sive</w>
4 7
k er
correc tion</w>
difficul té</w>
8 8
nécess airement</w>
assu mer</w>
any thing</w>
v ary</w>
éri eurement</w>
form ats</w>
te en</w>
ag ences</w>
déc ou
soli des</w>
tig ung</w>
lo y
Commun i
am is</w>
attribu tion</w>
ll ing</w>
it ables</w>
autom atically</w>
Cor rec
considér ables</w>
F estival</w>
ré sid
guarante ed</w>
quanti tés</w>
oper ated</w>
appli quée</w>
afric ains</w>
ad eur</w>
sev enth</w>
cal ib
C. 2</w>
spre chen</w>
re productive</w>
pro mis
P ension</w>
A mé
J eux</w>
bâti ment</w>
lin k
ent fer
scre en</w>
exclu ded</w>
qu in
ré sident</w>
enc oun
sp ectr
manufactur ers</w>
transfer ts</w>
remo val</w>
mét é
ze igt</w>
al izing</w>
audi o</w>
signific ance</w>
dé bu
l ungs
Y es</w>
di gen</w>
périodi que</w>
inter view</w>
qu et</w>
My an
ordin aires</w>
el la</w>
man ager</w>
con fusion</w>
Cy pr
cré di
ré fér
issu s</w>
EN CE</w>
universit aires</w>
er ation</w>
TI R</w>
G én
Conclu sions</w>
ke hr
ser vir
Au jourd&apos;</w>
ann exes</w>
sal ary</w>
camp agnes</w>
re médi
be deut
cy cles</w>
cop yright</w>
Ou tre</w>
expres sément</w>
HTM L</w>
pic ture</w>
EC B</w>
Norv ège</w>
dé placement</w>
D aten</w>
gro ße</w>
B ar</w>
M ein
Con stitu
auss ch
F I</w>
ain te</w>
Myan mar</w>
Cypr us</w>
pour suiv
atti rer</w>
reço it</w>
confir mé</w>
b ig
ré col
Kol legen</w>
radi ation</w>
broad casting</w>
tou che</w>
K ur
Rec ht</w>
A ber</w>
dra wing</w>
com pris
intéress ant</w>
S ho
cont ex
mémo ire</w>
sur plus</w>
20 15</w>
norm alement</w>
Be deut
Olymp ic</w>
personn elle</w>
approfon die</w>
é rées</w>
ess ence</w>
renouvel lement</w>
believ ed</w>
organis ed</w>
mondi aux</w>
tain ment</w>
labor atory</w>
config uration</w>
12 5</w>
C entres</w>
frequ ency</w>
gro ßen</w>
house hold</w>
réalis ées</w>
g el</w>
On line</w>
E r</w>
Li ens</w>
ine a</w>
st ag
vois ins</w>
00 ,000</w>
conseill ers</w>
distric ts</w>
Sm ith</w>
inc urred</w>
he at</w>
v rai</w>
t um
juris prudence</w>
fl uctu
at ories</w>
observ é</w>
si e
logici els</w>
call ing</w>
g y
a e
situ és</w>
ré paration</w>
UN ECE</w>
tr ente</w>
Indi vidu
out put</w>
surroun ding</w>
T M</w>
dis charge</w>
hom es</w>
De fin
b a</w>
Restaur ant</w>
re prises</w>
R am
vo ice</w>
b ad</w>
danger eux</w>
d ating</w>
certi tude</w>
bor ne</w>
Form at</w>
system atic</w>
con vo
1 6.
trä ge</w>
prohib ited</w>
all ery</w>
A I</w>
coun sel</w>
obj ect</w>
gro w</w>
ici les</w>
el ing</w>
blan c</w>
he ar
Au f</w>
renseign ement</w>
t ait</w>
alis ées</w>
integr ate</w>
An ti
cl aire</w>
r ons</w>
we iter</w>
illic it</w>
sais i</w>
komm t</w>
rap porteurs</w>
cir cons
Str as
aéro port</w>
ar tists</w>
En tre</w>
UN M
Amé li
réguli ère</w>
constitu tes</w>
et es</w>
crit ère</w>
easi er</w>
gen ommen</w>
répon d</w>
B est</w>
termin er</w>
sembl ables</w>
mé dical</w>
r and
sustain ed</w>
Micro soft</w>
jus tification</w>
ap prendre</w>
ti eren</w>
Guatem ala</w>
ér ité</w>
sch rif
Régi on</w>
stric t</w>
st y
H otels</w>
organis ées</w>
8 19</w>
es té</w>
te dly</w>
rati fied</w>
PR É
F S</w>
sen sible</w>
1 4.
th inking</w>
d ûment</w>
EC H
resp ir
P s</w>
for th</w>
administr ateurs</w>
av ions</w>
H ST</w>
H er</w>
é do
ell schaft</w>
Verfü gung</w>
S ti
g lis
extre me</w>
soldi ers</w>
trans mettre</w>
gab en</w>
coll ect</w>
en ro
de au</w>
at aires</w>
N I
coll ections</w>
Er geb
soci eties</w>
achiev ements</w>
institu tionnels</w>
w on</w>
chem icals</w>
sui vie</w>
Auc un</w>
pu t
cat aly
she et</w>
Au tr
AT E</w>
a f</w>
el sewhere</w>
fisc ale</w>
def au
Stras bourg</w>
ing ungen</w>
intég rés</w>
sais ie</w>
iz i
re chte</w>
co ast</w>
Tel ephone</w>
at aire</w>
alle l</w>
Oce ans</w>
19 67</w>
Fif th</w>
Con servation</w>
bénéfic ient</w>
ren dus</w>
suff ering</w>
deman deurs</w>
ve ulent</w>
Wed n
minis ters</w>
mul tin
I hr</w>
dis semin
cl ô
in age</w>
fais ait</w>
dép it</w>
Rech ts
élo ign
ben e</w>
ari os</w>
équi val
part ager</w>
ç a</w>
alco hol</w>
cotis ations</w>
H an
Wh ite</w>
alo gues</w>
inter face</w>
mari age</w>
coun t</w>
al ing</w>
k ung</w>
pe ines</w>
fut ur</w>
oc ols</w>
i ves</w>
se at</w>
hou ses</w>
Lic ence</w>
opérationn elle</w>
Dom in
rest re
t on
pat h</w>
co hesion</w>
cri tiques</w>
pé rer</w>
quali fication</w>
é man
Wor ks</w>
MP O</w>
trans mitted</w>
Au ch</w>
dou ani
pro fil</w>
mid dle</w>
rac ism</w>
horizont al</w>
agricul teurs</w>
4 4
dis play</w>
it Ã</w>
Bedeut ung</w>
se as</w>
AC DI</w>
enh ouse</w>
indemn isation</w>
recogni zes</w>
A viation</w>
r are</w>
S écur
tab lir</w>
Ver b
Ed ward</w>
propri étaires</w>
ed ge</w>
Sicher heit</w>
cont est
car ds</w>
chiff re</w>
Wh y</w>
D S
parten aire</w>
Indi genous</w>
pre ad</w>
r are
cam p</w>
in tim
é par
print emps</w>
ch air
contin u</w>
propri étaire</w>
part ements</w>
Re fuge
victi m</w>
diff iciles</w>
Qu and</w>
anticip ated</w>
compren ant</w>
new ly</w>
I X</w>
dis as
autoris ée</w>
responsabil isation</w>
wis s</w>
ph ilosoph
or a</w>
inf érieure</w>
T P</w>
con sign
Den mark</w>
autom ati
b ild
Ad op
in vention</w>
v 01</w>
O F
c af
m ass
Ré sumé</w>
K re
power ful</w>
dis h</w>
tern al</w>
occup é</w>
ben z
em en</w>
Venezu ela</w>
Institu tions</w>
Ener gi
regar dless</w>
D am
g än
fonctionn aire</w>
systé matique</w>
Wedn esday</w>
bour ses</w>
Particip ants</w>
l o</w>
Po in
oc ation</w>
0 6
S ans</w>
Im prov
in her
minis ter</w>
Minis terial</w>
Her ze
zur ück
vic time</w>
pesti cides</w>
occ urs</w>
Ré solution</w>
p p.</w>
pre sidency</w>
il lis
anis chen</w>
inter views</w>
J av
P L</w>
ent lich</w>
vis ited</w>
mé d
Moldo va</w>
allow ance</w>
renew able</w>
C IS
&apos; ve</w>
bâti ments</w>
b rig
p ill
sal aires</w>
So li
L abor
dis abled</w>
mar qu
Z uk
struc tur
5 5
ver t</w>
relev é</w>
H aving</w>
jeun er</w>
demeur ent</w>
N O</w>
k tion
conver gence</w>
intéri maire</w>
Autr iche</w>
ie der
M is
Respon se</w>
adminis tered</w>
rit t</w>
cop e</w>
AR C</w>
men su
échel on</w>
depos it</w>
Com ments</w>
const ante</w>
IN E</w>
Mög lichkeit</w>
Imp act</w>
faç ons</w>
Kaz akh
Rich ard</w>
Orig inal</w>
no on</w>
ch ild
T ru
Regi erung</w>
gr ati
Indones ia</w>
Bo li
hau teur</w>
met al</w>
ex tradition</w>
Fin ances</w>
Integr ated</w>
me ets</w>
sch em
dé fici
décre t</w>
L akes</w>
it ablement</w>
prec ed
per mission</w>
Rou manie</w>
perman ents</w>
Mun icip
Kazakh stan</w>
pe l</w>
défin ies</w>
ti enne</w>
sup pression</w>
Ret ur
Sécur ité</w>
b assin</w>
automob ile</w>
b s
Com par
co hésion</w>
ter stat
s lightly</w>
communic ate</w>
bénéfici aire</w>
Air port</w>
gle ich</w>
Cor r
impos er</w>
Nor thwest</w>
dou b
homolog ation</w>
métho d
num éro
associ ées</w>
ob servers</w>
ov ine</w>
civ il
im bur
20 12</w>
dri ving</w>
G ri
in i</w>
cô te</w>
S pending</w>
déc isi
Amer ic
pertin ent</w>
opérationn els</w>
enti ère</w>
CC C</w>
jou ent</w>
chang é</w>
Al ex
rig oure
stock age</w>
s aying</w>
dé montré</w>
acti ves</w>
w illing</w>
ajout ée</w>
investis seurs</w>
m onn
couv rir</w>
ün d
th res
N .</w>
i ents</w>
examin ées</w>
ant ation</w>
pos ted</w>
au ßer
ail ed</w>
Th er
197 7</w>
particip e</w>
tot alement</w>
passeng er</w>
al les</w>
é merg
Estim ates</w>
Croati a</w>
gu est</w>
ig ne
fo ods</w>
Aut om
har m</w>
K am
regar ded</w>
Ser bia</w>
DN D</w>
gro ß
10 9</w>
S G
under lying</w>
ti sche</w>
Stat ut</w>
könn te</w>
g ing</w>
at om
heure ux</w>
k y</w>
é sie</w>
for ums</w>
sur vie</w>
o v</w>
Sta aten</w>
lo g</w>
w ind</w>
L ac
V IS
sc én
n ut
pap ers</w>
Al s</w>
N R
ar ise</w>
di lu
great ly</w>
provinci ale</w>
in corpo
appli qué</w>
explo si
er mög
ot te</w>
Be ispi
re change</w>
h off
secré taire</w>
kil om
E limination</w>
accr u</w>
adress er</w>
ar chives</w>
N ach</w>
sec toral</w>
fr anc
ach ing</w>
des ire</w>
bl ack</w>
situ ée</w>
exclusi vement</w>
lo an</w>
rég ul
icul um</w>
juridic tion</w>
remédi er</w>
déplac ées</w>
œuv res</w>
Emerg ency</w>
admis sibilité</w>
tab leaux</w>
y e</w>
ff e</w>
d ness</w>
to w
mo dé
di ments</w>
s érie
bu y</w>
alleg ations</w>
cer a</w>
s h</w>
accélé rer</w>
c élé
vot er</w>
eig enen</w>
clin ique</w>
nation als</w>
Des ign
vol s</w>
ab hän
laiss er</w>
not wen
fe edback</w>
Reg ul
je une</w>
Lan ka</w>
trouver ez</w>
el er</w>
po table</w>
shi ft</w>
arg o</w>
T EL
al locations</w>
excep tional</w>
Dro its</w>
par ameters</w>
défin it</w>
veri fication</w>
T anz
some one</w>
B au
lanc er</w>
empr un
cou leur</w>
requ ise</w>
touch és</w>
st ory</w>
désign és</w>
ci ens</w>
appar ent</w>
innov ations</w>
Lib an</w>
donn ant</w>
M ay
pro sper
f t
ou red</w>
P ologne</w>
sensibil iser</w>
log ical</w>
signific ative</w>
compos ed</w>
sem i</w>
h erv
ans wers</w>
F M</w>
any one</w>
po us
decre ased</w>
avanc ement</w>
m o</w>
aper çu</w>
au paravant</w>
L as
Rè g
holi day</w>
ti e</w>
ri ons</w>
str u
g aps</w>
dispu tes</w>
de ploy
ri d
Tu esday</w>
san g</w>
Fr aktion</w>
détaill ées</w>
D ep
AI RE</w>
consac rée</w>
ment ally</w>
T est</w>
dro p</w>
cap ability</w>
m as</w>
ak tu
G ä
S D</w>
révél é</w>
ES T</w>
justi fied</w>
enz y
dep end</w>
strong er</w>
b ill</w>
Thom as</w>
voul ons</w>
dr inking</w>
Pay ments</w>
pi p
tis sus</w>
dri ven</w>
es pread</w>
islam ique</w>
enf alls</w>
vi ously</w>
N ation
Tr adi
sch ö
he b
prim aires</w>
Herze gov
annivers aire</w>
B ir
conven tional</w>
inclu ant</w>
tig es</w>
F ar
pren antes</w>
en trav
e ant</w>
t Ã</w>
ak er</w>
ré elles</w>
Fin lande</w>
N ai
lead s</w>
entraî ner</w>
w issen</w>
EC A</w>
lic ht</w>
Pers onnel</w>
w onder
onc tion</w>
l èvement</w>
marri age</w>
n ette</w>
Simil arly</w>
S O</w>
min ér
per pe
mu ß</w>
aug ht</w>
élarg ir</w>
Recommend ations</w>
Aut orité</w>
a o</w>
plac ing</w>
Bo ok
rel ates</w>
précé demment</w>
plaign ant</w>
citi zen</w>
vis ibles</w>
e ing</w>
Them a</w>
n ice</w>
eu di</w>
AT S</w>
dav on</w>
er forder
augment e</w>
y eux</w>
B est
him self</w>
Ac tivity</w>
Herzegov ina</w>
mun itions</w>
financ és</w>
port és</w>
liter ature</w>
ag ence</w>
tari fs</w>
en ch
linguis tique</w>
réalis ée</w>
facil itation</w>
autoris és</w>
associ ée</w>
K an
go la</w>
contr ast</w>
adéqu ate</w>
i ous</w>
ke in</w>
eing e
ro ll</w>
préoccup é</w>
re min
ow ing</w>
progress er</w>
est ate</w>
G ul
S wiss</w>
t él
g az
li que</w>
mo dules</w>
rés ol
pun ishment</w>
l er
déci de</w>
Ze it
h n</w>
h un
For ms</w>
fl éch
potenti ally</w>
197 5</w>
an ese</w>
Probl eme</w>
port ées</w>
I l
scr utin</w>
municip alités</w>
B lack</w>
cap ables</w>
confir m</w>
incenti ves</w>
En h
w ine</w>
Chris tian</w>
b out</w>
po l</w>
Herz ég
draf ting</w>
D own
é mis</w>
log ements</w>
réflex ion</w>
Z entr
R ates</w>
ver si
lo ir</w>
asp ir
POR T</w>
mén ages</w>
angl aise</w>
me tres</w>
UC TION</w>
E U
d aher</w>
e di
constr uire</w>
war ning</w>
au dits</w>
travaill é</w>
r al
sch er</w>
ouver tes</w>
OT AN</w>
ref us</w>
Herzég ovine</w>
ep id
Pro position</w>
le aving</w>
infr ing
tin s</w>
Char les</w>
An ge
ist age</w>
rappel é</w>
M ou
difficul ty</w>
1 000</w>
o c</w>
i ors</w>
b ritannique</w>
RE L
Go od</w>
human ité</w>
gestionn aire</w>
w an</w>
quar tier</w>
S us
Ch y
pil otes</w>
Mit tel
C AN</w>
erre urs</w>
p airs</w>
h otels</w>
ver sch
ul s
quanti ty</w>
campai gn
R ica</w>
or ateurs</w>
ach en</w>
install ed</w>
appli qu
W ater
th u
P ho
endors ed</w>
defin itions</w>
sp end</w>
rec re
197 6</w>
re action</w>
equ itable</w>
inclu sive</w>
mati s
re ductions</w>
20 .
t .</w>
Poli tik</w>
n äch
A ward</w>
constr aints</w>
be aring</w>
a hn
Cer ti
over come</w>
UNF PA</w>
Re form</w>
rec eption</w>
integr al</w>
éc rite</w>
en er</w>
ass ain
D IS
weit ere</w>
in c</w>
Qu &apos;</w>
universit aire</w>
M édi
valid ation</w>
expres sions</w>
2 nd</w>
w and
he it
tis ation</w>
ende av
Lis bonne</w>
verb al</w>
studi ed</w>
R ural</w>
trim estre</w>
ten sions</w>
espo ir</w>
dis cours</w>
We ise</w>
Eff ective</w>
M el
n ées</w>
Cam bo
ét o
trouver a</w>
u k</w>
car s</w>
K unden</w>
protoco l</w>
Ar my</w>
acc used</w>
minim al</w>
dar über</w>
Argen tina</w>
fo i</w>
d op
bru t</w>
eigh th</w>
c ote</w>
m ur
Pri x</w>
tab led</w>
termin é</w>
ser re</w>
C B</w>
prof its</w>
b omb
explan ation</w>
Com b
we gen</w>
mar ge</w>
Gu inea</w>
arri ver</w>
bound ary</w>
glob alization</w>
A E</w>
dé riv
In ter</w>
i ans</w>
st ers</w>
seu il</w>
coordin ate</w>
Cro ss</w>
ci bles</w>
citiz enship</w>
in sufficient</w>
parti el</w>
audi ences</w>
Har mon
aut rement</w>
sc op
exécu ter</w>
B CE</w>
18 0</w>
n ic
mo indre</w>
10 4</w>
six ty</w>
re sidential</w>
par cs</w>
In s
e able</w>
foc using</w>
kil ome
Euro pé
or ding</w>
arab es</w>
El ectronic</w>
L es
prestat aire</w>
Bulg aria</w>
sub i</w>
M aster</w>
éco systèmes</w>
lon gueur</w>
inter ro
ent sche
Ch ile</w>
wid espread</w>
suffis ant</w>
R R
iv re</w>
S c
Analy se</w>
occup ational</w>
I I
compro mis</w>
tig keit</w>
ev entu
vie illis
bat ter
tex ts</w>
TV H</w>
perpe tr
si n</w>
sau ve
électri que</w>
it or</w>
correc tement</w>
N e</w>
diplom atic</w>
happ y</w>
do w</w>
so wohl</w>
Ex emp
discipl ines</w>
par allel</w>
dis tor
migr ations</w>
Turk ish</w>
ge ting</w>
inter medi
be findet</w>
scienti sts</w>
ob tention</w>
Ph one</w>
volon taire</w>
12 ,
P ê
gl y
defau lt
ing re
att ants</w>
refer ences</w>
lib res</w>
arri ère</w>
coop érer</w>
O M</w>
su chen</w>
Gén ér
Slo ven
adi ly</w>
pat tern</w>
An gola</w>
me ant</w>
obj ects</w>
contr acting</w>
ext érieure</w>
T É
fi ables</w>
it a</w>
ang es
Pre par
F el
bir ds</w>
ti mi
per mits</w>
Rev .1</w>
Con struction</w>
trait ées</w>
Sch ul
â tre</w>
el se</w>
Citi z
Sen ate</w>
ré ci
pro mul
ouv r
Mr s.</w>
senti ment</w>
vend redi</w>
o i</w>
h ect
S G</w>
Ch all
QU ES</w>
Sel ection</w>
new spap
ign ty</w>
aqu aculture</w>
entrepren eur
précéd entes</w>
C ou
p es
shi p
quot as</w>
VI II</w>
clari fy</w>
vol umes</w>
Kommiss ar</w>
occurr ence</w>
Second ly</w>
T B</w>
ron de</w>
thes is</w>
be dro
Berich terstat
a .</w>
facilit ating</w>
sat z</w>
Ih rer</w>
comm and</w>
renew al</w>
with draw
Ex change</w>
C rit
erre ichen</w>
inc en
san itaires</w>
bil an</w>
Inform al</w>
véri fic
ai red</w>
t ér
fix és</w>
lég ères</w>
Techn ologies</w>
Ex c
rubri que</w>
ti tu
net to
see ks</w>
Pl ace</w>
Dur ant</w>
Dis armament</w>
sep h</w>
ate ver</w>
ren due</w>
territori aux</w>
Argen tine</w>
P SC</w>
ar i</w>
US D</w>
propos es</w>
recouv rement</w>
ab ond
compét ents</w>
arri val</w>
we isen</w>
fores ts</w>
er o</w>
Hau pt
fi quement</w>
cour rier</w>
zie hen</w>
ves sel</w>
trans mis</w>
cap ture</w>
re imbur
n esty</w>
6 7
contrain tes</w>
T N
tr uly</w>
nam ed</w>
fabric ants</w>
posi ti
Jo seph</w>
we apon</w>
show ing</w>
po uss
atlanti que</w>
cont rer</w>
ID RC</w>
e c</w>
compl è
197 3</w>
hal t</w>
t ely</w>
sam en</w>
mar ins</w>
ac com
Co st</w>
Nig eria</w>
es ter
Distribu tion</w>
subsidi ary</w>
elim ination</w>
l ay</w>
re placement</w>
En de</w>
cou ple</w>
Qu ant</w>
ani an</w>
substanti ally</w>
congratul ate</w>
ens ures</w>
M a</w>
P et
discrimin atory</w>
c on</w>
trou bles</w>
coll aborer</w>
sum ed</w>
co le</w>
re mis</w>
anci enne</w>
squ are</w>
vers al</w>
reconn us</w>
hat te</w>
-------- --------
s ements</w>
Bür ger
17 .
besond ers</w>
el ev
F a
s n
18 .
Ex ternal</w>
0 5
I V
tri als</w>
rit te</w>
vers ées</w>
ri ve</w>
sup primer</w>
comport ements</w>
col our</w>
p H</w>
cre di</w>
L ong</w>
An ti</w>
passeng ers</w>
Pr int</w>
Sel f</w>
produ isent</w>
comm en
Comment aires</w>
Enter prise</w>
M P</w>
O k
or row</w>
syn thèse</w>
av al</w>
Develop ing</w>
9 9
P as
F as
P ai
fi re
Sou thern</w>
cc o</w>
St ation</w>
T ai
mean ing
sc ru
uls ory</w>
C lick</w>
com prises</w>
ais ance</w>
univers elle</w>
m ill
ch amp
RO M</w>
Doc umentation</w>
sup prim
pos sibilities</w>
z ep
L ie
l undi</w>
S ommaire</w>
suffis ante</w>
fon ci
ach eter</w>
cut ting</w>
lie gen</w>
atmosph ère</w>
S qu
nin th</w>
chann els</w>
tri b
s ave</w>
S AR
bran ches</w>
Zuk unft</w>
ne ts</w>
Yu goslav
stat utory</w>
fe ed</w>
S itu
197 1</w>
viol ent</w>
ä h
pre sident</w>
mo stly</w>
conform er</w>
sol de</w>
destin ée</w>
reti rement</w>
on ing</w>
p t</w>
g one</w>
A K
juris dictions</w>
assur ances</w>
dar f</w>
spe ech</w>
Ar tik
B ild
Haush al
Gh ana</w>
util ité</w>
st att
resp ected</w>
pl af
mar che</w>
y an</w>
elig ibility</w>
Fin ancement</w>
ing en</w>
f en
ju dic
n .
T ok
mété oro
Curr ent</w>
ge ord
Con grès</w>
l â</w>
hol m</w>
des c
de aths</w>
Deli very</w>
per çu</w>
Brit ain</w>
Vol un
sh ape</w>
A d</w>
mati c</w>
défin itions</w>
quel con
it arian</w>
em power
nomin ations</w>
aus ges
hy bri
le ben</w>
espagno l</w>
Be it
evalu ated</w>
me iner</w>
linguis tiques</w>
Con sumer</w>
l en</w>
V éri
t est
T op
ent sprech
mand ates</w>
du al</w>
êt ements</w>
qu est</w>
aéron efs</w>
exerc ices</w>
NATION AL</w>
in direct</w>
nav ire</w>
rus se</w>
genu ine</w>
croiss ante</w>
ma isons</w>
E ss
ju ven
acknowledg ed</w>
Fut ure</w>
g ne</w>
survi val</w>
rel ess</w>
ari ties</w>
r at</w>
campaign s</w>
influ enc
wirk lich</w>
reserv ations</w>
L at
co astal</w>
expul sion</w>
Beispi el</w>
n ul
Ac tu
zi al
ré ellement</w>
inqu iry</w>
invest ors</w>
satisfac tory</w>
E G
f ts</w>
fi ent</w>
su me</w>
diff user</w>
tri ed</w>
B our
V EN
Pat ent</w>
Insp ection</w>
m aster</w>
examin és</w>
consisten cy</w>
cess ation</w>
IS SION</w>
i hnen</w>
retur ns</w>
Procu reur</w>
L DC
avoc ats</w>
s év
délin quants</w>
is hing</w>
A O</w>
adequ ately</w>
199 0s</w>
aut on
bure auc
géné tique</w>
recens ement</w>
FN U
au to</w>
perform ances</w>
unterstüt zen</w>
su st
form é</w>
schem es</w>
e ast</w>
Tel e
conn ex
G rè
kin ds</w>
ad y</w>
Yugoslav ia</w>
prépar é</w>
candidat ure</w>
cro ire</w>
it aux</w>
work force</w>
con junction</w>
them es</w>
manufac ture</w>
inner halb</w>
auth enti
br ings</w>
définiti ve</w>
rob i</w>
limit ées</w>
M an</w>
un ser</w>
individu els</w>
S Y
compos és</w>
Sup plement</w>
pollu ants</w>
communi qués</w>
compl éter</w>
With out</w>
affir m
lo ve</w>
sib lement</w>
fondament ale</w>
prison ers</w>
off enders</w>
tre es</w>
compét ente</w>
figh ting</w>
accep tation</w>
alo g</w>
gre i
U .</w>
A ide</w>
Contribu tion</w>
o la</w>
plais ir</w>
Sal v
nat ürlich</w>
multi pli
provi der</w>
uni versité</w>
T Y</w>
ré cep
w rite</w>
k ri
dg es</w>
ingre di
Hum an
urb ain</w>
pour suit</w>
investig ate</w>
A li
impli que</w>
exclusi vely</w>
complè tement</w>
remar qu
évi dent</w>
enc ein
moder nes</w>
bestim m
déci deurs</w>
Nai robi</w>
thir ty</w>
dé pass
Mo z
spéci alement</w>
prépar atoire</w>
adop tés</w>
T ax
Ré pon
vi elen</w>
gegen über</w>
arr y</w>
es comp
S CI
compar ative</w>
appel ante</w>
Speci fic</w>
v ast</w>
H ier</w>
ro ads</w>
médic ale</w>
attein ts</w>
recomm an
D ue</w>
en ables</w>
r än
nor male</w>
t endant</w>
Int ellectu
M ON
k illed</w>
ren for
luc rati
it ons</w>
Jam a
cré ée</w>
g ames</w>
urg ed</w>
convinc ed</w>
fabric ant</w>
ur a</w>
entfer nt</w>
verschied enen</w>
catastroph e</w>
frau d</w>
ag ements</w>
fe ar</w>
inf o</w>
cin é
oppos ed</w>
F ä
t z</w>
U s</w>
ajou te</w>
F L
H en
P il
Di enst
mer ely</w>
her ein
cont ac
bénéfic es</w>
al umin
fac ul
suffici ently</w>
toler ance</w>
6. 2</w>
int érieure</w>
B ah
judg ment</w>
vot é</w>
gu ay</w>
ab sol
Grè ce</w>
assur é</w>
lib ell
mati n</w>
di r</w>
sorti e</w>
10 8</w>
mét aux</w>
ax é</w>
r ence</w>
manu el</w>
sovere ignty</w>
atta quer</w>
ad vised</w>
ot age</w>
W ettbewer
cré és</w>
UL T
T ag
s ors</w>
p is
C inqui
ath le
xi èmement</w>
Z one</w>
Pub lis
not ably</w>
S uc
adjust ments</w>
lab el</w>
fin ds</w>
S har
tuber cul
for ment</w>
ext érieures</w>
m 3</w>
process ed</w>
Pro gress</w>
préc ision</w>
c ab
expli qué</w>
nation ality</w>
lev ée</w>
Ear th</w>
Rol le</w>
ét endre</w>
gu ides</w>
Le bens
et t</w>
Ch o
1 3.
Dan emark</w>
charg er</w>
suff ered</w>
fa une</w>
ame works</w>
Y oung</w>
pertin ence</w>
prom oted</w>
ff t</w>
dign ity</w>
carbur ant</w>
ul timately</w>
C s</w>
arrê té</w>
ing éni
indic ating</w>
re mettre</w>
De bian</w>
AC P</w>
s par
default .asp</w>
Co ordonn
gel e
différ ente</w>
fix er</w>
s le
car c
col d</w>
influ enza</w>
M éti
ec ological</w>
C U
tch èque</w>
Lt d.</w>
Ex pl
conjoin te</w>
Willi am</w>
maîtr ise</w>
mo vements</w>
in sec
ré pression</w>
tro ops</w>
For sch
mag ni
k t
B arb
mand ats</w>
internation alen</w>
di d
trans porteur</w>
rang ing</w>
sum mit</w>
Moro cco</w>
Indi ens</w>
Î le</w>
We g</w>
T ag</w>
cl auses</w>
b lick</w>
mis sion
er ste</w>
con tiennent</w>
ap port</w>
éc ologique</w>
em pris
plat form</w>
happ en</w>
accord ingly</w>
r ê
mis sing</w>
Co opération</w>
sou mise</w>
ing .com</w>
P oll
Jo hn
ant a</w>
wä r
Y et</w>
ent am
N am
we ï
av ion</w>
Or dre</w>
Consul tation</w>
herein after</w>
foc uses</w>
annivers ary</w>
gr und
Oc é
8 6
te enth</w>
dép istage</w>
Se iten</w>
L este</w>
recip ient</w>
spati ale</w>
pay é</w>
ke ting</w>
tain e</w>
g end
chim ique</w>
Hung ary</w>
milli ard</w>
Th ir
las ting</w>
ind ice</w>
libr ary</w>
be w
appe arance</w>
engag ées</w>
contamin ants</w>
offici ellement</w>
voc ational</w>
P ic
quelcon que</w>
ho t</w>
Propos al</w>
a w</w>
périodi ques</w>
cri tic
Azerb ai
sol ely</w>
Bul l</w>
des ir
Inte gration</w>
inst aurer</w>
séri eux</w>
refl ète</w>
down load</w>
CR DI</w>
fa ith</w>
Ri o</w>
pl age</w>
assain issement</w>
g auche</w>
politi sche</w>
j ap
i on
ear nings</w>
rou gh
exig er</w>
dess en</w>
Fr auen</w>
p étro
org ans</w>
00 0
satis fais
is sion
some what</w>
pos sibly</w>
aug h
p el
Ber n
com fort</w>
tis su
in adequate</w>
lucrati f</w>
assu med</w>
pris ons</w>
annu elles</w>
Surve ill
S es</w>
3 2
K ü
Tro is</w>
produ ites</w>
tri fft</w>
re ux</w>
EP A</w>
Dur ée</w>
ant érieures</w>
J O</w>
consult ative</w>
vers é</w>
fi li
calend ar</w>
concern é</w>
ro us</w>
F ahr
par as</w>
br anch</w>
remar quer</w>
quar ante</w>
G od</w>
Ste ph
Méti s</w>
Com ple
mul ticul
b y
cou vre</w>
in ary</w>
h arm
matéri els</w>
approuv és</w>
semin ars</w>
ob vious</w>
st ore</w>
D im
dev oted</w>
dec lar
Sy m
collabor ative</w>
typ ical</w>
signal er</w>
p pe</w>
haz ardous</w>
entraî ne</w>
compt abilité</w>
CANAD I
Ã ª
ann ex
financ ed</w>
author ization</w>
Terroris m</w>
Benef its</w>
renew ed</w>
practi tion
exemp t</w>
Richtlin ie</w>
E thiop
Que en</w>
as tic</w>
4 9
z war</w>
Balk ans</w>
ali for
feu illes</w>
mentionn és</w>
ouver ts</w>
considér ations</w>
cor ro
posi tives</w>
Go ods</w>
Leg isl
désign ation</w>
Con ventions</w>
Colom bia</w>
Vo tre</w>
mö chten</w>
ér ations</w>
adop ting</w>
3 50</w>
n ess
atta ques</w>
ad jac
CR C</w>
M H
vo it</w>
Su iv
herv or
brief ing</w>
Sub ject</w>
P PE</w>
r in
envoy é</w>
ati ven</w>
Depart mental</w>
con fin
Re gar
ograph y</w>
ent ering</w>
bot tom</w>
adap ted</w>
fav ourable</w>
U ru
war m</w>
des criptions</w>
disas ters</w>
AC E</w>
exig ent</w>
terroris te</w>
l ay
10 2</w>
divul gation</w>
M ech
moun tain</w>
Touris m</w>
respon dent</w>
espér ons</w>
d ort</w>
Uni ver
législ ative</w>
accompl i</w>
Cop enh
tari faire</w>
negoti ation</w>
t ac
loo ked</w>
Un fortunately</w>
speci fy</w>
nor ms</w>
Exper t</w>
lo giques</w>
Opport unities</w>
absolu te</w>
stän d
d ress
gl and</w>
Geschäf ts
conting ents</w>
rev anche</w>
évalu é</w>
put ting</w>
pré ven
in jur
gre enhouse</w>
mor ph
imp ér
Fl or
í a</w>
bless ures</w>
A th
Over all</w>
loo ks</w>
thè ses</w>
10 3</w>
Regi er
domin ant</w>
dé montrer</w>
op tique</w>
sit ting</w>
1 15</w>
vi es</w>
M ONU
sub ven
assis ted</w>
Ambass adeur</w>
ge führt</w>
équi valent</w>
mb H</w>
O ui</w>
p ir
invent aire</w>
att est
ro ot</w>
ex pe
com bler</w>
Qu el
D ès</w>
intégr ante</w>
low est</w>
r av
L y
ici ens</w>
I hren</w>
d ür
SERVIC ES</w>
réc ents</w>
accum ulation</w>
logis tique</w>
produc er</w>
re tenue</w>
k onn
financ é</w>
M AT
R A</w>
re fin
Ac adem
S. C.</w>
d ited</w>
on ais</w>
inter active</w>
ör t</w>
fer met
or ateur</w>
house holds</w>
4 8
ab ore</w>
affect és</w>
over sight</w>
centr ales</w>
partic ules</w>
rel èvent</w>
ne uro
Res id
propri étés</w>
g ers</w>
f ils</w>
F ourn
véri fications</w>
b act
You goslav
l ent</w>
sk in</w>
Ser bie</w>
5 ,000</w>
vi abilité</w>
T H</w>
ch ent</w>
kün f
H arb
dign ité</w>
1 1,
Yougoslav ie</w>
3 .</w>
h i</w>
pack ages</w>
eng en</w>
ill ness</w>
ag issait</w>
dire kt</w>
h ments</w>
tel ecommunications</w>
cat alogue</w>
oeu v
démocrati ques</w>
prepar ations</w>
géné tiques</w>
CF P</w>
É gyp
perform ing</w>
Hist ory</w>
recou rir</w>
cher cher</w>
W he
S ir</w>
min ent</w>
U V
de priv
EM ENTS</w>
re pli
F A</w>
mi di</w>
onn iers</w>
bénévo les</w>
MD N</w>
civi les</w>
Com mon
comp ulsory</w>
G I</w>
lic hes</w>
emb ar
10 6</w>
sin c
y es</w>
for th
Commer cial</w>
19 .
Val ley</w>
d ites</w>
gran ting</w>
viol ences</w>
révis ée</w>
Surveill ance</w>
AB LE</w>
dead line</w>
exp ense</w>
inclu t</w>
institu tionnel</w>
Fo rest</w>
pa tho
déb it</w>
dé libér
sais ir</w>
Dro it</w>
Basi c</w>
R ück
ec hni
consequ ence</w>
ann on
PR ES
Fif ty</w>
stim mung</w>
C AP</w>
bate aux</w>
out i</w>
certain ement</w>
fisc ales</w>
entraî né</w>
exec u
occup ent</w>
fr age</w>
k it
O D
Lou is</w>
spati ales</w>
ret ain</w>
K ap
em o
ST A</w>
1 11</w>
charg ement</w>
re conciliation</w>
n is
sémin aires</w>
per su
wr ong</w>
C .1</w>
For mation</w>
T ES</w>
trans frontali
IC ATION</w>
DV D</w>
B un
satis fait</w>
Ch urch</w>
Treat ment</w>
am ph
travaill ant</w>
sal les</w>
oc y
D a</w>
D ani
www. c
ou ts</w>
eth ical</w>
lo ading</w>
Institu tional</w>
appe als</w>
Ges und
ang en
reve aled</w>
B I
cham ps</w>
ter ait</w>
répon dent</w>
sw it
lit tér
duc t</w>
our self</w>
dri ver</w>
aéri ens</w>
uni form
under ing</w>
ref use</w>
assur ant</w>
subsi dies</w>
cent rer</w>
europä ische</w>
consoli dated</w>
produc tions</w>
hôp itaux</w>
déf endre</w>
conn aît</w>
par cours</w>
U l
B ew
c ited</w>
En cour
éventu ellement</w>
Wirtsch afts
tr ain
s low</w>
Fol low</w>
g as
U sing</w>
curr iculum</w>
ré jou
high light</w>
exc ess</w>
chann el</w>
Peop les</w>
dom mage</w>
4 6
Phy s
ß en
condu ire</w>
arti fici
U m</w>
E V
détaill é</w>
rig h
Barcel ona</w>
ll er</w>
I de
ryth me</w>
fond ement</w>
M T</w>
re pos
it ali
fu els</w>
compar ativement</w>
Arbe it
ot t
tre m
consomm ateur</w>
Cop yright</w>
nour riture</w>
W ol
al k
acc ru
prior itaire</w>
Gr ands</w>
Four th</w>
c ue</w>
Laur ent</w>
E EC</w>
Competi tion</w>
accoun table</w>
ES C</w>
Mus li
5 7
croiss ant</w>
fe wer</w>
Am nesty</w>
up per</w>
F ern
Au di
ier ten</w>
cho ices</w>
Th ank</w>
ter ont</w>
TR AN
ang en</w>
ap porte</w>
er st</w>
berg ement</w>
clari fication</w>
2. 0</w>
ot a</w>
cru ci
PAR TI
dé jeuner</w>
play er</w>
ain eté</w>
j i</w>
D or
il ing</w>
envis age</w>
orient ale</w>
E AN</w>
Chy pre</w>
withdraw al</w>
Té l</w>
nation alen</w>
OP S</w>
francoph ones</w>
Lin ux</w>
Gu inée</w>
Au tre</w>
uc k
res ts</w>
Stat ute</w>
ob taining</w>
impos ées</w>
so in</w>
mondi ales</w>
mari times</w>
flic ht
fall en</w>
Princip les</w>
AP PL
arti sti
197 4</w>
renouvel ables</w>
00 .
Sp ec
FNU AP</w>
sup pose</w>
gro wn</w>
w ants</w>
sou l
aci de</w>
autom atis
Indon ésie</w>
sec ured</w>
expéri ment
par as
thé matiques</w>
x y
col onne</w>
5. 3</w>
pl ate
C. 5</w>
An ne</w>
sign ing</w>
com plic
col umn</w>
Cinqui ème</w>
PRO GR
im ming</w>
combus tion</w>
p asse
S W
eing es
mix te</w>
protoco les</w>
Al le</w>
appuy é</w>
K l
is ely</w>
z en
administr ateur</w>
or ph
G ab
No ti
stream ing</w>
re viewing</w>
déc ouvrir</w>
w enden</w>
municip alities</w>
sh opping</w>
descrip tif</w>
ret ail</w>
Pur su
éventu els</w>
ign es</w>
Som alia</w>
W ildlife</w>
Gé or
G mbH</w>
typ ically</w>
Li thu
An gel
bi enf
ail les</w>
conç us</w>
ben ch
ressortiss ants</w>
î t</w>
im pe
semin ar</w>
Égyp te</w>
bi et</w>
clô ture</w>
monit ored</w>
justi fier</w>
I A
En quête</w>
10 7</w>
qu asi</w>
li a</w>
Dé fin
hi er
Stock holm</w>
bo ards</w>
join te</w>
Arch it
zeiti g</w>
conclu ding</w>
id en
c ine</w>
r al</w>
2. 2.
aid é</w>
Tit le</w>
Registr ation</w>
uni forme</w>
Th en</w>
expen sive</w>
accompli r</w>
hop ed</w>
ut z
ox ide</w>
vol ati
for t
gro und
bu tt
ch eurs</w>
Equi pment</w>
ur ge</w>
Ex peri
fin ales</w>
super fic
O pen
W ell
correspon dent</w>
Z él
oper ator</w>
y ourself</w>
13 73</w>
ay e</w>
SO CI
land ais</w>
déc rites</w>
T BS</w>
contribu tes</w>
Ira q
péri l</w>
F ile</w>
effectu e</w>
déplac ements</w>
ail and</w>
Mich el</w>
é rée</w>
ti er
sidenti n</w>
einz el
Qu ar
Co ast</w>
mat ure</w>
even ing</w>
h aut
L IS
d ons</w>
en on</w>
Common wealth</w>
l ake</w>
Le ad
fä hig
propor tion
dép ôts</w>
tom orrow</w>
br and</w>
ti eth</w>
consider ably</w>
ec es</w>
combin aison</w>
ins cri
de ep
pertin ente</w>
H ong
autor iser</w>
siè ges</w>
Program m</w>
quali fiés</w>
Commit tees</w>
bab we</w>
Pe ti
fair ly</w>
For mul
ve ille</w>
Bet ween</w>
IL O</w>
ris ing</w>
UN IF
adjust ed</w>
Croati e</w>
mot or</w>
S ü
H ear
gener ations</w>
prosec ution</w>
Compu ter</w>
voul u</w>
mis sed</w>
Re fer
Uru guay</w>
fr ameworks</w>
certi fied</w>
for ty</w>
valid ity</w>
Organiz ations</w>
mag n
tari f</w>
neigh b
pré con
5 8
rédu ite</w>
M iss
ier te</w>
bienf aisance</w>
auton ome</w>
incorpor ate</w>
Tro isième</w>
naturel le</w>
mä ß
intég rées</w>
bu m</w>
anci ers</w>
dé lic
sh ar
hau ts</w>
IP C</w>
publi ée</w>
dies el</w>
conn ue</w>
al i</w>
J un
dom ain</w>
po ul
respon ding</w>
lég èrement</w>
Joh ann
extr action</w>
indic ator</w>
J ust</w>
attén uer</w>
retur ning</w>
adap t</w>
S AR</w>
présent ations</w>
suppli ed</w>
quanti tative</w>
plur i
ét al
peu x</w>
examin ée</w>
vieillis sement</w>
machin ery</w>
ã o</w>
consul tant</w>
in hal
R M
Manu el</w>
docum ented</w>
consist ently</w>
procé dés</w>
p are
Territ oires</w>
complex ité</w>
me at</w>
investi r</w>
s able</w>
assign ment</w>
four ni
F ab
grap h</w>
gr ate
termin al</w>
stat t</w>
bro w
accom mo
souver aineté</w>
pon ent</w>
E O</w>
bel ief</w>
Sh ould</w>
4. 4</w>
Intellectu al</w>
DN A</w>
Artik el</w>
f ère</w>
w ildlife</w>
M ax
n one</w>
ban des</w>
G A</w>
Ar men
ou i</w>
dépos er</w>
mar king</w>
describ es</w>
aci ón</w>
lu min
citoy enneté</w>
tak ings</w>
c â
aff in
chron ic</w>
conclu t</w>
ferrovi aire</w>
répond ant</w>
publi ées</w>
maj eur</w>
sen sibles</w>
ra w</w>
re j
du ire</w>
consul ted</w>
UN D
mer it</w>
beg un</w>
ad ding</w>
ti bles</w>
de als</w>
s ag
p flicht
h ät
charg ées</w>
re ts</w>
N A
appar aît</w>
negoti ating</w>
pi ece</w>
Hel p</w>
S R</w>
éch app
re member</w>
or ge</w>
gu er</w>
tionn ement</w>
at o</w>
V olume</w>
B ack</w>
ex act</w>
k ul
wie der
zi p</w>
K le
intel lig
Zél ande</w>
fourn issant</w>
hom o
fol g
mag istr
comb attants</w>
ti r</w>
lis ting</w>
compar e</w>
apparti ent</w>
essenti ally</w>
cigaret tes</w>
sign es</w>
ban king</w>
sub paragraph</w>
medic ine</w>
CI C</w>
Ver brau
adop te</w>
attén uation</w>
territori ale</w>
ar isation</w>
Po st
Over view</w>
Pri orities</w>
Géor gie</w>
O U</w>
poli tics</w>
li tion</w>
indi vi
tionn ellement</w>
Tari ff</w>
N GO</w>
inv est</w>
formul aires</w>
un certainty</w>
prison ment</w>
fai bl
N OR
z usam
vou loir</w>
tox ic</w>
co eur</w>
Oper ation</w>
emph as
Constitu tional</w>
trad uit</w>
con ve
4. 5</w>
se ed</w>
U hr</w>
calcul ation</w>
contr aign
2, 5</w>
étudi é</w>
Mein ung</w>
oper ates</w>
dégrad ation</w>
alphab é
pre fer
af o
u ph
enni al</w>
pri é</w>
intro ducing</w>
organis és</w>
archit ec
dec lined</w>
wor t</w>
organis e</w>
génér ations</w>
MIN IS
peri or</w>
evalu ations</w>
T aking</w>
rec our
7 7
com prise</w>
Jap anese</w>
défin ie</w>
dem i</w>
present ations</w>
Fr aser</w>
sk y</w>
indivi du</w>
eu tenant</w>
Back ground</w>
s avoirs</w>
forc ing</w>
G S</w>
Lin ks</w>
pres erve</w>
arb res</w>
sh ops</w>
enc ad
ven cy</w>
numéro s</w>
inter val
accoun ted</w>
ol ing</w>
tur ned</w>
B A</w>
n ative</w>
Ap pro
rele ases</w>
acc red
Bul gar
Com plain
IN D
auf en</w>
spati al</w>
El ectoral</w>
work er</w>
N on
an ne</w>
cul ar</w>
sub jected</w>
be iden</w>
see ing</w>
ic on
Dar fur</w>
un acceptable</w>
4 3
im per
Ap plic
cro p</w>
p â
13 ,
chin ois</w>
ill on</w>
emb ry
él u</w>
eth ics</w>
Coordin ator</w>
lig en</w>
respon ded</w>
ich tlich</w>
el abor
we ig
géo graphiques</w>
St ar</w>
S ales</w>
ren voi</w>
aw ards</w>
aï d
it enti
Ha iti</w>
Sec teur</w>
contempor ary</w>
50 ,000</w>
Q C</w>
man ual</w>
B ush</w>
IN FORM
convainc u</w>
restruc turing</w>
D on</w>
su icide</w>
Book ing.com</w>
comp tables</w>
N AF
pé d
Lös ung</w>
Fre e
Contin u
We apons</w>
Mar oc</w>
Journ ée</w>
di c</w>
mot or
G as
5 6
un ies</w>
v ant</w>
inv asion</w>
de teri
ro r</w>
f asse</w>
indi quées</w>
hom olo
ä hr
l ag
automati quement</w>
sembl able</w>
acc él
fo ot</w>
ici ous</w>
bilatér aux</w>
cus sion</w>
acc réd
É T
exact ly</w>
conven ed</w>
b au</w>
acces sibilité</w>
g ained</w>
ou ter</w>
Peri od</w>
E sc
diversi fication</w>
suppli er</w>
por no
ins ist
Do es</w>
sam pling</w>
deploy ed</w>
spr ache</w>
fonctionn e</w>
no w
Un ser
1 12</w>
attemp ts</w>
ro s</w>
direc trice</w>
accur acy</w>
9 0
so red</w>
prévo ient</w>
Inst all
prec ise</w>
ge ant</w>
den ied</w>
En gland</w>
opport un</w>
ex hibition</w>
ay a</w>
unser em</w>
ré actions</w>
velop pe</w>
m ères</w>
Wh it
S and
19 60</w>
cour te</w>
4 50</w>
emball age</w>
S mo
z immer</w>
af en</w>
B. C.</w>
ren ov
roy ale</w>
sémin aire</w>
Comp liance</w>
dé ficit</w>
re pu
exer ce</w>
exec ution</w>
R ailway</w>
déliv rance</w>
landscap e</w>
accueilli r</w>
Kon tro
sign er</w>
inj ection</w>
fi ants</w>
UN ID
territori ales</w>
Excell ence</w>
se ules</w>
pour rez</w>
simp les</w>
Ann ée</w>
K un
vacc ination</w>
preven tive</w>
Stu di
Pê ches</w>
Objecti fs</w>
Ret our</w>
D R</w>
prec isely</w>
représent er</w>
s low
Régi me</w>
e ases</w>
an st
f illed</w>
verg ure</w>
un ch</w>
mi ques</w>
cre ative</w>
direc tor</w>
v in</w>
int ends</w>
in hib
im prisonment</w>
Tr aff
Ch i
CB SA</w>
Pré c
wen iger</w>
prin ted</w>
dépos ée</w>
AN D
améric aines</w>
initi ally</w>
C alifor
RE G
politi ci
7 50</w>
ti rés</w>
Syri an</w>
profon deur</w>
sen siblement</w>
matern elle</w>
1. 0</w>
exempl aire</w>
M essi
absolu tely</w>
Ex port</w>
Eng ineering</w>
AR TIC
ter ly</w>
Ser ies</w>
ri gi
de fici
Consi dér
per taining</w>
Agre ements</w>
ag on
assis ting</w>
Re al</w>
B ER
dro me</w>
f esti
dis turb
con tenus</w>
P O</w>
rev it
sc .gc.ca</w>
Gre ek</w>
E ins
Ch ili</w>
12 3</w>
l aisse</w>
rec ording</w>
Hosp ital</w>
pay ing</w>
Poin ts</w>
Coll ection</w>
gl u
ARTIC LE</w>
pre mises</w>
sp ices</w>
proj ections</w>
isol ated</w>
qui et</w>
réus si
ev olution</w>
ré fléch
ant érieure</w>
dro ite</w>
sh ap
form ations</w>
ag ro
nit ro
2 e</w>
inter pr
sup érieures</w>
rece ives</w>
hö ren</w>
c able</w>
adress ées</w>
ol ine</w>
s ting</w>
confir mer</w>
grate ful</w>
M ach
en heit</w>
1, 5</w>
comm ission
pen alties</w>
Te il
complex ity</w>
Ch arg
acqui re</w>
heal th
an zu
n a
arbitr age</w>
stabil isation</w>
port folio</w>
favor ise</w>
famili ales</w>
Minis tres</w>
reti rer</w>
en vergure</w>
ind ung</w>
Inst ance</w>
Val eur</w>
sk illed</w>
Dies es</w>
m ène</w>
suff it</w>
ban k
um fass
tal king</w>
tol érance</w>
enab led</w>
avanc er</w>
gen e</w>
Mo sco
do ses</w>
attein tes</w>
aband on</w>
pa th
Fun ds</w>
wai ting</w>
Me hr
Corr .1</w>
M ass
pé ti
pres cription</w>
Azerbai jan</w>
absolu ment</w>
ou tre
prou d</w>
Im portant</w>
b ol
S ources</w>
n an
ali an</w>
T .
paci fique</w>
cross ing</w>
Deu xièmement</w>
Rel ease</w>
appreci ate</w>
mi le</w>
ré férences</w>
Zusammen hang</w>
se ats</w>
libér alisation</w>
V ille</w>
atmosph érique</w>
d ol
s cor
ar rest</w>
Re i
dési r
clo sing</w>
S R.
forec ast</w>
bas ée</w>
Diff er
félic iter</w>
s letter</w>
M on</w>
or ts</w>
offici ers</w>
suffis antes</w>
qu is
asi de</w>
bl é</w>
Bulgar ie</w>
Hil fe</w>
it ly</w>
appoint ments</w>
ré conciliation</w>
apart ment</w>
coun selling</w>
Z us
hospit als</w>
Haushal ts
elec tric</w>
dam es</w>
teil ung</w>
confidenti al</w>
appropri ations</w>
us ine</w>
k ar
p ine</w>
r attach
s we
ä t</w>
regi on
Hô tel</w>
mo derni
po m
Ab geord
préc isions</w>
N ice</w>
intéri m</w>
ges e
Zim babwe</w>
di fication</w>
P ow
im um</w>
at ar</w>
V an</w>
Prosec utor</w>
cre dits</w>
vis iter</w>
ges agt</w>
dest roy
Pursu ant</w>
TI NG</w>
Qu i</w>
mauv aise</w>
Th ailand</w>
Investi g
fa ther</w>
er war
élec teurs</w>
lo is
de venue</w>
E I
amen er</w>
CS A</w>
doc tr
K h
b ét
sch aften</w>
tun n
méc an
CO P</w>
tot ales</w>
u ch</w>
v abilité</w>
stand ardi
g ig
établiss ant</w>
monn aie</w>
phenom enon</w>
di al</w>
Soli dar
Comp ag
mon d</w>
Des tin
Ap plications</w>
sug gestion</w>
1. 6</w>
h ers</w>
con centrer</w>
c .gc.ca</w>
ch ant</w>
individu elle</w>
médic ament</w>
trans fé
rap proch
Inter governmental</w>
Ver antwor
hin der
them atic</w>
Streng th
spéci fiquement</w>
remedi es</w>
ol on
under takings</w>
au str
re dev
de ficit</w>
spectr um</w>
s avons</w>
realis tic</w>
A IN
H aus</w>
mentionn ées</w>
consac rés</w>
do s</w>
is o
quot a</w>
autonom es</w>
Agricul tural</w>
N a
Ku wait</w>
kilom ètres</w>
exp édi
vari été</w>
f ail</w>
mat ch</w>
Produ kte</w>
c al</w>
ä d
raisonn ables</w>
197 2</w>
souha iter
individu elles</w>
Gre en
introdu ire</w>
t ap
mor ale</w>
coordin ating</w>
f ang</w>
bo ok
there of</w>
imp ôts</w>
approu ver</w>
St ar
L ignes</w>
evi dent</w>
sur monter</w>
B iss
chi ment</w>
ch ir
tw ice</w>
confidenti alité</w>
Dem okrati
AS S
dé cri
Entsch ließ
ig ni
cou che</w>
H. E.</w>
Don ald</w>
licens ing</w>
c eci</w>
netto y
main s</w>
D ES
ent our
commiss aires</w>
met tra</w>
aff ér
C W
famili al</w>
desir able</w>
Rec ord</w>
bénéfici é</w>
m assi
céré mon
V ision</w>
Consi deration</w>
hô te</w>
extr é
cré e</w>
bloc k</w>
ar me</w>
bibli oth
hn t</w>
ré ductions</w>
adv ances</w>
ss ement</w>
re urs</w>
sexu els</w>
reques ting</w>
industri elles</w>
Ex pend
thér apeu
vo is</w>
expand ing</w>
Pho to</w>
dét éri
ad mis</w>
Salv ador</w>
co alition</w>
intéress é</w>
M L</w>
pers ön
respecti fs</w>
i tin
environ ments</w>
ar agu
begr ü
inter gouvernementales</w>
décl arer</w>
par ks</w>
vol l</w>
pl esse</w>
ul aires</w>
tox iques</w>
T en
mol éc
él ève</w>
m ette</w>
he i
Institu tion</w>
dé crire</w>
prote in</w>
lic enci
Le ben</w>
harm ful</w>
alis ierung</w>
Work shop</w>
p ère</w>
terres tres</w>
per du</w>
F ull</w>
8 7
gu te</w>
Law rence</w>
10 ,000</w>
ex changes</w>
In struc
conn us</w>
ré cup
fo ssi
écr an</w>
pré sidente</w>
par ental</w>
étiqu etage</w>
H RC</w>
plac er</w>
porte feuille</w>
Dec isions</w>
Pro m
E duc
O J</w>
speci alists</w>
B lo
win dow</w>
ach ed</w>
&apos; m</w>
restruc turation</w>
garanti ss
AUT ONU
reason ably</w>
c esse</w>
export ateurs</w>
él us</w>
conce voir</w>
tr ans</w>
äch lich</w>
noti fied</w>
enor mous</w>
D D</w>
AUTONU M</w>
Mit tel</w>
p ain</w>
et wa</w>
re ds</w>
ass ment</w>
tis ch</w>
sch ol
c ils</w>
revend ications</w>
K enn
AS FC</w>
ä um
dispar ition</w>
re du
ir aqui
H ö
differ enti
Av ail
sub regional</w>
Ag ainst</w>
vers ements</w>
g old</w>
12 2</w>
Retur n</w>
re pas</w>
100 ,000</w>
eco systems</w>
comm andes</w>
therap y</w>
dép asse</w>
Comm ons</w>
ab und
tan gible</w>
is ive</w>
öffent lichen</w>
Arc tique</w>
ref used</w>
blan chiment</w>
credi bility</w>
K amp
El ection</w>
rul ing</w>
ar chi
en seignements</w>
dou ard</w>
at al</w>
g ilt</w>
perce ived</w>
or i</w>
illic ites</w>
as king</w>
Océ ans</w>
vari ed</w>
in ge</w>
ess er</w>
affir mer</w>
z y
K ri
poss èdent</w>
order ed</w>
organ iques</w>
indic ateur</w>
part ly</w>
utilis ations</w>
ann ten</w>
del ays</w>
au d</w>
Conclu sion</w>
C AD</w>
rec alled</w>
IT Y</w>
Prä sidentin</w>
Ar rang
Dienst leist
précis é</w>
Mal ay
je der</w>
w ell
re me
indi qués</w>
rec ep
T élécopieur</w>
wal king</w>
com portant</w>
ég ales</w>
speci fications</w>
fonctionn er</w>
C all</w>
Ve ter
d ent
wh atever</w>
ath l
fourn itures</w>
K at
suppl ementary</w>
Pr in
thres hold</w>
e ures</w>
erro rs</w>
Bret agne</w>
vac ances</w>
teil en</w>
équi lib
H aï
f i</w>
progres sion</w>
am ong
rough ly</w>
par rain
Ste u
grand ement</w>
Provi de</w>
P ren
fel low</w>
Regul atory</w>
f ant
protég és</w>
pr endra</w>
zer o</w>
univer sel</w>
fo rest
forder ungen</w>
Deutsch land</w>
g est</w>
In tel
re cht</w>
Fil m</w>
dar an</w>
ir ait</w>
b ag
v aut</w>
uni ème</w>
pa tri
Certi fic
me ur
origin ally</w>
défici ence</w>
plat z</w>
buff et</w>
c our</w>
on e
eventu ally</w>
mer k
chap .</w>
Cor ps</w>
ed y</w>
among st</w>
bit te</w>
ai dera</w>
mix ed</w>
lic en
3 rd</w>
dig keit</w>
T OT
grad ing</w>
w ün
net tement</w>
organiz e</w>
accommo date</w>
so gar</w>
A qu
St or
fréqu emment</w>
appréci ation</w>
bio diversity</w>
Govern ance</w>
éc ologiques</w>
character ized</w>
plac é</w>
fer ont</w>
ari ans</w>
M ir
law ful</w>
gel egt</w>
tal ks</w>
prof essions</w>
cro ps</w>
témo in</w>
lab elling</w>
ani um</w>
re ichen</w>
www. ec.gc.ca</w>
mech an
ordin ateurs</w>
mol ec
déc ennie</w>
Repres ent
re ch
b ic
defin ing</w>
ang u
mot eurs</w>
Milli onen</w>
seg ments</w>
sou plesse</w>
Gul f</w>
acces so
Des halb</w>
Tr ad
IM F</w>
wis hed</w>
linguis tic</w>
public ly</w>
sugg éré</w>
He al
P AC</w>
compati bles</w>
ministéri els</w>
Lac s</w>
tour ist</w>
Aus si</w>
respec ting</w>
ash ion</w>
im mobil
contin uation</w>
recogn ised</w>
progressi vement</w>
C ent
k et</w>
urb aines</w>
ie z</w>
PM A</w>
re integration</w>
Gr und</w>
r ag
chro mo
O I
gewä hr
famili ar</w>
Prä sid
dot és</w>
ret ained</w>
ré els</w>
consis ting</w>
te au</w>
0 8
poss éd
sur pris
geograph ic</w>
optim al</w>
B ev
de tection</w>
cor ré
magaz ine</w>
li f
s our
recip ients</w>
ér in
ge fä
ter ri
K or
Di alogue</w>
lä s
É cole</w>
aut és</w>
amend ing</w>
Air lines</w>
15 ,
int ent</w>
G allery</w>
ic ation</w>
éventu elle</w>
Budg etary</w>
meas uring</w>
pré sidents</w>
Er fahr
U ganda</w>
var ie</w>
amélior é</w>
conn aissent</w>
L eur</w>
bact éri
f .
urg es</w>
A venue</w>
él ar
C lin
14 ,
att aque</w>
au spices</w>
Bur k
AD N</w>
environnement al</w>
dis ant</w>
gé nie</w>
prosp érité</w>
Direc tors</w>
Jac ques</w>
Prof essor</w>
rejet é</w>
datab ases</w>
belong ing</w>
sec urities</w>
M ur
Mon etary</w>
différ ent</w>
ch asse</w>
c .-
simil aire</w>
Com pl
c ens
ad hé
G leich
syndic ats</w>
le is
r as
men és</w>
coher ent</w>
r endent</w>
An der
forth coming</w>
te u
intern ally</w>
S N
lac s</w>
zw .</w>
Kin der</w>
p ac
religi eux</w>
prov en</w>
fr agen</w>
pré co
rev ê
min i</w>
b zw.</w>
el eg
D ate
s tic
m acht</w>
fon dés</w>
bo î
Hong rie</w>
biling ual</w>
MIN U
Organ is
p in
W ind
const amment</w>
ste ad</w>
it t</w>
schlä ge</w>
cher che</w>
Requi rements</w>
D un
Mar keting</w>
minis terial</w>
S ites</w>
repor ter</w>
r ating</w>
t ur</w>
hôp ital</w>
bere ich</w>
ück sich
É N
D ok
ten e
hypo thèse</w>
attr active</w>
prati quement</w>
gem acht</w>
W ach
pursu ed</w>
di vor
s oph
t entative</w>
hin aus</w>
renforc é</w>
remplac é</w>
Em ail</w>
Sch utz</w>
ask a</w>
2. 6</w>
dé signe</w>
envis aged</w>
proced ural</w>
et al</w>
R ound</w>
Sub stances</w>
précéd ents</w>
Bibli othèque</w>
minim ale</w>
off en
eff lu
v êtements</w>
M embre</w>
aff ects</w>
negoti ated</w>
esti ment</w>
sch ie
Liber ia</w>
in dem</w>
In n
Euro pas</w>
1 13</w>
remar ks</w>
im plic
e dition</w>
An gl
S em
consul ting</w>
an k
Uni versal</w>
F oc
g ed</w>
acti onn
guid ed</w>
des ired</w>
L it
contin gent</w>
assi mil
réclam ations</w>
S av
le isten</w>
li able</w>
nécess ite</w>
ten ing</w>
aspir ations</w>
alis e</w>
ob tenues</w>
He ads</w>
recueilli es</w>
cep tions</w>
ris h</w>
T ats
P V
t ungs
Dé cide</w>
poll ut
Ro oms</w>
uni form</w>
farm ing</w>
ré nov
ss yst
t ours</w>
serv ants</w>
meaning ful</w>
st off
Part ner</w>
explo it
oly mp
Nouvel les</w>
Som alie</w>
A do
ax és</w>
prosper ity</w>
ke hr</w>
Vi deo</w>
toxic om
install er</w>
susp en
religi euses</w>
Qu elles</w>
pack aging</w>
é tri
R at
n y</w>
A m</w>
appli quant</w>
b ritanni
we ak</w>
enni es</w>
re tention</w>
É E</w>
F aire</w>
mem ory</w>
spon sored</w>
environ mentally</w>
Bo ok</w>
oty pes</w>
offer tes</w>
N &apos;</w>
ass ister</w>
t ants</w>
r ated</w>
Ch eck</w>
lis ation</w>
pho sph
z ahl</w>
G as</w>
regis tres</w>
introdu it</w>
Iraq i</w>
neighbour ing</w>
de viennent</w>
Mitg lie
V ol</w>
G EN
cour ants</w>
Dut ch</w>
im mer
v endre</w>
pre ferred</w>
ac ute</w>
appuy ant</w>
analy tical</w>
haut ement</w>
touch ées</w>
iss ance</w>
ec om</w>
bath room</w>
Pri or
depart ure</w>
journ aux</w>
av or
M t</w>
sto red</w>
o ise</w>
fa itement</w>
pu le</w>
injur ies</w>
7 .1</w>
to il
hn ung</w>
dép ens
mél ange</w>
ro le
pour suivi</w>
H ill</w>
ach èvement</w>
interpre ted</w>
succ essi
colon ies</w>
transi tional</w>
pi eces</w>
situ ées</w>
systé mati
lo v
u si
ré insertion</w>
spon sors</w>
prosp ects</w>
d ens</w>
clu bs</w>
complément aire</w>
12 1</w>
amb igu
D RO
V illa</w>
Medic ine</w>
susp ended</w>
tre at</w>
st at</w>
pro hibition</w>
happ ened</w>
P la
Me asu
Per sp
20 1</w>
ü hr
résul te</w>
Ex am
se es</w>
Capac ity</w>
Biss au</w>
approuv ée</w>
R AP
ak a</w>
ai gu
merc ure</w>
wit nesses</w>
ad j
ou bli
déc ennies</w>
pl ed</w>
off set</w>
for êt</w>
El ections</w>
en zen</w>
tax able</w>
C ateg
ô mes</w>
éto iles</w>
PN UE</w>
res titu
bal ances</w>
emb argo</w>
utili zation</w>
Viol ence</w>
qu ick</w>
advoc acy</w>
Entwick lungs
fer n</w>
oblig atoires</w>
li ge</w>
sw imming</w>
lie ßen</w>
in k
Ho st
D U
const antly</w>
j en
Com prehensive</w>
äm lich</w>
p ili
oblig ed</w>
ven ti
Curr ently</w>
res ort</w>
frau de</w>
favoris ant</w>
cre ates</w>
destroy ed</w>
s omm
Pro tec
is sez</w>
instaur ation</w>
Messi eurs</w>
ti ert</w>
e ply</w>
establis hes</w>
wit ness</w>
par faitement</w>
E ig
fi bres</w>
T itre</w>
9 6
öl k
t omb
multilatér aux</w>
ro ots</w>
insc rites</w>
contin ental</w>
s ons</w>
Dar four</w>
entre pos
ro ck</w>
Fr üh
ran e</w>
zun eh
Le ist
app end
Ge b
caus ing</w>
Deleg ations</w>
purch ased</w>
organis ms</w>
carri ers</w>
it res</w>
vi br
c.- à</w>
wi er
garanti t</w>
Ve hic
prepar atory</w>
egen heit</w>
f rapp
di ed</w>
wor ding</w>
cust ody</w>
incorpor ation</w>
at ori
nég atifs</w>
Dies er</w>
liqui d
m ang
au er</w>
n ämlich</w>
ag isme</w>
sit ue</w>
13 5</w>
polic iers</w>
occid entale</w>
sch affen</w>
Nic aragu
absor ption</w>
Mal i</w>
m â
inst ant</w>
safegu ards</w>
U M</w>
fle et</w>
Ado be</w>
vers és</w>
coû te
bre ach</w>
anci es</w>
engag ée</w>
médi ation</w>
d â</w>
A h
COMM ISSION</w>
m ées</w>
V in
Cre dit</w>
er ai</w>
L ord</w>
é preuve</w>
ze igen</w>
vis ibilité</w>
T EN
développ é</w>
cre w</w>
pol it
neh m
or ney</w>
brau chen</w>
en comp
idé al</w>
exprim ées</w>
adap tés</w>
sy l
ob en</w>
O l
Unser e</w>
w ages</w>
fer mement</w>
superfic ie</w>
attr act</w>
il à</w>
allem and</w>
separ ately</w>
labor atoires</w>
M aria</w>
T our</w>
Mon tene
here by</w>
empris onnement</w>
indemn ités</w>
st an
ro l</w>
ver bun
ad judic
Po s
dou ane</w>
aî nés</w>
a pour</w>
ar ticul
indi ennes</w>
R N
satell ites</w>
set tlements</w>
Ay ant</w>
mus eum</w>
com bien</w>
P AR</w>
re vi
govern ed</w>
enjoy ment</w>
ol l</w>
fisher y</w>
trans it
f a</w>
mobil iser</w>
eb enfalls</w>
électri ques</w>
compl ement</w>
In dependent</w>
unter schied
Pri ority</w>
gar den</w>
Struc ture</w>
Reg istry</w>
quotidi enne</w>
Det ails</w>
eco system</w>
Up date</w>
s aurait</w>
exhausti ve</w>
parti al</w>
S M</w>
gar çons</w>
form ing</w>
Vi el
benefici al</w>
Reg ister</w>
sp here</w>
arri ved</w>
Res p
esti c</w>
affir mant</w>
m ales</w>
Ho c</w>
constat ations</w>
Suppl ément</w>
D eci
n .m.</w>
appu ient</w>
ris quent</w>
v in
procu rer</w>
L C
Sloven ia</w>
Clo sed</w>
r ares</w>
gag ner</w>
Vi ew</w>
än dern</w>
O ld</w>
ed onia</w>
questionn aires</w>
Ju d
refl ecting</w>
Identi fication</w>
comm only</w>
comm it</w>
vo ient</w>
Accoun tability</w>
om a</w>
h ör
On t</w>
hund red</w>
no ise</w>
proj ected</w>
Compag nie</w>
con cré
conven i
D al
ad vise</w>
ad hér
speak er</w>
N ature</w>
nom més</w>
stake holder</w>
F O
A sp
we ar</w>
éventu elles</w>
M arg
Mar k</w>
ih n</w>
Ver hand
compl ementary</w>
arbitr al</w>
I rish</w>
far deau</w>
an thro
re as</w>
intens ité</w>
Mob il
béné fice</w>
Human itarian</w>
Harb our</w>
appro ve</w>
restaur ation</w>
fr is
3 0.
re sumed</w>
Vi et
Ethiop ia</w>
n onc
bre eding</w>
sou ci</w>
Mon ter
reme dy</w>
w th</w>
reco ver
Ko weï
ey e</w>
can al</w>
ap point</w>
R H</w>
m ans</w>
biotechn ologie</w>
att end
deliver ing</w>
schließ lich</w>
MONU C</w>
st ance</w>
se paration</w>
Wh o</w>
soph is
cer em
Mes dames</w>
qu ait</w>
Conse iller</w>
connex ion</w>
Peace keeping</w>
0 7
tr ig
Lond res</w>
Col on
to s</w>
ing rédi
ax ées</w>
z usammen
N OT
péd ago
psych ological</w>
psy chi
dem ographic</w>
An im
représent é</w>
ot en</w>
océ ans</w>
entre vues</w>
ir o</w>
Al ger
In uits</w>
OT TA
opti mi
at us</w>
caus é</w>
sauv etage</w>
pén ales</w>
1 16</w>
T ch
se i</w>
Comp ens
af gh
F our</w>
banc aire</w>
se inem</w>
por tes</w>
diminu er</w>
le tins</w>
concl us</w>
AR D</w>
f ell</w>
retrou ve</w>
eth eless</w>
atte ign
ten ed</w>
sol ve</w>
the tic</w>
b ars</w>
arm y</w>
Burk ina</w>
pregn ancy</w>
form ula</w>
19 68</w>
consac rées</w>
Re affir
volunte ers</w>
in sur
dét ent
Broad casting</w>
D EM
rati fié</w>
le çons</w>
consist ant</w>
att ent
O w
te ile</w>
qualit ative</w>
j eudi</w>
onn ements</w>
W D</w>
ak ia</w>
Pl at
De velop</w>
tre ten</w>
tiss ement</w>
entraî nement</w>
uti ves</w>
produ ite</w>
calcul er</w>
ve ter
Parten ariat</w>
A wards</w>
lib rement</w>
Trav aux</w>
Represent atives</w>
Musi c</w>
st adt</w>
j a
TOT AL</w>
dri vers</w>
OTTA WA</w>
command ant</w>
Qu elle</w>
tra its</w>
pê cheurs</w>
gratu itement</w>
rec all</w>
p rece
Alger ia</w>
pre judice</w>
ref user</w>
ill us
att endant</w>
B ang
ai der
shi pping</w>
end or
will ing
vulner ability</w>
ih m</w>
Pun kt</w>
E bene</w>
pri mor
euro pa
Se k
le aves</w>
reg imes</w>
grati tude</w>
g gl
extr ême</w>
um p</w>
reconn ue</w>
m è
it ors</w>
car go</w>
con tres</w>
fin alement</w>
sch afts
human ity</w>
vi ande</w>
systémati quement</w>
Observ ations</w>
p ne
Sing apo
satis fy</w>
Per u</w>
repe ated</w>
P in
addi tionnels</w>
Gr ün
ret ro
og le</w>
vulnér abilité</w>
re pair</w>
mé mor
hect ares</w>
unterstüt zt</w>
pleas ure</w>
co operative</w>
12 8</w>
protég ées</w>
mi x</w>
main tains</w>
Swe dish</w>
K el
B and</w>
INFORM ATION</w>
fidu cie</w>
assemb ly</w>
tot ally</w>
è se</w>
in ég
constitu tionnelle</w>
ai dent</w>
Man ual</w>
re vient</w>
outre ach</w>
grav ité</w>
dem okrati
trans porteurs</w>
ann ulation</w>
vo iture</w>
correspond ance</w>
Reg ina</w>
Mari time</w>
stu pé
bo ys</w>
s u</w>
inten se</w>
pré servation</w>
ext érieurs</w>
sti g
r is</w>
examin ing</w>
ex positions</w>
prom otes</w>
dis cover</w>
dis covered</w>
al ti
U .
G loss
S CR
it ability</w>
aimer ais</w>
x x
o king</w>
hal te</w>
ti gi
pres sing</w>
gen ic</w>
Ren ew
distribu er</w>
discus sing</w>
N EP
rou ge</w>
b .</w>
der ly</w>
a rest</w>
Pers onen</w>
z el
T E
ali ers</w>
Bre ak
safegu ard</w>
St ad
M ah
concre ts</w>
zu stellen</w>
m ers</w>
g estim
all ons</w>
Fas o</w>
ad her
1 14</w>
Koweï t</w>
stat u
m L</w>
ic op
m am
t ree</w>
inten tions</w>
inform atiques</w>
Legisl ative</w>
Fre i
D M
sich er</w>
link ages</w>
ben so</w>
Gro ß
et own</w>
d est</w>
attribu able</w>
suff er</w>
sug ar</w>
délégu és</w>
march es</w>
in ner</w>
the ory</w>
É douard</w>
where by</w>
ré cent</w>
dar in</w>
eu t</w>
ein igen</w>
y oun
in capacité</w>
indi quée</w>
st abili
Dur ch
approu ve</w>
Franç ais</w>
u l</w>
dot er</w>
zeichn et</w>
y ou
P F
affec té</w>
N ä
ri ère</w>
Public ation</w>
h us
mil k</w>
ambiti ous</w>
in désir
lon gues</w>
in certitude</w>
Regar ding</w>
di ge</w>
Ira k</w>
te te</w>
ver tical</w>
chec ks</w>
législ atifs</w>
ur ance</w>
appel ée</w>
T ake</w>
t al</w>
graph y</w>
ne te</w>
k enn
20 4</w>
médic ales</w>
D rit
accep te</w>
Pal ais</w>
jug és</w>
A ge</w>
dé ment</w>
H S</w>
spo use</w>
mar in</w>
tradi tionnelle</w>
iden tical</w>
he ur
har c
care ful</w>
Agr i</w>
Gro wth</w>
Po verty</w>
set tings</w>
y o</w>
µ g</w>
L au
äch st</w>
Strength ening</w>
Chem ical</w>
re alization</w>
M är
ig ung</w>
Ham il
p av
ro tation</w>
activ ation</w>
vé ni
vers ée</w>
re fu
vig il
accueill i</w>
visi ting</w>
mitig ation</w>
pl a
l .</w>
Auth orities</w>
eri al</w>
autom atic</w>
Pour quoi</w>
b att
Re venu</w>
Mo ts</w>
palestin ienne</w>
qu e
allég ation</w>
motiv ation</w>
Wirtsch aft</w>
stimul er</w>
plac és</w>
M ack
Cap e</w>
z b
cent aines</w>
ind ices</w>
ét age</w>
post al</w>
plan ète</w>
Practi ce</w>
J uli
succ ession</w>
Grou ps</w>
f eux</w>
am eri
Lithu ania</w>
astr onom
vi vement</w>
it te</w>
pre valence</w>
m ac
be ds</w>
O ber
A A
Manufac turing</w>
ä l
S cre
Qu alität</w>
ne vertheless</w>
t es
aci des</w>
st ories</w>
aff ord
B él
Tel ecommunications</w>
con tenues</w>
str ai
degrad ation</w>
in aug
compo unds</w>
t z
willing ness</w>
Pro jets</w>
1 17</w>
6 6
rap ides</w>
graph ic</w>
Fr ont</w>
corpo rel
ti ll
igh ted</w>
pe er</w>
wis hing</w>
Azerb aïd
AS E</w>
déc entr
sti pule</w>
éc arts</w>
autoris ées</w>
exce eding</w>
tél .</w>
fermet ure</w>
me isten</w>
Recommand ations</w>
Pl an
stän dig</w>
Sub committee</w>
Procu rement</w>
Di eu</w>
e ously</w>
7. 2</w>
Premi èrement</w>
po le</w>
G ib
omm age</w>
légi time</w>
for tes</w>
Aus sprache</w>
k tionen</w>
op hy
Trans par
posi um</w>
veri fy</w>
Ter ms</w>
certific ats</w>
vi de
bo x
N ep
UNID O</w>
C it
Accoun ts</w>
li ved</w>
simpli fication</w>
immédi ate</w>
f ashion</w>
en ophob
O IT</w>
an ks</w>
Char l
détermin és</w>
impos ent</w>
sur faces</w>
Pol ici
in n</w>
def ault</w>
citoy en</w>
Dani el</w>
a ñ
provis oires</w>
US T</w>
T exte</w>
arbe itet</w>
minim ize</w>
fin ished</w>
dé passer</w>
ré p
Pro posed</w>
tab agisme</w>
p ace</w>
ent um</w>
sp aces</w>
ajust ement</w>
at tenti
classi ques</w>
F alls</w>
privil eg
Gr ants</w>
inten d</w>
tex tile</w>
acces sibility</w>
terr ains</w>
aéri ennes</w>
oc op
Singapo re</w>
Im mun
enz ie</w>
hund reds</w>
circul ated</w>
der zeit</w>
énergé tiques</w>
teach er</w>
ge geben</w>
Mal heureusement</w>
c tu
d ying</w>
Sch i
R ad
por tera</w>
Montene gro</w>
D re
él ég
sexu elles</w>
investig ated</w>
ger ade</w>
S her
Haï ti</w>
F ish</w>
r adic
ran k
Stat ements</w>
fr action</w>
Ex press</w>
pos ées</w>
po t
touch ent</w>
pu p
Jah rh
G rup
religi ons</w>
6. 3</w>
W OR
reven ir</w>
be ispi
Malay sia</w>
ge br
délibér ations</w>
oun ce</w>
dé partement</w>
y pe</w>
maxim al</w>
Jahrh under
B ag
mark et
int érieures</w>
gradu ate</w>
C A
ré adaptation</w>
échantill onnage</w>
T OR
l akes</w>
deb ates</w>
Instr ument</w>
dür fen</w>
iz es</w>
st ro
accep tables</w>
certific ates</w>
re voir</w>
Com man
audio visu
ges etzt</w>
sc ore</w>
B ad
ester day</w>
hear ings</w>
re mun
Ste ering</w>
S H</w>
s c</w>
fir m
ur ies</w>
Oce an</w>
mat ur
Mo vement</w>
pro chen</w>
effici ently</w>
inform és</w>
IG H
s aine</w>
probl é
hé bergement</w>
iss ements</w>
constitu ted</w>
Q atar</w>
all gem
wend et</w>
bound aries</w>
N L</w>
gol f</w>
uni ques</w>
Go ogle</w>
oxy de</w>
Eff ects</w>
pho sp
dr uck</w>
achev é</w>
Spec ies</w>
prot ocols</w>
correc tly</w>
v itr
S K</w>
c ession</w>
main streaming</w>
Polici es</w>
Qu els</w>
demand ent</w>
pr ête</w>
ch ung</w>
high lights</w>
O P</w>
Accoun t</w>
geb ung</w>
T own</w>
eng ine
contract antes</w>
join ts</w>
Direc tives</w>
Azerbaïd jan</w>
Objecti f</w>
st ering</w>
Johann es
Bo dy</w>
red ress
J ew
disciplin aire</w>
respec te</w>
parti tion</w>
Dig ital</w>
glau be</w>
inf ected</w>
gen au</w>
ati cs</w>
ech ten
Médi ateur</w>
bo at</w>
Inv ent
reç ue</w>
be ings</w>
ren contrer</w>
entsche id
id a</w>
pour tant</w>
compt abil
compl ément</w>
Mech anis
agre es</w>
n ichts</w>
el ectron
frequ ent</w>
gl ass</w>
arrê ter</w>
Sau di</w>
con fort</w>
P ati
correc tions</w>
Rou ge</w>
provi ennent</w>
re jet</w>
dem ain</w>
C are
In stead</w>
unil atér
ell o</w>
libell é</w>
G am
contamin ated</w>
NEP AD</w>
Dis cussion</w>
do ors</w>
er ion</w>
Hamil ton</w>
im men
Op in
exclu ding</w>
trans national</w>
k einen</w>
Compens ation</w>
practition ers</w>
Fri ed
caract ères</w>
Proc essus</w>
merc ury</w>
dec entr
aqu atic</w>
je den</w>
furn iture</w>
G eg
autoris ations</w>
struc tured</w>
C ur
Offic ers</w>
harc èlement</w>
proce eding</w>
gov .
P EN
vacc ine</w>
dens ity</w>
di en
B E</w>
communi quées</w>
am mon
mark t</w>
discre tion</w>
N ON</w>
pétro li
rich es</w>
an ony
at or
éman ant</w>
16 ,
0, 00</w>
on des</w>
K O</w>
Mc G
ver ständ
ih rem</w>
Nicaragu a</w>
bénéfic ie</w>
role um</w>
Produ its</w>
gouverne ur</w>
ch loro
p in</w>
tat s
h auss
Ch er
Mi gration</w>
Mo ham
cons ist</w>
V on</w>
cam era</w>
publi er</w>
K al
accue ille</w>
pl ates</w>
hygi ène</w>
B U
mom ents</w>
hydro carb
soll en</w>
St art</w>
ni er</w>
Refuge es</w>
inform el</w>
Oper ating</w>
micro bi
Steph en</w>
Sch engen</w>
zus ätz
Ab stimmung</w>
manufac tured</w>
cu b
broad cas
la undering</w>
trav elling</w>
k it</w>
Las tly</w>
R I</w>
stru gg
so ir</w>
b arg
si f</w>
br is</w>
ish ments</w>
for ts</w>
is ting</w>
H E
Mem orandum</w>
compét ent</w>
E arly</w>
h em
ent ôt</w>
ac knowledge</w>
construc ted</w>
cohér ente</w>
week ly</w>
détaill és</w>
quali fy</w>
f aster</w>
réun ir</w>
res sive</w>
noti fy</w>
Sat ur
Ben ut
of t</w>
5 3
Ac tual</w>
es seurs</w>
sou mission</w>
Tal ib
S ix</w>
ne z</w>
gross esse</w>
pe au</w>
dan ken</w>
D onnées</w>
ex on
V it
V EL
her r
H ave</w>
dis played</w>
Gemein schaft</w>
fluctu ations</w>
pri e</w>
spir itu
Ges ellschaft</w>
b ann
ch ief</w>
adéqu at</w>
pl ane</w>
Besch äf
. int</w>
consul té</w>
constitu ée</w>
journ alistes</w>
Li echten
dot é</w>
ans wer
persist ent</w>
is ement</w>
Wach st
o sis</w>
ex tin
diplom atique</w>
produc teur</w>
al bum</w>
For tsch
C alls</w>
occup ant</w>
d ar</w>
li g</w>
autor ise</w>
2 ,000</w>
respect ent</w>
EC TI
lad ite</w>
he ating</w>
Afgh an</w>
weiter hin</w>
s és</w>
R PP</w>
C eux</w>
re prendre</w>
electr ical</w>
neh mer</w>
dé mon
S emin
az ote</w>
Au ditor</w>
ch oc
x én
fri end</w>
inter gouvernemental</w>
DA W</w>
ret omb
ambi que</w>
ci a</w>
p ont</w>
G E
ä ren</w>
comm é
CH R</w>
dens ité</w>
attr actions</w>
Cre ek</w>
g in</w>
T R</w>
ul timate</w>
fores try</w>
biblioth èques</w>
Indus tries</w>
Jord an</w>
Rech te</w>
AI S</w>
Destin ation</w>
mand ated</w>
avanc ées</w>
dess ins</w>
mo thers</w>
e ums</w>
Ver y</w>
détermin ées</w>
dest ro
mutu elle</w>
fre und
tack le</w>
H A</w>
dur abilité</w>
Ni veau</w>
salari és</w>
a ero
proce eds</w>
val or
ech es</w>
c es
us ées</w>
eg al</w>
iss ensch
prononc er</w>
peri o
Johannes burg</w>
fe hl
av a</w>
fer ti
conn ections</w>
threat ened</w>
N ord
em y</w>
au tr
e o</w>
17 ,
en tion</w>
17 0</w>
dg ing</w>
E co
f lights</w>
c élè
spécialis ée</w>
ou vre</w>
dirig é</w>
gesch lossen</w>
C ard</w>
testi mon
insc rite</w>
B P</w>
thé âtre</w>
observ ateur</w>
zusam men</w>
sanc tion</w>
gr up
coher ence</w>
6 8
me d
lic ense</w>
kl ar</w>
judici ary</w>
5. 4</w>
h ex
préal ables</w>
isol ation</w>
fe eding</w>
chauff age</w>
Eth ics</w>
aci ous</w>
ll t</w>
symbo l</w>
form ally</w>
me ters</w>
Trav ail</w>
banc aires</w>
aliné as</w>
direc tes</w>
b are</w>
fä l
gl ace</w>
vér itablement</w>
es tri
Au ditors</w>
consult atifs</w>
o ks</w>
ag isse</w>
Moz ambique</w>
Liechten stein</w>
institu ts</w>
fre ely</w>
anci er</w>
ich ten</w>
combus tible</w>
p en</w>
num ériques</w>
Ex hibit</w>
B at
12 4</w>
im mt</w>
contr actual</w>
1 18</w>
H OM
harmon ization</w>
k us
apart ments</w>
AF C</w>
tin y</w>
en voi</w>
min ors</w>
manifest ation</w>
benefici aries</w>
in compatible</w>
quanti ties</w>
clam ation</w>
pens ons</w>
temper atures</w>
éch ec</w>
Or t</w>
s ée</w>
O x
Inter est</w>
h as
No ting</w>
design ation</w>
ot ro
commod ity</w>
stupé fiants</w>
w ave</w>
Palestin iens</w>
arrest ed</w>
s and
ge ur</w>
Op tion</w>
rest oration</w>
vis as</w>
vas tes</w>
H ou
Inter im</w>
ser s</w>
in validité</w>
he ight</w>
re iche</w>
contribu era</w>
command ement</w>
T w
norm alisation</w>
ik istan</w>
san itaire</w>
Amend ments</w>
ab str
entre vue</w>
De bat
al g
establis hments</w>
M ai</w>
12 7</w>
Practi ces</w>
fer t</w>
br ut
E quality</w>
Europe ans</w>
rap atri
gestim mt</w>
r ain</w>
cer ner</w>
contac ter</w>
ter ia</w>
ne aux</w>
diff er</w>
appel er</w>
har assment</w>
refus é</w>
H az
ich tet</w>
il st</w>
ei lig
b aren</w>
palestin iens</w>
rest ore</w>
h o</w>
r ental</w>
c ann
K li
Deci des</w>
St atistical</w>
prélimin aires</w>
So zial
Um wel
fisc aux</w>
Pl en
é changer</w>
H ot
en tic
virtu ally</w>
ne ar
R P</w>
fig urer</w>
b aie</w>
Pro t
be trifft</w>
Whe ther</w>
mu sul
ab ri</w>
rou tine</w>
juven ile</w>
wür den</w>
H ousing</w>
foc al</w>
Prés entation</w>
gradu ally</w>
phys icians</w>
es a</w>
célé br
ai g
Prai ries</w>
Ur ban</w>
ord res</w>
facil ité</w>
pré férence</w>
ti rées</w>
visi onal</w>
mobi les</w>
L AN
fum eurs</w>
N F
la v</w>
dét ach
subven tionn
s én
bet re
cons éc
u vi
ben ö
coff ee</w>
N am</w>
AC TI
insol vabilité</w>
ro c
13 8</w>
sch aft
ho ch
Noti ces</w>
con vers
appar ition</w>
bas é</w>
C SC</w>
ext ending</w>
stor es</w>
produ ces</w>
Ko sten</w>
stric tly</w>
[...]
