the 86545454
, 73145551
. 71564981
of 54261369
and 43462684
to 38804745
in 27475846
a 25294830
is 15780341
for 13728300
that 13334217
@-@ 13219190
on 12171059
I 12150157
The 11089711
you 11033207
with 9426200
&apos;s 9260256
&quot; 9206379
be 7886423
it 7798799
as 7286844
are 7162679
by 6860571
was 6558502
? 6229362
have 5843293
) 5833238
( 5794241
not 5289220
this 5067816
at 5014693
from 4966219
or 4738980
: 4442996
an 4426688
; 4201528
will 4149881
can 4116987
has 4059654
we 3588666
&apos;t 3576404
all 3462058
your 3287189
its 3254519
which 3201425
he 3194438
their 3083170
It 2950995
one 2863587
were 2850743
In 2809872
me 2775602
but 2772228
his 2732688
my 2732319
they 2680824
more 2653659
been 2572833
had 2519090
- 2476035
also 2450753
up 2418154
out 2367077
You 2358164
do 2353503
about 2307291
time 2303962
/ 2214363
A 2147633
so 2134011
! 2126858
other 2122452
would 2088370
people 2005290
there 1997500
We 1990886
like 1982019
our 1906094
what 1880050
said 1872835
should 1865587
This 1852564
who 1852271
into 1843366
her 1805918
new 1769174
And 1749698
He 1747558
when 1707511
&apos; 1706141
United 1688341
some 1652758
them 1636674
if 1625803
than 1619110
no 1615562
know 1609554
system 1600305
development 1588412
two 1538950
just 1529501
work 1521295
China 1500775
only 1483139
such 1467386
But 1427055
him 1414123
&apos;re 1357464
first 1350002
us 1313810
she 1306333
&apos;m 1302620
could 1299471
get 1281422
make 1281012
Nations 1256863
between 1247727
over 1234428
very 1227686
well 1227405
made 1212140
may 1209266
any 1205586
years 1204666
good 1203492
don 1203201
... 1198825
right 1198417
through 1179636
international 1172024
now 1167302
these 1165226
year 1163275
how 1154774
see 1146377
world 1140654
most 1134683
need 1133142
under 1130477
countries 1129999
go 1118190
after 1117485
use 1111938
take 1106042
States 1101389
If 1099345
way 1098420
many 1097173
want 1092632
high 1088415
life 1085944
What 1028253
those 1022886
information 1022608
General 1010608
Committee 1007803
think 1004718
used 997876
here 990514
1 967800
They 957188
because 956171
To 932613
day 932364
then 922111
must 915058
Chinese 904454
back 900848
&apos;ll 900583
including 897809
That 878233
support 861328
long 858405
where 856721
country 854307
2 851096
important 844459
before 843475
process 841288
report 834431
There 830882
man 830131
did 824027
women 821126
much 819272
based 812161
three 811954
As 806625
being 805607
even 790278
Council 790205
She 783755
different 780131
So 776439
still 773411
down 770896
national 762584
same 759440
number 758768
water 746982
love 745632
children 742256
part 738213
shall 736560
s 735681
order 730706
say 728204
come 723179
3 719997
against 719680
method 718193
control 710765
human 709554
got 706560
economic 704553
too 703652
level 703139
last 698573
management 696505
each 696346
going 691319
help 688064
un@@ 685511
When 684725
during 684146
both 683933
&apos;ve 683833
law 679664
paper 677741
data 672522
Mr. 671591
off 665557
$ 660844
study 659971
% 656076
own 655150
For 651861
public 650622
State 650517
i 649942
am 649756
per 641116
set 627679
little 624457
great 623993
Government 619467
activities 617891
security 615098
really 612631
give 608051
while 606613
place 603124
never 600382
rights 598484
On 597891
No 597647
end 597372
social 596203
market 593475
old 588558
every 585969
better 585424
resolution 583065
At 581963
find 581677
business 580655
put 575122
always 573479
provide 572526
without 570020
implementation 566099
technology 565813
government 562692
company 562625
re@@ 561933
power 555305
around 550902
able 547890
group 547711
financial 547147
design 546679
non 545760
10 545199
home 544815
research 542625
best 541528
quality 541475
4 540381
change 538442
let 535485
within 533473
something 532919
found 530930
education 530286
5 527473
meeting 524851
does 522519
resources 519760
using 519301
How 519235
small 518906
things 518389
S@@ 517591
look 516566
T@@ 515362
analysis 513639
area 511229
in@@ 506076
results 505235
model 503868
Secretary 503474
services 503226
International 501367
All 499799
health 497600
New 495060
Assembly 494930
measures 493932
become 492691
since 491993
family 491183
further 488983
case 488641
Development 486248
party 483092
person 482639
working 480508
service 480398
period 479108
another 478475
school 476229
o 475221
My 472140
D@@ 471946
cooperation 471059
next 470238
called 468492
again 466621
B@@ 464816
areas 462407
-- 462017
full 461832
might 460607
session 460601
related 460318
efforts 460131
Commission 459922
effect 459628
among 458950
second 458926
article 454155
problem 453683
away 451882
tell 450117
special 450097
P@@ 449781
application 449042
present 448525
members 446815
field 446155
Well 444671
state 443414
means 440147
money 439155
policy 437982
large 436215
less 435732
With 434935
future 434803
issues 434113
point 430950
local 429769
products 429508
food 428036
kind 426052
together 425513
thing 425191
days 425077
Convention 424889
few 424691
making 424516
following 424482
developing 423408
C@@ 421758
situation 420555
organizations 420109
political 418987
6 418156
body 417841
show 417526
building 417357
students 417343
main 417088
value 416884
role 416706
million 416693
rate 416203
says 414503
provided 411484
why 410899
today 410064
line 410051
G@@ 409108
&apos;d 408945
M@@ 408858
One 407791
training 407436
regional 407228
men 406299
Study 406032
held 405569
project 405152
ensure 405064
real 404738
low 404015
b 402391
L@@ 401961
problems 401617
taken 401468
cent 401301
thought 400409
current 399512
light 399024
decision 398565
feel 398484
Do 397740
production 397145
H@@ 396465
didn 396213
c 395754
name 395265
possible 394904
Security 394864
God 394053
view 393799
effective 393791
cases 392713
energy 392370
structure 391091
Group 390662
needs 390456
action 389297
often 387412
global 386365
increase 386168
Oh 385811
big 384899
However 384851
community 384458
lot 384055
industry 384051
form 383454
four 383239
trade 382510
city 382091
President 381064
programme 380433
given 379317
growth 379142
N@@ 378784
night 377651
already 377293
age 377123
land 376219
relevant 375729
came 375633
F@@ 375621
continue 372250
free 371803
care 371690
hand 371460
keep 371210
A@@ 371122
course 371121
e 370760
environment 370644
key 370483
result 369674
developed 369261
general 369092
house 368480
left 367633
call 366898
Now 365685
staff 365630
particular 364800
play 364606
performance 363950
whole 362113
peace 362057
heart 361750
gonna 361035
20 360415
open 359241
five 358790
ate 358599
term 358245
major 357320
protection 357228
took 356601
space 356335
told 355964
English 355674
face 355349
R@@ 355230
s@@ 354000
treatment 353966
plan 353470
experience 353468
K@@ 353038
various 352944
example 352745
basis 352544
30 352031
legal 350503
These 349745
t 349100
improve 348483
doing 347746
foreign 347628
past 347534
ever 343698
believe 343522
child 342944
7 342808
capacity 342494
Research 341704
whether 341401
far 341114
society 337589
air 337397
mean 337353
room 337279
according 337101
progress 336946
er 336883
y@@ 336560
established 336547
above 336143
After 335933
assistance 335712
done 335620
d 334941
economy 333416
went 332712
test 332555
access 332389
draft 331969
necessary 331004
hard 330406
side 329904
t@@ 328722
fact 328396
times 328344
8 327951
Republic 327897
region 327505
upon 327197
others 326572
live 326458
several 326341
Then 326125
d@@ 325524
conditions 324472
cost 323796
An 323724
Conference 323664
k@@ 323551
meet 323366
attention 322525
early 321973
least 321608
es 319840
15 319713
ing 319283
systems 318856
proposed 318158
job 318030
type 317020
&amp; 316475
His 316210
young 315987
Why 315538
review 315435
self 315057
&#91; 314559
12 314207
include 313953
paragraph 313910
common 313821
e@@ 313694
E@@ 313621
issue 313373
team 313306
risk 313200
matter 312582
Yeah 312010
especially 311918
groups 311684
American 310672
question 310619
head 310235
South 309967
total 309721
Some 309688
specific 309627
.@@ 308740
&#93; 308088
World 307810
military 307655
construction 306265
once 305312
technical 304881
Is 302836
o@@ 302309
higher 301189
pay 301108
enough 300912
operation 300573
parties 300417
taking 300406
respect 300133
having 298200
hope 297437
al@@ 297077
ability 297061
al 296189
National 295705
oil 295595
ed 295302
strong 295142
m 294953
forward 294816
week 294726
mind 294619
network 294478
until 294044
Office 293817
start 293757
available 293675
Article 292982
l 292379
won 292220
sure 291371
force 290814
please 290141
programmes 289769
p 289272
n@@ 289068
Special 288840
System 288804
Let 288634
&apos;@@ 287619
an@@ 287550
addition 286724
culture 286112
function 285785
months 284925
methods 284567
adopted 284482
W@@ 283454
friends 283277
levels 281599
yet 281475
recent 281228
account 280316
theory 280294
p@@ 280002
practice 279973
police 279927
bring 279798
material 279721
makes 279255
America 278870
patients 278668
living 277794
mother 277327
words 277093
y 276903
persons 276863
b@@ 276582
third 276410
cannot 276092
understand 275779
position 275753
I@@ 275703
ers 275432
son 274377
office 274213
car 273696
9 273557
investment 273233
talk 273224
companies 271354
knowledge 270834
regard 270589
Don 270523
try 270356
ated 270052
Based 269870
ation 269821
approach 269568
basic 268265
changes 267772
seen 267234
address 267011
leave 266934
g@@ 266823
class 266751
Analysis 266586
language 265936
private 265901
history 265003
clear 264498
anything 264318
dis@@ 263908
known 263799
accordance 263274
Africa 263042
looking 263034
required 262613
certain 262606
Because 262450
reports 262442
father 262415
11 261749
impact 261326
natural 261288
Hong 261198
product 260852
requirements 260778
half 259903
single 258697
due 258583
asked 258297
red 257914
European 257859
increased 256938
m@@ 256915
nothing 256735
University 256661
considered 256050
ago 255894
i@@ 255621
equipment 255285
price 255196
top 253334
O@@ 253241
projects 252485
By 252280
close 251667
nuclear 251329
People 251275
May 251211
c@@ 250991
promote 250841
later 250549
led 250539
traditional 249924
relationship 249285
fully 249197
run 249096
2005 248384
someone 248301
l@@ 248224
woman 248224
amount 248167
short 248065
book 247640
Our 246907
interest 246762
institutions 246722
Your 246475
pressure 246466
property 246383
2008 245845
appropriate 245818
f@@ 245639
Yes 244965
everything 244694
Beijing 244551
along 244212
saw 244005
policies 243993
idea 243820
V@@ 243568
effects 243527
Kong 243492
US 242881
ask 242518
Mr 242310
war 241675
month 241130
develop 240826
December 240528
population 239901
hours 239037
rules 237649
cause 237647
importance 237533
en@@ 237214
terms 236535
bad 235846
mechanism 235842
on@@ 235778
g 235633
particularly 235187
2006 234626
concerned 234082
w@@ 233986
Department 233787
death 233554
significant 233214
ways 233088
Objective 231910
coming 231554
difficult 231404
In@@ 231169
content 230994
provides 230066
however 229979
create 229563
friend 229562
art 229131
domestic 229067
six 228781
June 228512
materials 228175
sector 228162
read 227812
Organization 227622
nature 227554
received 227366
subject 227299
er@@ 227218
safety 227202
move 227018
Can 226872
factors 226671
doesn 226421
Please 226396
14 226006
capital 225525
turn 225243
happy 224992
member 224611
response 224362
2000 224333
computer 224257
wanted 224217
2007 224174
stop 224063
status 223975
eyes 223540
soon 223520
budget 223073
2004 222989
lead 222721
existing 222633
focus 222632
reason 222301
organization 222115
18 221950
game 221898
ch@@ 221853
though 221724
towards 221132
operations 221031
ating 220755
environmental 220540
learn 220490
outside 220303
share 220278
principle 220209
recommendations 219516
strategy 219169
blood 218947
post 218748
percent 218532
follow 218451
J@@ 218163
yourself 218154
Law 217845
cultural 217778
word 217754
true 217361
r@@ 217229
actually 217174
16 216707
conflict 216435
deal 216022
Just 215245
High 215013
u 214863
characteristics 214660
While 214578
k 214496
parents 214417
potential 214284
morning 214064
needed 214053
girl 213925
table 213642
media 213606
African 213603
Member 213166
list 212759
activity 212734
communication 212647
across 212560
wish 211880
rather 211604
reform 211586
Economic 211357
trying 211180
gas 211107
13 210479
civil 210419
easy 210193
temperature 210021
beautiful 209846
almost 209665
simple 209436
Where 208981
Board 208734
introduced 208562
surface 208199
B 208160
provisions 208030
planning 207928
step 207483
fire 207310
consider 207224
a@@ 207174
heard 207104
date 206969
stay 206888
h@@ 206868
lower 206861
at@@ 206539
framework 205652
gave 205432
reported 205426
serious 205387
learning 205383
points 205236
return 205170
costs 204944
source 204751
lost 204695
stage 204488
white 204481
mainly 204357
July 204168
getting 204130
Social 204101
standard 203912
Programme 203417
gender 203354
hold 203265
road 203229
therefore 203110
Japan 202844
comes 202824
en 202591
works 202408
decided 201856
ar@@ 201845
late 201658
sustainable 201647
is@@ 201218
n 201177
2003 200696
range 200674
responsibility 200613
continued 200595
According 200417
authorities 199897
2001 199890
modern 199776
Europe 199544
designed 199493
flow 199061
Application 198990
noted 198905
teaching 198701
medical 198538
25 198449
2009 198354
50 197526
agreed 197286
parts 197285
shows 197151
hear 197119
additional 197024
music 196995
am@@ 196979
eat 196743
expected 196679
positive 196577
it@@ 196415
2002 196317
income 196316
build 195680
started 195659
brought 195573
etc 195567
exchange 195350
individual 194883
comprehensive 194517
buy 194437
bank 194369
Human 193985
es@@ 193747
standards 193418
di@@ 192763
news 192631
achieve 192597
agreement 192421
sense 192410
violence 191843
consideration 191823
Union 191653
scale 191624
From 191443
Are 191412
series 191287
themselves 191283
longer 191199
meetings 190840
forces 190754
moment 190752
Asia 190714
image 190678
note 190348
reduce 190177
presented 190121
understanding 190011
f 189901
workers 189889
im@@ 189807
statement 189763
or@@ 189723
ground 189705
monitoring 189411
speed 189352
hhhh@@ 189342
distribution 189278
purpose 188949
influence 188893
poor 188202
agenda 187734
central 187550
Not 187487
j@@ 186930
supply 186847
section 186818
rule 186676
thinking 186673
itself 186481
17 186422
wife 186330
opportunity 186085
efficiency 185771
Y@@ 185433
story 185232
st@@ 185118
Rights 184904
program 184821
software 184770
2010 184658
personnel 184317
demand 184250
front 183860
lives 183696
poverty 183638
rest 183503
as@@ 183416
billion 183409
Parties 183364
Since 183145
document 183043
included 183027
met 182919
bodies 182724
4@@ 182605
involved 182583
bit 182436
City 182028
21 181946
plans 181936
size 181884
questions 181874
item 181813
either 181539
enterprises 181535
concern 181405
sub@@ 181363
East 181155
funds 181000
disease 180939
v@@ 180937
request 180877
Management 180711
everyone 180589
saying 180548
100 180532
carried 180492
24 180439
Women 180425
door 180322
professional 179771
solution 179451
showed 179331
During 179301
delegation 179275
September 179107
similar 179009
discussed 178892
personal 178864
behind 178858
Of 178837
ic 178830
wrong 178617
remember 178494
establishment 178318
over@@ 178300
machine 178077
quite 178058
near 178047
participation 177788
Its 177664
administrative 177664
act 177618
site 177538
context 177536
ine 177173
First 176984
March 176808
S 176570
u@@ 176487
else 176403
complete 176402
science 176266
Z@@ 176050
began 175834
lack 175628
active 175542
cut 175390
evaluation 175383
-@@ 175322
applied 175150
Working 175012
sea 174981
likely 174881
Court 174479
joint 174334
alone 174249
strengthen 174014
z@@ 173733
establish 173366
greater 172970
studies 172864
phone 172736
th@@ 172621
increasing 172609
success 172452
de@@ 172342
inside 172319
the@@ 172291
responsible 172282
Okay 172227
physical 172149
studied 171932
cell 171757
principles 171637
usually 171569
direct 171461
ant 171408
ab@@ 171399
deep 171253
code 171142
weapons 171048
base 171033
Re@@ 170967
5@@ 170928
ts 170887
expressed 170856
ro@@ 170726
Many 170425
agencies 170414
ting 170357
goods 170114
wide 169951
North 169772
transfer 169443
19 169398
official 169373
sound 169085
visit 168910
functions 168726
co 168722
offer 168689
de 168651
bed 168479
Who 168472
phase 168383
fine 168191
limited 167895
former 167643
ready 167572
directly 167531
king 167530
October 167167
sent 167150
strength 167064
stability 166975
crisis 166935
processing 166806
ic@@ 166514
Shanghai 166150
final 165988
takes 165870
cells 165717
evidence 165289
Design 165194
enterprise 165173
re 165038
implement 164932
anti 164843
Fund 164648
annual 164584
providing 164504
hands 164287
laws 164276
became 164219
C 164047
condition 163989
April 163736
average 163706
22 163695
black 163690
ag@@ 163631
online 163614
boy 163465
h 163397
thus 163346
challenges 163218
November 162972
protect 162911
caused 162721
primary 162688
cold 162653
ates 162605
himself 162527
prevent 162407
text 161999
January 161531
author 161310
sorry 161179
York 161103
relations 160605
loss 160603
officials 160456
minutes 160405
assessment 160256
whose 160224
representative 160213
ac@@ 159921
court 159822
core 159819
um 159693
china 159650
procedures 159566
mission 159516
tax 159458
added 159180
below 159175
31 159117
el@@ 158746
internal 158652
allow 158552
fall 158531
U@@ 158430
Hey 158097
overall 158040
normal 158022
rural 158009
r 157939
kinds 157729
Technology 157627
film 157443
actions 157342
E 157142
administration 156821
forms 156651
hot 156440
carry 156304
compared 156301
previous 156154
growing 155990
customers 155820
humanitarian 155764
Information 155562
board 155540
prepared 155525
concept 155504
dead 155417
os@@ 155274
40 154752
types 154736
inter@@ 154674
knew 154593
guy 154367
complex 154305
isn 154155
ted 154078
3@@ 153972
ad@@ 153945
prices 153907
difference 153836
ol@@ 153826
elements 153706
submitted 153540
sales 153449
letter 153444
Israel 153283
win 153191
23 153149
ones 153076
style 153019
middle 152915
seems 152862
created 152807
contract 152503
event 152441
Although 152374
improved 152274
arms 152216
fast 152195
essential 151954
pre@@ 151930
Look 151639
green 151525
ti@@ 151493
Bank 151479
criminal 151157
regular 150897
girls 150857
x 150823
benefits 150312
includes 150263
century 150196
Service 150084
armed 150054
rich 149969
industrial 149661
speak 149566
president 149175
travel 149131
rates 149082
Even 148874
1999 148763
color 148716
concerning 148644
aspects 148496
baby 148455
enhance 148370
co@@ 148117
probably 148116
degree 148022
goal 147939
plant 147899
leading 147782
safe 147720
answer 147709
steps 147648
exercise 147419
reference 147391
applications 147373
unit 147344
paid 147222
2011 147140
_ 147075
teacher 147057
op@@ 147028
Ministry 146979
Secretariat 146887
opportunities 146516
Lord 146368
stand 146363
check 146286
practical 146214
legislation 146147
le 146107
ar 146089
myself 146012
target 145887
employment 145834
heat 145775
ap@@ 145770
algorithm 145731
justice 145720
built 145673
benefit 145556
ations 145518
Two 145516
documents 145185
Action 145122
reach 145042
Here 145013
Come 144830
beginning 144817
cross 144775
happened 144685
affected 144672
looked 144509
round 144469
talking 144318
scientific 144279
stress 144244
running 144217
features 144208
balance 144155
contained 144096
wants 144057
v 144031
Therefore 143784
recently 143732
earth 143659
skills 143423
credit 143395
representatives 143369
urban 143343
interests 142952
chance 142803
remain 142555
India 142380
reporting 142290
and@@ 142229
independent 142168
crime 142163
original 142014
Governments 141992
coordination 141965
decisions 141910
practices 141780
requested 141595
markets 141549
Central 141328
uses 141282
procedure 141234
schools 141206
provision 141160
town 140974
competition 140936
ten 140837
apply 140523
states 140514
contact 140505
resource 140409
reduction 140312
regions 140211
advanced 140179
P 140031
mechanisms 139769
department 139616
multi 139472
killed 139215
connection 139120
damage 139095
60 139042
enjoy 139040
ul@@ 138929
unique 138900
events 138816
issued 138644
Internet 138606
successful 138474
fight 138418
send 138380
Education 138142
felt 137954
record 137900
weight 137862
gone 137860
regarding 137747
discussion 137622
expression 137567
Mission 137304
ly 137278
II 137077
written 136787
user 136686
D 136651
steel 136617
strategic 136596
6@@ 136562
sometimes 136518
weeks 136189
ous 136139
trust 136013
currently 136010
spirit 135975
processes 135960
mine 135921
chemical 135880
effort 135809
properties 135660
relating 135579
goes 135514
die 135505
critical 135465
conduct 135240
remains 135231
climate 135215
choice 135204
wall 135005
cover 134601
hour 134546
insurance 134425
leaders 134423
Sh@@ 134394
feeling 134290
factor 134287
ing@@ 134266
changed 134189
skin 134163
als 134121
charge 134028
ia 133998
device 133915
center 133833
Did 133813
facilities 133808
commercial 133804
card 133726
quickly 133652
reasons 133646
Party 133600
26 133536
break 133348
rise 133058
books 133039
ice 132999
be@@ 132938
drug 132926
wait 132898
experts 132868
Most 132798
em@@ 132755
effectively 132728
task 132678
writing 132585
avoid 132497
goals 132462
28 132160
fish 132057
shown 131947
commitment 131926
analyzed 131860
Under 131836
con@@ 131836
Affairs 131769
box 131517
walk 131481
technique 131429
looks 131419
Have 131416
write 131247
sh@@ 131167
integrated 130906
perfect 130829
entitled 130780
ator 130618
se@@ 130545
2012 130481
wind 130473
August 130422
Province 130299
ec@@ 130218
le@@ 130217
supported 130149
An@@ 129929
turned 129745
reading 129600
users 129540
Methods 129524
mandate 129512
seven 129393
reached 129378
om@@ 129330
sleep 129322
priority 129120
conducted 129105
prevention 129035
associated 129020
to@@ 128971
widely 128914
Control 128890
families 128807
direction 128684
hit 128564
Ms. 128428
strategies 128337
tried 128318
27 128310
conference 128281
born 128234
choose 128177
tree 128163
truth 128017
per@@ 127995
largest 127989
7@@ 127937
authority 127920
dynamic 127898
file 127669
character 127483
places 127401
dream 127392
fields 127362
ot@@ 127351
floor 127307
ent 127263
sp@@ 127209
ad 127038
Japanese 127014
partners 126973
governmental 126795
anyone 126716
entire 126587
French 126519
Korea 126510
U.S. 126488
Executive 126210
described 126105
okay 126077
Al@@ 125990
regulations 125959
el 125934
strengthening 125932
nice 125833
station 125797
soil 125769
ings 125748
matters 125525
stock 125520
hair 125447
freedom 125426
Method 125388
improving 125386
Also 125271
transport 125114
teachers 125087
No. 124992
acts 124961
guys 124924
et@@ 124864
views 124786
brother 124766
approved 124708
investigation 124607
watch 124458
throughout 124451
Good 124439
brain 124331
items 124283
object 124274
worked 124220
ri@@ 124218
assets 124187
acid 124166
search 124045
promoting 123970
popular 123941
mass 123938
measure 123929
equal 123829
receive 123695
obtained 123596
clinical 123554
cities 123535
net 123256
mode 123234
kill 123137
id@@ 122898
addressed 122802
notes 122781
achieved 122765
message 122760
Iraq 122712
debt 122690
St@@ 122451
tomorrow 122368
student 122297
operating 122200
playing 122170
instead 122164
element 122153
Russian 122060
gives 122030
electronic 121991
video 121922
inter 121912
drive 121906
values 121861
contributions 121857
West 121806
movement 121692
negative 121682
beyond 121652
ship 121570
opening 121526
organized 121498
wasn 121449
summer 121425
voice 121419
giving 121412
February 121246
although 121175
preparation 121161
fund 121141
engineering 121124
Act 120946
died 120814
concrete 120787
integration 120778
heavy 120746
Global 120516
O 120372
manner 120350
8@@ 120329
finally 120323
college 120267
1998 120063
sign 120062
Maybe 119910
housing 119843
failure 119828
clean 119820
simply 119819
John 119810
gold 119783
banks 119485
produce 119339
Minister 119330
ideas 119091
resolutions 119071
il@@ 118976
worth 118890
kids 118800
Ch@@ 118778
memory 118619
nation 118569
Protocol 118514
traffic 118430
et 118418
ist 118414
raised 118324
behalf 118294
waste 118247
pain 118237
implemented 118185
mentioned 118092
pretty 117974
of@@ 117687
seem 117673
serve 117553
husband 117371
maintain 117308
generation 117221
Con@@ 117152
funding 117004
dialogue 116734
ans 116678
sun 116435
require 116385
thank 116168
ling 115921
committed 115910
daily 115763
determined 115753
save 115717
objective 115714
hospital 115494
Finally 115318
add 115251
relation 115193
individuals 115147
highly 115077
double 115055
discrimination 114923
train 114844
maybe 114820
units 114758
yuan 114488
picture 114484
signal 114439
British 114380
medium 114228
clearly 114182
Health 114093
improvement 113920
meaning 113790
waiting 113786
earlier 113754
calls 113657
fear 113616
technologies 113461
moving 113458
learned 113312
digital 113308
adoption 113295
* 113250
frequency 113169
est 113076
testing 112984
lines 112954
ed@@ 112878
sources 112861
eye 112845
awareness 112825
operational 112795
offices 112719
promotion 112664
famous 112626
external 112574
Other 112517
proposal 112515
press 112512
attack 112479
Her 112397
produced 112385
concerns 112317
platform 112227
X@@ 112088
maintenance 112082
grow 111988
Institute 111957
Co 111936
mis@@ 111909
Director 111751
obligations 111748
2013 111666
identified 111606
x@@ 111472
ite 111437
page 111328
LED 111315
Trade 111313
29 111301
recommended 111276
easily 111266
eight 111236
enable 111233
nearly 111221
Palestinian 111130
qu@@ 111072
useful 111037
victims 111027
tools 110959
Today 110955
bus 110888
behavior 110824
ex@@ 110758
drink 110703
Declaration 110642
innovation 110632
infrastructure 110593
tic 110555
ism 110548
collection 110439
challenge 110436
ons 110223
firm 110020
followed 109991
blue 109899
France 109864
university 109518
Or 109512
T 109471
discuss 109445
financing 109411
initiatives 109402
Mar@@ 109317
--@@ 109290
circumstances 109245
immediately 109229
completely 109179
completed 109168
piece 109138
realize 109077
lose 108995
indicated 108974
actual 108871
electric 108843
figure 108750
map 108636
TV 108622
z 108598
ur@@ 108524
pass 108402
Effect 108359
determination 108334
gets 108327
spend 108248
Centre 108237
aid 108214
models 108121
consumption 108104
layer 108042
afraid 107982
terrorism 107929
played 107922
delivery 107823
parameters 107766
street 107725
# 107705
cancer 107665
committee 107660
agency 107641
Advisory 107631
welcome 107586
huge 107390
communities 107342
En@@ 107257
missions 107166
Such 107159
determine 107110
aimed 107097
brand 107024
Those 106965
knows 106944
UNDP 106932
daughter 106906
happen 106890
lo@@ 106800
Their 106772
recovery 106767
2@@ 106753
dark 106693
dog 106628
Administration 106620
efficient 106567
equality 106530
female 106523
he@@ 106462
confidence 106310
ness 106281
generally 106150
Ar@@ 106039
multiple 105952
ancient 105900
causes 105880
wear 105825
allowed 105787
Thank 105677
Germany 105667
trend 105593
+ 105492
hotel 105471
bi@@ 105444
pl@@ 105394
initial 105304
dollars 105298
Western 105231
ds 105134
components 105021
excellent 105009
implementing 104752
Rapporteur 104734
recognized 104723
ter 104642
accept 104615
fundamental 104599
raise 104595
kept 104589
referred 104487
resistance 104461
tool 104398
School 104342
pro@@ 104301
scope 104264
Arab 104210
indigenous 104198
li@@ 104174
9@@ 104074
os 104004
component 103917
fell 103839
objectives 103810
healthy 103726
combined 103724
reduced 103716
spent 103583
published 103575
ahead 103511
ies 103471
season 103470
cash 103453
requires 103413
sports 103335
cl@@ 103252
contribution 103234
Foreign 103232
release 103156
fourth 103154
fun 103001
peacekeeping 102949
pattern 102936
Public 102933
forest 102862
covered 102846
Every 102699
speaking 102689
path 102688
requests 102686
mobile 102681
survey 102649
stated 102522
creation 102402
agreements 102256
glass 102187
seek 102182
keeping 102060
par@@ 102054
Day 102026
window 101989
advice 101934
Report 101927
advantage 101919
setting 101913
ah 101902
Representative 101900
couldn 101637
respectively 101616
interested 101505
formed 101462
articles 101409
index 101289
highest 101226
contribute 101194
border 101159
master 101140
Three 101129
participate 101067
database 101052
secretariat 101027
facilitate 100911
Only 100887
begin 100875
More 100778
species 100765
micro@@ 100628
opinion 100623
forget 100599
claim 100585
sky 100580
London 100561
join 100510
ended 100504
holding 100486
ative 100466
out@@ 100413
proposals 100328
fuel 100303
arrangements 100268
couple 100243
carbon 100204
claims 100193
closed 100057
rapid 100002
te@@ 99980
nor 99965
shape 99958
ring 99925
Great 99856
tea 99800
located 99765
assist 99692
peoples 99641
export 99629
fair 99627
Chairman 99463
sides 99438
th 99390
significantly 99325
signed 99311
foundation 99102
passed 99075
employees 99052
emergency 98999
affect 98963
senior 98918
wouldn 98825
opened 98801
leadership 98776
guidance 98686
ha@@ 98529
enter 98515
Canada 98398
Like 98384
labour 98281
instruments 98165
Australia 98122
presence 98109
medicine 98100
version 98094
listen 98068
Pacific 98065
doctor 98022
ology 98003
for@@ 97992
extent 97982
haven 97864
output 97864
reality 97836
experiment 97834
variety 97783
changing 97705
becomes 97679
suggested 97518
simulation 97505
store 97347
Jesus 97330
feet 97308
identify 97274
defined 97236
non@@ 97208
wine 97172
structures 97044
background 97034
Pro@@ 97007
statements 96994
Model 96907
solve 96858
trial 96839
payment 96828
jobs 96798
details 96706
agricultural 96691
officers 96686
speech 96612
para 96608
wood 96593
numbers 96569
expert 96498
duty 96479
ent@@ 96239
posts 96173
ratio 96140
customer 96094
follows 96039
biggest 95990
pe@@ 95932
manufacturing 95929
owned 95918
metal 95906
effectiveness 95887
1997 95873
moved 95865
plants 95525
informed 95436
under@@ 95418
ph@@ 95377
Th@@ 95376
island 95323
majority 95323
location 95299
Second 95169
Will 95165
career 95137
Water 95103
wave 95092
river 94944
transition 94890
shot 94883
vote 94780
starting 94744
Take 94733
us@@ 94729
encourage 94709
consultations 94643
zone 94415
chain 94391
negotiations 94381
express 94377
communications 94310
ball 94294
plane 94151
approval 94149
finance 94054
exactly 94053
standing 94029
election 94017
pre 93995
host 93981
mo@@ 93978
Middle 93976
fixed 93928
investigate 93901
chief 93862
ir@@ 93845
distance 93834
powerful 93686
ors 93638
warm 93525
adequate 93469
ong 93456
stone 93371
solutions 93345
Plan 93329
focused 93279
explore 93271
Division 93251
De@@ 93231
Democratic 93126
Once 93043
examination 92966
latest 92904
car@@ 92718
coal 92698
comments 92632
whom 92592
married 92588
Through 92523
ie 92509
games 92478
spring 92470
Di@@ 92447
bar 92176
treated 92069
closely 92032
animals 92031
stable 92022
supporting 91984
sharing 91965
reaction 91951
estimated 91947
formation 91936
guidelines 91814
ch 91813
sell 91800
ma 91713
disarmament 91675
marriage 91647
35 91536
differences 91497
announced 91486
continues 91420
Each 91378
named 91341
18@@ 91322
contains 91273
scheme 91262
appear 91147
dinner 91140
educational 91117
Un@@ 91097
territory 91070
bo@@ 91060
placed 91039
volume 90933
participants 90888
tr@@ 90884
agree 90880
departments 90877
techniques 90856
citizens 90834
Asian 90819
significance 90779
leader 90756
Ex@@ 90755
soft 90748
aim 90738
yesterday 90566
rain 90559
annex 90547
limit 90432
storage 90406
ton 90357
beauty 90353
der 90214
combination 90117
hurt 90093
sister 90079
2015 90024
les 89985
detailed 89872
purposes 89811
expect 89806
leaving 89752
investors 89715
Another 89554
outcome 89551
Year 89526
worry 89520
w 89488
threat 89388
ensuring 89359
suitable 89329
fresh 89321
weather 89292
tonight 89214
positions 89196
trouble 89180
ized 89122
Keywords 89103
spread 89053
rock 89021
south 88973
vehicle 88936
Children 88905
creating 88885
load 88875
Li 88825
Results 88800
situations 88696
Would 88695
patient 88608
agent 88557
sc@@ 88508
governance 88424
pollution 88391
80 88349
manager 88313
increasingly 88287
star 88286
clothes 88187
um@@ 88067
Right 88056
recommendation 87974
youth 87948
sit 87905
twenty 87892
Earth 87871
Association 87867
Using 87726
protein 87609
north 87600
director 87591
becoming 87577
ter@@ 87574
risks 87552
no@@ 87541
recognition 87540
interesting 87433
exist 87320
movie 87320
compensation 87256
solid 87245
ally 87232
initiative 87183
observed 87120
debate 87115
River 87006
guess 87005
Support 87002
appreciation 86992
Non 86921
happiness 86917
UN 86866
2014 86829
prior 86774
Russia 86746
compliance 86678
executive 86674
ence 86662
si@@ 86549
man@@ 86547
minute 86472
advance 86437
1996 86397
track 86358
Christmas 86357
dry 86329
toward 86325
Services 86243
plate 86108
Obama 86025
driving 86012
drop 85935
separate 85917
helped 85889
Go 85884
except 85873
guide 85800
abroad 85730
sets 85645
Panel 85617
square 85594
treaty 85517
invited 85462
cycle 85379
western 85355
shared 85335
Dr. 85324
Construction 85262
relatively 85262
perhaps 85227
submit 85222
conclusion 85134
end@@ 85088
evening 84973
enforcement 84915
Implementation 84882
website 84849
Conclusion 84810
wrote 84786
religious 84736
chapter 84705
mouth 84681
ill 84648
sort 84638
anti@@ 84617
judicial 84578
ding 84574
Agreement 84571
Agency 84492
feature 84492
se 84401
link 84396
prepare 84340
launched 84306
campaign 84297
instrument 84277
length 84247
Get 84221
touch 84203
leaves 84194
Review 84177
characteristic 84155
trading 84139
Be 84128
liquid 84054
broad 83930
coffee 83889
flowers 83852
selection 83850
Which 83790
selected 83775
See 83753
entry 83736
explain 83722
Any 83684
trees 83623
partner 83617
perspective 83567
offered 83553
released 83534
ps 83446
45 83444
ity 83392
Millennium 83351
diseases 83328
permanent 83324
bridge 83321
sectors 83305
draw 83240
thousands 83234
tests 83208
historical 83167
lie 83141
1995 83138
undertaken 83130
animal 83064
reasonable 83025
error 82986
mental 82976
province 82887
disaster 82829
existence 82820
lived 82807
listed 82774
ages 82732
pick 82601
bear 82597
song 82548
statistics 82531
divided 82491
dated 82354
controlled 82289
illegal 82278
accounting 82274
aircraft 82256
measurement 82237
engine 82225
id 82196
nations 82156
Power 82144
Co@@ 82136
experimental 82072
Q@@ 82004
sing 81937
competitive 81932
chinese 81915
ying 81899
32 81837
motion 81730
Kingdom 81705
1994 81695
bottom 81676
dance 81663
reflect 81603
90 81556
oc@@ 81551
Life 81527
display 81484
HIV 81447
Moreover 81436
registration 81436
Network 81375
ment 81355
noise 81294
marketing 81282
sub 81242
requirement 81141
flight 81139
vehicles 81098
200 81051
advantages 81039
vision 81039
fault 80936
lies 80868
X 80864
Forum 80854
failed 80758
Center 80749
seemed 80696
70 80681
willing 80680
mutual 80678
Before 80669
village 80647
ance 80618
planned 80559
diagnosis 80516
governments 80490
soul 80488
fl@@ 80468
thesis 80448
match 80393
sites 80379
AIDS 80320
whatever 80268
stuff 80257
ization 80227
minimum 80209
proper 80201
loved 80193
aware 80189
hundred 80175
Protection 80091
ked 80082
Furthermore 80078
pointed 80051
winter 80019
difficulties 79973
Unit 79962
peaceful 79926
certainly 79884
fruit 79803
definition 79792
affairs 79776
Road 79766
names 79733
spoke 79710
Israeli 79676
continuous 79605
adopt 79534
trip 79533
House 79525
monitor 79513
slow 79480
via 79468
reducing 79419
allows 79287
secret 79284
experiences 79198
tions 79175
instance 79166
transmission 79160
extremely 79131
ne@@ 79099
remained 79063
foot 79052
biennium 79042
ties 79022
relative 79006
maximum 78997
regulation 78959
institutional 78844
drugs 78825
Summit 78819
rice 78759
quarter 78733
obtain 78725
detection 78682
possibility 78654
Britain 78575
ang@@ 78575
guarantee 78553
networks 78548
gain 78512
larger 78512
broken 78467
notice 78272
sir 78251
cutting 78188
discussions 78101
sale 78016
boys 78001
trafficking 77987
sufficient 77974
Environment 77971
Thus 77967
R 77946
Dis@@ 77897
miss 77882
faith 77864
facing 77765
despite 77711
hong 77664
corporate 77641
Force 77634
Science 77625
crimes 77607
nine 77604
entities 77576
sweet 77574
devices 77498
responsibilities 77472
Company 77454
topic 77417
decide 77403
returned 77347
Effects 77281
greatly 77215
secondary 77191
block 77187
grade 77161
sold 77154
screen 77153
records 77117
carrying 77105
birth 77062
tri@@ 77040
developments 76972
port 76924
ms 76901
performed 76890
therapy 76852
plastic 76847
Studies 76846
expansion 76836
economies 76812
saving 76808
ongoing 76689
channel 76682
ry 76629
ang 76577
accepted 76543
images 76522
injury 76491
army 76462
Meeting 76385
estate 76358
frame 76353
structural 76325
establishing 76317
gradually 76307
settlement 76290
resulting 76224
buildings 76217
ian 76172
options 76162
M 76143
tasks 76134
unless 76133
bone 76092
Cooperation 76085
ves 76083
forced 76073
refugees 76046
partnership 76031
Afghanistan 76007
believed 75967
attacks 75926
bought 75858
dad 75816
Use 75811
centre 75799
offers 75751
shop 75717
elections 75707
correct 75699
bl@@ 75697
Car@@ 75696
commitments 75678
Code 75647
Industry 75599
iron 75557
accounts 75545
asking 75534
concentration 75481
era 75428
filled 75397
ou@@ 75383
Regional 75354
afternoon 75314
television 75259
objects 75164
College 75161
ob@@ 75142
ators 75009
trans@@ 75001
dangerous 74989
thousand 74976
ge 74944
circuit 74938
lamps 74931
ty 74923
formal 74904
finished 74897
Permanent 74847
entered 74843
S. 74718
raising 74712
receiving 74690
web 74687
aged 74602
Inter@@ 74595
busy 74595
race 74579
scene 74577
Web 74503
Both 74495
industries 74474
ore 74460
older 74359
me@@ 74319
depth 74293
introduce 74276
cars 74275
fifth 74274
male 74249
tive 74237
increases 74194
wanna 74163
ran 74125
fit 74067
introduction 74054
ley 74042
55 73999
bilateral 73985
yes 73960
supposed 73902
delegations 73868
friendly 73847
fly 73844
hole 73806
detail 73753
Sea 73592
Financial 73574
Justice 73526
David 73522
characters 73473
weak 73464
appears 73429
telling 73427
Time 73364
ish 73364
Taiwan 73344
fifty 73325
Tribunal 73264
consistent 73226
handle 73177
combat 73163
N 73141
containing 73138
up@@ 73085
tourism 73060
ents 73016
continuing 72972
eating 72956
academic 72865
straight 72861
researchers 72843
ve 72799
Wang 72756
fat 72756
input 72725
res 72700
finding 72689
po@@ 72657
catch 72642
mom 72595
collaboration 72579
band 72560
ethnic 72559
kong 72514
client 72474
achievement 72449
Federation 72434
extended 72418
park 72315
criteria 72296
bearing 72254
greatest 72250
programs 72241
perform 72178
severe 72152
L 72107
achieving 72077
cor@@ 72064
universal 72033
indicate 72010
appeared 72001
intended 71992
ak@@ 71943
Love 71937
sessions 71893
engaged 71835
literature 71833
German 71775
uh 71690
mechanical 71687
server 71685
mountain 71665
cool 71589
ren@@ 71563
ep@@ 71518
Section 71480
radio 71472
ker 71456
~ 71362
ard 71361
res@@ 71323
bright 71315
plays 71294
helping 71265
taste 71257
ai 71234
500 71185
Criminal 71185
independence 71181
ra@@ 71156
prison 71133
gr@@ 71119
calling 71110
thin 71107
root 71087
inspection 71056
thanks 71051
OK 71050
transportation 71033
evaluate 71032
fiber 71000
players 70994
realized 70993
manage 70969
Business 70968
investigated 70956
1.@@ 70952
fighting 70948
relief 70931
reflected 70923
specialized 70903
angle 70803
Monday 70769
east 70765
temporary 70759
Project 70754
introduces 70744
br@@ 70689
mon@@ 70685
languages 70669
White 70627
courses 70613
edge 70564
indicators 70558
33 70508
actively 70504
Members 70486
multilateral 70486
concluded 70481
doubt 70479
Last 70473
UN@@ 70461
sensitive 70310
av@@ 70223
welcomed 70223
Treaty 70198
Yet 70197
centres 70182
legislative 70143
III 70044
pursuant 70014
west 70008
theme 69961
ants 69956
seat 69920
accident 69904
alization 69873
informal 69766
1993 69659
rose 69645
civilian 69595
revised 69590
spot 69585
mail 69552
ality 69505
approaches 69477
Over 69449
U. 69442
spending 69419
s.@@ 69402
0 69398
Y 69393
ver@@ 69392
profit 69387
com@@ 69366
watching 69323
ins 69314
sl@@ 69307
promise 69298
novel 69246
factory 69242
ig@@ 69224
agriculture 69219
connected 69195
ary 69128
Sudan 69107
organic 69063
Mexico 69047
un 69028
corresponding 69025
Civil 69015
War 68980
ina 68965
ics 68961
applicable 68858
ourselves 68852
labor 68847
sitting 68847
reviewed 68767
painting 68752
36 68741
.. 68734
boss 68704
meant 68688
1,@@ 68662
encouraged 68642
seriously 68636
judge 68633
seeing 68599
happens 68594
gene 68586
calculation 68570
Abstract 68567
presents 68545
alternative 68532
smile 68495
Sub@@ 68469
48 68463
aren 68455
confirmed 68451
obvious 68431
consensus 68378
seeking 68376
ion 68315
outstanding 68250
ks 68248
identity 68211
34 68196
ical 68173
destruction 68172
ant@@ 68163
Red 68147
otherwise 68124
Friday 68116
ut@@ 67999
super@@ 67979
Space 67964
district 67948
respond 67904
vulnerable 67903
identification 67861
000 67852
recommends 67828
Congress 67764
violations 67753
teams 67746
technological 67746
involving 67737
specified 67714
registered 67693
Chief 67688
regime 67683
functional 67676
Washington 67650
bs 67627
Americans 67615
faced 67593
interface 67573
enhanced 67569
fill 67567
currency 67563
ev@@ 67529
indeed 67529
District 67508
ten@@ 67499
missing 67484
consequences 67430
consultation 67412
suggest 67410
Le@@ 67409
proliferation 67398
wonderful 67388
treat 67367
experienced 67326
findings 67283
arrived 67240
sw@@ 67240
contents 67202
emerging 67198
King 67161
overseas 67127
classes 67098
ol 67082
rising 67078
counter 67075
dealing 67068
ful 67014
linked 67002
quick 66918
oriented 66896
rec@@ 66885
Data 66876
bag 66855
composition 66850
boat 66846
Bureau 66839
moon 66774
il 66767
Process 66719
feelings 66639
thoughts 66635
Could 66563
transformation 66533
talks 66511
els 66510
extra 66504
Ltd 66476
hell 66475
Geneva 66469
successfully 66455
library 66446
option 66413
Per@@ 66393
priorities 66386
poly@@ 66370
fashion 66317
consumer 66294
helps 66254
delay 66221
2016 66194
recognize 66176
ain 66118
intelligence 66081
finish 66050
meat 66048
gu@@ 66022
command 65975
theoretical 65967
proved 65956
Peace 65941
milk 65832
Administrative 65823
crucial 65806
player 65750
proceedings 65744
inner 65688
weapon 65667
purchase 65660
kid 65617
conflicts 65608
remote 65594
so@@ 65589
appeal 65541
audit 65481
studying 65455
unto 65433
mark 65412
wh@@ 65391
Quality 65380
immediate 65370
decades 65369
gift 65356
Sometimes 65355
architecture 65338
bar@@ 65252
interview 65204
laser 65175
arm 65150
ological 65144
valuable 65130
Constitution 65030
Italy 65021
ists 65015
caught 65014
ters 65002
str@@ 64992
bill 64970
dress 64970
stressed 64958
attitude 64950
az@@ 64899
supervision 64876
substantive 64865
hate 64846
targets 64842
secure 64830
lay 64814
Chapter 64806
decrease 64789
origin 64758
contain 64675
stopped 64660
virus 64660
files 64583
selling 64564
desire 64531
smaller 64513
ends 64512
atmosphere 64466
forth 64431
automatic 64417
constant 64406
respective 64405
favorite 64399
te 64373
deeply 64363
alia 64360
EU 64359
Latin 64317
mixed 64287
drawing 64279
tion 64277
timely 64227
appearance 64223
stories 64198
vi@@ 64163
measured 64077
phenomenon 64002
patterns 63930
ded 63881
Iran 63865
Bill 63860
urgent 63842
Sp@@ 63839
ordinary 63832
gap 63792
prove 63767
su@@ 63713
motor 63699
dollar 63672
Police 63631
\ 63610
heads 63602
truly 63596
induced 63542
club 63507
ide 63499
orders 63496
der@@ 63454
relationships 63418
served 63392
sample 63357
explained 63340
producing 63286
occurred 63264
suffering 63249
density 63240
carefully 63227
pieces 63191
Bar@@ 63178
iz@@ 63165
Pakistan 63126
ta 63091
Qu@@ 63079
shares 63058
worse 63017
stood 63007
UNCTAD 63001
Covenant 62994
attempt 62987
tired 62955
ase 62944
upper 62934
wealth 62929
enemy 62872
Brazil 62865
Commissioner 62852
examples 62785
acting 62752
Treatment 62729
minister 62667
65 62658
mostly 62637
figures 62635
Miss 62631
gun 62631
businesses 62625
ci@@ 62563
rapidly 62562
we@@ 62558
democratic 62546
Joint 62509
forever 62480
ens 62444
Mrs. 62423
remaining 62369
Ad@@ 62367
moral 62249
bound 62246
Bo@@ 62241
Several 62143
discovered 62106
stars 62084
10@@ 62071
Part 62062
Paris 62050
everybody 62021
300 61895
Trump 61888
Strategy 61885
38 61880
linear 61863
ud@@ 61858
suddenly 61823
Mc@@ 61822
easier 61799
actors 61759
considering 61741
UK 61729
ati@@ 61728
walking 61725
democracy 61720
Food 61710
typical 61705
Be@@ 61670
troops 61655
paragraphs 61615
package 61581
Christ 61568
row 61559
sentence 61548
lighting 61541
stakeholders 61534
consumers 61532
scientists 61530
offering 61518
supplies 61460
believes 61414
alive 61407
yellow 61401
ber@@ 61365
elected 61294
Political 61289
County 61282
shoes 61260
recorded 61259
teach 61235
unable 61232
58 61225
surgery 61223
category 61157
ou 61157
achievements 61116
distributed 61100
extend 61076
garden 61066
Sunday 61064
IC@@ 61043
izing 60976
expand 60965
obligation 60894
institution 60888
Policy 60885
interaction 60872
do@@ 60841
firms 60827
soldiers 60814
cast 60808
rare 60806
terrorist 60806
Al 60788
cur@@ 60783
signs 60750
brings 60723
impossible 60714
Field 60711
voltage 60709
Tr@@ 60696
optical 60687
managed 60680
mining 60661
El@@ 60646
Federal 60641
residents 60624
ke 60622
addressing 60609
Test 60605
putting 60603
joined 60565
1@@ 60559
Li@@ 60540
Egypt 60537
copy 60500
sick 60487
deployment 60477
Par@@ 60462
marine 60444
represent 60384
showing 60379
feed 60343
proof 60337
biological 60315
restaurant 60263
sight 60256
da 60239
56 60234
Man@@ 60202
og@@ 60142
57 60117
ana 60102
Training 60035
thermal 60016
reliable 60014
complicated 60011
Tell 59965
expenditure 59926
Does 59897
accuracy 59888
comparison 59863
Olympic 59857
Korean 59852
ideal 59831
push 59829
sanctions 59804
all@@ 59787
creative 59749
driver 59716
em 59701
Cultural 59680
namely 59673
quiet 59638
voluntary 59622
crazy 59592
officer 59579
lessons 59527
mar@@ 59516
yield 59515
launch 59450
acute 59428
lots 59421
Tom 59414
miles 59362
Clinical 59350
represents 59343
controls 59307
infection 59306
Community 59294
39 59290
37 59289
courts 59285
neither 59282
adding 59260
Uh 59229
Energy 59220
Congo 59185
holiday 59184
sounds 59165
multi@@ 59106
title 59098
analyze 59066
ex 59010
bringing 59004
pure 59003
Tuesday 58962
H 58910
supports 58803
Mo@@ 58768
rent 58755
magnetic 58737
defense 58728
Despite 58716
losses 58691
clients 58673
represented 58629
Give 58613
slowly 58574
dreams 58572
principal 58541
hearing 58540
ane 58499
Thanks 58498
Meanwhile 58494
categories 58475
jurisdiction 58389
Air 58386
decade 58382
ending 58353
Sustainable 58331
organs 58321
st 58280
expensive 58235
Com@@ 58232
Am@@ 58226
beat 58208
demands 58199
percentage 58134
Ab@@ 58133
visual 58110
interpretation 58040
detention 58032
yeah 58007
61 58006
membership 57969
shopping 57876
bu@@ 57858
pictures 57856
Sir 57850
stations 57806
shift 57801
dimensional 57795
letters 57791
ars 57771
contracts 57769
alized 57733
vital 57697
procurement 57677
England 57669
remove 57632
Pre@@ 57618
programming 57618
observe 57611
broke 57595
ler 57493
charges 57489
Art 57483
emphasis 57480
driven 57473
genetic 57445
strongly 57443
sad 57439
V 57434
eventually 57349
drawn 57348
grown 57322
pull 57312
mid 57304
houses 57302
59 57233
51 57216
ach@@ 57190
properly 57188
electricity 57136
integrity 57132
tu@@ 57116
ste@@ 57099
birthday 57098
Goals 57041
accurate 57033
managers 57033
Mechanism 57032
Students 57024
DNA 57007
absence 56966
A. 56960
Theory 56956
southern 56948
owing 56933
previously 56933
wonder 56924
gh@@ 56903
go@@ 56878
implications 56835
airport 56834
wearing 56833
asset 56817
Authority 56792
Building 56785
Teaching 56785
dec@@ 56767
Apple 56759
enhancing 56738
count 56725
Park 56687
somebody 56686
Technical 56677
cat 56623
church 56617
Among 56610
Legal 56584
worldwide 56553
forming 56550
aims 56535
hi@@ 56534
electrical 56530
gotta 56530
F 56524
tend 56506
corner 56499
ale 56493
ats 56443
adjustment 56437
collective 56384
ot 56340
Third 56279
universities 56258
horse 56245
journey 56196
42 56176
onto 56171
sand 56148
pair 56121
Make 56106
Street 56077
approximately 56048
powers 56027
warning 56025
cr@@ 56008
careful 55984
appointed 55964
faster 55952
cry 55925
ge@@ 55913
association 55905
smart 55905
snow 55901
liver 55894
raw 55881
millions 55847
laid 55778
disabilities 55768
Indian 55757
statistical 55754
wild 55749
salt 55739
sat 55720
innovative 55699
assess 55685
Mon@@ 55683
joy 55666
proportion 55632
cards 55620
.The 55617
rats 55601
min@@ 55600
tissue 55596
ping 55582
import 55576
trends 55570
Dynasty 55554
Gu@@ 55546
62 55543
lady 55535
ya 55509
0@@ 55501
af@@ 55492
twice 55489
resulted 55484
ise 55472
numerous 55424
ically 55405
representation 55369
54 55367
violation 55355
Se@@ 55343
ay@@ 55334
decline 55326
aspect 55324
pool 55284
drinking 55279
tic@@ 55242
capable 55220
stronger 55203
delivered 55147
ches 55144
Evaluation 55109
bird 55071
attached 55063
flower 55059
ownership 55033
derived 55024
flat 55007
promoted 54997
63 54994
proud 54961
customs 54957
translation 54935
Experimental 54931
grew 54916
powder 54909
exploration 54904
branch 54885
sugar 54879
gl@@ 54878
bigger 54871
describe 54830
43 54823
philosophy 54813
judges 54781
Sorry 54779
Caribbean 54776
worst 54775
quantity 54773
&lt; 54755
candidates 54749
ize 54735
specifically 54725
migration 54712
extension 54687
la 54640
Pl@@ 54621
ae 54613
herself 54608
ir 54608
Jack 54581
division 54580
52 54573
radiation 54550
ind@@ 54535
oral 54503
UNICEF 54479
tube 54475
yl@@ 54471
internet 54422
attend 54409
revealed 54388
familiar 54376
contrast 54353
flexible 54349
53 54346
Resources 54345
Cuba 54342
till 54341
equity 54340
s. 54335
falling 54327
closer 54321
UNHCR 54296
none 54296
hardware 54242
conventional 54219
tech 54219
politics 54206
2.@@ 54192
operate 54091
41 54084
suit 54057
depends 54051
occur 54042
links 54041
deliver 54036
Thursday 54033
faces 54018
ational 54012
Hu@@ 53979
1992 53902
Spain 53870
measuring 53866
strange 53850
wishes 53845
extensive 53837
Countries 53832
domain 53821
smooth 53813
ching 53797
camera 53775
ride 53751
united 53747
empty 53742
Area 53707
wedding 53700
experiments 53691
writer 53679
evil 53662
ao 53642
football 53641
mal@@ 53631
intergovernmental 53628
schedule 53624
od@@ 53575
telephone 53574
George 53522
mer@@ 53510
64 53499
observation 53450
appreciate 53414
samples 53401
preparing 53390
IN@@ 53387
assembly 53361
tested 53351
46 53340
exports 53319
pilot 53318
suggests 53317
battle 53304
gate 53293
corruption 53286
indicates 53286
engage 53277
evolution 53235
agents 53233
ery 53165
obviously 53122
Small 53106
44 53097
regulatory 53084
equivalent 53078
headquarters 53066
facts 53057
satisfaction 53028
ey 53018
inform 52992
granted 52984
homes 52978
resolve 52968
Open 52967
displaced 52950
uc@@ 52944
thinks 52927
turning 52910
walked 52904
slightly 52898
19@@ 52864
Michael 52861
static 52849
2017 52832
Cor@@ 52831
modified 52802
stick 52778
expertise 52770
Further 52769
post@@ 52758
utilization 52734
ement 52729
completion 52715
danger 52687
emissions 52687
estimates 52651
burden 52643
sought 52625
ments 52622
Im@@ 52599
75 52593
latter 52585
Long 52579
outer 52567
grass 52562
leads 52544
K 52534
back@@ 52524
la@@ 52501
planet 52486
subjects 52471
appointment 52470
filter 52433
Culture 52425
optimization 52421
weekend 52400
lock 52395
glad 52367
Prevention 52352
Prime 52348
discusses 52328
ba 52327
sixth 52321
Annex 52305
pr@@ 52267
puts 52238
hundreds 52236
revenue 52233
ocean 52224
G 52200
fe@@ 52181
Rules 52176
amounts 52170
angry 52167
He@@ 52160
ye 52143
alism 52128
god 52093
silver 52046
conclusions 52031
matrix 52011
periodic 52009
presentation 52002
AR@@ 51997
Su@@ 51985
victim 51965
solar 51953
generated 51940
audience 51930
satellite 51915
diversity 51911
LORD 51896
overcome 51876
eliminate 51870
Br@@ 51836
fluid 51812
lunch 51810
tears 51809
thy 51719
reforms 51700
capability 51690
Festival 51655
parallel 51622
visited 51576
Man 51573
Bi@@ 51569
col@@ 51564
injection 51559
47 51553
farmers 51541
abuse 51533
cre@@ 51527
can@@ 51526
Instead 51510
Singapore 51506
analyses 51506
comfortable 51477
vast 51441
involvement 51425
UNEP 51407
ve@@ 51385
workshop 51384
owner 51368
00 51353
ably 51344
composed 51331
ky 51296
largely 51289
listening 51270
talked 51235
dear 51210
employed 51210
harm 51167
micro 51144
calculated 51143
anymore 51123
imposed 51094
intellectual 51059
ca@@ 51054
pleasure 51051
fishing 51044
Paul 51039
mistake 51010
Engineering 51009
ships 50997
yours 50984
Kosovo 50962
belief 50958
ned 50945
transparency 50945
birds 50938
ii 50935
1990 50914
arts 50913
flows 50904
ash 50898
ay 50895
Dad 50861
cup 50848
tor@@ 50846
ecological 50838
acquisition 50836
reconstruction 50822
northern 50814
taught 50812
precision 50808
air@@ 50785
plus 50765
frequently 50761
substantial 50751
Sal@@ 50749
Her@@ 50710
au@@ 50695
attended 50677
ak 50675
protected 50658
sa@@ 50632
meters 50626
internationally 50620
Google 50610
totally 50578
applying 50549
suggestions 50541
panel 50538
strengthened 50534
sixty 50517
hopes 50507
fail 50495
ra 50483
imagine 50470
limits 50450
e.@@ 50390
ser@@ 50387
Work 50370
， 50367
grain 50365
defence 50351
productive 50349
pursue 50323
Zhang 50304
Crime 50298
tin 50292
punishment 50287
exists 50268
duties 50257
dust 50256
Charter 50246
photo 50240
maintaining 50226
printing 50212
Headquarters 50198
Structure 50191
dr@@ 50168
ation@@ 50152
repair 50130
sa 50105
ha 50075
Wednesday 50062
Peter 50012
summary 50007
&gt; 49997
Society 49973
flying 49970
likes 49948
coverage 49934
ns 49928
secretary 49918
examine 49906
consists 49870
parameter 49870
pipe 49864
pleased 49815
diplomatic 49814
Perhaps 49811
loans 49792
handling 49783
talent 49758
commission 49752
meal 49746
separation 49738
49 49723
turns 49713
funded 49684
worried 49678
ordered 49674
replace 49668
accountability 49651
15@@ 49628
suffered 49609
ched 49605
decreased 49578
understood 49553
partnerships 49549
commerce 49544
lights 49539
est@@ 49527
ble 49425
virtual 49415
papers 49413
ill@@ 49411
liability 49394
Ma@@ 49389
pump 49354
Note 49329
conferences 49327
religion 49326
Mary 49323
controlling 49321
ly@@ 49312
,000 49308
forum 49289
convenient 49251
dropped 49226
height 49216
Ro@@ 49192
struggle 49185
covering 49179
stages 49147
extreme 49111
ac 49085
newly 49062
ver 49055
collected 49049
profile 49048
binding 49035
civilians 49030
rooms 48977
realization 48960
cooperate 48937
considerable 48926
chosen 48917
inflation 48913
module 48909
contributing 48904
maintained 48877
aries 48854
refer 48842
comment 48837
protecting 48837
teeth 48800
Child 48797
psychological 48795
ium 48787
apart 48768
Safety 48743
beam 48691
loan 48691
valve 48687
participated 48667
2,@@ 48657
incident 48641
refers 48641
zero 48636
payments 48634
undertake 48620
primarily 48612
ade 48596
Medical 48592
false 48574
landscape 48574
peak 48559
tumor 48501
Besides 48497
select 48448
Discussion 48445
Listen 48436
Spanish 48431
Labour 48425
dy 48407
prefer 48399
Though 48387
investments 48385
submission 48369
are@@ 48360
utility 48338
demonstrated 48337
Performance 48332
sal@@ 48308
intention 48287
messages 48286
emphasized 48281
transactions 48245
entity 48231
AN@@ 48202
surprise 48157
storm 48140
lying 48123
stocks 48108
globalization 48104
professor 48090
exhibition 48081
tradition 48081
expenses 48069
San 48055
contributed 47998
wake 47996
ously 47991
switch 47974
observations 47973
smoke 47972
federal 47956
concepts 47919
urged 47914
newspaper 47906
removed 47896
earthquake 47869
composite 47864
Ac@@ 47863
authors 47863
household 47861
paying 47768
66 47763
rehabilitation 47742
W 47734
Mom 47702
We@@ 47686
equation 47678
arrangement 47665
chronic 47656
Islamic 47647
wire 47646
0.@@ 47643
ming 47629
declared 47603
sk@@ 47577
constantly 47574
den@@ 47565
killing 47558
IT 47546
responses 47542
Everyone 47514
machines 47513
Measures 47508
charged 47491
holds 47486
her@@ 47477
tw@@ 47446
thirty 47428
AS@@ 47378
feels 47367
my@@ 47360
é@@ 47359
trained 47350
competent 47327
pa@@ 47320
hydro@@ 47318
compound 47312
regularly 47237
Change 47204
dispute 47199
banking 47193
owners 47180
Having 47173
wisdom 47173
define 47170
cloud 47141
ving 47134
coordinated 47132
mat@@ 47128
describes 47124
reliability 47115
roles 47110
column 47091
hu@@ 47090
colleagues 47078
difficulty 47039
Turkey 47013
ines 47000
throw 46999
participating 46995
serving 46976
donors 46973
taiwan 46964
luck 46946
regarded 46927
16@@ 46898
sequence 46867
capacities 46865
examined 46858
allocation 46855
organizational 46854
transaction 46850
optimal 46813
Self 46797
Tri@@ 46797
atory 46765
marked 46752
tor 46748
reaching 46742
sur@@ 46734
13@@ 46733
honour 46730
ee 46677
ely 46677
buying 46671
jiang 46671
declaration 46659
invention 46658
aging 46622
subsequent 46621
definitely 46615
Characteristics 46601
Indonesia 46593
77 46577
oxygen 46546
ner 46536
accused 46526
iness 46499
pu@@ 46463
format 46446
outcomes 46445
Determination 46443
formula 46433
films 46422
conversation 46405
ST@@ 46393
availability 46391
amazing 46383
osis 46344
sheet 46336
onic 46304
qualified 46285
mainland 46284
saved 46273
Operations 46225
survival 46209
chairman 46204
threats 46199
brief 46159
occupied 46156
recommend 46154
description 46141
heating 46140
authorized 46126
Col@@ 46108
starts 46075
hoped 46057
thou 46054
j 46046
ast@@ 46008
Saturday 45967
Land 45961
reflects 45918
allowing 45903
affecting 45895
seed 45894
Vienna 45874
unemployment 45857
Following 45852
preventing 45843
heaven 45810
yl 45796
donor 45785
lucky 45776
tells 45764
recruitment 45748
classification 45737
arrested 45729
Without 45722
engagement 45710
Lebanon 45709
shut 45705
California 45703
ceremony 45696
welfare 45685
Investigation 45680
CH@@ 45673
gi@@ 45628
Gr@@ 45609
ticket 45599
L.@@ 45588
AT@@ 45581
fo@@ 45569
walls 45542
For@@ 45541
automatically 45523
ru@@ 45506
Family 45491
fees 45491
pi@@ 45490
carrier 45489
systematic 45481
county 45443
Ne@@ 45440
humans 45413
Green 45404
Father 45365
pace 45361
Zealand 45350
destroyed 45302
everywhere 45300
personality 45300
protocol 45299
capabilities 45277
James 45275
logic 45258
Island 45221
Simulation 45209
vice 45191
elderly 45187
Environmental 45182
provisional 45182
ray 45165
shaped 45153
friendship 45132
Coordination 45126
atic 45125
eastern 45105
eg@@ 45105
seventh 45069
fan 45046
kitchen 45045
Ireland 45034
contemporary 45032
computers 45025
des@@ 45021
update 45013
neck 45012
,@@ 44995
67 44988
ze 44963
ox@@ 44951
dedicated 44916
suffer 44908
plenary 44905
q 44901
Officer 44898
reply 44897
Dec@@ 44895
shouldn 44895
400 44894
ering 44891
sections 44877
Vice 44862
Professor 44842
expanded 44840
award 44837
forty 44829
war@@ 44826
preliminary 44813
tons 44810
diet 44770
print 44737
salary 44714
Market 44699
anger 44679
covers 44673
sons 44658
guard 44655
ily 44651
passing 44650
runs 44648
dependent 44629
Standard 44591
sum 44580
ads 44571
boundary 44564
giant 44546
productivity 44541
Industrial 44517
circle 44503
mountains 44494
Planning 44491
q@@ 44490
ingly 44483
intensity 44461
dogs 44451
ses 44434
Table 44432
chair 44407
CO@@ 44397
exposure 44361
artificial 44351
wise 44340
spiritual 44332
ose 44329
breaking 44323
deposit 44291
stream 44291
tough 44278
logistics 44262
fi@@ 44239
1991 44238
Different 44230
mention 44228
17@@ 44223
tur@@ 44219
certificate 44202
WTO 44193
Influence 44187
losing 44182
ging 44159
lets 44146
ning 44132
ell@@ 44129
visits 44114
variable 44087
scheduled 44081
lawyer 44061
wing 44061
sustained 44055
route 44054
sin 44050
mm 44028
Northern 44027
Disarmament 44017
Four 44016
stands 44004
gen@@ 43984
securities 43981
work@@ 43979
rel@@ 43963
Chen 43949
welcomes 43948
Monitoring 43946
thereby 43944
Liu 43927
streets 43927
ong@@ 43915
adult 43831
lu@@ 43818
escape 43797
tour 43780
waters 43748
About 43744
Games 43737
prime 43727
murder 43726
analyzing 43717
constitute 43694
strict 43679
12@@ 43643
au 43640
treaties 43638
super 43629
ster 43623
union 43587
bond 43575
Wall 43572
workshops 43552
Taking 43545
installation 43537
skill 43522
hhhhThe 43499
fiscal 43487
terrible 43477
artist 43468
beings 43467
camp 43459
strain 43452
restrictions 43445
adults 43443
honor 43413
ka 43413
minority 43394
gained 43375
configuration 43372
IV 43359
amendment 43355
ink 43350
explanation 43331
calm 43327
loves 43324
targeted 43324
Five 43323
Production 43300
causing 43246
channels 43229
symptoms 43227
blind 43216
answered 43215
generate 43215
cul@@ 43200
Deputy 43193
hall 43192
Experts 43185
funny 43184
documentation 43137
OF 43131
ho@@ 43124
degrees 43108
emotional 43108
steady 43071
honest 43070
RE@@ 43065
entirely 43063
curve 43062
analyzes 43058
doctors 43051
chicken 43047
possibly 43042
focusing 43011
balanced 42995
massive 42995
ow@@ 42982
Sun 42956
designated 42955
leg 42947
periods 42934
Xi 42932
farm 42916
apartment 42893
theories 42886
Har@@ 42882
intervention 42873
C. 42866
inclusion 42845
machinery 42838
cleaning 42774
Hello 42746
assigned 42744
grounds 42723
Trans@@ 42718
chemicals 42706
fans 42670
14@@ 42667
opposition 42651
ue 42635
conservation 42621
Shenzhen 42611
ke@@ 42602
3.@@ 42584
transparent 42569
finds 42567
arrest 42544
coordinate 42542
bur@@ 42538
waves 42532
Eastern 42529
ur 42521
mines 42506
Yang 42488
populations 42456
nobody 42441
shan 42403
managing 42384
ther@@ 42382
parent 42377
strike 42373
Lu@@ 42369
absolutely 42368
click 42366
AC@@ 42359
bread 42359
Region 42355
opposite 42349
consciousness 42343
founded 42341
pri@@ 42339
nose 42326
council 42324
gross 42310
guests 42298
extraction 42297
visitors 42271
cream 42254
execution 42235
Q 42234
Indeed 42211
Somalia 42178
picked 42160
= 42148
sovereignty 42119
estimate 42107
surprised 42107
if@@ 42091
humanity 42077
wheel 42077
Developing 42074
Nothing 42071
e. 42068
bro@@ 42063
NGOs 42060
usual 42044
Was 41984
entering 41979
substance 41971
tie 41971
e.g. 41970
molecular 41969
shock 41965
expectations 41948
reserve 41935
cable 41926
encouraging 41925
feedback 41916
mor@@ 41911
na 41904
topics 41862
satisfied 41851
penalty 41833
witness 41808
thee 41802
iting 41801
correlation 41796
signals 41794
ved 41794
numerical 41786
demonstrate 41776
savings 41770
Master 41769
fr@@ 41766
younger 41762
monthly 41743
li 41740
employee 41735
legs 41733
hang 41697
photos 41694
alcohol 41690
cluster 41664
Framework 41661
Italian 41653
Black 41644
68 41628
Remember 41612
burn 41565
Investment 41552
profits 41552
clothing 41544
Trust 41541
subregional 41538
begun 41531
ess 41523
disputes 41520
falls 41515
facility 41512
du@@ 41508
muscle 41485
Lo@@ 41471
crystal 41446
Hi 41442
normally 41428
discharge 41411
deals 41381
IS@@ 41375
dimension 41372
ER@@ 41367
ef@@ 41363
Local 41352
fee 41351
hidden 41350
UNFPA 41329
Ge@@ 41326
acceptance 41323
ff@@ 41321
ma@@ 41295
lasting 41284
Agenda 41281
rely 41281
• 41279
locations 41274
assessments 41273
Internal 41268
bottle 41245
jointly 41219
collect 41216
ys 41207
advertising 41206
Hotel 41184
aff@@ 41123
somewhere 41113
copper 41072
intelligent 41072
spectrum 41062
lift 41059
Sch@@ 41056
injured 41054
argument 41009
ls 41004
uniform 40984
sensor 40975
ish@@ 40946
Nuclear 40932
Status 40922
afford 40913
creativity 40896
promised 40894
Finance 40892
Requests 40889
sharp 40887
merely 40864
ash@@ 40855
que 40855
publication 40853
Should 40841
ges 40841
vibration 40833
directed 40829
Between 40809
Population 40803
GDP 40794
THE 40785
crowd 40761
finite 40758
ear 40740
Cl@@ 40719
pages 40715
belt 40712
involves 40657
invite 40620
alloy 40618
ap 40600
velocity 40599
keeps 40597
happening 40578
thick 40559
essence 40542
fer@@ 40537
sport 40530
Ver@@ 40513
railway 40511
Thailand 40480
ier 40477
Wait 40474
coat 40472
Next 40468
Basic 40463
organ 40445
leaf 40412
alize 40407
mood 40392
roads 40378
eighth 40377
Oil 40370
sm@@ 40369
breakfast 40364
seconds 40348
helpful 40342
Chair 40320
Practice 40310
Scientific 40295
Or@@ 40293
ick 40292
vertical 40277
95 40270
League 40261
replaced 40245
Bu@@ 40233
Modern 40233
breath 40218
victory 40211
songs 40206
marry 40189
ites 40183
Switzerland 40167
headed 40164
governing 40147
ease 40140
oh 40138
As@@ 40131
convention 40110
stem 40092
beer 40082
ure 40073
magic 40054
fix 40052
characterized 40046
sized 40041
updated 40035
encourages 40033
belong 40026
exposed 40015
anyway 40014
Put 40011
lake 39991
returns 39976
occupation 39956
jump 39949
sn@@ 39942
Mal@@ 39914
consent 39888
score 39886
ears 39884
cu@@ 39880
IT@@ 39875
fellow 39873
knowing 39837
Never 39809
considers 39795
ered 39789
exchanges 39789
hyper@@ 39781
oma 39771
improvements 39761
formulation 39758
communicate 39745
har@@ 39727
hide 39727
Guangzhou 39722
fore@@ 39706
ann@@ 39703
...... 39668
involve 39643
valid 39643
manufacture 39632
Keep 39622
anniversary 39611
excited 39611
claimed 39607
removal 39583
investigations 39576
anywhere 39571
Spring 39568
blow 39567
grave 39566
burning 39557
cake 39536
Mother 39531
flexibility 39506
illicit 39506
LE@@ 39499
complaints 39481
desk 39478
Everything 39462
reviews 39461
pregnant 39448
Southern 39438
stores 39408
foods 39393
ened 39391
narrow 39387
brown 39378
compare 39373
meter 39368
shell 39364
transferred 39354
hand@@ 39350
assume 39349
fired 39327
festival 39319
AM@@ 39300
ce 39257
reputation 39233
array 39228
ial 39210
winning 39209
closing 39202
AL@@ 39192
disasters 39188
Still 39187
attract 39183
controller 39182
Han 39174
smoking 39174
expanding 39171
wet 39164
favour 39151
ban 39146
ine@@ 39119
campus 39118
depend 39102
random 39088
transform 39081
lam@@ 39071
mortality 39058
UNIDO 39048
tiny 39032
treating 39030
zing 39029
tracking 39021
bas@@ 39013
sees 38998
ninth 38997
brothers 38995
belongs 38973
grateful 38954
ised 38944
mice 38922
colors 38901
fuzzy 38886
nerve 38869
syndrome 38851
ular 38839
interference 38834
Actually 38832
begins 38829
tight 38828
designing 38827
Academy 38808
ne 38793
rolling 38791
email 38781
Me@@ 38778
string 38775
ll 38768
missed 38762
eng@@ 38750
highlighted 38750
Mor@@ 38744
cal@@ 38744
form@@ 38742
arranged 38737
tank 38735
noticed 38729
zhou 38728
Sha@@ 38722
Whether 38715
So@@ 38713
commodity 38707
Greek 38703
opinions 38674
verification 38667
CT 38659
Foundation 38659
permit 38647
rid 38647
native 38645
hardly 38644
ances 38641
commonly 38641
Rec@@ 38633
membrane 38623
enti@@ 38619
lands 38614
istic 38592
Go@@ 38580
hal@@ 38580
ip@@ 38576
sed 38554
ene 38544
presidential 38538
basically 38530
discipline 38518
smell 38514
bo 38508
fa@@ 38496
Being 38491
button 38487
laboratory 38485
constraints 38484
AP@@ 38472
ni@@ 38465
rubber 38425
Given 38419
20@@ 38410
bid 38410
shoot 38410
solving 38394
paint 38393
Guinea 38388
conversion 38369
reservation 38364
synthesis 38358
sending 38356
spoken 38342
Anti 38318
inf@@ 38311
confident 38294
assessed 38292
Preparation 38268
gear 38260
comply 38251
integral 38248
pulled 38237
fate 38226
childhood 38217
mandates 38209
organize 38209
Harry 38191
hearts 38174
tall 38174
Operation 38167
B. 38156
hom@@ 38145
mistakes 38145
singing 38143
Micro@@ 38142
gains 38132
oo@@ 38117
exception 38116
candidate 38106
movies 38071
News 38065
Jerusalem 38059
om 38056
U 38052
Min@@ 38042
focuses 38041
refugee 38038
Sierra 37999
missile 37976
cotton 37975
ours 37963
cultures 37951
Ma 37949
ger 37930
Assistance 37926
spokesman 37922
destroy 37898
courage 37897
comfort 37880
by@@ 37874
nationality 37863
roof 37860
Regulations 37834
600 37816
makers 37812
Australian 37794
ening 37771
Po@@ 37715
dem@@ 37705
surrounding 37691
movements 37683
vessels 37667
furniture 37655
arising 37638
Supreme 37631
ung 37606
Him 37589
relates 37586
Ukraine 37584
pa 37573
obstacles 37566
Netherlands 37555
symbol 37552
Reform 37545
installed 37545
constitutional 37533
grant 37532
invitation 37512
J 37500
met@@ 37492
taxes 37483
rat 37479
i.e. 37458
performing 37454
portion 37433
refused 37426
11@@ 37417
impacts 37400
ber 37378
ata 37377
wash 37340
At@@ 37338
territorial 37337
char@@ 37325
Secondly 37311
initiated 37305
tension 37286
SP@@ 37279
professionals 37267
favor 37262
legitimate 37255
contrary 37248
ech@@ 37248
vessel 37245
Light 37242
clock 37240
bil@@ 37230
functioning 37227
72 37224
inventory 37216
worker 37210
honey 37208
substances 37204
Really 37201
electro@@ 37194
AD@@ 37156
liked 37151
hy@@ 37143
Parliament 37138
lung 37136
Big 37127
Main 37121
dynamics 37118
prosperity 37114
rescue 37112
branches 37109
Key 37098
instructions 37070
Ambassador 37064
plasma 37060
golden 37056
conducting 37046
beach 37045
Low 37040
ward 37026
Em@@ 36996
connect 36985
ore@@ 36952
spatial 36939
ass@@ 36938
Gender 36933
hol@@ 36933
fracture 36901
mix 36901
Steel 36874
regret 36868
ceiling 36867
propose 36840
conventions 36833
particles 36811
plenty 36809
circulation 36789
sion 36784
complexity 36762
passion 36755
behaviour 36729
shadow 36721
geographical 36719
Malaysia 36713
necessarily 36706
SE@@ 36684
default 36673
answers 36661
solved 36655
Governing 36640
pursuit 36623
ass 36597
universe 36588
windows 36583
ultimate 36582
attractive 36562
yang 36560
superior 36553
tics 36516
choices 36503
Guangdong 36500
chip 36476
mouse 36469
adjust 36462
sol@@ 36452
ids 36445
inclusive 36444
unknown 36440
equally 36430
Language 36428
Old 36411
ess@@ 36410
tion@@ 36408
Army 36379
Lake 36347
bonds 36346
determining 36340
cy@@ 36337
anybody 36334
custom 36332
marks 36327
mer 36325
Gaza 36315
SO@@ 36313
Bl@@ 36306
Urban 36302
wheat 36291
amendments 36280
enjoyed 36279
Exchange 36275
Ba@@ 36272
absolute 36272
bacteria 36269
register 36269
artistic 36265
ca 36262
phones 36262
graduate 36249
Figure 36214
occurs 36197
advisory 36195
itation 36193
6.@@ 36190
Real 36190
invest 36190
Bush 36182
degradation 36180
judgment 36174
artists 36163
inc@@ 36149
wider 36149
cat@@ 36135
ell 36117
oid 36116
ities 36108
vegetables 36098
ped 36095
shoulder 36087
85 36078
sleeping 36066
p.m. 36058
norms 36049
aw@@ 36046
Fourth 36036
kers 36035
shirt 36020
acquired 36010
chemistry 35999
exciting 35998
displacement 35978
arrive 35975
Chemical 35955
Pr@@ 35927
moves 35925
segment 35925
Relationship 35923
lovely 35905
laugh 35903
No@@ 35900
eggs 35894
transit 35886
watched 35885
ff 35878
ear@@ 35876
lesson 35875
Inter 35857
pulse 35835
Professional 35830
ath@@ 35830
den 35829
cap@@ 35815
tables 35815
widespread 35809
Type 35807
down@@ 35800
ai@@ 35797
Team 35793
profound 35772
occasion 35770
roots 35751
partial 35747
Post 35745
enabling 35736
provinces 35731
Systems 35728
Iraqi 35719
huh 35683
pur@@ 35667
sil@@ 35666
ta@@ 35650
sive 35648
cheap 35644
reserves 35631
Comprehensive 35621
loading 35606
monetary 35601
coefficient 35591
Pol@@ 35579
revolution 35573
99 35542
spare 35536
Me 35524
harder 35520
Lee 35515
Staff 35508
seats 35492
Du@@ 35485
EC@@ 35482
reconciliation 35468
residential 35464
exploitation 35456
Norway 35450
territories 35447
hydrogen 35445
Argentina 35441
Persons 35441
nervous 35441
pan@@ 35404
fallen 35390
nonlinear 35376
I. 35372
pot 35366
Greece 35354
squ@@ 35354
terminal 35324
dual 35323
.I 35319
hydraulic 35317
violent 35300
speakers 35293
ES@@ 35291
destination 35290
historic 35278
Property 35270
swimming 35268
fin@@ 35256
typically 35236
cooling 35224
800 35218
Ah 35214
zed 35214
drew 35211
tis 35211
Ming 35204
observers 35201
im 35180
tail 35177
Multi 35172
welding 35169
Mer@@ 35167
Line 35166
representing 35166
visiting 35159
rational 35154
cooking 35144
cooperative 35144
Enterprise 35121
Bosnia 35119
Computer 35060
kin 35048
Stop 35036
Cross 35035
eth 35032
residence 35028
Optional 35019
ure@@ 35004
che@@ 34996
ica 34993
identifying 34991
imaging 34969
Rome 34939
regards 34931
civilization 34929
Leone 34919
vocational 34919
applies 34918
nursing 34915
amended 34896
aside 34890
summit 34882
4.@@ 34876
provincial 34865
precious 34864
colour 34860
ov@@ 34850
semi 34843
heading 34833
hoping 34832
classroom 34818
Free 34799
depression 34798
integrate 34787
continuously 34783
everyday 34780
Rwanda 34773
Liberia 34770
abilities 34766
dose 34760
Learning 34753
subsidiary 34748
curriculum 34745
oxide 34743
nutrition 34742
methodology 34740
Excuse 34728
Timor 34710
water@@ 34692
Chamber 34688
del@@ 34678
blame 34677
celebrate 34675
ret@@ 34675
off@@ 34671
prospects 34668
reflection 34667
Palestine 34643
duration 34628
modeling 34628
ain@@ 34626
committees 34623
ography 34616
Peacekeeping 34606
license 34604
ven@@ 34569
succeed 34558
pm 34540
mirror 34532
variation 34513
ought 34510
graph 34508
ture 34493
Fl@@ 34490
immune 34488
des 34484
ji@@ 34482
Properties 34473
dy@@ 34452
Poly@@ 34435
convinced 34429
tolerance 34427
Little 34418
battery 34406
chose 34395
routine 34392
Christian 34388
neuro@@ 34383
attempts 34377
dies 34354
val@@ 34354
unity 34350
detected 34345
resident 34341
coast 34328
ham 34322
3,@@ 34318
accompanied 34315
scared 34296
lists 34283
broader 34276
rough 34272
survive 34270
passengers 34269
Sweden 34261
confirm 34252
emission 34237
kiss 34220
focal 34210
sudden 34200
Times 34196
classic 34160
Philippines 34159
affects 34157
Discrimination 34150
tone 34149
alleged 34144
hi 34124
ji 34109
ory 34108
hospitals 34088
150 34078
habit 34067
mature 34048
formulated 34035
separated 34030
schemes 34024
ited 34018
generations 34014
truck 34012
weren 34009
absorption 33990
ile 33983
magazine 33983
sions 33969
differential 33966
lion 33961
mad 33958
reverse 33956
protective 33951
you@@ 33950
operative 33944
Ministers 33932
Capital 33920
replied 33919
hum@@ 33895
boost 33883
Station 33873
pen@@ 33864
hat 33851
feasibility 33845
hungry 33843
Darfur 33841
Value 33823
coastal 33818
tors 33809
enormous 33808
Wu 33805
serum 33798
mineral 33793
Islands 33785
ute 33785
head@@ 33758
venture 33753
acceptable 33720
equ@@ 33714
D. 33707
stored 33705
dimensions 33696
Early 33691
RMB 33685
endorsed 33683
Future 33682
Nor@@ 33681
necessity 33669
earn 33649
deformation 33642
Dr 33638
detect 33637
blocks 33634
98 33631
handed 33622
Kuwait 33613
retail 33608
beneficial 33594
Movement 33584
Dr@@ 33581
Assistant 33571
ID 33568
creates 33561
adaptation 33558
int@@ 33558
XML 33554
electoral 33554
guest 33552
stuck 33539
Ob@@ 33531
bul@@ 33527
Current 33498
fewer 33498
Digital 33489
repeated 33478
municipal 33465
crack 33461
damaged 33447
girlfriend 33442
adverse 33436
innocent 33411
hasn 33410
Sichuan 33408
sensitivity 33403
signature 33400
Recalling 33389
3D 33381
deaths 33373
silence 33365
analytical 33342
grid 33330
di 33324
errors 33323
minor 33317
Res@@ 33316
orientation 33296
tro@@ 33287
Microsoft 33286
urge 33252
posed 33230
gathered 33227
hor@@ 33225
zones 33220
tickets 33216
disposal 33197
pol@@ 33181
designs 33180
ables 33174
stayed 33173
ax@@ 33165
pregnancy 33155
69 33148
bet 33132
entertainment 33127
Assessment 33122
influenced 33119
WHO 33109
heritage 33101
replacement 33100
egg 33097
coating 33071
forecast 33062
Jane 33054
Progress 33032
electron 33031
urges 33018
Val@@ 33003
Jordan 33002
entrance 33000
Sol@@ 32995
fu@@ 32995
cm 32993
any@@ 32980
memories 32974
ok@@ 32962
Henry 32951
gs 32947
Hospital 32933
top@@ 32906
criticism 32904
exact 32893
recalled 32883
devoted 32881
und@@ 32873
ft 32871
hero 32870
med 32855
visible 32849
rejected 32847
ides 32821
tower 32821
Integrated 32820
Gas 32813
incidents 32804
Initiative 32799
US@@ 32795
constructed 32782
forests 32781
Very 32763
dealt 32751
auto 32747
thereof 32746
doors 32733
filling 32714
cuts 32697
reservoir 32693
naturally 32692
Problems 32673
locked 32664
economics 32640
The@@ 32635
adapt 32625
migrants 32603
Yuan 32589
ising 32582
Tang 32574
Within 32574
Robert 32572
Anti@@ 32568
genes 32546
operators 32545
Jo@@ 32539
sake 32530
gar@@ 32523
remarkable 32520
Mark 32509
pose 32508
our@@ 32506
Cy@@ 32501
bags 32491
servants 32489
introducing 32486
pile 32480
bio@@ 32474
allocated 32458
ports 32455
nearby 32451
Ji@@ 32434
synthetic 32432
minorities 32430
whenever 32421
isolated 32412
fied 32408
dying 32407
offence 32395
employers 32380
classical 32362
wage 32358
keys 32351
trace 32342
expenditures 32333
heavily 32319
ination 32318
settled 32305
signing 32281
operator 32275
wireless 32274
guided 32267
é 32257
resin 32251
Unfortunately 32247
ency 32243
Communication 32242
Fe@@ 32233
mothers 32230
Wh@@ 32214
ty@@ 32202
ultimately 32197
pal@@ 32194
particle 32175
torture 32165
split 32161
depending 32156
Mike 32140
resistant 32140
acc@@ 32135
quantitative 32131
adopting 32128
autumn 32123
pe 32123
shooting 32114
feasible 32109
radi@@ 32108
Strategic 32096
ware 32096
logical 32094
exam 32091
mid@@ 32085
tendency 32073
Ms 32068
equipped 32058
Growth 32054
ens@@ 32035
shipping 32027
speaker 32018
thickness 32008
rac@@ 32007
mathematical 32006
underlying 32001
constructive 31999
IN 31992
Haiti 31990
lowest 31977
dancing 31966
stroke 31962
La@@ 31950
sts 31938
IP 31925
regardless 31924
Herzegovina 31923
Dynamic 31911
underground 31909
tically 31895
guilty 31887
brands 31849
originally 31840
adi@@ 31834
ast 31819
barriers 31810
mixture 31810
Cal@@ 31800
lonely 31795
assistant 31794
eness 31787
&#124; 31757
competence 31755
Qing 31742
ING 31722
Platform 31707
robot 31693
Fifth 31689
combating 31680
ently 31663
finger 31659
resolved 31652
sheep 31651
struck 31643
strictly 31641
Has 31630
ari@@ 31627
Men 31598
km 31594
stomach 31591
manufacturers 31581
intensive 31573
Nevertheless 31566
manual 31561
Saudi 31559
meaningful 31533
Nigeria 31532
diverse 31522
not@@ 31522
serves 31521
vector 31518
pension 31506
gifts 31497
arrival 31491
excessive 31484
elimination 31476
briefly 31469
declined 31466
log 31441
ets 31438
Syrian 31405
Agriculture 31403
76 31385
classified 31366
Bur@@ 31361
illness 31357
socialist 31356
Pe@@ 31355
staying 31347
dignity 31343
Case 31339
mu@@ 31335
oring 31329
commit 31324
restricted 31289
reservations 31288
va 31257
oversight 31256
discover 31243
fur@@ 31214
knife 31213
ino 31207
Habitat 31192
Patients 31189
dly 31184
Statistics 31180
Ste@@ 31173
boyfriend 31168
loop 31165
offences 31165
71 31160
Met@@ 31160
tongue 31154
.... 31147
alizing 31137
Think 31125
ished 31123
elling 31121
neural 31121
Str@@ 31117
dates 31114
imports 31094
hem@@ 31087
negotiation 31085
Si@@ 31076
sustainability 31073
deployed 31069
container 31064
Ber@@ 31059
harmony 31035
internally 31033
actor 31029
rem@@ 31028
realistic 31019
seeds 31009
Large 31000
Due 30999
ups 30993
1st 30988
si 30986
1,000 30979
Algorithm 30976
hai 30972
precise 30972
cook 30964
computing 30959
foster 30959
jo@@ 30955
cement 30945
AND 30940
extraordinary 30940
Someone 30934
flag 30922
tunnel 30922
ny 30914
Whatever 30911
grand 30911
Youth 30909
ards 30898
ok 30870
Natural 30863
recall 30828
Young 30819
5.@@ 30817
EN@@ 30809
ots 30808
ades 30802
Vi@@ 30790
UNESCO 30785
COP 30777
ach 30776
Georgia 30774
perfectly 30769
habits 30768
existed 30767
graphic 30758
Weapons 30756
pending 30756
summarized 30738
lawyers 30732
tly 30723
prisoners 30720
Try 30710
imported 30708
temple 30700
73 30697
bri@@ 30695
analysed 30678
Total 30668
Museum 30650
Welcome 30648
hill 30646
restore 30633
capture 30624
SA@@ 30595
proposes 30594
CD 30571
ack 30571
dissemination 30559
remind 30558
Lu 30552
Spirit 30550
Ti@@ 30546
MO@@ 30545
algorithms 30542
flood 30525
basketball 30524
filed 30518
admit 30516
nitrogen 30505
History 30501
recording 30498
Plant 30494
equitable 30491
checked 30489
discovery 30487
plain 30486
ab 30482
pat@@ 30476
satisfy 30474
lim@@ 30464
ME@@ 30455
fulfil 30440
produces 30434
reveal 30416
coach 30395
admitted 30376
forgot 30373
usage 30373
wished 30357
cure 30352
elastic 30346
fabric 30345
commissions 30344
USA 30342
combining 30342
emerged 30342
ham@@ 30342
ide@@ 30330
denied 30327
citizen 30297
El 30274
pres@@ 30267
harmful 30265
rocks 30265
prediction 30256
compounds 30245
stones 30245
horizontal 30238
Until 30218
associations 30210
Rem@@ 30180
chest 30179
fed 30178
fication 30177
suggestion 30174
emb@@ 30163
instruction 30162
warned 30162
households 30159
ulation 30154
disability 30152
disabled 30134
fruits 30122
printed 30119
layers 30112
vacation 30095
firmly 30094
frequent 30094
matching 30088
Room 30086
78 30083
literary 30077
88 30073
loving 30066
conclude 30059
Traditional 30051
dish 30046
folk 30046
att@@ 30044
Level 30039
efficacy 30026
sy 30021
Bel@@ 30019
ow 30019
ome 30009
distinct 30003
Cup 29999
ole 29989
ws 29988
luxury 29986
museum 29986
pressing 29976
passenger 29972
publications 29969
Er@@ 29957
Myanmar 29956
Queen 29944
Smith 29938
Compared 29933
tip 29925
accelerate 29910
contacts 29907
aluminum 29904
cargo 29886
pro 29878
reintegration 29878
arbitration 29873
artery 29870
preventive 29868
Wil@@ 29862
apple 29846
disk 29846
interior 29839
Financing 29836
poetry 29829
soup 29826
2nd 29803
autonomous 29801
drivers 29797
ist@@ 29797
injuries 29796
mut@@ 29792
node 29779
lab 29775
unusual 29775
equations 29770
interim 29769
Letter 29762
jet 29762
scholars 29759
crew 29754
competitiveness 29749
explains 29749
1990s 29746
ths 29739
attracted 29734
corn 29731
prosecution 29730
IAEA 29699
Number 29696
interactive 29694
exercises 29687
bn 29686
silent 29684
clouds 29673
proceed 29661
dare 29646
moments 29646
yn@@ 29637
maker 29633
ut 29628
spaces 29622
pop 29619
societies 29615
Clinton 29606
Ocean 29602
Burundi 29598
tourist 29592
Can@@ 29588
Best 29583
comp@@ 29583
96 29578
chart 29564
fairly 29564
icity 29555
minds 29553
Sure 29551
tourists 29546
Cyprus 29539
passage 29538
ged 29531
diameter 29530
pers 29523
sword 29517
4,@@ 29516
Electronic 29496
chamber 29495
incidence 29490
Program 29486
intense 29486
Elimination 29478
impression 29469
advances 29468
Zhejiang 29457
thematic 29457
prospect 29440
surely 29427
Survey 29424
earnings 29419
bel@@ 29418
surveillance 29412
towns 29394
sodium 29372
touched 29363
borders 29357
pen 29354
lifetime 29349
assisted 29334
Military 29330
gathering 29320
ruling 29307
Home 29299
Distribution 29297
juice 29296
continent 29295
phrase 29291
Library 29286
por@@ 29283
Products 29281
adjusted 29280
Country 29265
evaluated 29264
steam 29263
Colombia 29262
suppliers 29262
ases 29249
settle 29249
stupid 29247
emotions 29235
drafting 29216
Bridge 29208
ric 29208
Order 29206
relatives 29203
allegations 29183
Tokyo 29180
harmonious 29165
diabetes 29161
apparent 29154
ton@@ 29131
feeding 29120
wages 29113
Higher 29079
Nan@@ 29079
til@@ 29079
favorable 29077
patent 29071
tobacco 29066
potentially 29064
ders 29063
acknowledged 29059
700 29058
lamp 29055
threshold 29037
Principles 29032
suppose 29024
preparations 29016
Comparison 29012
Corporation 29010
organizing 29009
Standing 28980
vacuum 28972
83 28964
Gar@@ 28959
Des@@ 28956
genuine 28953
land@@ 28948
voting 28943
UR@@ 28942
Song 28940
exclusive 28927
legally 28925
hel@@ 28922
exit 28917
ette 28911
ey@@ 28906
a.m. 28904
partly 28894
suspected 28892
generating 28880
frameworks 28879
chocolate 28875
whereas 28872
subsequently 28869
Synthesis 28864
CE@@ 28845
sec@@ 28831
acted 28826
influences 28812
talents 28803
Press 28797
ous@@ 28783
facilitating 28782
praise 28773
dressed 28770
sor@@ 28767
carcinoma 28760
freely 28746
permission 28745
crops 28739
momentum 28717
PC 28709
trials 28709
limitations 28706
Function 28705
buried 28698
prize 28695
relate 28692
packaging 28687
witnesses 28686
colleges 28682
Kenya 28680
fusion 28678
suspended 28675
insufficient 28672
developers 28650
flu@@ 28650
racial 28649
elsewhere 28646
sun@@ 28640
Allah 28630
ros@@ 28626
Cap@@ 28608
Soviet 28608
suspension 28599
Ordinance 28581
preparatory 28576
ake 28573
suspect 28573
mit@@ 28565
corrosion 28554
seal 28543
inspired 28542
Major 28539
premises 28537
threatened 28536
alarm 28535
tape 28535
repeatedly 28534
Task 28503
ICT 28502
Ni@@ 28500
82 28489
comm@@ 28479
Ethiopia 28476
preferred 28475
accidents 28472
mi@@ 28463
Climate 28460
My@@ 28454
washing 28452
inal 28449
extract 28448
Joe 28447
hanging 28447
120 28443
guarantees 28440
ron 28433
PR@@ 28432
Cur@@ 28430
acy 28427
ils 28424
Mil@@ 28423
immigration 28418
tim@@ 28418
oning 28408
ere 28407
but@@ 28401
meets 28398
Chile 28390
comparative 28388
Ha@@ 28379
wings 28377
excuse 28370
outlined 28337
romantic 28336
oph@@ 28331
drinks 28328
eng 28324
pack 28322
ministry 28319
xi 28307
withdrawal 28294
desert 28292
construct 28282
Head 28281
with@@ 28277
delayed 28252
ani 28250
Yu 28244
commodities 28240
Hall 28232
migrant 28230
holy 28225
searching 28223
ratification 28221
Sam 28219
forgotten 28218
Forces 28213
Sa@@ 28210
Hol@@ 28207
conformity 28204
alist 28203
pig 28196
darkness 28180
diamond 28178
prominent 28169
somewhat 28164
villages 28160
rarely 28159
accessible 28154
Prince 28151
guaranteed 28150
William 28149
remarks 28145
navigation 28143
processed 28140
Rural 28137
bike 28137
socio 28134
tries 28133
Hydro@@ 28129
responded 28118
holders 28111
bath 28103
ate@@ 28100
SC@@ 28095
lin 28088
app@@ 28086
fraud 28067
Fine 28061
fac@@ 28056
loc@@ 28050
operated 28048
Sam@@ 28016
bre@@ 28004
84 28000
Expression 27990
certification 27983
imp@@ 27976
Medicine 27975
ick@@ 27970
dev@@ 27969
correctly 27967
suicide 27964
fingers 27960
acquire 27958
aesthetic 27955
checking 27951
Facebook 27949
arm@@ 27948
pushed 27944
lips 27931
assumed 27925
asks 27913
menu 27892
ries 27879
rail 27871
secured 27861
tional 27854
ains 27833
psychology 27832
ures 27831
Brown 27829
oxidation 27829
axis 27819
awarded 27810
gaps 27809
Gen@@ 27801
zz@@ 27795
Under@@ 27794
Shi@@ 27789
Partnership 27785
delicious 27781
probability 27781
apparently 27775
pocket 27772
74 27769
incorporated 27769
DC 27760
returning 27760
deeper 27754
cerebral 27750
calculate 27743
ack@@ 27742
connections 27736
Ph@@ 27731
earned 27725
Canadian 27711
homework 27692
anxiety 27688
physics 27675
Music 27671
boards 27666
es.@@ 27663
fre@@ 27643
requiring 27636
upset 27631
excess 27627
ella 27623
divorce 27622
worthy 27609
reinforced 27604
wa@@ 27592
97 27591
collapse 27585
anc@@ 27576
cultivation 27576
ple 27570
oneself 27567
uncertainty 27544
Guide 27539
Base 27533
Class 27531
ums 27529
islands 27523
possession 27523
directions 27513
enc@@ 27490
ama 27483
deputy 27455
86 27443
Transport 27439
81 27437
defects 27436
tered 27436
sanitation 27432
Questions 27430
Yugoslavia 27430
gather 27428
opposed 27427
Territories 27424
Accordingly 27421
surgical 27420
troop 27416
uan 27407
prescribed 27406
ub@@ 27399
posted 27394
20th 27386
environments 27385
bing 27378
ame 27376
pride 27359
Sports 27346
readers 27346
Decides 27339
Afghan 27334
Holy 27333
maritime 27333
borne 27331
argue 27328
cloth 27326
pounds 27320
combine 27303
92 27302
audio 27301
ethics 27291
paras 27291
mapping 27264
prohibited 27259
modernization 27258
undertaking 27252
Fi@@ 27248
sole 27243
ie@@ 27241
pray 27237
dominant 27205
Lebanese 27189
crying 27184
apparatus 27182
leg@@ 27181
radar 27180
employer 27176
ans@@ 27170
disappeared 27167
Ros@@ 27156
campaigns 27144
uncle 27144
Del@@ 27137
Frank 27137
Sur@@ 27135
catalyst 27129
convened 27129
Fr@@ 27124
asleep 27121
counter@@ 27108
imprisonment 27097
receipt 27097
relevance 27095
gray 27094
FAO 27089
constitution 27072
Image 27070
reiterated 27046
copies 27045
satisfactory 27037
Risk 27009
ences 27003
shaft 26995
concluding 26993
ements 26993
Ap@@ 26992
highway 26987
repeat 26987
arise 26983
wound 26977
dirty 26972
corporation 26959
IC 26955
silk 26955
carries 26947
com 26938
eradication 26934
variables 26932
Soil 26931
tom@@ 26931
Independent 26921
preserve 26921
ire 26918
complaint 26914
infected 26909
observer 26905
syn@@ 26901
Enterprises 26899
ki 26897
mankind 26897
collecting 26893
lit@@ 26893
chances 26885
spots 26881
estimation 26880
deserve 26878
treasure 26877
sign@@ 26867
seismic 26864
cap 26863
challenging 26862
robust 26862
refuse 26856
79 26841
loaded 26836
Regulation 26825
codes 26820
quit 26815
calcium 26814
Subcommittee 26809
Factors 26806
sentences 26806
ishing 26802
displayed 26801
drought 26799
Pi@@ 26795
min 26795
eth@@ 26793
TH@@ 26792
LO@@ 26788
tied 26788
Commerce 26785
layout 26778
hybrid 26771
lin@@ 26770
seeks 26752
Richard 26747
cas@@ 26733
Nobody 26732
analysts 26728
deposits 26718
dating 26708
Chicago 26690
adds 26685
hunger 26684
tar@@ 26674
shops 26673
officially 26670
explosion 26654
Hy@@ 26648
ath 26646
etc. 26645
accumulation 26644
hoc 26641
C.@@ 26637
ading 26634
amp@@ 26606
toxic 26602
Something 26597
embedded 26594
Club 26590
cried 26587
predict 26580
Activities 26577
Olympics 26561
Rio 26557
Insurance 26556
Prosecutor 26553
Lin 26552
retirement 26552
Currently 26550
holes 26549
bones 26548
aps 26543
RO@@ 26542
simultaneously 26539
budgetary 26537
restructuring 26537
Ben@@ 26534
Recently 26530
asylum 26529
Je@@ 26526
babies 26522
Kim 26518
Machine 26517
weird 26517
casting 26506
leather 26502
ili@@ 26491
Back 26485
Set 26479
ER 26476
cont@@ 26471
gravity 26469
Austria 26467
ko 26447
efficiently 26445
Later 26431
ILO 26427
glory 26426
Tianjin 26419
fatigue 26418
parking 26414
Uganda 26411
belonging 26402
Turkish 26401
don@@ 26398
restaurants 26398
Yu@@ 26397
Journal 26393
yi 26389
joining 26383
ministers 26378
margin 26377
therapeutic 26377
rap@@ 26375
Chairperson 26374
93 26371
providers 26362
87 26358
sincere 26350
noting 26346
Blue 26341
Pal@@ 26340
Point 26322
defend 26321
rou@@ 26315
slope 26311
Ru@@ 26310
relax 26306
Charles 26305
Ben 26293
Humanitarian 26285
unlikely 26275
Zone 26274
CO 26271
Martin 26271
bal@@ 26271
fil@@ 26261
OR@@ 26254
det@@ 26252
orange 26252
Agricultural 26238
guiding 26225
ops 26220
yard 26220
graduates 26213
floating 26197
Technique 26183
Ca@@ 26182
initially 26179
gre@@ 26178
directors 26171
Bay 26167
modes 26167
EM@@ 26164
emotion 26154
mere 26153
accordingly 26148
ail@@ 26144
ro 26144
seminar 26144
ys@@ 26141
announcement 26137
drunk 26134
crop 26129
Kar@@ 26123
brilliant 26110
Issues 26108
Equipment 26106
Innovation 26105
mainstreaming 26097
that@@ 26093
briefing 26088
bit@@ 26063
vers 26061
captain 26059
Manager 26055
IS 26045
unified 26025
Ser@@ 26019
ment@@ 26019
them@@ 26017
compression 26012
tens 26000
Ad 25994
Commercial 25973
tin@@ 25961
Customs 25958
aut@@ 25958
91 25951
Territory 25950
lovers 25938
mes@@ 25935
nit@@ 25925
y.@@ 25923
bomb 25915
Sim@@ 25912
centers 25908
loud 25902
mobilization 25898
enemies 25893
transmitted 25893
explosive 25889
comprises 25868
med@@ 25867
concentrated 25866
calendar 25853
resume 25851
Poland 25849
oned 25845
cognitive 25839
Draft 25833
Mountain 25832
21st 25829
Jim 25829
ays 25828
holder 25828
Bal@@ 25826
sovereign 25812
advancement 25804
arrange 25801
Legislative 25800
Southeast 25799
ification 25794
Software 25790
ze@@ 25789
Morocco 25787
ately 25785
settlements 25772
tering 25768
inadequate 25767
craft 25766
frozen 25746
Ren@@ 25740
forgive 25739
Common 25729
tender 25729
ard@@ 25722
drama 25704
threw 25693
Arts 25691
E. 25688
Pa@@ 25685
Nature 25684
privacy 25677
basin 25672
reward 25661
89 25655
ah@@ 25644
aling 25644
idi@@ 25642
intr@@ 25637
sex 25634
assignment 25630
applicant 25626
vol@@ 25624
Vision 25623
indicator 25622
Resource 25617
thes@@ 25614
ace 25610
94 25607
width 25606
accurately 25598
traveling 25593
skilled 25590
personally 25589
San@@ 25587
imagination 25586
Pan@@ 25584
stresses 25571
Royal 25568
sampling 25559
essentially 25557
shareholders 25555
Electric 25550
mainstream 25545
Indigenous 25541
deficit 25539
allowance 25532
Zhou 25527
consolidation 25527
Daily 25522
vary 25514
cher 25513
Knowledge 25500
cer@@ 25500
Firstly 25495
circular 25495
3rd 25490
besides 25487
badly 25485
separately 25483
screw 25481
grace 25478
furnace 25469
empowerment 25468
drilling 25462
ranging 25456
camps 25453
Decision 25434
bedroom 25426
CEO 25425
expressions 25417
dishes 25409
brush 25403
coordinating 25398
wor@@ 25398
performances 25393
enables 25392
emphasize 25391
fortune 25388
ions 25388
mr 25385
OIOS 25381
strive 25379
Say 25361
yu 25352
she@@ 25342
verse 25339
Senior 25327
attacked 25317
Madam 25308
play@@ 25301
qualities 25298
decides 25297
To@@ 25291
ologic 25285
recover 25280
painful 25278
&apos;Ivoire 25276
respected 25276
specify 25272
enhancement 25268
ratified 25264
Ter@@ 25259
designer 25257
styles 25256
servant 25251
reflecting 25242
Yi 25237
bases 25237
eligible 25237
crash 25229
possess 25223
vulnerability 25220
fever 25218
She@@ 25217
clearance 25217
sha@@ 25207
boxes 25192
enjoyment 25188
visa 25183
shortage 25180
Expert 25166
vitro 25157
Similarly 25147
Six 25141
shelter 25141
crises 25138
soci@@ 25136
Strengthening 25130
thread 25130
enabled 25129
abandoned 25127
indicating 25123
Follow 25121
mil@@ 25111
kingdom 25108
Happy 25107
settings 25106
Sub 25104
mate 25100
one@@ 25098
Ag@@ 25093
Fu@@ 25091
ada 25084
producers 25079
tips 25070
modification 25067
validity 25065
rush 25058
recession 25053
fears 25044
Ta@@ 25043
timing 25040
musical 25037
calculating 25030
Up 25022
trac@@ 25012
desired 25005
offset 24988
polymer 24986
Media 24985
sch@@ 24983
Vietnam 24982
eling 24979
assisting 24977
Op@@ 24970
gratitude 24965
persistent 24958
arbitrary 24954
ther 24953
Tax 24951
bars 24951
Mel@@ 24949
worship 24946
plates 24940
han 24939
exceed 24931
constitutes 24930
Everybody 24927
Mine 24908
ug@@ 24904
reproductive 24903
eless 24896
wi@@ 24888
Ri@@ 24885
integrating 24883
Body 24864
beside 24846
votes 24846
considerations 24837
Mongolia 24836
glasses 24832
Mrs 24831
mess 24830
crossing 24826
ises 24821
pin 24817
Economy 24814
researches 24802
Measurement 24792
invested 24790
elegant 24769
Shandong 24766
Temperature 24766
encountered 24766
killer 24753
permitted 24753
budgets 24750
ank@@ 24736
ym@@ 24735
Captain 24729
Pres@@ 24728
founder 24711
consequence 24710
Book 24704
Heat 24703
Belgium 24702
sin@@ 24697
aking 24696
Mac@@ 24694
aviation 24694
quietly 24685
crude 24682
flesh 24677
choosing 24672
Product 24663
seminars 24663
ich@@ 24659
Check 24654
op 24650
renewable 24650
connecting 24645
owe 24644
ban@@ 24635
ingredients 24635
valued 24631
gun@@ 24627
lover 24621
Optimization 24618
unilateral 24614
expense 24606
tical 24599
Materials 24596
pos@@ 24593
men@@ 24587
CR@@ 24581
buyer 24576
corporations 24572
ger@@ 24566
subprogramme 24565
ect 24554
PO@@ 24549
barrier 24544
ga 24539
ord@@ 24529
bi 24528
inevitable 24526
responding 24521
resort 24516
decent 24507
Inspection 24504
hua 24487
ES 24480
oul@@ 24471
Numerical 24470
Single 24470
SH@@ 24468
volunteers 24455
viewed 24441
Bas@@ 24437
sel@@ 24436
sis 24427
subjected 24419
flame 24416
references 24416
discussing 24413
ces 24395
Mu@@ 24393
plug 24390
Um 24389
Housing 24388
staffing 24383
Cause 24379
LDCs 24377
proven 24375
ford 24358
pet 24358
clause 24346
coupling 24342
joke 24333
axial 24329
reporters 24328
safeguard 24325
hen@@ 24309
Côte 24308
foreigners 24294
addresses 24279
anticipated 24272
gn@@ 24267
Scheme 24265
compete 24263
euro 24263
La 24258
arc 24254
ecosystem 24253
pushing 24248
Pen@@ 24242
disorder 24242
violated 24242
ented 24236
alists 24227
Valley 24226
ester 24223
supplier 24201
adaptive 24199
reporter 24199
promising 24192
bathroom 24181
mathematics 24175
Surface 24170
hiding 24164
scores 24158
Finland 24153
rotation 24152
Wei 24148
tooth 24140
defeat 24138
Thomas 24136
Mag@@ 24131
solidarity 24129
buyers 24118
Decade 24115
blog 24114
AB@@ 24112
taxi 24111
ometer 24107
Especially 24106
fake 24106
projected 24101
star@@ 24091
30@@ 24085
specification 24084
Phase 24082
coherence 24082
ek 24081
Changes 24078
sen@@ 24077
Tourism 24071
Ir@@ 24066
lens 24066
profession 24064
reviewing 24056
Primary 24053
soldier 24051
highlight 24050
VI 24045
arch@@ 24045
occurrence 24044
book@@ 24041
ei@@ 24041
Star 24026
burst 24025
itis 24013
portfolio 24010
rs 24000
possibilities 23996
guns 23987
recognizes 23987
piano 23974
sti@@ 23965
accounted 23961
tal@@ 23959
discount 23951
On@@ 23949
real@@ 23949
ri 23944
dozen 23940
editor 23938
boring 23935
Tur@@ 23931
mortgage 23925
bol@@ 23924
aggression 23921
annually 23920
bills 23918
♪ 23913
analyse 23907
custody 23904
appeals 23900
ographic 23891
drove 23890
unprecedented 23884
Roman 23882
combustion 23879
Hel@@ 23867
advocacy 23867
regulate 23864
expresses 23861
gri@@ 23841
paintings 23841
resumed 23841
install 23840
hosted 23835
ail 23832
lar@@ 23826
concentrate 23821
Los 23817
surveys 23809
4th 23803
comprising 23802
IP@@ 23784
dramatic 23784
Flow 23781
packing 23781
def@@ 23779
Harvard 23768
sauce 23763
consistently 23757
appraisal 23756
brave 23747
izes 23740
upgrade 23739
tide 23733
stri@@ 23729
immunity 23726
kin@@ 23718
Terrorism 23716
revision 23716
cheese 23713
coupled 23707
perception 23701
Syria 23696
verify 23695
holidays 23691
journalists 23690
1989 23688
inv@@ 23688
distinction 23687
Cell 23678
St. 23670
themes 23666
Is@@ 23664
ining 23660
manufacturer 23658
.1 23645
arguments 23642
pursuing 23641
sacrifice 23638
tennis 23631
Employment 23630
notion 23605
spite 23604
steal 23604
detained 23598
fun@@ 23593
Upon 23589
broadcast 23589
bor@@ 23588
facial 23587
burned 23585
slip 23583
inquiry 23579
breach 23574
ignore 23563
conditioning 23562
Denmark 23549
occasions 23547
250 23543
Show 23539
optimum 23533
instances 23527
compulsory 23513
arian 23511
enthusiasm 23496
Sil@@ 23495
Windows 23494
breeding 23494
writers 23494
Xi@@ 23488
awards 23485
activated 23484
Arabia 23480
Detection 23478
clo@@ 23474
mobility 23470
Yunnan 23461
gang 23452
ined 23451
person@@ 23450
Communist 23443
pipeline 23442
demonstration 23436
Ke@@ 23434
associate 23431
bureau 23431
Dem@@ 23428
bin 23428
cylinder 23421
friction 23406
incentives 23405
precisely 23405
bell 23403
coherent 23399
landing 23395
tre@@ 23383
dro@@ 23379
transmit 23379
ep 23376
accomplished 23375
Budget 23371
moderate 23369
Drug 23368
approve 23367
strip 23365
Over@@ 23363
hu 23361
argued 23359
radical 23355
progressive 23347
Peru 23343
systematically 23340
Fire 23333
ideological 23328
temperatures 23322
breathing 23316
varieties 23315
Educational 23314
grows 23312
Forms 23307
shore 23306
CA@@ 23300
port@@ 23296
moisture 23288
ancy 23287
limitation 23287
renewed 23283
Chongqing 23282
Fer@@ 23282
jumped 23282
bulk 23276
Relations 23273
pole 23271
consisting 23264
flowing 23264
retain 23256
Additional 23253
executed 23251
kidney 23249
Bri@@ 23240
Coordinator 23237
Palestinians 23234
od 23234
politicians 23232
liberty 23223
span 23221
cute 23215
reaches 23210
kg 23206
harvest 23203
dragon 23200
mutually 23193
Call 23188
Double 23172
mercury 23169
Nepal 23167
ti 23160
weakness 23158
Nairobi 23156
Long@@ 23154
gotten 23153
departure 23150
ians 23150
adjustments 23149
hired 23142
rep@@ 23139
5,000 23133
stolen 23129
spl@@ 23117
interventions 23116
maternal 23115
gentle 23102
newspapers 23100
cord 23093
Croatia 23090
rental 23086
surplus 23082
iling 23080
app 23076
automobile 23075
centuries 23075
bowl 23072
seized 23070
invasion 23068
platforms 23068
deemed 23067
greenhouse 23064
swear 23060
prince 23045
Nanjing 23038
Supply 23036
rod 23035
screening 23033
swim 23025
geological 23024
texts 23019
Notes 23016
publicly 23014
Preparatory 23013
Moscow 23012
winner 23012
Out 23007
ication 23005
transfers 23003
Rel@@ 23001
attitudes 22995
ss 22994
tively 22991
ba@@ 22989
shipment 22988
comparing 22979
generator 22979
Source 22974
Conclusions 22966
assure 22966
pon@@ 22963
Wow 22956
lending 22948
Coal 22942
IM@@ 22939
Blood 22935
tenth 22930
Ram@@ 22916
Agent 22911
ala 22908
questionnaire 22906
Transfer 22905
hadn 22896
ran@@ 22895
qi 22891
shear 22890
blade 22880
hire 22880
ov 22874
isolation 22872
Establishment 22869
hurry 22865
Czech 22864
dri@@ 22861
phases 22861
Daniel 22855
remedies 22851
closure 22850
residual 22850
Unless 22845
freedoms 22845
nationals 22845
pricing 22845
Ger@@ 22843
Muslim 22838
pink 22837
impose 22836
biology 22835
utilized 22832
Cha@@ 22821
safeguards 22819
accommodation 22818
Out@@ 22817
yer 22815
angel 22803
nan@@ 22803
Mi@@ 22802
criterion 22801
tremendous 22799
A.@@ 22798
abundant 22798
investor 22797
distant 22793
ese 22791
letting 22790
red@@ 22790
hotels 22780
Bible 22775
5,@@ 22773
sted 22767
Add 22764
prof@@ 22762
ID@@ 22759
proteins 22754
Processing 22751
ju@@ 22746
reduces 22740
spec@@ 22736
referring 22734
engineer 22729
neutral 22729
probe 22727
consultative 22726
dioxide 22724
@ 22721
equilibrium 22716
Access 22713
owns 22708
enzyme 22704
masses 22704
Forest 22694
mandated 22687
concert 22686
warming 22677
M. 22671
resist 22670
virtue 22668
Atlantic 22665
restoration 22650
ministerial 22648
climb 22647
reportedly 22646
Rice 22632
meth@@ 22628
conjunction 22623
bubble 22622
Hangzhou 22613
Dear 22603
Compl@@ 22593
correction 22593
ini 22587
rivers 22585
Looking 22584
· 22579
qualification 22578
query 22577
deliberations 22568
blast 22562
fold 22557
Por@@ 22553
discriminatory 22553
predicted 22552
captured 22551
stake 22551
inate 22550
reaffirmed 22543
outline 22542
snow@@ 22534
thorough 22533
bite 22532
sponsors 22523
Cambodia 22518
outs 22514
tot@@ 22513
coding 22509
grasp 22501
modules 22499
odd 22496
pulmonary 22495
delays 22485
part@@ 22483
checks 22478
Cs 22476
Jin@@ 22474
overview 22469
fought 22468
isi@@ 22468
Physical 22466
script 22462
knee 22461
Bob 22458
onal 22458
10,000 22456
renal 22455
add@@ 22449
bon@@ 22445
sup@@ 22443
factories 22440
sensing 22436
evident 22435
metals 22434
mol@@ 22424
ladies 22418
00@@ 22416
districts 22409
versions 22407
phenomena 22406
kilometers 22400
indirect 22394
Steve 22393
nights 22393
tear 22393
simulated 22392
exploring 22382
attribute 22379
exported 22376
Grand 22369
fails 22363
pul@@ 22361
adequately 22358
amine 22353
ignored 22352
thoroughly 22349
Ed@@ 22346
Hu 22335
Biological 22334
NO@@ 22331
conscious 22315
fathers 22311
pleasant 22311
Representatives 22306
disclosure 22300
leisure 22300
Procedure 22297
label 22296
Others 22294
countermeasures 22288
Mobile 22287
zi 22280
ben@@ 22275
Applications 22274
kick 22273
defect 22265
rest@@ 22261
ble@@ 22257
rank 22254
Jiangsu 22245
journal 22239
7.@@ 22236
severely 22233
py 22232
assurance 22230
mill 22230
Limited 22229
athletes 22220
Char@@ 22212
ink@@ 22212
50@@ 22209
sponsored 22209
tackle 22203
obtaining 22199
Sri 22196
vaccine 22195
1988 22192
Used 22180
Joseph 22178
1.5 22174
asia 22155
Emergency 22152
stepped 22152
wooden 22149
Marine 22148
attending 22144
bra@@ 22144
Serbia 22139
Macao 22131
ams 22126
investigating 22122
pec@@ 22119
gro@@ 22118
roughly 22115
certificates 22111
inspiration 22110
Accounting 22108
Church 22106
cavity 22096
counsel 22083
sible 22077
guards 22075
lord 22072
wan 22067
Swiss 22066
gy 22065
provider 22065
balls 22064
enjoying 22056
preservation 22055
GM 22053
judiciary 22051
ied 22048
Moses 22047
Sk@@ 22042
fu 22041
tropical 22033
Help 22030
Private 22030
develops 22028
ailing 22025
Don@@ 22020
rolled 22020
Works 22014
surrounded 22011
ax 22003
executives 22003
Wal@@ 22002
bitter 21994
flavor 21993
transformed 21984
remembered 21979
willingness 21974
bun@@ 21970
Pri@@ 21966
extending 21965
za 21963
accomplish 21961
divide 21959
compromise 21953
evaluating 21950
voters 21947
damages 21945
sheets 21943
IMF 21937
Logistics 21933
advised 21932
listing 21932
alities 21927
purchasing 21920
Branch 21912
formulate 21902
engaging 21900
engineers 21898
mandatory 21895
sters 21893
yan 21888
translated 21887
Algeria 21886
Buddha 21886
defining 21885
instant 21883
Gene 21882
modalities 21881
sen 21881
infrared 21880
9.@@ 21877
PL@@ 21877
7,@@ 21873
singer 21872
Against 21870
reactions 21869
forums 21868
pay@@ 21863
Ministerial 21861
subsidies 21860
Son 21858
bling 21854
Index 21850
80@@ 21846
declare 21841
nodes 21840
Communications 21831
hung 21829
NE@@ 21822
spreading 21821
Refugees 21820
ologists 21820
TO@@ 21817
beef 21817
complications 21810
berg 21804
hear@@ 21803
lifting 21796
Material 21795
batch 21789
encounter 21786
Bre@@ 21782
liabilities 21771
Kyoto 21768
expressing 21768
pursued 21768
motivation 21764
painted 21761
breaks 21760
rer 21754
wondering 21750
aggressive 21749
ao@@ 21747
Film 21746
Promotion 21734
passes 21725
atively 21722
mixing 21722
Hoc 21721
oms 21719
Reduction 21715
iled 21711
backed 21710
dam 21703
ith@@ 21703
rocket 21700
Republican 21697
Along 21693
8.@@ 21690
lateral 21688
walks 21684
van 21682
acti@@ 21663
0.05 21661
interviews 21658
trigger 21652
AI 21649
muscles 21649
scanning 21647
math 21641
antly 21640
List 21636
jail 21634
Watch 21624
Fre@@ 21614
Portugal 21614
abstract 21612
Nice 21606
Making 21602
ano 21599
countryside 21594
remedy 21594
Pressure 21593
Cun 21591
inequality 21584
networking 21584
dering 21581
intend 21577
tle 21576
opens 21574
bunch 21573
Tra@@ 21572
Angeles 21564
regulated 21561
Exhibition 21560
dissertation 21555
structured 21555
Town 21553
producer 21548
secrets 21545
handled 21544
lifestyle 21538
Reserve 21531
petroleum 21521
scenario 21518
impressive 21510
directory 21504
Improvement 21496
Sales 21491
nuts 21490
wal@@ 21490
specifications 21489
plot 21486
generous 21479
eting 21478
admission 21477
Yellow 21470
circles 21469
chat 21463
alternatives 21462
promises 21462
valley 21460
microwave 21457
behaviors 21453
Venezuela 21447
shortly 21443
palace 21439
pitch 21432
Chengdu 21430
Series 21430
60@@ 21425
6,@@ 21421
sentenced 21418
ram@@ 21414
Xinjiang 21411
Pat@@ 21404
diesel 21397
negotiating 21396
conducive 21391
ugly 21382
assessing 21375
beijing 21371
packed 21355
healing 21345
cop@@ 21344
ony 21342
Impact 21341
farmer 21333
iii 21328
horses 21327
qing 21323
ified 21317
marking 21308
hazardous 21307
nurse 21304
delicate 21302
seller 21302
entrepreneurs 21298
meals 21295
removing 21283
tl@@ 21281
qui@@ 21277
quantum 21276
ethical 21274
patience 21273
cope 21271
somehow 21270
Do@@ 21264
revenues 21261
flights 21259
consolidated 21251
Electro@@ 21249
Situation 21244
clarify 21244
scenery 21240
sorts 21238
Gre@@ 21236
CS@@ 21232
Paper 21230
Angola 21226
shake 21226
tra@@ 21221
flew 21219
fitness 21218
credibility 21217
duc@@ 21217
Thought 21207
ori@@ 21207
vegetable 21206
Port 21205
Super@@ 21201
recovered 21199
Annual 21195
diagnostic 21191
throat 21187
Sun@@ 21184
embargo 21184
confused 21181
independently 21181
War@@ 21175
indication 21174
texture 21173
download 21172
traditions 21164
entr@@ 21158
barely 21148
assumption 21141
measurements 21135
contingent 21134
handsome 21132
contest 21131
edition 21131
targeting 21128
mask 21126
hey 21114
perceived 21107
main@@ 21104
bamboo 21101
IL@@ 21090
Hope 21084
neighborhood 21084
ali@@ 21083
alistic 21081
inputs 21077
Cr@@ 21070
wherever 21069
Tor@@ 21065
sp 21064
Mul@@ 21056
wastewater 21053
2,000 21049
Much 21049
proceeds 21048
sophisticated 21047
Rule 21046
constituted 21043
act@@ 21036
lip 21031
ney 21031
attributes 21027
pressed 21023
tier 21021
outlook 21016
complement 21014
passport 21013
FOR 21006
grey 21004
electronics 20981
mud 20978
v. 20977
black@@ 20973
consistency 20969
lat@@ 20969
atomic 20966
Charlie 20961
abnormal 20960
launching 20960
unions 20952
Cases 20947
Jin 20946
partially 20940
Statute 20938
ured 20934
farming 20930
grants 20922
terrorists 20922
waited 20919
Preliminary 20917
Gl@@ 20912
issuance 20905
shed 20898
Mat@@ 20890
ith 20887
Cold 20883
poem 20880
hence 20879
indispensable 20870
formally 20865
silicon 20862
Zhen 20856
chi@@ 20854
purple 20851
Doctor 20838
improves 20836
envisaged 20834
Stock 20832
queen 20825
shame 20819
convenience 20815
Award 20814
.It 20812
immun@@ 20805
rabbit 20803
Texas 20800
ogenic 20800
Reading 20792
deadline 20786
Hold 20785
mic@@ 20784
march 20782
twelve 20780
couples 20773
scan 20768
chi 20767
orbit 20767
boundaries 20763
allo@@ 20762
judgement 20758
Railway 20756
2.5 20754
financed 20753
loads 20749
shower 20747
Standards 20745
900 20744
Santa 20742
bled 20742
consult 20741
ometric 20735
dered 20729
ices 20718
dic@@ 20716
rating 20716
CP@@ 20714
Hor@@ 20709
sphere 20707
Cre@@ 20703
Azerbaijan 20689
supplied 20677
perspectives 20665
pants 20664
ever@@ 20662
presidency 20662
Securities 20660
surfaces 20657
AS 20647
explored 20644
wars 20644
transitional 20634
instability 20630
Hunan 20629
optimize 20628
prayer 20624
sufficiently 20618
ce@@ 20617
Bro@@ 20614
clinic 20612
NPT 20607
auction 20605
electromagnetic 20603
riding 20602
realizing 20599
sisters 20595
substantially 20593
ster@@ 20588
receives 20585
Lin@@ 20583
trick 20582
Ho@@ 20579
Def@@ 20565
Sul@@ 20559
clay 20556
deficiency 20555
institute 20555
conception 20554
unexpected 20553
rev@@ 20551
toys 20550
Iron 20549
investing 20549
specially 20549
gel 20543
dil@@ 20542
reader 20538
ceramic 20534
io 20534
Airport 20533
Te@@ 20533
activation 20530
mystery 20520
Automatic 20519
ruled 20519
conviction 20517
studio 20512
hunting 20499
borrow 20493
tures 20482
notification 20480
positioning 20478
fitting 20475
Competition 20471
ula 20462
pc 20450
varied 20442
trillion 20439
weekly 20437
Armed 20433
wed 20431
Capacity 20430
flash 20429
failing 20427
Belarus 20415
Find 20410
Recent 20410
charity 20405
Regarding 20401
detecting 20401
intermediate 20401
vascular 20397
automation 20393
grab 20390
Acid 20384
Too 20383
Comparative 20379
1980s 20373
Han@@ 20373
Senate 20371
ree 20360
owed 20356
recognizing 20356
prompt 20352
Noting 20349
regulating 20346
Experience 20345
voted 20341
emphasizes 20334
passive 20334
acids 20329
shi@@ 20329
struggling 20329
lifted 20325
daughters 20320
publishing 20319
illa 20314
metres 20314
NGO 20312
cited 20304
Mis@@ 20302
earliest 20299
technician 20293
swing 20292
Identification 20291
zinc 20290
missiles 20289
Guidelines 20279
consulting 20262
ric@@ 20262
chains 20260
educated 20258
fa 20258
Calls 20257
cs 20255
AN 20253
deny 20253
exp@@ 20248
Costa 20245
time@@ 20244
reactor 20242
tensions 20242
eliminating 20241
Disease 20234
rows 20233
identical 20230
ologist 20226
fs 20223
electrode 20221
19th 20204
outdoor 20200
Concrete 20190
outputs 20190
prevented 20189
engines 20187
inherent 20185
treatments 20183
Huang 20180
es. 20177
reception 20165
Observation 20162
distinguished 20161
spray 20160
long@@ 20158
bow 20153
varying 20150
beliefs 20149
ici@@ 20144
atin 20142
ounding 20139
environmentally 20137
hip 20137
Learn 20134
slide 20134
advise 20133
reveals 20133
essay 20128
25@@ 20127
neighbors 20125
rear 20123
bly 20118
wounded 20109
Fed 20107
zo@@ 20106
thrown 20102
worn 20102
uring 20101
Age 20094
1980 20091
tragedy 20081
bears 20078
noble 20075
cruel 20074
dian 20074
Defence 20069
spinal 20064
accountable 20063
beans 20058
notably 20058
TR@@ 20055
vis 20055
kes 20051
promotes 20045
reg@@ 20044
dominated 20043
incorporate 20041
Sciences 20032
ry@@ 20031
pan 20028
cam@@ 20025
freeze 20024
Dong@@ 20020
Companies 20019
biodiversity 20017
Jones 20011
contractors 20010
ranking 20008
vitamin 20007
Approach 20006
Personal 20001
isation 19999
viable 19997
figured 19996
Course 19994
day@@ 19994
atives 19988
jacket 19987
transmitting 19977
witnessed 19976
hon@@ 19973
&apos;an 19972
200@@ 19970
exceptional 19965
Again 19950
salaries 19950
eternal 19949
planting 19946
authorization 19944
ner@@ 19939
incredible 19937
berry 19935
AL 19931
epidemic 19930
procedural 19929
extr@@ 19928
shoe 19911
ket 19910
Related 19907
assured 19907
ministries 19905
28@@ 19904
gon@@ 19903
Gold 19902
ify 19902
ity@@ 19896
proves 19896
show@@ 19892
aph@@ 19888
hood 19888
UNOPS 19886
ential 19878
AC 19877
&apos;s@@ 19873
protocols 19872
Elizabeth 19871
Introduction 19871
switching 19869
ita 19867
designers 19866
diffusion 19861
pit 19861
xi@@ 19861
sing@@ 19858
qualifications 19856
Experiment 19855
Mode 19851
clubs 19851
&apos;Cause 19850
tends 19850
sunshine 19848
Teachers 19843
apping 19843
inch 19837
adjusting 19832
telecommunications 19827
drying 19824
.2 19822
needle 19819
rigid 19819
graduated 19818
graduation 19814
Square 19813
was@@ 19807
researched 19805
hypo@@ 19804
fisheries 19797
requesting 19791
Ham@@ 19785
mitigation 19776
Equality 19767
applicants 19766
Gulf 19764
placing 19761
emergence 19751
shorter 19750
tile 19750
governor 19747
Gi@@ 19745
withdraw 19742
bles 19741
L. 19734
rope 19728
edly 19727
incurred 19726
mus@@ 19723
Treasury 19721
IR@@ 19719
dynasty 19712
supplementary 19696
Consequently 19694
league 19692
Testing 19691
minimize 19691
autonomy 19690
oth 19687
amed 19684
1000 19680
charging 19666
ref@@ 19661
mediation 19651
mg 19648
Bangladesh 19647
priest 19646
handicrafts 19644
ater 19638
Xiao 19636
sting 19634
dont 19628
arch 19624
MR 19623
matches 19621
neighbouring 19621
royal 19618
Cam@@ 19617
Isn 19617
stretch 19613
selecting 19609
Combined 19608
Ask 19604
endless 19601
sman 19598
stimulate 19597
woods 19593
cho@@ 19592
trap 19589
cats 19588
Yan 19583
Countermeasures 19577
2020 19574
occupational 19566
stu@@ 19565
Jewish 19563
gods 19559
punished 19557
hath 19555
inger 19548
Full 19545
pin@@ 19541
son@@ 19540
Cat@@ 19526
gran@@ 19526
Shi 19525
grades 19524
poses 19523
threatening 19518
warehouse 19516
Form 19514
speaks 19511
Eritrea 19499
Resistance 19496
Xiang 19496
placement 19496
Inv@@ 19485
constructing 19482
beneath 19478
magnitude 19474
infant 19470
shots 19466
stipulated 19466
May@@ 19458
ris@@ 19456
erosion 19451
solvent 19451
Guatemala 19444
Dan 19443
scenes 19443
Saint 19438
immigrants 19437
fragile 19436
linking 19431
eaten 19427
intends 19418
incentive 19411
appreciated 19409
bus@@ 19404
maps 19404
spell 19404
password 19400
Were 19396
toilet 19396
expects 19394
24@@ 19393
ranks 19386
Problem 19383
Ju@@ 19380
drops 19380
convergence 19379
AT 19378
stops 19377
avoiding 19376
Pu@@ 19375
pays 19375
Fu 19364
View 19363
mac@@ 19362
architectural 19354
unnecessary 19350
int 19349
oping 19348
rings 19344
expecting 19336
routes 19333
Max 19320
disappointed 19319
wastes 19317
Credit 19313
eager 19313
influencing 19313
ASEAN 19312
upgrading 19308
demonstrates 19305
Observer 19300
importantly 19299
Wor@@ 19296
pharmaceutical 19295
urbanization 19295
voices 19294
accession 19288
acknowledge 19286
drag 19284
golf 19281
FDI 19276
phosph@@ 19269
ena 19268
defines 19266
basket 19265
spirits 19264
slight 19260
Violence 19253
gently 19250
odi@@ 19250
airspace 19249
cease 19248
uni@@ 19248
popularity 19243
Sc@@ 19237
comparable 19233
Thinking 19232
Hollywood 19228
disc 19228
colored 19227
Peacebuilding 19226
differentiation 19224
alert 19223
verified 19217
fulfilled 19211
sy@@ 19211
Comp@@ 19206
liber@@ 19198
ambitious 19197
optimized 19197
junior 19194
J. 19191
Lanka 19191
celebration 19191
workplace 19189
continuation 19188
conservative 19186
ection 19181
gay 19178
Got 19177
Tony 19169
pot@@ 19168
2018 19167
Tim@@ 19167
wore 19167
meanwhile 19164
enter@@ 19153
consultants 19152
modest 19152
icate 19147
respiratory 19142
crossed 19138
Way 19137
Multi@@ 19136
wavelet 19134
Increased 19128
Role 19128
premium 19128
merits 19126
rises 19118
allies 19116
aded 19113
elled 19112
compact 19109
bet@@ 19103
eff@@ 19103
school@@ 19102
compl@@ 19100
attempted 19082
processor 19082
Johnson 19074
tribute 19073
justified 19072
shapes 19066
panic 19065
ere@@ 19055
ing.@@ 19049
charm 19044
adapted 19042
avoided 19034
carriage 19033
blessing 19030
emp@@ 19030
fulness 19028
mul@@ 19027
Always 19023
literacy 19018
protest 18992
Hence 18983
safely 18983
Resolution 18981
emperor 18980
ea 18977
monitored 18976
scientist 18972
Radio 18967
Anyway 18966
ills 18960
Florida 18959
planted 18957
websites 18956
a.@@ 18953
virtually 18952
spar@@ 18950
oper@@ 18948
wolf 18941
Kazakhstan 18938
cattle 18937
perpetrators 18937
rape 18937
laundering 18928
Fin@@ 18927
maintains 18923
adjacent 18922
UNRWA 18919
E.@@ 18917
sd 18914
tissues 18912
ashes 18910
brick 18904
Care 18900
complementary 18898
RA@@ 18897
Tibet 18896
aying 18895
dried 18893
molecules 18879
Euro@@ 18875
irrigation 18871
bold 18867
DE@@ 18866
colorful 18861
negotiate 18857
aria 18856
fantastic 18855
sooner 18853
macro 18852
purchased 18843
ich 18840
interactions 18836
cameras 18834
100,000 18828
P.@@ 18825
ulated 18825
lecture 18822
definitions 18818
roller 18815
retired 18809
Improving 18804
decoration 18804
Wu@@ 18803
quantities 18801
sto@@ 18799
Daddy 18797
Integration 18797
Water@@ 18793
toy 18792
Chang@@ 18791
quarters 18791
ideology 18790
mechanics 18790
shelf 18790
amid 18789
establishes 18785
crowded 18784
bother 18777
indoor 18769
Response 18766
Ecuador 18765
sectoral 18765
dependence 18764
aching 18758
Lastly 18754
ED@@ 18751
GPS 18746
Ten 18741
low@@ 18734
permits 18734
retained 18733
medicines 18724
uck 18723
dle 18720
None 18715
coronary 18715
10.@@ 18714
embrace 18714
sensors 18714
destiny 18708
Reg@@ 18706
Audit 18699
differently 18690
Contract 18684
planes 18682
bleeding 18680
inheritance 18679
racism 18677
modify 18676
picking 18672
flu 18670
steadily 18665
circulated 18664
7th 18662
Rather 18658
tian 18657
vein 18648
Dutch 18647
sem@@ 18644
sustain 18642
&apos;clock 18640
Cancer 18636
terror 18634
Governor 18629
ishes 18629
lev@@ 18623
mild 18623
disappear 18621
displays 18620
firstly 18618
tract 18618
Effective 18606
coll@@ 18604
Jackson 18603
Non@@ 18603
Defense 18602
alliance 18602
reinforce 18602
Bon@@ 18594
reserved 18594
esti@@ 18593
Baby 18592
5th 18589
cro@@ 18588
Alliance 18585
ara 18582
ville 18582
chaos 18581
mic 18581
sth 18581
lif@@ 18575
affordable 18573
Rev@@ 18571
attributable 18569
70@@ 18567
highlights 18559
meantime 18559
fulfill 18557
outreach 18555
clever 18553
continuity 18553
Xu 18552
stro@@ 18542
Garden 18535
yp@@ 18534
globe 18527
literally 18525
grav@@ 18522
breathe 18518
Universal 18517
P. 18514
Excellency 18511
insolvency 18507
9,@@ 18500
advancing 18481
keen 18481
accelerated 18480
cabinet 18474
hur@@ 18473
Almost 18472
Romania 18472
cou@@ 18469
mercy 18468
dining 18465
Better 18461
counting 18456
durable 18455
elaborate 18452
bra 18450
neighbor 18450
affair 18449
oldest 18449
Overall 18448
elite 18448
peacebuilding 18448
Oversight 18443
surprising 18439
py@@ 18437
promptly 18433
converted 18428
shoulders 18420
Read 18419
boom 18415
gases 18414
Content 18413
amino 18411
stole 18411
ski 18410
conf@@ 18407
pie 18398
delivering 18397
Stress 18392
wives 18379
obstacle 18373
confusion 18371
sizes 18365
Calculation 18363
imperative 18361
novels 18360
chloride 18358
mysterious 18357
mi 18354
Summer 18352
contractual 18349
Mad@@ 18347
conc@@ 18346
Jiang 18339
curious 18339
ho 18338
serial 18338
cardiac 18336
creatures 18336
desirable 18335
grinding 18333
Budgetary 18331
Doha 18326
dom@@ 18324
reminded 18320
peripheral 18319
Lady 18310
draws 18309
smiling 18304
creditors 18301
wei 18300
bits 18299
impunity 18297
analyst 18294
rain@@ 18293
Century 18292
div@@ 18289
regression 18287
freight 18285
distinguish 18284
pulling 18281
cooked 18279
databases 18273
aming 18272
invented 18270
customary 18269
27@@ 18268
bury 18267
fierce 18266
Period 18262
ious 18261
S.@@ 18254
recalls 18253
rence 18252
Fujian 18247
wondered 18247
ammunition 18245
Louis 18242
diagram 18242
demobilization 18240
physically 18240
shield 18239
Golden 18237
Teacher 18237
concentrations 18233
transnational 18233
libraries 18231
Bor@@ 18229
confirmation 18229
alike 18228
swe@@ 18225
induction 18224
Except 18218
listened 18205
Want 18203
cellular 18200
fying 18197
fried 18194
Summary 18193
din@@ 18193
termination 18192
selective 18187
Poverty 18184
bush 18183
OECD 18182
iPhone 18182
shallow 18182
adopts 18180
yoga 18178
parliament 18175
methyl 18172
eh 18171
tag 18171
mile 18169
flo@@ 18164
aled 18163
Tar@@ 18157
risen 18153
ition 18152
hun@@ 18151
wind@@ 18148
licence 18146
washed 18144
EN 18143
substitute 18137
lease 18136
Up@@ 18135
Top 18133
Intergovernmental 18132
ultra 18128
decisive 18120
Exc@@ 18102
vel@@ 18102
panels 18101
Ku@@ 18100
ATION 18099
stance 18099
No.@@ 18096
expectation 18096
retention 18089
Spec@@ 18088
laughing 18085
Tibetan 18079
Heart 18076
su 18076
ED 18070
oted 18070
reasonably 18070
shine 18065
Libyan 18057
optimistic 18057
objection 18055
insist 18053
inhabitants 18044
debts 18041
Statistical 18034
Taliban 18034
poet 18034
considerably 18029
impressed 18027
metabolism 18027
Adam 18018
eu@@ 18018
Advanced 18009
Municipal 18007
boats 18007
Tu@@ 17999
eter 17996
valuation 17989
cheaper 17986
lig@@ 17980
Literature 17976
crown 17976
FBI 17975
packages 17968
liable 17967
ote 17966
lend 17961
tran@@ 17949
Student 17947
mur@@ 17947
I.@@ 17941
balances 17937
AR 17933
prejudice 17926
album 17925
statutory 17923
succeeded 17920
determines 17909
vacancy 17907
get@@ 17896
accumulated 17895
empirical 17888
Tanzania 17887
ga@@ 17886
graphy 17885
lining 17885
sexual 17883
oun@@ 17881
grandfather 17880
noon 17880
pping 17878
Heads 17872
seas 17868
Word 17867
Ga@@ 17866
Mechanical 17863
thr@@ 17854
compatibility 17853
ini@@ 17853
solely 17850
soccer 17847
stainless 17847
there@@ 17844
travelling 17842
Hon@@ 17839
sewage 17838
examining 17833
110 17832
Dar@@ 17831
Developed 17830
blank 17829
ectomy 17826
contractor 17825
Roma 17824
convicted 17823
Otherwise 17815
tel@@ 17814
volunteer 17808
drives 17806
Cu@@ 17801
contracting 17797
preference 17797
ghost 17788
sharply 17786
wa 17784
IF@@ 17783
Eg 17781
influential 17767
butter 17763
Stay 17757
unlike 17756
aiming 17755
26@@ 17753
Money 17748
debris 17748
zes 17748
nat@@ 17747
Fo@@ 17746
evaluations 17746
servers 17746
tes 17746
fertilizer 17742
cervical 17739
bers 17737
temporarily 17736
infinite 17734
complain 17730
pour 17728
aining 17727
Laser 17726
evolved 17725
upcoming 17725
reads 17722
cheng 17721
minded 17720
positively 17715
HPLC 17712
attach 17711
ion@@ 17711
devil 17708
prosperous 17699
dawn 17695
peer 17695
intent 17691
portal 17691
resolving 17686
Diagnosis 17684
clearing 17681
garbage 17681
ker@@ 17681
Leste 17680
ame@@ 17680
Ur@@ 17679
mounted 17676
amounted 17671
、 17670
insisted 17666
dumping 17664
fibers 17662
Official 17660
Mas@@ 17659
gentlemen 17657
sum@@ 17651
agrees 17650
motivated 17648
Transitional 17647
itated 17647
Marketing 17646
adhere 17646
Stability 17645
talented 17645
Recognizing 17641
GIS 17635
bent 17635
Exploration 17634
Monetary 17632
drainage 17631
goodbye 17630
consist 17628
tracks 17628
Xia@@ 17627
computation 17625
gastric 17625
vo@@ 17625
forestry 17616
23@@ 17609
AM 17609
Net 17604
Price 17604
hard@@ 17604
Domestic 17603
chips 17602
cut@@ 17597
Mainland 17594
pity 17594
bending 17591
Alex 17587
tives 17586
locking 17583
lit 17582
IBM 17580
suggesting 17580
explicitly 17574
CC@@ 17572
linkages 17570
respects 17564
aire 17556
hot@@ 17553
locally 17549
lan 17547
disciplinary 17545
sect 17543
stopping 17534
volatile 17534
publicity 17532
vocabulary 17531
cop 17530
experiencing 17529
Sin@@ 17526
interval 17521
Wen 17520
capita 17519
Vol@@ 17515
dr 17513
rival 17511
trusted 17511
01 17510
hs 17509
attributed 17508
exclusively 17506
lacking 17503
wealthy 17501
Si 17500
Donald 17498
anxious 17498
Unlike 17497
futures 17494
izer 17492
Ni 17490
duck 17487
exclusion 17486
Alice 17478
Hungary 17471
Ok 17470
finishing 17470
mold 17462
preceding 17461
Amazon 17452
juvenile 17450
Xu@@ 17448
undermine 17448
argues 17447
accepting 17442
restriction 17442
textile 17441
coun@@ 17437
brains 17436
bridges 17435
publish 17434
poems 17433
Peoples 17432
Henan 17431
xing 17428
Direct 17426
nt 17426
ja 17421
rated 17420
Labor 17418
recycling 17413
asted 17412
Berlin 17411
EL@@ 17410
grandmother 17410
photography 17406
Francisco 17403
columns 17399
Am 17398
tz 17397
ural 17397
PE@@ 17396
dozens 17393
elementary 17393
Drugs 17391
apologize 17391
beating 17391
updates 17390
globally 17389
Soon 17386
dic 17386
Selection 17385
tab@@ 17385
Carbon 17384
pine 17380
knock 17379
ensures 17378
Ancient 17369
stairs 17355
gentleman 17351
Gra@@ 17348
Start 17346
drill 17344
suits 17344
tap 17344
MS 17343
Solution 17341
bidding 17341
advocate 17340
copyright 17340
exhausted 17339
facilitated 17335
qualitative 17335
Feng 17334
disorders 17333
trains 17333
indexes 17331
submissions 17329
pressures 17325
raises 17325
demanding 17324
writes 17324
1986 17322
ashed 17322
CN@@ 17320
exc@@ 17317
wu 17317
90@@ 17316
Poor 17314
Mediterranean 17306
cousin 17304
law@@ 17303
alien 17292
ura 17291
Iranian 17290
Moon 17288
pointing 17288
blocked 17287
bc 17286
Activity 17284
Auditors 17283
ank 17279
convey 17268
Organic 17267
Dragon 17265
Mao 17265
Death 17261
supplement 17256
diagnosed 17255
lab@@ 17255
stamp 17255
narrative 17254
Ko@@ 17253
kindness 17253
pupils 17252
tanks 17252
cli@@ 17251
relaxed 17248
ands 17241
aster 17240
Judge 17238
Session 17231
buffer 17231
fastest 17228
entrusted 17226
intake 17224
tit@@ 17224
cin@@ 17218
questioned 17218
acoustic 17215
glucose 17213
issuing 17211
y. 17210
ora 17206
enforce 17195
citizenship 17193
explicit 17191
pigs 17190
Basin 17187
parks 17186
prevalence 17184
&apos;I 17183
ket@@ 17183
Chang 17182
supporters 17182
favourable 17180
thirds 17179
watts 17179
Pet@@ 17176
pets 17173
receptor 17168
ki@@ 17167
Hill 17166
breakdown 17165
ulating 17165
UNCITRAL 17157
CL@@ 17153
fraction 17153
freezing 17149
foundations 17145
heated 17144
winds 17143
vis@@ 17140
metric 17133
Jing@@ 17132
cru@@ 17128
Counter 17120
failures 17119
alongside 17112
heal 17111
dc 17110
trapped 17108
du 17107
utilize 17107
taxation 17105
Ghana 17101
Principle 17101
hook 17099
economical 17098
sid@@ 17096
fc 17095
favourite 17083
transplantation 17081
ophy@@ 17079
Chi@@ 17078
infections 17078
pertaining 17073
mobilize 17072
uo 17069
enters 17066
malaria 17063
Deep 17052
amp 17049
Nowadays 17045
disadvantages 17043
fancy 17042
smiled 17042
Rose 17038
powered 17028
after@@ 17027
macroeconomic 17026
phy@@ 17024
emia 17023
interpreted 17023
PP@@ 17020
operates 17018
accomplishments 17016
sorrow 17015
uncertain 17015
laying 17013
minerals 17006
affection 17003
Mass 17002
idity 17002
physiological 17000
stranger 16998
describing 16994
mal 16993
liaison 16992
esses 16991
extracted 16991
ners 16991
english 16986
infl@@ 16986
hex@@ 16984
Considering 16980
gan@@ 16980
ington 16979
Genetic 16975
Listing 16972
CI@@ 16969
Cas@@ 16968
leakage 16965
rhythm 16959
tv 16959
organisations 16955
template 16955
compatible 16954
Chad 16951
curves 16950
systemic 16934
Village 16933
disclosed 16932
consolidate 16929
matched 16927
champion 16919
ender 16919
Twenty 16918
house@@ 16916
photographs 16911
slave 16911
administered 16909
ins@@ 16903
cel@@ 16900
desertification 16899
Document 16897
ained 16894
Jean 16889
Rica 16889
anth@@ 16888
dressing 16887
certified 16884
tos@@ 16883
Ra@@ 16882
Barack 16881
cow 16879
hypertension 16878
parliamentary 16878
eration 16875
cra@@ 16872
Additionally 16871
Tower 16870
striking 16870
alignment 16864
pped 16864
excluded 16863
inj@@ 16863
pretend 16862
Workers 16857
hazard 16857
price.Our 16856
shortcomings 16849
aunt 16846
Ret@@ 16838
chlor@@ 16828
： 16827
New@@ 16826
contributes 16823
governed 16814
tangible 16813
cycles 16812
delegates 16810
urgency 16810
Things 16805
pale 16804
videos 16802
Pursuant 16801
Mus@@ 16800
Rate 16799
rays 16796
inflammatory 16794
Generally 16792
ulate 16791
adventure 16790
Bra@@ 16788
sul@@ 16787
throwing 16787
variations 16786
enforced 16785
cadres 16784
Gal@@ 16783
creature 16779
Hebei 16778
economists 16778
Lab@@ 16775
phot@@ 16767
ave 16766
celebrated 16766
ement@@ 16766
standardized 16760
tiger 16760
absorb 16758
popul@@ 16754
6th 16753
Traffic 16752
sion@@ 16751
lied 16749
Hot 16743
equipments 16741
1987 16739
Behavior 16738
8,@@ 16737
allegedly 16736
NATO 16731
Temple 16727
GEF 16726
cultivate 16720
accommodate 16719
limiting 16717
pic@@ 16717
flux 16716
contr@@ 16715
CT@@ 16714
flies 16713
consecutive 16712
mas@@ 16710
competing 16709
socialism 16707
Tian@@ 16704
sb 16700
continental 16698
therein 16697
Libya 16695
cc 16694
Outer 16686
Formation 16685
founding 16685
Yesterday 16684
minimal 16684
CD@@ 16683
wrapped 16682
Jews 16678
decreasing 16677
unfair 16675
bean 16671
Sarah 16670
surge 16670
Notice 16669
chairs 16669
Normal 16666
midnight 16655
testimony 16653
stimulus 16652
helicopter 16651
otic 16651
tale 16651
recruited 16649
tivity 16649
differ 16645
Twitter 16632
jing 16632
urgently 16632
tribunal 16627
economically 16625
slept 16622
emerge 16620
ight 16616
offshore 16612
Rock 16610
intensify 16609
repatriation 16607
Procurement 16606
simplified 16606
occurring 16604
then@@ 16596
segments 16594
Mars 16591
monkey 16590
Fair 16585
here@@ 16580
jury 16579
Together 16577
chang@@ 16576
ON 16575
ared 16575
combines 16575
princess 16570
aggregate 16569
competitors 16568
accompany 16566
maturity 16564
strains 16555
specialist 16552
municipalities 16551
mel@@ 16550
subway 16550
Statement 16543
liquidity 16535
Java 16533
whereby 16528
breakthrough 16526
absorbed 16525
fri@@ 16524
ae@@ 16522
Star@@ 16519
forthcoming 16519
fulfilling 16517
ush@@ 16517
decreases 16516
workload 16514
acks 16512
icated 16512
claiming 16509
presenting 16508
Coll@@ 16507
strengths 16507
diamonds 16506
DO@@ 16505
Cost 16501
adsorption 16498
scattered 16497
tan@@ 16497
blowing 16495
Sixth 16491
UV 16489
Name 16487
sho@@ 16485
manufactured 16483
initiate 16475
regimes 16475
Talk 16474
ached 16471
orth@@ 16471
Chin@@ 16468
eliminated 16467
commended 16466
cigarette 16464
developmental 16461
penalties 16461
Sy@@ 16460
Question 16459
Bring 16456
bot@@ 16450
theater 16443
tum@@ 16441
new@@ 16440
Metal 16436
portable 16435
Shall 16434
Whenever 16433
upstairs 16433
abl@@ 16432
japan 16431
yo 16431
Wuhan 16430
fiction 16421
caring 16419
ageing 16418
sealed 16417
Ban 16416
enn@@ 16416
asts 16415
commander 16415
translate 16414
Tai 16410
dramatically 16410
OHCHR 16402
photograph 16402
threaten 16401
Motor 16399
Nick 16396
Fil@@ 16395
hills 16394
Mol@@ 16393
pork 16393
oo 16392
les@@ 16391
versus 16391
critics 16388
practitioners 16387
1.2 16381
Vocational 16381
Madrid 16379
lac@@ 16379
gradual 16375
aks 16374
appoint 16372
supportive 16365
Interim 16364
tumors 16363
Turn 16361
umbrella 16355
succession 16353
announce 16343
Dialogue 16342
ona 16337
Winter 16333
currencies 16331
opera 16331
polar 16330
preserved 16322
radioactive 16321
paths 16319
Prize 16316
anim@@ 16313
mayor 16309
net@@ 16309
pit@@ 16307
thermo@@ 16306
var@@ 16303
fare 16300
steering 16298
deprived 16296
Uruguay 16287
MRI 16285
V. 16282
counterparts 16279
Interior 16273
Welcomes 16272
invites 16271
pairs 16270
Qatar 16269
bes@@ 16269
high@@ 16268
deploy 16266
fled 16266
VII 16265
potato 16265
oon 16263
recipient 16262
mag@@ 16254
Putin 16253
40@@ 16251
Looks 16248
controversial 16246
ew 16246
Qi@@ 16242
pledged 16242
updating 16241
laughed 16240
Optical 16236
reductions 16231
gaining 16227
ful@@ 16224
unhappy 16214
12.@@ 16213
Ki@@ 16213
Montreal 16213
climbing 16210
nevertheless 16210
morphology 16207
Lam@@ 16205
liberalization 16205
1985 16203
sc 16203
aine 16201
antenna 16200
EP@@ 16199
Conventions 16195
nowhere 16194
Arabic 16193
aked 16192
Amy 16187
Strip 16186
hereinafter 16186
soluble 16183
Belt 16182
Add.1 16181
11.@@ 16179
Paragraph 16177
strikes 16176
conscience 16175
Economics 16174
funeral 16169
{ 16169
Reports 16168
ign@@ 16168
infectious 16167
Da@@ 16164
row@@ 16164
shy 16163
unemployed 16163
legacy 16161
flour 16159
spin 16158
Bulbs 16156
ron@@ 16155
dense 16152
Yangtze 16150
interact 16150
nail 16148
dictionary 16147
collision 16141
Z 16140
backup 16140
iously 16137
Mes@@ 16135
benefited 16135
sacred 16135
Palace 16134
BO@@ 16125
utter 16125
coordinates 16123
Mount 16117
collaborative 16116
laughter 16115
psych@@ 16114
accord 16112
facilitation 16111
tragic 16109
tire 16108
variance 16106
machining 16104
ille 16103
revolutionary 16103
Im 16102
Channel 16100
AD 16095
break@@ 16095
oming 16094
agged 16090
cave 16089
trauma 16089
let@@ 16087
divisions 16085
system@@ 16084
hometown 16080
prevailing 16079
anda 16075
approaching 16075
UNMIK 16074
ple@@ 16071
approached 16064
2W 16061
ventilation 16060
melt 16058
scheduling 16053
Chris 16052
reiterates 16052
bay 16049
deb@@ 16047
fatty 16047
phen@@ 16036
bottles 16035
Honey 16033
sey 16033
elect 16030
aer@@ 16025
geographic 16024
Yang@@ 16021
inated 16021
sle@@ 16020
animation 16015
Buddhist 16012
seasons 16008
abandon 16007
ozone 16007
pillars 16006
consultant 16002
matic 16002
dimmable 15998
licensing 15998
sincerely 15997
ials 15994
filing 15991
doc@@ 15989
eco 15988
R. 15987
Present 15985
Liquid 15977
ultrasonic 15973
ety 15970
oceans 15970
100@@ 15963
Es@@ 15960
nationwide 15958
banned 15955
Andrew 15946
Che@@ 15945
Pur@@ 15945
Qi 15944
faults 15943
Address 15942
nan 15942
cour@@ 15939
CON@@ 15937
Committees 15936
bicycle 15935
quoted 15932
} 15931
utmost 15926
Post@@ 15919
life@@ 15917
sia 15917
stand@@ 15914
Uncle 15912
ren 15911
AI@@ 15910
nic@@ 15909
chapters 15907
landed 15905
Arms 15904
Cuban 15903
18W 15902
180 15899
astic 15898
Hum@@ 15892
cleared 15892
plan@@ 15890
Ltd. 15888
appointments 15887
sink 15887
3,000 15883
Emperor 15882
pore 15881
Friends 15878
abide 15878
alling 15877
snake 15873
Cells 15868
optional 15867
aches 15865
alised 15864
knees 15863
precipitation 15863
referendum 15862
Hal@@ 15859
symbols 15859
Ray 15855
substrate 15848
pound 15847
clusters 15835
yed 15833
Step 15831
other@@ 15831
sends 15827
photo@@ 15824
aker 15823
Constitutional 15822
Zhao 15822
iti@@ 15816
unclear 15816
way@@ 15811
demanded 15807
Yan@@ 15804
Rom@@ 15801
angles 15800
protests 15800
traditionally 15798
condemned 15796
zer 15796
complainant 15792
registry 15791
Trial 15790
Ly@@ 15788
ees 15787
50,000 15784
Xin@@ 15782
Yao 15779
gli@@ 15775
prohibition 15767
offensive 15765
oste@@ 15763
ater@@ 15762
bullet 15760
bacterial 15759
Super 15757
Improved 15755
tan 15755
Nobel 15746
concerted 15745
credible 15745
diplomacy 15744
pt 15743
tent 15743
ston 15741
legend 15737
employ 15736
filtering 15728
External 15721
je@@ 15716
attain 15712
sunlight 15712
rom@@ 15710
masters 15703
ola 15703
subjective 15697
castle 15695
fleet 15695
abortion 15694
bye 15694
worries 15694
multimedia 15688
arization 15687
deserves 15684
execute 15683
flat@@ 15683
maximize 15683
kernel 15681
Cheng 15680
containers 15679
Speed 15678
replies 15677
Provide 15676
linguistic 15674
spo@@ 15673
Pul@@ 15669
） 15665
counts 15664
unc@@ 15659
wanting 15658
wil@@ 15655
Tea 15653
fertility 15653
delete 15651
ecosystems 15648
Intelligence 15646
Eve 15643
graphics 15643
hyp@@ 15642
invisible 15642
Leave 15638
Gri@@ 15636
distinctive 15636
mon 15635
atmospheric 15633
wells 15632
lows 15630
destructive 15627
rendered 15627
ald 15626
punish 15625
130 15623
ari 15620
hosting 15620
propagation 15616
Final 15609
Wan 15607
ph 15607
ram 15607
deck 15604
ranked 15602
bic@@ 15599
monster 15598
itch 15596
chem@@ 15593
Travel 15589
loyalty 15586
Round 15585
stan@@ 15582
documented 15576
consuming 15575
fairness 15571
hui 15570
gym 15568
AF@@ 15565
Virtual 15565
Proliferation 15564
Ali 15561
Red@@ 15560
Reuters 15558
sweat 15558
logging 15556
drum 15550
pillar 15547
nurses 15545
cancel 15544
HO@@ 15538
Qing@@ 15538
tual 15536
（ 15536
Inner 15535
industrialization 15535
05 15532
rad@@ 15529
genius 15528
fires 15527
insight 15527
tible 15527
tactics 15526
accessories 15523
elle 15523
foam 15521
eries 15517
fy 15517
run@@ 15515
synthesized 15515
Shanxi 15512
29@@ 15511
enjoys 15510
restored 15507
buses 15506
scales 15503
ques 15501
Susan 15500
Scientists 15497
appropriately 15497
Zhu 15496
home@@ 15494
react 15493
beloved 15489
yields 15489
deleted 15488
sequ@@ 15487
uk@@ 15486
titles 15483
sav@@ 15482
Least 15478
IL 15474
attendance 15474
magn@@ 15472
apoptosis 15470
far@@ 15470
Boston 15466
Disaster 15466
Senegal 15464
Concerning 15463
Fuzzy 15462
Det@@ 15461
Far@@ 15456
baseline 15455
ayed 15445
Buddhism 15442
monopoly 15442
lean 15441
Promoting 15438
emergencies 15438
Bab@@ 15437
Suddenly 15437
aves 15437
igh@@ 15436
rejection 15436
ush 15435
vit@@ 15435
dial 15432
ui 15431
batteries 15418
spouse 15415
Sino 15413
hygiene 15413
uation 15412
℃ 15410
AG@@ 15409
fire@@ 15407
Neither 15406
mighty 15406
declarations 15405
criminals 15401
refined 15401
releases 15401
Adviser 15400
omy@@ 15400
Game 15399
USD 15398
Yemen 15397
obliged 15394
Loc@@ 15393
Manufacturing 15393
Translation 15393
paste 15392
utilizing 15384
dismissed 15382
biennial 15381
Click 15379
occasionally 15379
seize 15379
Conditions 15376
ock 15375
regulators 15375
economist 15374
mentally 15374
melting 15372
Na@@ 15369
Anyone 15368
Mic@@ 15367
hepatic 15366
happily 15364
catalytic 15362
CO2 15361
roc@@ 15358
Dong 15351
Oc@@ 15346
anch@@ 15343
creditor 15343
ache 15341
bat@@ 15338
presentations 15334
Participants 15333
coated 15331
convening 15329
turbine 15327
dig 15323
coalition 15321
bis 15319
van@@ 15319
bench 15317
renewal 15317
set@@ 15315
Customer 15311
firing 15310
orderly 15309
Liverpool 15306
kn@@ 15305
render 15305
doctrine 15301
wheels 15300
Sl@@ 15299
viral 15297
cops 15295
---@@ 15291
asc@@ 15290
Bio@@ 15288
convince 15287
desperate 15286
MONUC 15284
Atomic 15281
excitement 15278
nets 15278
Chelsea 15277
convert 15275
frames 15273
cd 15270
Simon 15267
longest 15267
Hom@@ 15264
advertisement 15264
folks 15260
Shan 15259
reasoning 15257
Electrical 15256
inevitably 15256
itor 15255
Provisions 15254
awful 15251
Bun@@ 15250
Revolution 15245
strait 15245
turnover 15244
granting 15240
circuits 15238
microscope 15238
bride 15237
Seven 15233
Areas 15230
illed 15230
patch 15228
restrict 15227
ESCAP 15223
nowadays 15223
insulation 15221
ouring 15221
workforce 15218
sciences 15217
Air@@ 15216
Architecture 15216
warrant 15215
une 15214
attorney 15212
conver@@ 15205
aya 15203
Mos@@ 15200
mes 15197
outbreak 15195
lip@@ 15192
Alibaba 15191
prototype 15191
keeper 15189
randomly 15189
rushed 15189
depressed 15181
Years 15178
boarding 15178
Ford 15177
insulin 15177
dropping 15175
nut 15172
touching 15172
lo 15171
joints 15170
smoothly 15164
ager 15161
illing 15154
pledge 15154
candy 15153
prot@@ 15150
Thanksgiving 15149
sim@@ 15149
miracle 15146
assay 15145
reject 15144
beaten 15143
ales 15141
fits 15140
stock@@ 15140
deposition 15139
subtle 15137
doubts 15135
pil@@ 15133
Ensure 15128
Plus 15128
rot@@ 15128
Hong@@ 15126
inflammation 15126
strongest 15125
rotating 15122
faithful 15121
proceeding 15119
Mali 15116
Takes 15114
hollow 15111
Living 15110
survived 15110
tal 15107
mini 15105
ani@@ 15103
Armenia 15093
Facility 15093
inferior 15092
brake 15084
exhaust 15083
irregular 15083
ali 15082
bands 15082
spiral 15082
win@@ 15082
a. 15080
ologically 15080
purchases 15078
hatred 15077
negotiated 15074
8th 15071
Edward 15071
autom@@ 15071
DA@@ 15070
Medium 15070
ols 15070
Bulgaria 15063
Multiple 15063
Registration 15062
Milan 15060
Mining 15060
tuberculosis 15060
deadly 15057
Den@@ 15055
ive 15054
classmates 15050
Tw@@ 15048
massage 15048
afterwards 15047
sty@@ 15041
stabilization 15040
20,000 15039
Brussels 15039
grammar 15036
recurrent 15033
spectral 15033
kindergarten 15030
traits 15030
actu@@ 15029
dat@@ 15028
path@@ 15028
hair@@ 15025
ecology 15015
prisoner 15014
MDGs 15013
organ@@ 15013
Place 15007
Pre 15006
rit@@ 15005
mo 15004
hosts 15003
beneficiaries 15001
ltd 15001
wang 15001
tap@@ 15000
uranium 14999
PCR 14995
deeds 14995
readily 14993
awa 14988
exceeded 14988
Contemporary 14987
vitality 14987
confined 14982
quar@@ 14974
congress 14973
apples 14972
escaped 14972
reactive 14972
read@@ 14970
females 14963
hepatitis 14962
blessed 14957
reiterate 14957
boiler 14954
receiver 14954
IG@@ 14948
weaknesses 14948
Lim@@ 14944
gener@@ 14944
Provision 14941
builds 14941
colleague 14941
sequences 14936
Ze@@ 14934
praised 14930
Qin 14929
Often 14928
acet@@ 14926
mates 14926
medi@@ 14924
twin 14922
viscosity 14920
detector 14917
circumstance 14916
kins 14914
Aqu@@ 14910
opathy 14908
billions 14904
Nam 14902
woke 14902
Laboratory 14901
Sen@@ 14901
pap@@ 14900
starch 14894
ele@@ 14893
eve 14884
harsh 14881
myocardial 14881
Stone 14880
Perspective 14876
dangers 14875
resonance 14875
ored 14873
potassium 14873
obey 14872
illustrated 14869
hunt 14868
Thermal 14866
gram 14862
cares 14858
Short 14857
Abraham 14855
liquor 14855
temporal 14852
defendant 14851
Protein 14848
night@@ 14848
servicing 14848
exercising 14844
palm 14842
practicing 14839
pH 14838
stack 14838
Articles 14827
Virginia 14827
d.@@ 14821
fairy 14819
quota 14819
Victoria 14818
eted 14817
toxicity 14817
Basel 14816
challenged 14813
humor 14809
carriers 14808
AP 14793
Land@@ 14793
Bul@@ 14792
Didn 14786
alo@@ 14786
beds 14785
Migration 14784
poison 14784
Develop 14783
knocked 14783
sco@@ 14782
HK@@ 14780
continually 14778
trips 14778
Organizations 14777
binary 14776
gates 14776
leverage 14776
confidential 14775
gged 14774
Jud@@ 14773
nest 14773
TS 14770
vely 14769
Rob@@ 14768
uncomfortable 14765
Syn@@ 14763
farms 14763
Failure 14762
liberal 14762
Bol@@ 14760
generalized 14759
charming 14758
PRO@@ 14757
ila 14753
shining 14753
theatre 14753
payable 14750
Eight 14749
Taylor 14749
broadly 14749
ifies 14749
35@@ 14748
ON@@ 14748
will@@ 14748
ts@@ 14746
hiring 14743
justify 14738
deterioration 14736
cit@@ 14734
Thirdly 14723
grams 14720
prolonged 14720
Xinhua 14717
declining 14717
nucle@@ 14717
awake 14716
Sec@@ 14705
satellites 14705
BP 14704
Salvador 14703
scored 14703
age@@ 14700
authentication 14699
pipes 14698
antibody 14695
year@@ 14695
graft 14689
SAR 14685
clarification 14683
Brazilian 14678
Encourages 14676
Kevin 14676
cultivated 14676
Phot@@ 14673
Egyptian 14668
loyal 14667
Online 14666
shocked 14658
Scotland 14652
hormone 14650
aw 14648
Catholic 14647
Fish 14641
legitimacy 14641
tune 14640
politically 14634
wins 14629
neighbours 14628
los@@ 14627
eman 14626
forcing 14626
ound 14626
Obviously 14625
souls 14622
Decree 14621
Welfare 14621
twentieth 14618
murdered 14617
Server 14616
combatants 14614
congratulate 14613
Off@@ 14611
regrets 14611
centr@@ 14610
shade 14610
SMEs 14609
Bolivia 14608
Had 14607
Former 14604
Nor 14603
aspirations 14599
Frequency 14598
ories 14595
originated 14592
wool 14592
gradient 14588
tablets 14585
Speaking 14582
sof@@ 14580
Bissau 14579
ashing 14579
Composite 14571
blocking 14570
101 14569
logistical 14569
realm 14565
chromatography 14562
Pearl 14551
Jacob 14550
Strategies 14550
validation 14550
1982 14549
Premier 14549
reliance 14546
9th 14545
eller 14545
sang 14543
ensured 14539
Institutions 14537
d. 14536
Target 14533
aqu@@ 14533
projection 14532
seekers 14532
tele@@ 14531
upward 14530
Export 14529
Lar@@ 14528
traders 14527
sins 14526
Vehicle 14525
hurts 14525
uphold 14525
counted 14522
Jimmy 14519
acupuncture 14510
incomplete 14509
True 14503
prob@@ 14503
innovations 14502
10th 14501
directional 14492
Provisional 14490
suspects 14490
backward 14488
barrel 14485
plating 14485
care@@ 14484
ball@@ 14483
elder 14483
troubles 14483
conv@@ 14482
chen 14481
fucking 14478
vari@@ 14476
alis 14473
overwhelming 14472
sand@@ 14472
Scott 14471
bias 14471
unfortunately 14471
appliances 14470
geometry 14467
profiles 14456
healthcare 14455
warmth 14452
Bangkok 14451
.com 14449
tariff 14445
Ash@@ 14440
useless 14439
evolving 14438
altitude 14435
horrible 14434
buddy 14431
log@@ 14431
Background 14430
inspections 14427
volumes 14426
mos@@ 14425
thanked 14420
discrete 14419
initi@@ 14416
Active 14414
organisms 14414
worm 14412
feng 14411
End 14410
examinations 14407
fuels 14406
welcoming 14406
suspicious 14404
poorest 14403
1970s 14400
dog@@ 14399
lessly 14399
smuggling 14399
Autumn 14398
enacted 14398
subparagraph 14398
debtor 14397
ech 14397
abundance 14391
appetite 14390
po 14390
broadcasting 14389
Mexican 14384
Consideration 14382
apped 14382
Lao 14380
oe 14379
toll 14377
compiled 14375
eline 14375
suited 14375
tured 14374
uck@@ 14371
altogether 14368
fur 14367
yen 14360
SQL 14359
routing 14359
malignant 14357
sliding 14353
absent 14352
bore 14350
dental 14348
thrust 14348
deepen 14341
forecasting 14339
completing 14337
amend 14336
diversification 14332
Sar@@ 14328
Il@@ 14325
oting 14324
edi@@ 14322
HK 14318
sealing 14318
acceleration 14317
fermentation 14316
prosecutors 14315
detainees 14314
retro@@ 14314
Sector 14313
deciding 14312
clarity 14308
backs 14305
trunk 14305
lightning 14303
eas@@ 14302
Core 14301
hub 14301
pet@@ 14300
Not@@ 14294
undergoing 14293
materi@@ 14291
Applied 14290
Cri@@ 14290
harmonization 14289
incomes 14288
mad@@ 14284
lay@@ 14282
CPC 14277
ventricular 14277
predictable 14276
straw 14276
TCM 14275
neurons 14274
obesity 14274
sits 14271
emo@@ 14265
Yi@@ 14264
mann 14263
fal@@ 14260
specialists 14258
insecurity 14254
fence 14253
Various 14251
lately 14247
Said 14246
Guangxi 14245
vegetation 14245
horizon 14244
Ping 14243
Path@@ 14242
defeated 14241
hat@@ 14240
′ 14240
ecting 14232
ei 14232
metallic 14232
chaired 14228
Zh@@ 14226
exceptions 14226
dam@@ 14224
OBJECTIVE 14223
Anything 14220
debates 14219
slice 14219
notify 14217
nearest 14215
WFP 14208
automated 14205
boo@@ 14205
robots 14205
aden@@ 14204
breeze 14204
Color 14201
amm@@ 14201
criticized 14201
males 14199
Freedom 14194
ags 14192
winding 14191
phosphate 14190
icon 14188
De 14187
Analy@@ 14186
extensively 14185
sells 14185
Pos@@ 14183
contamination 14168
eds 14167
1. 14166
ken 14162
developer 14159
SBSTA 14156
ode 14156
thief 14155
SW@@ 14153
overnight 14150
cakes 14147
livelihood 14146
definite 14145
jumping 14143
ress 14143
census 14142
nominated 14142
rene 14142
gie 14135
ado 14133
know@@ 14129
realities 14128
baseball 14126
Jia 14124
abdominal 14124
tioned 14123
Columbia 14122
You@@ 14122
alter 14121
dia 14121
Complex 14118
dirt 14118
tang@@ 14114
1978 14110
jin 14110
Half 14105
lob@@ 14104
magazines 14104
SM@@ 14103
emic 14100
Hand@@ 14097
duct 14097
luggage 14093
Factory 14092
Tim 14090
religions 14089
Ecological 14084
Mont@@ 14080
landlocked 14078
cleaner 14076
Invites 14075
Ev@@ 14071
shifting 14069
Bearing 14066
UL@@ 14061
adhesive 14059
flooding 14059
elevator 14058
UT@@ 14057
cent@@ 14056
NO 14055
TI@@ 14051
Commonwealth 14050
actress 14049
dar@@ 14048
respondents 14046
simulate 14041
Morgan 14040
documentary 14035
Sn@@ 14034
Mauritius 14033
conceptual 14032
pepper 14032
Jamaica 14030
multipl@@ 14030
trail 14029
mitigate 14025
tubes 14023
morality 14022
fame 14021
Acting 14020
tization 14020
trademark 14018
exceeding 14014
kidding 14014
occupying 14013
spinning 14012
opponent 14011
supreme 14009
F. 14005
neg@@ 14003
encouragement 14002
Appeals 14001
ility 13997
anterior 13995
1967 13990
darling 13988
reminds 13987
hello 13985
Pass@@ 13984
norm 13984
cage 13983
remuneration 13983
Urges 13982
ousness 13982
worrying 13980
calculations 13979
fluor@@ 13979
Hua 13977
uro@@ 13977
explaining 13976
Gener@@ 13975
awesome 13973
oven 13971
Theoretical 13964
commands 13963
elec@@ 13962
theft 13962
Emily 13961
situ 13959
gers 13958
itable 13951
burg 13950
Sor@@ 13947
airline 13944
Irish 13940
memorandum 13938
whoever 13938
Macedonia 13933
him@@ 13933
phil@@ 13933
guides 13931
maid 13921
Radi@@ 13919
Researchers 13919
desires 13913
elaboration 13913
excluding 13911
Features 13904
capsule 13903
Visual 13902
methodologies 13902
alleviate 13898
Rats 13894
Video 13893
medal 13893
semester 13892
asis 13890
formulating 13890
quote 13888
insects 13887
fossil 13885
compassion 13882
venue 13882
converter 13876
locate 13874
participant 13872
gas@@ 13869
unacceptable 13867
illustrate 13865
yourselves 13859
nickel 13856
transient 13856
Stephen 13854
NASA 13852
downtown 13852
advisers 13851
140 13850
implies 13849
rooted 13844
tense 13841
trucks 13841
perfection 13840
propaganda 13839
ez 13838
harmonic 13835
E.g. 13826
Fiber 13820
rotor 13820
Apart 13818
closest 13815
disadvantaged 13814
deliberately 13810
reunification 13810
behave 13809
ida 13808
doubled 13807
ero@@ 13804
bankruptcy 13803
some@@ 13802
convene 13800
Heaven 13796
motor@@ 13794
acies 13792
Inc 13789
yin 13787
races 13786
indirectly 13785
livestock 13784
sac@@ 13783
salad 13783
cell@@ 13782
nie 13781
correlated 13779
icing 13776
boots 13775
Diversity 13771
rid@@ 13767
vi 13767
drafted 13766
coordinator 13764
beams 13763
patrol 13762
wasted 13762
ature 13760
Valentine 13755
medication 13754
clin@@ 13753
ST 13752
motive 13752
infants 13750
prote@@ 13750
summarizes 13749
Lily 13747
fostering 13747
hammer 13747
EC 13746
stat@@ 13745
Universities 13743
mesh 13741
hereby 13740
。 13740
warn 13738
pig@@ 13733
Men@@ 13731
Understanding 13729
distress 13729
understands 13729
jewelry 13728
nano 13726
orally 13722
sk 13721
Thai 13719
Account 13718
hostile 13717
casualties 13712
mount 13712
purification 13712
decomposition 13711
dol@@ 13711
assumptions 13710
institutes 13704
permeability 13703
quo 13703
assault 13701
vendors 13701
allocate 13698
Statements 13696
grand@@ 13696
ODA 13691
SBI 13691
Zimbabwe 13690
assuming 13686
assembled 13683
dig@@ 13681
responsive 13677
1.3 13675
attachment 13673
deepening 13669
Organized 13667
slavery 13665
administering 13664
pun@@ 13664
rainfall 13663
bare 13661
tem@@ 13661
spheres 13656
shaking 13652
con 13651
bec@@ 13650
consumed 13645
stepping 13645
hitting 13644
throne 13643
itter 13640
Participation 13638
facto 13638
PE 13637
Trafficking 13637
foot@@ 13636
fax 13633
impl@@ 13631
FA@@ 13629
ofthe 13628
tory 13627
Us 13625
Certain 13623
Heavy 13623
Strong 13623
composites 13623
catching 13622
Iceland 13621
commentary 13621
generic 13621
ET@@ 13619
constraint 13614
lazy 13614
meditation 13614
UNODC 13612
hazards 13612
relay 13607
torque 13607
aligned 13606
Swedish 13605
extends 13605
organisation 13591
45@@ 13590
PLC 13588
costly 13586
sticks 13586
readiness 13585
Cameroon 13584
Consider 13583
ambition 13580
ceasefire 13578
ocy@@ 13578
unstable 13572
hits 13571
Nicaragua 13570
countless 13570
Characteristic 13568
canal 13568
PT@@ 13567
infarction 13566
attempting 13564
disseminate 13564
Fol@@ 13563
prec@@ 13563
prone 13563
interfere 13562
reinforcing 13559
supermarket 13559
Montenegro 13558
distortion 13557
Ban@@ 13556
securing 13556
Maritime 13553
etr@@ 13550
kit 13550
wounds 13549
Know 13546
molecule 13546
anna 13545
Maintenance 13544
amplitude 13543
collar 13542
tation 13541
1984 13539
Classification 13538
dge 13535
porous 13533
outset 13532
Kate 13528
grief 13528
cracking 13527
Huang@@ 13526
Aid 13525
Workshop 13522
managerial 13520
Lower 13518
Efficiency 13516
overhead 13516
kings 13515
premise 13515
amongst 13513
yr@@ 13513
MS@@ 13510
peasants 13510
Sydney 13507
Subject 13505
Transformation 13504
Rachel 13502
featured 13502
sediment 13502
contaminated 13500
tru@@ 13500
replacing 13496
Navy 13494
Sel@@ 13492
Specific 13486
chess 13486
distribute 13485
Chain 13483
LTD 13483
Engine 13481
casual 13480
ided 13480
Card 13479
Element 13477
lesions 13476
gated 13475
yu@@ 13475
accelerating 13473
olo@@ 13472
traction 13472
struc@@ 13471
colonial 13470
climbed 13466
compensate 13466
winners 13464
deviation 13462
ml 13460
safer 13459
excellence 13458
aa 13457
disturbance 13456
Snow 13452
elaborated 13451
Qingdao 13448
UNIFEM 13448
balancing 13448
Parents 13447
09 13446
auxiliary 13445
Create 13442
af 13442
scenarios 13442
Hubei 13440
magnificent 13440
Modeling 13438
Da 13437
105 13436
garage 13436
glut@@ 13435
blew 13432
well@@ 13432
ix 13430
privilege 13430
Fa@@ 13429
borrowing 13429
calibration 13429
functionality 13429
undoubtedly 13428
Ps 13426
stein 13426
Ann@@ 13424
derivatives 13423
ishment 13419
polite 13417
bored 13414
poll 13410
Vir@@ 13409
optic 13409
daddy 13408
dedication 13408
exhibit 13407
promulgated 13406
zation 13405
tain@@ 13403
Officers 13398
induce 13398
offs 13398
EX@@ 13397
Philip 13397
idal 13394
Leg@@ 13393
your@@ 13392
comprehensively 13391
Slovenia 13389
sponsor 13389
stimulation 13389
villagers 13389
Pan 13386
pp@@ 13385
Income 13384
band@@ 13380
Techniques 13379
gor@@ 13379
UNG 13378
Andy 13377
macro@@ 13374
Viet 13373
Tomorrow 13372
interviewed 13372
grains 13371
intentions 13371
northeast 13370
Consultative 13369
lic 13368
researching 13368
gg@@ 13367
Conflict 13364
educ@@ 13361
interpret 13361
troubled 13359
quest 13358
ude 13358
drain 13357
Night 13355
pp 13354
refrain 13354
installations 13352
Van 13347
sadness 13343
pond 13342
pollutants 13341
chap 13336
genic 13336
stays 13336
coin 13332
inviting 13332
inations 13324
B.@@ 13322
commencement 13321
concludes 13320
08 13318
lith@@ 13318
illegally 13317
160 13314
cherish 13314
claimant 13314
bes 13310
arriving 13308
may@@ 13308
budgeting 13306
manifestations 13306
Bar 13303
Efforts 13303
0.01 13302
Example 13300
blend 13300
circum@@ 13297
thereon 13297
potatoes 13296
editing 13294
kil@@ 13293
fool 13292
compilation 13290
orous 13289
worlds 13289
Schools 13288
curtain 13288
merit 13287
chron@@ 13286
Fe 13283
rum@@ 13283
Cu 13280
NBA 13279
ori 13279
Late 13278
ele 13274
rounds 13271
Anna 13270
Wind 13270
0s 13268
spe@@ 13268
Intelligent 13267
mutation 13265
dom 13264
2. 13260
memor@@ 13260
teen 13259
Supervision 13258
chy 13258
Hem@@ 13257
gang@@ 13256
nutritional 13256
Live 13251
econ@@ 13247
genus 13245
Soft 13242
disciples 13242
pathological 13242
zh@@ 13242
03 13241
Tom@@ 13240
Yin 13239
jade 13236
plat@@ 13236
modulation 13235
practically 13235
gasoline 13234
duplication 13233
lasted 13232
contradiction 13229
divine 13228
requ@@ 13226
yst@@ 13226
packet 13224
demographic 13221
Conservation 13212
oped 13212
D.@@ 13210
Pattern 13210
Saharan 13210
deposited 13210
Compensation 13205
researcher 13205
soybean 13204
ruin 13203
Delta 13202
intestinal 13202
bonus 13200
hedge 13200
Micro 13199
que@@ 13198
underlined 13196
skirt 13195
rebel 13193
mers 13188
att 13187
relieve 13185
traveled 13184
lane 13183
calories 13181
storms 13180
Republicans 13175
Usually 13175
IV@@ 13174
Must 13173
ipp@@ 13172
prescription 13169
multinational 13167
attracting 13166
inserted 13166
Molecular 13165
Cro@@ 13164
blo@@ 13163
notable 13157
tonnes 13156
despair 13154
consume 13149
Goal 13147
peri@@ 13147
rabbits 13143
Flu@@ 13141
journalist 13141
dispersion 13140
adolescents 13139
purity 13139
fixing 13137
CAD 13127
descent 13127
ancestors 13122
Arthur 13120
blown 13119
midst 13118
liberation 13117
speculation 13114
triggered 13108
Structural 13107
val 13102
CEDAW 13097
unlawful 13097
biomass 13096
sam@@ 13092
ometry 13091
Extraction 13090
maternity 13090
Expo 13089
mp 13088
Son@@ 13086
automotive 13083
inspire 13083
Dep@@ 13082
ultrasound 13081
Transmission 13080
guideline 13079
noodles 13079
observing 13079
tax@@ 13073
Aviation 13071
cracks 13071
del 13070
preserving 13068
purely 13066
vent 13061
Tai@@ 13060
Search 13058
Goods 13057
fitted 13057
intolerance 13056
soap 13055
eradicate 13054
Item 13053
audiences 13051
reimbursement 13051
sexy 13048
Jing 13047
lic@@ 13047
nucleus 13046
1.1 13041
Lev@@ 13039
err@@ 13036
mould 13035
shipped 13035
hypothesis 13030
Work@@ 13029
persistence 13029
strings 13029
strangers 13025
ira 13022
Mod@@ 13020
ambassador 13020
slower 13018
fulfilment 13015
viewers 13015
Acute 13014
itating 13013
peers 13013
profitable 13013
Au@@ 13011
Starting 13010
unchanged 13010
iso@@ 13007
Ever 13006
Job 13006
ridiculous 13006
Lincoln 13003
Panama 13002
aluminium 13001
grati@@ 13001
asses 13000
rage 12997
Democrats 12996
MP@@ 12995
authentic 12995
halt 12993
som@@ 12993
Commander 12991
episode 12991
Combat 12990
tastes 12990
Tem@@ 12988
Amendment 12984
lers 12981
Scale 12980
esc@@ 12978
statute 12976
FO@@ 12975
atics 12975
semiconductor 12971
warfare 12970
Med@@ 12967
specialty 12965
crimin@@ 12962
fixation 12958
cc@@ 12954
cents 12954
Sem@@ 12952
ental 12952
bug 12950
nutrients 12949
Az@@ 12946
boot 12946
transferring 12946
UNIFIL 12945
nel 12945
odds 12945
BBC 12941
Hai@@ 12937
IR 12936
Ari@@ 12935
rob@@ 12935
chemotherapy 12933
tus 12932
disappearance 12931
Either 12930
Copenhagen 12929
18th 12926
Chi 12923
gauge 12923
fi 12921
ano@@ 12919
Secondary 12918
fibre 12918
iv@@ 12918
ylene 12918
lawful 12917
gal@@ 12915
premier 12915
ratify 12915
Somebody 12914
seldom 12914
merger 12910
prints 12910
Writing 12908
intensified 12902
Gran@@ 12900
Simple 12900
prompted 12900
Shu@@ 12898
basement 12898
ing. 12897
fighter 12896
refl@@ 12894
Ross 12891
delighted 12890
Conduct 12888
litigation 12887
arg@@ 12883
bless 12883
reaffirm 12879
ves@@ 12878
floors 12876
road@@ 12876
Jason 12874
Stockholm 12873
Fast 12872
fluorescence 12872
Responsible 12867
ician 12866
imagined 12865
cycl@@ 12863
believing 12862
bla@@ 12859
Protocols 12858
hierarchy 12858
prisons 12855
sail 12853
ester@@ 12852
gallery 12851
thec@@ 12851
honesty 12845
individually 12845
olds 12843
transformer 12843
vir@@ 12843
bull 12837
SU@@ 12836
lively 12835
roses 12834
á@@ 12834
scattering 12831
Object 12830
sh 12830
underwater 12825
bert 12821
Contact 12820
Lat@@ 12819
mall 12817
guilt 12816
sym@@ 12815
ape 12814
adviser 12813
cere@@ 12810
rey 12809
fat@@ 12806
ares 12805
tial 12804
exchanged 12800
Ep@@ 12799
Relief 12797
pragmatic 12797
honored 12796
ANG 12795
aka 12792
meanings 12791
Anhui 12788
easing 12787
outlet 12787
lunar 12786
survivors 12785
gam@@ 12783
lee 12783
cigarettes 12780
ust 12779
xin 12777
Muslims 12776
han@@ 12775
extrabudgetary 12773
lacks 12771
kilometres 12768
Corporate 12765
formerly 12763
wan@@ 12763
disciplines 12759
possesses 12758
bend 12757
nam@@ 12757
rh@@ 12756
romance 12756
Jun@@ 12749
Silicon 12749
varies 12749
queue 12748
restraint 12748
PC@@ 12743
gardens 12743
eric 12742
Autonomous 12741
shui 12741
tism 12740
invasive 12739
surrender 12739
beast 12738
headache 12737
Alan 12736
Magnetic 12735
1979 12734
jealous 12734
exercised 12729
inches 12729
Gates 12725
benchmark 12723
thetic 12723
Signal 12722
Jeff 12720
edges 12720
geo@@ 12717
Settlements 12714
auspices 12713
pharmac@@ 12713
Significance 12711
radius 12711
Hyper@@ 12710
bloody 12710
3.5 12709
discretion 12706
Top@@ 12702
Green@@ 12700
Uzbekistan 12697
osa 12697
Suzhou 12696
occupy 12694
persuade 12694
expulsion 12693
reluctant 12693
Reference 12690
renowned 12685
fighters 12681
learners 12681
102 12680
Earlier 12680
Senator 12680
Somali 12680
volatility 12680
submitting 12679
Zambia 12678
insert 12678
pizza 12676
goodness 12673
admire 12671
learnt 12669
Cop@@ 12663
escent 12663
Oxford 12660
Pension 12659
Silk 12659
keyboard 12658
hated 12657
hoo@@ 12655
1949 12652
supervisory 12652
Dor@@ 12651
this@@ 12650
ased 12647
oes 12641
violate 12640
briefings 12638
stealing 12638
had@@ 12637
cardiovascular 12633
agging 12628
fatal 12628
0.5 12627
Banks 12626
burnt 12625
curative 12624
rolls 12624
Arctic 12623
wn 12622
selfish 12621
sensi@@ 12619
ope 12618
125 12617
Database 12617
But@@ 12616
discourse 12614
fractures 12613
anchor 12612
stretched 12611
tiles 12611
tia 12610
H. 12609
Coun@@ 12607
Christians 12600
Result 12594
poisoning 12594
zy 12590
centered 12589
Mur@@ 12587
zhu 12579
cured 12577
bio 12575
Woods 12574
envelope 12571
dairy 12567
nec@@ 12562
Pay 12561
plastics 12559
Xiao@@ 12556
Eric 12555
inclined 12552
policymakers 12552
heroes 12551
ami 12550
Ji 12548
finalized 12548
xia 12548
Personnel 12546
wishing 12546
Dol@@ 12544
guitar 12544
Sum@@ 12540
Manchester 12539
groundwater 12539
Mr.@@ 12538
jud@@ 12538
gen 12533
Seoul 12531
esis 12525
iding 12525
lun@@ 12525
dium 12520
viruses 12519
shirts 12517
CRC 12515
seasonal 12515
Halloween 12512
Rap@@ 12510
Remote 12508
sm 12507
che 12502
waist 12502
Around 12500
Helen 12498
lined 12496
NEPAD 12494
Certificate 12492
elephant 12492
bronze 12491
OP@@ 12490
Web@@ 12490
atoms 12489
humble 12489
Solomon 12487
bis@@ 12487
ander 12484
posing 12481
rendering 12480
chase 12479
streams 12479
ser 12476
VE 12473
illustrates 12473
hop 12472
centralized 12470
connotation 12470
squad 12469
passionate 12468
rivals 12468
alk@@ 12466
Contracting 12465
racing 12464
sunny 12464
Tunisia 12463
vill@@ 12463
influenza 12460
Fan 12457
stal@@ 12457
consisted 12454
tenure 12448
tightly 12447
Fred 12446
02 12445
fog 12444
thereto 12444
abuses 12443
stating 12443
Ci@@ 12439
Tree 12439
moreover 12439
relaxation 12438
subregion 12438
his@@ 12437
Improve 12436
Kir@@ 12433
analysing 12432
HR 12431
sentiment 12427
Win@@ 12426
diff@@ 12425
traded 12425
exam@@ 12424
smo@@ 12422
accomplishment 12420
Immun@@ 12419
PA@@ 12419
retreat 12419
viewing 12417
kicked 12415
partition 12414
Near 12410
ashamed 12410
tiv@@ 12410
Imagine 12405
devastating 12405
Injection 12404
Emirates 12400
Probably 12398
Lithuania 12395
japanese 12395
fox 12394
Female 12393
cleaned 12393
attraction 12391
shouted 12391
seemingly 12390
shit 12389
neglect 12388
marrow 12387
neglected 12387
conform 12383
Made 12380
faculty 12380
spy 12380
bility 12379
call@@ 12379
Waste 12377
sky@@ 12377
angels 12376
preferential 12376
Shakespeare 12375
gy@@ 12372
likelihood 12372
void 12372
archives 12371
openness 12371
fantasy 12369
s--@@ 12368
timber 12368
baggage 12367
ried 12367
capit@@ 12366
oxy@@ 12364
yarn 12361
monitors 12360
scal@@ 12356
Judicial 12355
entrepreneurship 12355
happier 12354
oration 12353
judged 12350
Bear 12348
Cos@@ 12348
Certainly 12346
preparedness 12346
wrap 12345
tar 12344
olog@@ 12341
Hague 12338
stir 12334
Mid 12332
sor 12332
Black@@ 12330
wood@@ 12330
Rh@@ 12329
boiling 12329
Electoral 12327
Sym@@ 12327
cabin 12326
planets 12326
wit@@ 12325
hug 12324
locks 12323
hes@@ 12322
oils 12320
Factor 12318
RNA 12317
prospective 12316
ag 12314
carpet 12314
sar 12314
complained 12313
posterior 12313
polarization 12312
urs 12307
tious 12303
briefed 12302
Add.@@ 12300
american 12299
Solid 12297
altered 12297
hardness 12296
nu@@ 12294
prognosis 12294
employing 12290
forge 12290
filters 12289
Transportation 12287
similarity 12287
investigators 12286
arity 12281
Lead 12280
postal 12279
Storage 12278
folder 12276
Dev@@ 12275
Officials 12274
coins 12274
Finite 12272
ady 12272
mounting 12272
Guizhou 12269
ting@@ 12268
PS 12267
Sahara 12267
Squ@@ 12264
cinema 12264
scenic 12263
W. 12260
Sw@@ 12258
etic 12258
phosphorus 12256
Soci@@ 12255
Hui 12253
esh 12253
Coast 12251
ethanol 12251
situated 12250
arthritis 12249
flap 12244
Dream 12243
curing 12242
arose 12240
vain 12239
reb@@ 12238
Stage 12237
disposition 12237
Throughout 12234
Television 12232
cri@@ 12231
shook 12229
Princess 12228
Linux 12227
instantly 12227
ela 12226
Sup@@ 12224
accessibility 12224
incredibly 12223
oppose 12223
reinforcement 12223
staring 12223
primitive 12222
Colleges 12221
ni 12218
IPSAS 12212
Evolution 12210
Rol@@ 12209
bandwidth 12209
revenge 12209
tun@@ 12209
vivid 12209
inherited 12207
curse 12205
omas 12205
efully 12203
belly 12201
lag 12197
Jan@@ 12196
motherland 12196
tended 12195
Governance 12194
alloys 12189
possessed 12189
stationary 12189
ticism 12189
www.@@ 12189
valves 12188
geography 12186
participatory 12186
renew 12186
ifying 12183
counties 12182
ison 12181
stop@@ 12179
pleas@@ 12176
rally 12176
Auto 12175
counselling 12174
Billy 12171
shanghai 12171
Cul@@ 12170
subsistence 12164
Records 12162
coefficients 12161
alternate 12160
viewpoint 12154
Slovakia 12153
intimate 12152
Wave 12151
delight 12149
Silver 12148
defensive 12148
Arbitration 12146
collapsed 12144
constrained 12143
Technological 12142
child@@ 12141
offerings 12141
Dan@@ 12140
bal 12139
fon@@ 12136
cardi@@ 12134
och@@ 12134
erv@@ 12133
ota 12133
Cape 12132
lav@@ 12124
wen 12124
stamps 12122
insect 12121
ylation 12120
ERP 12117
geometric 12116
adherence 12113
consequently 12112
cos@@ 12112
comb@@ 12106
Shel@@ 12104
ranges 12101
Realization 12098
Danny 12090
inning 12088
prerequisite 12085
Penal 12084
utes 12084
tains 12083
lap 12080
ven 12080
self@@ 12079
Advancement 12076
wines 12075
jun@@ 12073
verbal 12071
tai 12068
refusal 12067
ideals 12065
Mozambique 12063
tribe 12063
Measuring 12062
ules 12062
temper 12061
diversified 12059
inappropriate 12059
exploit 12058
lor@@ 12055
semantic 12054
human@@ 12053
wholly 12052
pass@@ 12051
shells 12051
performs 12050
drawings 12044
Eng@@ 12042
swept 12036
AV@@ 12034
uded 12033
fer 12029
cholesterol 12025
Howard 12024
Cambridge 12020
Immigration 12017
feared 12016
bee 12015
glorious 12014
mem@@ 12013
eps 12010
scholar 12010
Mit@@ 12008
successor 12005
Ak@@ 12004
fifteen 12003
Baghdad 12002
Historical 12002
timetable 11998
earning 11997
rotary 11997
wr@@ 11995
Animal 11994
inst@@ 11994
teaches 11993
Reconstruction 11990
resting 11989
cot@@ 11988
Recovery 11987
ship@@ 11987
Equal 11984
standardization 11984
Ol@@ 11983
perf@@ 11979
believers 11978
prostitution 11978
ext@@ 11971
bolt 11969
titanium 11969
deprivation 11967
eing 11966
dist@@ 11963
magnesium 11960
summarize 11960
humidity 11957
dre@@ 11956
eli@@ 11956
magical 11956
devote 11953
heart@@ 11952
speci@@ 11948
Run 11946
15th 11944
Concept 11943
tam@@ 11941
smallest 11939
Style 11938
trash 11938
ratios 11932
num@@ 11930
Shaanxi 11929
corrected 11927
Directorate 11926
endeavour 11925
Brief 11924
ake@@ 11922
pulp 11922
scary 11922
advocates 11921
explosives 11920
reas@@ 11918
Girl 11916
feast 11916
wallet 11915
anny 11913
prop@@ 11912
hop@@ 11907
gling 11903
Dalian 11902
handful 11898
sympathy 11897
poured 11896
Informal 11890
Select 11890
fragrance 11887
ghua 11885
ights 11885
ischemia 11885
cross@@ 11883
Oscar 11882
ective 11882
Gor@@ 11881
quasi 11880
ister 11878
sulfur 11875
angu@@ 11874
block@@ 11874
corrupt 11874
rude 11874
-I 11871
ues 11871
actic 11870
111 11868
Yugoslav 11867
resilience 11865
Faso 11862
Pot@@ 11862
sibility 11862
shadows 11861
ped@@ 11859
denial 11856
radial 11856
san@@ 11856
Write 11854
iro 11854
Bec@@ 11853
SECRETARY 11852
peptide 11850
borrowed 11849
kets 11849
Tong 11847
attaches 11847
reforming 11846
Net@@ 11844
collectively 11843
ores 11843
lasts 11842
clauses 11838
lowering 11838
tance 11837
Promote 11835
cancelled 11834
weighted 11834
Burkina 11833
usion 11832
GC 11831
gging 11830
leap 11830
tomato 11830
regeneration 11829
ed.@@ 11828
pad 11828
superiority 11826
Generation 11823
dum@@ 11822
onset 11821
apps 11820
ook 11820
stiffness 11818
API 11815
Maria 11815
coatings 11815
impulse 11813
Independence 11812
alisation 11812
ensis 11812
Albert 11809
southeast 11809
interfaces 11808
Xin 11807
breed 11806
ected 11806
Overseas 11805
educate 11804
spectra 11803
36@@ 11801
Ye 11801
appearing 11800
iv 11800
Transnational 11799
Malta 11797
homeless 11797
backing 11796
followers 11794
teenagers 11794
conversations 11793
cough 11793
Uni@@ 11792
TO 11791
zoo 11790
Jiang@@ 11787
Solutions 11784
atom 11782
High@@ 11781
makeup 11781
Whole 11779
synchronous 11779
Cel@@ 11777
Zi@@ 11770
licensed 11770
rebels 11770
justification 11769
Opening 11766
pensions 11765
jum@@ 11762
Examination 11760
Cou@@ 11759
Py@@ 11759
har 11756
premature 11756
SI@@ 11755
butterfly 11755
dness 11755
incorporating 11755
laundry 11755
drank 11753
recruit 11751
beg 11750
illusion 11749
ome@@ 11749
tsunami 11749
emulsion 11748
shifts 11745
alled 11744
naval 11743
Evidence 11742
ladder 11742
releasing 11742
desktop 11737
nationally 11736
Albania 11732
DS 11731
Ker@@ 11729
sha 11729
pills 11728
Islam 11725
corners 11725
wax 11723
Grace 11722
inity 11722
CN.4 11720
extradition 11719
Close 11715
statue 11714
drift 11713
appropriation 11712
Hydraulic 11711
airplane 11711
answering 11710
Confucius 11701
tant 11701
tol@@ 11700
tra 11693
tablet 11691
Jobs 11685
Truth 11685
asting 11685
jer@@ 11685
glance 11679
pledges 11678
wipe 11678
Recognition 11677
Yahoo 11673
itting 11673
Awards 11672
connectivity 11670
Grade 11667
mas 11666
Boy 11664
disclose 11664
Mountains 11663
power@@ 11663
slipped 11663
Empire 11661
detective 11659
ogram 11659
oscope 11654
incoming 11651
acqu@@ 11650
Empirical 11649
tensile 11649
recipients 11648
hostilities 11646
optimizing 11643
settling 11641
underwent 11640
Fun@@ 11639
MR@@ 11639
ECOWAS 11633
bian 11629
HE@@ 11626
door@@ 11625
190@@ 11621
sandwich 11621
contracted 11619
esteem 11618
Direc@@ 11617
Fault 11617
ession 11616
thro@@ 11616
determin@@ 11614
tery 11610
arr@@ 11606
poorly 11606
duly 11605
spontaneous 11605
tournament 11605
shaping 11603
vigorous 11603
normative 11599
eats 11593
pling 11592
mir@@ 11590
relying 11590
elders 11588
floods 11588
soils 11588
leak 11587
Embassy 11583
safeguarding 11580
postoperative 11579
Left 11574
cautious 11574
Fortunately 11572
retrieval 11571
Technologies 11569
comprise 11569
cone 11568
ough 11565
Projects 11562
aesthetics 11559
folded 11558
hearted 11558
heavens 11558
laptop 11558
frightened 11555
horn 11555
Wilson 11554
clim@@ 11552
modal 11552
elevated 11550
setup 11550
angi@@ 11549
asing 11549
transforming 11549
oured 11548
arrow 11547
nom@@ 11547
Pollution 11546
xes 11546
Increase 11545
garlic 11545
inability 11540
explanations 11537
endure 11536
gambling 11536
ector 11535
Continuous 11533
Hainan 11533
destroying 11532
Dig@@ 11530
Prior 11530
communicating 11530
umb@@ 11530
credits 11529
careers 11528
clarified 11526
lah 11526
wording 11522
iers 11518
Tao 11517
thers 11516
quarterly 11515
Liang 11514
logo 11514
speeches 11514
IA 11513
arises 11513
phrases 11513
downstairs 11512
expl@@ 11512
pumping 11512
vin 11512
í@@ 11512
Novel 11511
web@@ 11510
Xiang@@ 11509
rigorous 11509
Mo 11508
visibility 11508
symptom 11507
exterior 11506
CN.9 11503
fond 11502
trades 11501
Disney 11500
exams 11498
grow@@ 11497
posting 11496
asthma 11495
MA@@ 11492
proactive 11492
tening 11492
step@@ 11491
07 11488
K. 11488
Circuit 11487
spr@@ 11486
nutrient 11483
Zhu@@ 11482
ye@@ 11482
onate 11480
LD@@ 11478
zhi 11476
righteousness 11475
104 11474
Colonel 11474
Tajikistan 11474
Ass@@ 11473
Thoughts 11473
searched 11471
notified 11470
oot 11470
socially 11470
impartial 11467
minim@@ 11467
munitions 11465
prevents 11465
amped 11462
diabetic 11462
Der@@ 11460
prohibit 11459
colony 11456
Box 11455
gol@@ 11454
confrontation 11450
torn 11449
.He 11443
arbitral 11443
ox 11441
fabrics 11438
vigorously 11438
toes 11436
colours 11435
4,000 11434
pathway 11434
een 11433
downward 11432
gent 11431
Marx 11429
decree 11427
honestly 11427
Le 11426
lum@@ 11426
1970 11424
Lon@@ 11424
woven 11421
Key@@ 11420
relies 11419
resumption 11419
spine 11419
Rep@@ 11418
appealed 11418
miserable 11418
osphere 11418
Groups 11412
Volunteers 11408
simultaneous 11405
cups 11404
pu 11404
atically 11403
inous 11403
inhibition 11402
seated 11402
1973 11401
northwest 11399
textbooks 11399
escence 11397
opponents 11396
orthogonal 11396
Administrator 11394
Device 11394
lighter 11393
Williams 11392
confronted 11392
suppression 11392
Bus 11391
Glass 11391
Latvia 11390
kissed 11388
PRESIDENT 11387
ordering 11384
Estate 11382
Rus@@ 11382
correspondence 11381
inverse 11381
T. 11379
M.@@ 11378
scratch 11374
Mid@@ 11373
enting 11372
successive 11372
sunset 11372
06 11370
cables 11368
Front 11365
suspicion 11365
dye 11362
vendor 11362
Plastic 11361
Acts 11357
Whoever 11357
ration 11355
hing 11354
t. 11354
switched 11353
xinhua 11353
Governmental 11352
sickness 11350
attacking 11349
dreaming 11349
wavelength 11348
Highway 11347
specimens 11347
attained 11344
curb 11344
Zhong@@ 11342
ital 11341
embodied 11339
commented 11338
origins 11338
udes 11337
vic@@ 11335
sludge 11334
nomination 11331
aliens 11330
confront 11326
Hay@@ 11323
ether 11322
ato 11320
Ombudsman 11318
technically 11318
penetration 11315
Chan 11314
architect 11314
wears 11314
jurisdictions 11313
posi@@ 11313
quick@@ 11313
privileges 11312
Allow 11311
itors 11310
dot 11309
recipe 11306
airlines 11305
scholarship 11304
unfortunate 11304
enrolled 11303
amps 11302
marriages 11301
scoring 11298
Spl@@ 11297
forbidden 11295
&apos;am 11294
Honourable 11293
Neural 11289
antibiotics 11289
turing 11289
108 11286
shifted 11285
ethylene 11283
hardship 11282
steep 11282
cad@@ 11280
manipulation 11279
Lisa 11278
cultured 11277
jun 11276
alli@@ 11267
nails 11261
Portuguese 11259
exert 11259
bloom 11258
Beauty 11255
auditing 11253
carbonate 11250
neutr@@ 11250
bei 11248
holistic 11248
printer 11248
Dur@@ 11247
assurances 11244
stakeholder 11243
Condition 11241
openly 11241
than@@ 11240
persist 11238
1981 11237
Words 11235
undergraduate 11235
deserved 11231
lime 11231
enrolment 11230
spacecraft 11227
kind@@ 11225
Controller 11224
ule 11224
martial 11222
Unity 11221
cancellation 11221
microstructure 11221
Wi@@ 11220
CF@@ 11219
coil 11219
loo@@ 11218
retaining 11218
ET 11216
morph@@ 11216
ost@@ 11215
fru@@ 11214
wildlife 11214
xed 11214
hk@@ 11213
streaming 11212
someday 11210
exemption 11208
offenders 11208
Judah 11207
Strength 11207
clustering 11207
heng 11204
median 11203
Election 11200
conductivity 11200
13.@@ 11199
imposing 11199
preferences 11198
Cabinet 11195
Johannesburg 11192
comprised 11191
Down 11187
Wen@@ 11186
ects 11186
ests 11185
hemorrhage 11185
robbery 11185
Guo 11184
symbolic 11184
Jehovah 11182
frog 11182
Vari@@ 11181
Mandarin 11179
altar 11178
contingency 11178
Cities 11176
sino 11176
aping 11174
iles 11173
Face 11172
entries 11172
bombs 11171
lectures 11171
ogenesis 11171
shareholder 11171
Lucy 11170
advocated 11169
Hybrid 11166
consulted 11166
reminder 11166
heter@@ 11162
Far 11160
103 11157
arena 11157
Cairo 11154
Hen@@ 11154
aur@@ 11152
garment 11151
manifest 11150
ows 11146
float 11145
nasal 11141
Pop@@ 11138
2.2 11137
protects 11137
impetus 11136
onia 11136
yers 11133
Benjamin 11132
fel@@ 11132
optimism 11131
predecessor 11130
2.1 11127
deficiencies 11126
deliberate 11123
Ric@@ 11119
accompanying 11119
Ability 11117
Su 11116
ect@@ 11113
transc@@ 11112
rains 11110
Copper 11107
Doppler 11107
fol@@ 11107
wel@@ 11107
synchronization 11105
lungs 11103
tices 11103
damaging 11100
fla@@ 11100
undertook 11100
agon@@ 11099
enriched 11098
senses 11098
poultry 11096
Focus 11095
slowdown 11095
tracing 11095
rewards 11094
brain@@ 11093
nor@@ 11091
visitor 11091
UNAMID 11089
mond 11089
tations 11089
Stre@@ 11088
lipid 11088
Compound 11084
genocide 11084
ounded 11083
sculpture 11083
tizing 11083
disappointment 11082
hk 11082
rebuild 11081
audi@@ 11080
xy 11075
iner 11074
Aligned 11073
Satellite 11072
eled 11072
lightly 11072
Save 11071
crum@@ 11068
Envoy 11067
curiosity 11067
Zheng 11066
exquisite 11065
icating 11065
Shen 11062
Log@@ 11060
ek@@ 11059
satisfying 11057
Manual 11056
linkage 11056
OSCE 11053
weaker 11053
stadium 11052
thi@@ 11051
tionally 11050
insured 11049
ripe 11044
pac@@ 11043
Inf@@ 11041
Kennedy 11039
sap@@ 11039
techn@@ 11038
exceeds 11037
Wood 11036
punch 11036
vac@@ 11036
zemin 11035
modi@@ 11032
supervise 11032
jeans 11028
asphalt 11027
ert 11024
southwest 11022
blanket 11021
Danish 11020
churches 11020
GR@@ 11019
communicated 11019
privately 11019
Getting 11018
commend 11018
Forests 11010
Practical 11008
stom@@ 11008
congratulations 11007
icle 11007
perme@@ 11007
Cont@@ 11006
controversy 11006
Meth@@ 11005
Girls 11004
jec@@ 11004
clip 11002
parental 11002
Sm@@ 11001
fascinating 11000
fluctuations 11000
margins 10998
Sand@@ 10997
frustration 10997
shi 10997
shorten 10994
pavement 10993
icul@@ 10992
12th 10991
screens 10991
iction 10990
gum 10988
Liberation 10984
witch 10983
hil@@ 10981
Site 10980
cle@@ 10978
dosage 10976
onian 10973
Prov@@ 10971
Brand 10968
dep@@ 10968
sli@@ 10968
2O 10967
generates 10967
OS 10966
belonged 10965
ance@@ 10964
nerves 10964
recurrence 10962
surveyed 10962
tricks 10960
Ethics 10958
conserv@@ 10956
FDA 10955
Relation 10955
ort 10953
spectacular 10952
goat 10948
precip@@ 10948
disadvantage 10946
ark 10944
ruined 10944
euros 10943
pumps 10943
kle 10942
Appeal 10941
chin@@ 10941
Cab@@ 10940
candle 10940
BR@@ 10939
pockets 10938
iff 10935
Ling 10934
Liaoning 10933
Steven 10933
loneliness 10933
sulf@@ 10933
pi 10932
echo 10931
Location 10930
arithmetic 10930
scandal 10930
IX 10929
junction 10929
Character 10928
tility 10928
renovation 10927
shuttle 10927
fore 10926
Principal 10925
Rapid 10923
Register 10923
allowances 10923
pal 10923
acquiring 10922
sounded 10922
1.4 10920
surprisingly 10918
terrain 10917
crane 10915
Commun@@ 10913
assign 10913
crystals 10913
tioning 10913
questioning 10909
loses 10908
scar@@ 10907
severity 10905
agu@@ 10903
lawsuit 10903
amin@@ 10901
stipulates 10899
priests 10898
una 10895
Tam@@ 10894
arrives 10891
youngest 10891
chin 10890
dude 10890
lakes 10888
ole@@ 10885
Provincial 10884
clinics 10883
renminbi 10881
fro@@ 10880
author@@ 10879
Jie 10878
sne@@ 10875
disturbed 10872
aters 10871
inconsistent 10871
suite 10871
unreasonable 10871
Aaron 10870
testi@@ 10867
Subsequently 10866
etting 10866
mod@@ 10863
Wheat 10862
civilizations 10861
aly@@ 10859
additive 10858
overtime 10858
sailing 10857
saturated 10857
eg 10856
DI@@ 10855
cheer 10854
spir@@ 10854
Academic 10852
Benin 10852
Nearly 10852
explores 10852
tops 10852
wards 10851
assignments 10848
Likewise 10847
defending 10847
repl@@ 10846
Heritage 10845
airports 10845
cuisine 10845
objections 10845
CE 10844
photographer 10844
porcelain 10844
stereotypes 10844
marginalized 10843
SS@@ 10841
dest 10841
fashionable 10841
undergo 10841
nation@@ 10840
triple 10839
38@@ 10838
Ryan 10835
Alexander 10834
Choose 10833
Rat 10831
scri@@ 10831
Linear 10829
stimulating 10829
cant 10828
decorated 10828
106 10825
oner 10825
aboard 10824
Parameters 10822
mist 10822
forecasts 10821
Walter 10820
reproduction 10820
monkeys 10819
gorgeous 10816
Emma 10814
Gordon 10814
cared 10814
Sport 10813
Machinery 10809
uated 10809
Solar 10808
secretly 10808
quanti@@ 10805
Alloy 10804
activists 10804
350 10802
Networks 10801
pret@@ 10801
short@@ 10800
companion 10798
philosophical 10795
consultancy 10793
Going 10792
Above 10788
WeChat 10788
vacancies 10785
expose 10784
liquidation 10784
commissioned 10783
illi@@ 10783
tized 10783
has@@ 10781
Pil@@ 10778
bombing 10778
Sound 10776
Sounds 10772
evolutionary 10772
Inside 10768
administrator 10767
idle 10766
lobby 10766
15.@@ 10765
unite 10765
BC 10764
Congolese 10763
Load 10762
caution 10762
organised 10762
lec@@ 10760
ames 10759
slag 10759
summits 10758
hid 10756
Deng 10754
Os 10754
Barcelona 10750
ceramics 10749
cooperating 10748
featuring 10747
toast 10747
manners 10746
april 10745
Collection 10742
patents 10742
Kal@@ 10741
Mac 10740
fibro@@ 10740
tings 10740
Ground 10739
Carl 10738
frontier 10737
sus@@ 10737
myth 10734
flow@@ 10733
ood 10733
sometime 10733
manpower 10731
residue 10730
regulator 10729
anne 10728
lowered 10726
Clean 10723
paren@@ 10723
invalid 10722
Individual 10721
Position 10721
celebrating 10719
plac@@ 10715
Yong@@ 10714
exclude 10714
segmentation 10714
chasing 10713
intim@@ 10712
bble 10711
arguing 10710
G. 10709
awkward 10708
revise 10707
Rab@@ 10706
trop@@ 10706
Play 10704
chaotic 10702
Cad@@ 10701
ling@@ 10701
Hhhh@@ 10699
VIII 10693
pouring 10692
Arch@@ 10691
pop@@ 10690
proceeded 10689
bag@@ 10687
risky 10685
Dun@@ 10684
04 10683
rol@@ 10682
ud 10682
embassy 10679
Ice 10678
amplifier 10678
horror 10676
sided 10676
Pin@@ 10674
cp 10671
ishan 10670
insights 10667
intervals 10666
Beyond 10661
Express 10661
reaffirms 10659
AIM 10658
Estonia 10657
computational 10655
tuition 10655
rig@@ 10654
farther 10653
tis@@ 10653
da@@ 10652
committing 10651
iring 10650
Ladies 10648
corridor 10647
dreamed 10647
Lau@@ 10644
Smart 10643
Block 10637
Exp@@ 10637
Peking 10637
bladder 10637
Luxembourg 10635
wasting 10635
Prohibition 10634
enshrined 10634
tless 10634
Syndrome 10633
Stat@@ 10631
1983 10629
ask@@ 10626
11th 10625
realizes 10625
Happiness 10624
Consensus 10620
Consumer 10619
imbalance 10618
ogen 10617
raid 10611
SD@@ 10605
Hillary 10604
1960s 10602
gesture 10600
isc@@ 10600
Ann 10598
Attorney 10598
kindly 10595
prey 10595
itate 10594
empire 10592
4.5 10591
Instrument 10591
permanently 10591
ections 10590
refuge 10590
Goldman 10588
Move 10587
chers 10586
rel 10586
vapor 10584
1373 10577
Tun@@ 10577
immense 10574
blamed 10573
ially 10572
absorbing 10570
downs 10570
conductor 10568
Car 10567
labels 10567
Layer 10565
collections 10564
flav@@ 10563
inorganic 10563
phon@@ 10562
kou 10561
enders 10560
aerial 10559
cognition 10559
Week 10554
glob@@ 10554
thing@@ 10553
17th 10551
ested 10550
republic 10549
Ox@@ 10547
apology 10546
emphasizing 10545
dys@@ 10543
spotted 10536
akes 10534
births 10531
simplicity 10531
odes 10530
inequalities 10529
qualify 10528
smiles 10527
Ow@@ 10524
dm 10524
Wa@@ 10523
swelling 10523
ener@@ 10522
orn 10520
minors 10519
envy 10515
mot@@ 10515
pencil 10512
livelihoods 10511
runner 10511
snacks 10511
slaves 10510
bonding 10509
mc 10509
competitions 10508
june 10507
i. 10506
audits 10505
indices 10505
reorganization 10505
twist 10505
pled 10503
enced 10502
iced 10502
seas@@ 10502
judging 10501
weigh 10500
earthquakes 10499
polluted 10498
Hun@@ 10497
Tommy 10497
distributing 10497
Fox 10496
localization 10494
charts 10493
suspend 10493
gal 10492
tain 10492
ego 10491
jam 10491
Luke 10490
erc@@ 10490
ocyte 10490
thereafter 10490
crush 10489
ingredient 10487
cher@@ 10486
psycho@@ 10486
salvation 10486
Regular 10484
forgiveness 10483
deepest 10482
Monterrey 10480
Date 10478
buttons 10478
Cour@@ 10477
aided 10476
Hur@@ 10473
backgrounds 10473
isa 10473
balloon 10471
compares 10470
Regulatory 10467
exhibitions 10467
aring 10466
adhesion 10465
FF@@ 10464
Intellectual 10463
projections 10463
commun@@ 10462
DSP 10461
vas@@ 10461
Forget 10460
irrit@@ 10460
liner 10460
sour 10458
magnet 10455
ador@@ 10454
encryption 10453
Detective 10449
ocytes 10449
Cut 10448
retailers 10447
from@@ 10446
vacant 10445
Catherine 10444
wires 10444
traumatic 10443
Ful@@ 10440
ct 10440
synergies 10440
simpl@@ 10437
uous 10436
struggled 10434
Registry 10432
cab@@ 10431
chef 10431
ci 10430
peasant 10430
Initial 10427
molding 10427
Tre@@ 10425
Corruption 10422
Astr@@ 10421
enrich 10418
foremost 10418
manages 10418
gle 10417
proc@@ 10417
reservoirs 10415
olive 10414
benign 10410
calligraphy 10410
WH@@ 10409
Anne 10408
theorem 10408
bel 10407
longitudinal 10406
Banking 10405
jar 10405
inging 10404
ace@@ 10403
Dou@@ 10401
silly 10400
Jerry 10399
Send 10399
gh 10398
incorporation 10398
nal 10398
volcanic 10397
toe 10394
admissibility 10391
Salt 10390
Matthew 10388
heater 10388
aim@@ 10387
xiang 10387
Eth@@ 10386
biom@@ 10385
use@@ 10384
caus@@ 10380
iter@@ 10380
crashed 10379
formats 10379
mation 10379
vague 10378
EG@@ 10376
Apparently 10375
Presidents 10374
frequencies 10373
otropic 10373
shocks 10373
ust@@ 10372
intrinsic 10371
pick@@ 10371
wid@@ 10371
16th 10370
Peninsula 10370
assa@@ 10370
compressed 10370
Fang 10369
injected 10367
Bou@@ 10366
doub@@ 10365
Psychological 10363
antigen 10363
dock 10362
sensible 10362
Vo@@ 10361
reversed 10361
ece 10360
hhhhThis 10360
HA 10357
anx@@ 10354
tac@@ 10352
withdrawn 10350
cpc 10346
watches 10344
markers 10342
mentality 10342
oric 10342
weights 10342
stre@@ 10340
imper@@ 10339
chol@@ 10337
Dance 10336
aforementioned 10336
identifies 10336
Ah@@ 10335
unpaid 10335
IB@@ 10334
crystalline 10334
conceived 10333
adap@@ 10330
deer 10327
sar@@ 10325
enzymes 10323
speeds 10323
Reservoir 10319
professors 10318
maxim@@ 10316
essions 10314
similarly 10314
mum 10313
opposing 10313
prosecutor 10311
Marxism 10310
Ten@@ 10309
acity 10309
Depression 10308
periodically 10308
Ind@@ 10307
analy@@ 10307
communist 10307
malnutrition 10306
navy 10306
30,000 10305
mono@@ 10305
protesters 10304
posture 10302
cruise 10301
govern 10301
prevail 10301
configured 10298
Mari@@ 10296
dp 10296
holdings 10295
icians 10295
ello 10294
manifestation 10289
scarce 10288
gation 10286
outlets 10286
resettlement 10285
t.@@ 10285
Samsung 10284
soy 10284
restoring 10283
thyroid 10283
Bot@@ 10281
negatively 10281
inland 10279
Adoption 10278
evolve 10278
Grant 10277
Greater 10276
Positive 10276
abol@@ 10275
successes 10272
trem@@ 10272
embarrassed 10268
mass@@ 10266
Rot@@ 10265
dissolved 10265
Aff@@ 10261
Recommendation 10260
stor@@ 10258
gloves 10257
sel 10257
activ@@ 10256
dd 10255
Avenue 10253
aki 10251
destined 10251
broaden 10250
accorded 10248
divorced 10248
Tong@@ 10244
eded 10242
energies 10241
jokes 10241
Durban 10240
Lakes 10239
Moldova 10239
past@@ 10239
energetic 10236
supervisor 10236
bucket 10235
Nonlinear 10232
shrimp 10232
disturbing 10231
ples 10230
edit 10229
Airlines 10225
broadband 10224
green@@ 10224
hopefully 10223
initiation 10223
3. 10221
Induced 10220
businessman 10220
polymerization 10220
cane 10219
lor 10218
unlimited 10218
Vincent 10216
west@@ 10215
peaks 10211
Jake 10210
blessings 10209
gir@@ 10208
disagree 10207
queries 10207
firearms 10204
cr 10201
scaling 10200
ampl@@ 10199
Crystal 10197
LE 10197
Exercise 10193
respecting 10193
yards 10193
Hand 10192
altern@@ 10192
rainy 10192
executing 10191
Jamahiriya 10190
Policies 10189
cheat 10187
115 10186
dominate 10186
lotus 10184
pillow 10184
certainty 10183
downturn 10183
spark 10181
donations 10180
Back@@ 10177
petition 10177
interrupt 10176
ordinance 10176
tertiary 10176
comedy 10175
enclosed 10174
grip 10173
outsourcing 10171
fruitful 10169
carved 10167
noisy 10167
ratings 10165
surgeon 10165
tail@@ 10164
Baidu 10163
Miller 10163
Democracy 10161
Speech 10157
closet 10157
olic 10157
smen 10157
hydrocarbon 10156
Einstein 10155
hang@@ 10155
physician 10155
sulfate 10155
spouses 10154
aj@@ 10152
pertinent 10152
peti@@ 10152
Examples 10151
Techn@@ 10151
credentials 10151
Description 10150
Puerto 10148
Woman 10146
decentralization 10146
itude 10145
industrialized 10143
inks 10143
inspectors 10143
supper 10143
Ds 10141
itch@@ 10141
14.@@ 10139
finances 10135
SL@@ 10134
bru@@ 10134
donation 10134
hospitality 10134
Spe@@ 10133
motions 10132
marginal 10131
112 10130
Matrix 10130
Steering 10130
circulating 10130
class@@ 10130
coral 10130
Gao 10123
Import 10123
Nation@@ 10123
Welcoming 10123
Chronic 10122
ania 10121
capitalism 10121
pris@@ 10120
Establishing 10119
Beach 10116
Kuwaiti 10116
businessmen 10116
Dave 10115
sens@@ 10114
memorial 10113
Correlation 10111
Manhattan 10111
affiliated 10111
lamb 10111
arming 10109
mang@@ 10107
observance 10104
positioned 10104
arians 10103
innov@@ 10103
outward 10103
fluctuation 10100
Matters 10093
ordin@@ 10090
cheating 10088
dupl@@ 10087
scare 10087
travels 10087
helicopters 10086
simplify 10086
sweep 10086
Phil 10085
otes 10085
proving 10082
ruler 10082
thumb 10080
LA@@ 10077
Nit@@ 10077
formulas 10077
submarine 10077
glue 10076
dialog 10075
ost 10075
ozoic 10074
side@@ 10073
Northeast 10072
marker 10071
stry 10068
exporting 10067
diver@@ 10066
2.3 10064
Spatial 10064
travelled 10064
lemon 10063
ample 10062
herbs 10060
priced 10060
slowing 10059
Bat@@ 10058
ignorance 10058
hardest 10057
curved 10056
ul 10056
Wat@@ 10054
Patrick 10053
skull 10053
Dean 10052
107 10051
bed@@ 10051
Hist@@ 10050
Nursing 10050
ision 10049
modifications 10049
cool@@ 10048
rein@@ 10047
rounded 10046
Jiangxi 10045
fills 10044
Believe 10043
heels 10043
ind 10043
ont@@ 10043
acked 10042
demonstrations 10041
16.@@ 10039
MA 10034
fies 10034
need@@ 10033
july 10032
Xiamen 10030
ury 10030
ip 10029
Van@@ 10028
acking 10028
bin@@ 10028
align 10026
fast@@ 10026
ider 10026
omes 10024
Eat 10022
Dominican 10021
Fuel 10019
utation 10017
physi@@ 10016
guaranteeing 10014
Interest 10012
Strengthen 10012
decom@@ 10012
uting 10010
Kelly 10009
bail 10009
Phil@@ 10008
Jian@@ 10005
suppress 10005
alkali 10004
killings 10004
Philosophy 10003
commenced 10003
Delhi 9999
glow 9999
deaf 9998
buff@@ 9997
olig@@ 9997
violating 9997
benchmarks 9994
Mama 9992
tariffs 9992
dwell 9991
Ka@@ 9990
Ying 9989
analog 9989
Dark 9986
Re 9984
smartphone 9984
amide 9983
arc@@ 9983
cubic 9983
Cypriot 9982
Mental 9982
enthusiastic 9982
Fran@@ 9980
dietary 9980
lan@@ 9980
Memory 9979
extracting 9979
financially 9978
assi@@ 9977
Indians 9975
berries 9975
recruiting 9975
Ang@@ 9973
cumulative 9973
pigment 9972
rents 9972
proportional 9970
contacted 9969
intact 9969
Junior 9968
Ti 9966
acres 9964
PAR@@ 9963
Fab@@ 9959
jus@@ 9959
Dist@@ 9958
Owing 9958
Few 9957
Hang 9957
Som@@ 9957
MI@@ 9953
wholesale 9952
Tal@@ 9951
Tro@@ 9951
Nik@@ 9950
22@@ 9949
UNCCD 9948
weed 9948
characterization 9947
Ha 9946
Similar 9946
evap@@ 9946
Tian 9945
put@@ 9945
Pun@@ 9944
liqu@@ 9944
policeman 9944
schooling 9943
nationalities 9942
ankle 9941
ean 9941
Jersey 9938
activate 9936
Pep@@ 9933
Tech 9933
appe@@ 9933
Tel@@ 9931
Shen@@ 9930
METHODS 9929
orate 9927
Tax@@ 9924
lov@@ 9924
Recommendations 9922
predic@@ 9922
thouse 9920
budgeted 9914
48@@ 9913
Athens 9912
resses 9912
O. 9911
Error 9909
conditional 9909
ema 9909
Potter 9908
rests 9907
Therapy 9906
disputed 9906
intersection 9905
stems 9904
scrutiny 9903
beverage 9899
homogeneous 9898
essive 9897
forging 9897
cart 9896
sheng 9894
asser@@ 9892
Pig@@ 9890
Desertification 9887
ais 9887
evacuation 9887
Bos@@ 9884
burns 9884
Good@@ 9881
fort 9879
limb 9879
check@@ 9878
tomb 9878
sums 9876
diversion 9875
iss 9873
ua 9873
Map 9872
13th 9869
Jenny 9868
Duke 9866
GO@@ 9866
pilots 9866
broker 9862
quarantine 9862
ation.@@ 9861
extingu@@ 9861
ather@@ 9860
mit 9857
Applying 9856
aper@@ 9855
Lewis 9854
proposing 9853
Wine 9849
faint 9849
Annie 9848
sofa 9848
brac@@ 9847
urging 9846
world@@ 9846
Buy 9844
ails 9844
differentiated 9844
socks 9843
Purpose 9842
refriger@@ 9841
Carter 9838
jia 9837
eleventh 9835
lays 9835
lumbar 9835
blu@@ 9834
fir@@ 9832
frustrated 9831
Americas 9828
PH@@ 9827
Trading 9827
athlete 9827
Brow@@ 9826
UNMIL 9826
industri@@ 9823
cryp@@ 9821
milestone 9821
striving 9821
domains 9820
aper 9818
filtration 9814
box@@ 9813
schema 9812
blasting 9810
CA 9809
insists 9809
dump 9806
peninsula 9806
sively 9806
Damage 9805
legi@@ 9805
purse 9805
rhetoric 9805
festivals 9802
Enjoy 9798
kinetic 9796
millennium 9796
bad@@ 9795
sixtieth 9795
kills 9791
Views 9790
eter@@ 9790
ump 9790
defenders 9787
Brain 9785
inqu@@ 9784
Minimum 9783
bubbles 9783
vaccines 9783
Congratulations 9782
Choice 9781
Fac@@ 9779
SOA 9779
nas@@ 9774
surroundings 9774
ECA 9773
Requirements 9773
bang 9773
Kowloon 9772
Socialist 9772
oke 9770
turkey 9767
Artificial 9765
storing 9765
Ningbo 9764
shout 9762
Clearly 9760
market@@ 9760
mobilizing 9759
wo@@ 9759
diffraction 9757
Voluntary 9756
predicting 9756
couch 9755
Whit@@ 9754
Fixed 9753
finest 9753
mak@@ 9753
ull 9748
Prediction 9747
inary 9747
Border 9746
sulph@@ 9745
dealers 9743
cookies 9742
gut 9742
stressing 9742
Hawaii 9741
celebrity 9741
endangered 9741
obstruction 9741
Haw@@ 9739
voluntarily 9739
Bachelor 9738
ati 9737
pearl 9737
iti 9736
faction 9735
portrait 9734
uity 9732
1.6 9731
ary@@ 9731
ailed 9729
Excellent 9726
compressor 9726
healthier 9726
dealer 9725
lem@@ 9724
Eg@@ 9723
highlighting 9721
repairing 9721
vocal 9721
Opportunities 9720
discloses 9720
oscopy 9720
terminated 9720
Bond 9718
Continue 9717
reck@@ 9717
uneven 9715
ed. 9714
Matt 9713
Need 9711
dissolution 9710
Jinping 9708
Vegas 9707
medic@@ 9707
attainment 9706
courtyard 9706
medicinal 9704
organism 9703
habitat 9702
tray 9701
ammonia 9700
ice@@ 9700
verb 9699
charter 9698
inating 9698
limbs 9696
aver 9695
Wireless 9694
coke 9694
Gate 9692
milit@@ 9692
slot 9689
UNOCI 9687
departmental 9687
subsidy 9687
iter 9683
flats 9681
Modified 9680
Dam@@ 9678
imposition 9678
Vietnamese 9677
awaiting 9677
approximate 9675
eding 9675
Lang@@ 9674
commanded 9673
confidentiality 9672
Gil@@ 9670
advertisements 9670
Command 9669
anz@@ 9668
pronounced 9668
Functional 9667
digging 9667
discharged 9665
jian 9665
Crisis 9664
grapes 9664
Operational 9663
igh 9663
separating 9663
Organisation 9662
casing 9662
seafood 9661
righteous 9660
Eli@@ 9659
Gam@@ 9659
inspect 9659
sensation 9659
yun 9659
remarkably 9657
accepts 9656
ballistic 9655
anks 9654
rop@@ 9652
Chu@@ 9651
brutal 9651
tened 9650
Doesn 9649
Sha 9649
Same 9646
incumbent 9645
enrichment 9643
cyclic 9641
crushed 9640
disposed 9640
Dav@@ 9639
Serv@@ 9639
vs 9638
scrip@@ 9637
Petroleum 9636
body@@ 9636
weakened 9636
aquatic 9635
apper 9633
enquiry 9633
traces 9633
ogen@@ 9632
Photo@@ 9631
hind@@ 9631
infringement 9631
Kat@@ 9630
legislature 9630
plight 9630
ifier 9629
museums 9629
recovering 9629
transported 9629
Upper 9628
concessions 9628
dream@@ 9628
Tonight 9626
plum@@ 9626
practiced 9623
thered 9623
trans 9623
Mixed 9622
Roger 9620
rif@@ 9619
warnings 9619
solo 9618
weekends 9618
ais@@ 9616
diligence 9616
ept@@ 9615
theoretically 9615
enhances 9614
Pay@@ 9613
cyber 9613
1960 9610
affirmed 9610
Bei@@ 9606
Ty@@ 9603
Kor@@ 9602
Wol@@ 9602
aqueous 9602
deficits 9602
maize 9602
submits 9601
springs 9599
Honduras 9598
diary 9598
demonstrating 9596
travelers 9596
.But 9594
Ron 9594
overcoming 9592
accessing 9591
inn 9591
foil 9590
SS 9588
allergic 9588
neo@@ 9588
Elements 9587
prayers 9587
Bone 9584
helpless 9584
refining 9584
Outcome 9580
costume 9580
Jun 9578
richest 9578
ballot 9577
GE 9576
rebuilding 9575
inge 9574
lacked 9572
Bahrain 9571
zhang 9571
Eventually 9569
academy 9569
aces 9569
squeeze 9569
Guess 9566
sperm 9566
ligh@@ 9563
ator@@ 9562
junk 9561
relocation 9561
DJ 9560
Yun@@ 9558
Gansu 9557
supplying 9557
yearly 9556
Utilization 9554
embryo 9553
avi@@ 9552
fundamentally 9552
metabolic 9552
methane 9552
ounce 9551
Landscape 9550
Ring 9550
exual 9550
good@@ 9550
ground@@ 9549
shrink 9549
18.@@ 9548
navig@@ 9548
lymph@@ 9547
Optimal 9546
compelling 9546
hhhhIt 9546
meteorological 9545
Opera 9544
clearer 9544
iller 9544
intra 9544
Jer@@ 9543
Mir@@ 9542
mach@@ 9542
painter 9542
Johnny 9540
logy 9539
olu@@ 9539
2.4 9538
programmed 9538
instructed 9537
puzzle 9537
Demand 9536
Prec@@ 9536
landmark 9536
Fashion 9533
rationality 9533
CIA 9531
pr 9531
triangle 9531
ght 9530
implicit 9528
Wild 9527
mun@@ 9527
sleeve 9526
integr@@ 9524
reuse 9524
cartoon 9522
gland 9522
prosecute 9522
stric@@ 9522
compile 9520
occasional 9516
Arsenal 9513
connects 9513
treats 9512
utilities 9512
sors 9510
expressly 9508
steak 9508
Establish 9506
otomy 9505
esia 9504
twins 9504
Pel@@ 9503
arid 9502
associates 9502
terminate 9502
edible 9501
acquisitions 9500
amounting 9499
neighboring 9499
cherry 9497
Doc@@ 9494
phenol 9494
inspiring 9493
mill@@ 9493
incompatible 9491
Laws 9487
Toyota 9487
clerk 9487
spherical 9487
Transition 9482
yeast 9481
anesthesia 9479
cortex 9475
jection 9475
say@@ 9474
Sher@@ 9471
spends 9471
sellers 9470
shortages 9470
fork 9469
sati@@ 9468
Blair 9466
serv@@ 9466
There@@ 9465
atization 9462
rant 9462
pra@@ 9460
3.3 9459
pools 9459
inhibit 9456
emer@@ 9454
implied 9450
relied 9450
gan 9449
hearings 9447
ound@@ 9445
hhhhIn 9444
motorcycle 9444
Parts 9443
ceased 9443
auto@@ 9442
Build 9441
unconscious 9441
donated 9439
lumin@@ 9438
raft 9438
Haitian 9437
Models 9437
Characterization 9435
collector 9435
pneumonia 9435
Plat@@ 9434
cows 9434
bud@@ 9430
merchandise 9429
jazz 9428
Reaffirming 9427
ischemic 9426
rust 9426
β 9425
liness 9423
Return 9421
apartments 9421
towel 9420
114 9418
comparatively 9414
Miami 9413
bat 9411
cyber@@ 9411
Ball@@ 9410
Increasing 9408
Plate 9404
slowed 9403
snack 9403
ero 9401
perceive 9400
hen 9398
booking 9397
ISO 9392
Shenyang 9392
Fiji 9391
Vibration 9391
jack 9391
aga 9389
HR@@ 9388
fireworks 9388
elasticity 9387
md 9387
116 9386
HTML 9386
Hard 9386
piles 9386
tric@@ 9385
shark 9384
0.0@@ 9381
Rs 9381
sou@@ 9381
swallow 9381
bargain 9380
cab 9380
derivative 9380
3.2 9377
Qinghai 9377
bind 9375
repairs 9375
investigative 9374
overlap 9374
underneath 9374
comb 9373
imply 9373
reign 9372
St 9371
Lou@@ 9370
behavioral 9370
Carrie 9369
paradise 9368
conce@@ 9367
retrospectively 9364
shalt 9364
paradigm 9363
fetal 9362
quan 9362
Hil@@ 9361
strang@@ 9361
1976 9360
towers 9357
decay 9356
Operating 9354
umber 9353
Stanley 9351
Gro@@ 9350
unanimously 9347
pathy 9344
Side 9342
yn 9341
wonders 9340
resignation 9336
closures 9335
Stand 9332
crow@@ 9330
throm@@ 9328
Interpretation 9327
Tan@@ 9327
right@@ 9326
Mess@@ 9325
Wei@@ 9325
TE@@ 9321
curricula 9317
sweeping 9317
Corp. 9316
Guard 9316
Marriage 9316
Brian 9315
dip 9314
cache 9313
lithium 9313
chang 9312
imperial 9311
sore 9311
cid@@ 9310
triangular 9309
expectancy 9306
vian 9306
bac@@ 9305
diving 9305
ete 9305
nm 9305
3.1 9304
behold 9304
Sing@@ 9303
zo 9303
modern@@ 9302
tribes 9302
Conventional 9300
harmon@@ 9300
hesitate 9299
peculiar 9298
Drive 9297
farmland 9296
ng 9296
Luc@@ 9295
expan@@ 9295
soda 9295
turmoil 9295
nar@@ 9292
tab 9291
illary 9290
Oliver 9288
NC 9287
hab@@ 9287
inthe 9286
schedules 9286
Bo 9285
disparities 9285
df 9283
allocations 9282
nightmare 9281
bankers 9280
osity 9280
wilderness 9279
additives 9276
antagon@@ 9276
grabbed 9276
fortunate 9275
è@@ 9275
fet@@ 9273
Aunt 9271
civilized 9271
rainbow 9271
ili 9269
interrupted 9269
nov@@ 9269
Zhuang 9268
beneficiary 9268
computed 9268
CB@@ 9265
refrigerator 9264
complaining 9263
Football 9262
Path 9261
championship 9261
oss 9261
Leo 9260
temptation 9259
contexts 9258
Kh@@ 9256
anonymous 9256
1974 9255
civic 9255
Seminar 9253
universally 9253
ld 9252
Contributions 9251
esting 9251
polymers 9251
crowds 9249
17.@@ 9248
Enhanced 9248
aly 9247
1975 9245
Ple@@ 9245
arized 9244
orial 9244
upright 9244
bud 9240
redress 9240
descriptions 9237
UC@@ 9236
scar 9236
Bil@@ 9235
boiled 9235
parity 9235
tailored 9235
venous 9235
iest 9234
Sudanese 9233
Investig@@ 9230
pandemic 9230
piston 9230
qiao 9230
Surely 9229
doses 9228
arium 9227
lawn 9226
hunter 9225
intentionally 9224
rit 9222
Neil 9220
vin@@ 9219
User 9218
friend@@ 9217
indications 9216
interpersonal 9216
militia 9216
relieved 9215
stic 9215
swift 9214
debut 9212
implements 9212
rub@@ 9210
misery 9209
genome 9207
PM 9201
anted 9201
cip@@ 9201
iny 9201
cruci@@ 9200
Tribunals 9199
threads 9199
irs 9198
shor@@ 9198
milling 9196
dragged 9194
clue 9193
nozzle 9193
Mind 9192
1972 9190
Ohio 9189
bitch 9189
ibid 9189
seventy 9189
PVC 9188
hast 9187
fe 9186
tribal 9184
Aren 9183
restrictive 9183
ambitions 9182
bir@@ 9182
accent 9181
convincing 9180
revol@@ 9180
shipments 9180
verbs 9180
109 9179
expounds 9179
fan@@ 9179
postponed 9179
sed@@ 9179
emails 9178
D.C. 9176
aids 9176
big@@ 9172
proxy 9170
ü@@ 9170
digestion 9168
remainder 9168
Shut 9166
raining 9166
rang@@ 9166
Ear@@ 9165
Powers 9163
where@@ 9163
Bad 9162
Providing 9162
operation@@ 9161
pron@@ 9160
splendid 9159
stabilize 9157
Text 9156
Dual 9155
loudly 9155
rightly 9154
warmly 9154
Qin@@ 9153
Important 9151
Ul@@ 9151
outfit 9151
tu 9151
endorsement 9150
invoked 9150
amy 9149
Set@@ 9146
Thousands 9146
cia 9146
cohesion 9146
pains 9146
color@@ 9143
Including 9142
inlet 9142
EV@@ 9141
Guys 9141
Potential 9140
Connec@@ 9139
collaborate 9139
Dubai 9138
antibodies 9137
marsh@@ 9137
staining 9137
Istanbul 9136
Publ@@ 9135
ria 9135
Dom@@ 9134
Probe 9133
cha 9132
sporting 9132
Kids 9129
Sally 9129
ove 9128
pesticide 9128
symmetric 9127
Bai 9125
Turning 9125
tou@@ 9125
appliance 9124
commence 9124
vel 9123
Curriculum 9122
intervene 9122
Procedures 9121
Funds 9120
Quick 9120
Cameron 9118
Cook 9118
entially 9117
eye@@ 9116
elevation 9115
pel 9114
eleven 9113
hemo@@ 9112
Indonesian 9110
Reporting 9110
mist@@ 9110
symbol@@ 9108
adversely 9107
authorize 9107
acious 9106
spicy 9106
Registrar 9105
analytic 9105
Tab@@ 9104
doll 9102
GA 9097
dilemma 9095
tolerant 9095
Serum 9094
banana 9094
2.0 9092
ffs 9092
lt 9091
symmetry 9089
appealing 9088
Inte@@ 9087
Swe@@ 9087
beard 9087
ION 9086
Niger 9086
fashioned 9086
sweater 9086
xian 9086
Nonetheless 9085
lesser 9085
Sit 9084
Sus@@ 9083
hostage 9083
prolif@@ 9083
CPU 9082
grape 9082
irrespective 9082
nos@@ 9081
acle 9078
Polish 9076
sep@@ 9076
bos@@ 9075
compositions 9075
blows 9071
confirms 9071
contradictions 9070
thy@@ 9070
accustomed 9068
exhibited 9068
vine 9068
Flight 9067
N. 9067
torch 9067
cast@@ 9066
credited 9066
tackling 9066
visas 9066
Majesty 9065
Nine 9064
fier 9064
trajectory 9061
Filter 9060
bt 9059
osp@@ 9058
dessert 9056
tel 9055
congenital 9053
hhhhI 9053
presently 9053
bearings 9052
legisl@@ 9052
stretching 9051
cylindrical 9049
oak 9048
Reaction 9046
sticking 9046
pesticides 9045
coincidence 9044
Law@@ 9041
Easter 9040
RC 9040
irradiation 9040
Wales 9039
Trend 9038
formations 9037
likewise 9037
enz@@ 9033
ffy 9033
° 9031
Kin@@ 9029
cav@@ 9028
eping 9028
Christ@@ 9026
inception 9026
offense 9025
progression 9025
Less 9024
benzene 9024
func@@ 9023
undergone 9022
xenophobia 9022
lessness 9021
musicians 9021
recreation 9021
Linda 9020
metaphor 9020
ativity 9018
proposition 9018
gies 9017
plas@@ 9017
7.5 9014
Circular 9014
dew 9014
hobby 9014
Jonathan 9013
bang@@ 9013
spleen 9013
tness 9012
Racial 9011
accidentally 9011
cil@@ 9011
effec@@ 9011
superficial 9010
country@@ 9009
sweetheart 9008
ECE 9005
abolition 9004
dispens@@ 9004
vicious 9004
september 9003
Paraguay 9002
Ling@@ 9000
simpler 8999
combinations 8998
jie 8998
appearances 8997
impedance 8997
Norwegian 8996
boy@@ 8996
Bay@@ 8995
assass@@ 8995
wandering 8995
14th 8994
laboratories 8994
verbale 8994
Guang@@ 8992
mortar 8992
Species 8991
Separation 8988
Vis@@ 8987
Verification 8986
onin 8986
--- 8985
dor@@ 8984
ouse 8984
Appl@@ 8983
finals 8981
rested 8981
quad@@ 8980
Russians 8977
seizure 8977
Mongolian 8976
Grad@@ 8975
loid 8975
outlines 8975
transboundary 8975
Responsibility 8974
aftermath 8974
eer 8971
paper@@ 8969
booked 8968
rack 8967
6.5 8966
IONS 8966
Massachusetts 8966
Parliamentary 8966
tours 8966
King@@ 8965
Tissue 8965
asian 8965
Photo 8962
vivo 8962
Degree 8961
baked 8961
dyeing 8960
Interaction 8959
Yale 8959
Po 8958
jungle 8958
appl@@ 8956
applicability 8956
1.8 8955
Families 8955
Morning 8955
thankful 8955
revealing 8954
veins 8954
wrist 8950
OAU 8948
Chap@@ 8947
chickens 8947
grandma 8947
Associated 8946
inking 8946
mini@@ 8946
Wong 8945
depths 8945
nineteenth 8944
quin@@ 8943
scor@@ 8943
Mouse 8942
tectonic 8940
bees 8938
[...]
