的 93156580
， 67347100
。 57313253
在 19237317
和 18992150
了 17374417
是 15435895
一 14316275
我 12884791
、 12385409
你 11528164
, 10664875
. 8547770
个 8280955
他 7238714
我们 6863226
对 6621467
这 6386249
有 6299362
中 6230411
与 5195652
不 5041233
人 5021813
为 4441465
上 4412766
“ 4271696
第 4170055
” 4104876
会 3976655
将 3900364
： 3873602
他们 3695535
就 3623111
并 3542782
也 3501707
） 3464076
（ 3456294
到 3310408
说 3275432
？ 3190544
她 3114825
问题 2998120
； 2952663
都 2950650
性 2913251
研究 2802971
很 2741458
( 2738135
) 2736116
所 2719455
可以 2703008
而 2697202
或 2695030
但 2593696
以 2572449
被 2568162
工作 2497552
要 2485550
进行 2476592
地 2467174
- 2426740
国家 2401463
及 2381723
来 2330845
它 2301015
能 2290799
从 2216039
时 2185547
着 2176618
其 2158427
这些 2141979
没有 2114928
于 2110213
》 2095228
还 2092869
《 2091237
把 2090938
吗 2079237
发展 2041811
下 2025144
该 2009065
好 2002677
" 2000823
提供 1961812
去 1951175
/ 1864917
让 1855056
这个 1847036
种 1809917
通过 1808370
委员会 1808017
以及 1788522
之 1787988
如果 1786344
会议 1755361
自己 1751395
给 1740291
中国 1716404
那 1715040
可 1713105
需要 1688008
想 1687827
者 1674220
可能 1658906
做 1651683
因为 1636245
大 1609154
新 1588977
其他 1580699
方法 1564250
政府 1553907
系统 1552866
等 1550547
更 1545474
！ 1528680
方面 1509129
后 1502226
向 1502151
用 1482881
影响 1481091
里 1471738
报告 1462016
多 1445699
包括 1436642
已经 1418912
所有 1407772
情况 1398014
最 1392756
两 1388128
— 1372102
关于 1369321
技术 1365846
什么 1359823
组织 1359400
使 1352338
国际 1350022
分析 1346893
公司 1334548
国 1334162
使用 1326520
一些 1326370
得 1297919
不是 1281809
重要 1276466
但是 1229973
时间 1219770
认为 1199016
现在 1193391
就是 1185319
安全 1170421
经济 1167493
活动 1160745
社会 1156541
条 1154645
已 1154165
有关 1142185
由 1139295
联合国 1132965
内 1124852
美国 1119007
三 1107041
我的 1106610
部分 1099991
必须 1092055
主要 1089052
本 1083671
提出 1080952
管理 1078779
过 1074816
% 1069568
特别 1064722
? 1057475
代表 1052405
这种 1051327
机构 1040439
你们 1037564
吧 1027814
这样 1027001
名 1004373
执行 1000458
看 997694
高 988861
作为 984671
任何 983592
开始 981985
人员 981377
行动 975621
又 964362
应 961258
当 953916
根据 948726
服务 946919
项目 946685
1 945317
法 943388
方案 937227
知道 935678
设计 929076
不同 927218
建议 918287
计划 914513
支持 909930
结果 903482
: 901795
要求 900234
出 889373
合作 884896
年 882453
您 874581
关系 872690
时候 870989
决定 869312
像 868234
请 866705
世界 864814
信息 844712
; 843647
应用 841628
作用 841193
2 839073
项 836807
点 836055
前 832559
实现 831276
二 830325
成为 828663
环境 822907
生活 818795
只 817742
区域 817264
表示 811513
能力 804946
目标 804222
不会 798473
同时 797480
具有 793752
规定 793489
没 792023
团 790004
得到 789268
发生 786906
们 786158
非 782295
建立 782133
不能 780437
因此 777509
之间 776154
比 774436
位 767074
妇女 765048
应该 761478
呢 759828
各 754384
次 754280
事 754197
地区 753079
非常 749701
继续 745995
先生 744217
家 741123
处理 740493
能够 739699
发现 734616
过程 733837
小 724623
保护 724016
提高 713717
方式 712421
它们 711761
措施 711500
控制 709490
3 707024
努力 704195
化 703777
采取 699391
决议 695668
产品 695308
利用 693518
许多 690940
数据 684979
结构 684708
希望 683061
美元 681950
人们 681301
教育 679850
企业 678778
政策 677930
增加 676549
而且 673835
其中 673614
获得 673046
为了 670461
行为 670135
至 668198
所以 661906
正在 661106
法律 658789
地方 658707
存在 657270
对于 655587
解决 655278
再 655244
相关 652728
由于 652331
有效 651895
那些 646171
如何 645402
真 641681
目前 641192
段 640988
或者 639527
才 637233
市场 634169
选择 631143
公约 620408
还是 614888
目的 613843
资源 612103
和平 610908
儿童 610304
大会 605715
跟 605461
如 599443
几 594451
基础 591305
只是 591058
起来 590014
加强 589004
考虑 587536
话 584521
促进 583568
帮助 578651
领域 577854
及其 576709
成员 575868
看到 575743
文化 574409
然后 568713
文件 568676
讨论 565677
注意 565158
却 564073
采用 563952
4 561700
一直 561691
一样 559620
走 559338
生产 558857
太 558416
理事会 555503
部 555356
开发 554358
间 553703
参与 553359
全球 553232
很多 552528
那么 552321
中心 550651
并且 549161
方 548438
产生 547975
缔约 547542
带 542847
数 542654
确保 542511
出现 539254
基于 538746
组 537669
部门 537239
5 535783
权利 535641
联合 534695
是否 533826
调查 532891
此 532350
四 530939
还有 530621
孩子 530541
啊 526831
确定 525269
最后 524546
起 524063
一切 523786
大@@ 522740
万 522104
成 520888
都是 519186
更多 517247
水 514347
表明 514240
学生 513773
区 513241
受 512547
东西 512288
标准 510797
作 509147
A 506605
程序 506572
条件 505659
期间 505519
治疗 501269
机会 500332
员 497450
之后 496870
觉得 496324
今天 495471
理论 493666
实施 493619
则 492383
本文 490870
场 487986
书 487244
介绍 486187
举行 485813
长 484754
份 481717
接受 481669
型 481326
届 481065
参加 479765
也是 478811
建设 478707
一定 476610
政治 476056
喜欢 476011
无 475140
基本 474707
每 473951
模型 471332
为什么 469248
主席 467274
各种 466895
… 466373
式 464174
原因 463859
率 463857
之前 462099
城市 461209
指出 460847
变化 460129
体 457572
件 457461
处 456403
我国 455519
过去 455130
一次 454605
实际 453501
子 451696
减少 450579
秘书长 450249
不过 447996
类 447475
学习 447348
岁 447162
令 447120
进一步 446811
投资 445606
不要 444505
完成 443927
作出 442971
爱 441804
协调 441578
空间 439406
网络 439348
只有 438020
人民 437056
成功 436764
战略 434765
取得 434296
事情 432892
资料 432766
任务 432429
用于 431639
制度 431436
量 431371
月 428393
五 428139
提交 427965
因素 427204
机制 425656
大学 425643
怎么 425597
基金 423638
了解 419412
来说 419058
范围 417370
机 416468
谁 413900
10 413198
即 412784
分 410805
吃 410751
共同 410450
显示 409468
开展 409355
完全 409107
援助 408625
物 407878
朋友 407761
同 407628
自 406328
无法 405916
受到 402687
那个 402276
期 401510
运动 399909
正 399896
低 399359
持续 399223
署 399201
准备 399171
造成 399166
每个 399000
改变 398063
器 398041
车 397759
这么 397746
比较 397611
因 396844
一起 396420
天 395486
必要 393710
这里 393634
学 392618
质量 392311
拥有 392002
虽然 391964
号 391095
6 389687
来自 389460
小@@ 389242
功能 388043
审查 386273
一般 386086
听 384580
尽管 384523
严重 382855
意义 381866
然而 380804
找到 378659
水平 378598
原则 377640
总 376956
专家 375860
事务 374708
人类 374681
出来 374644
办法 374018
人权 373880
学校 373463
价值 373185
贸易 373054
探讨 372959
意见 372088
家庭 371734
认识 371590
说明 371112
计算 370736
设备 370044
内容 369679
外 369561
各国 368868
小组 367544
权 367314
最大 365895
草案 365589
业务 364315
头 363902
传统 363335
历史 362919
见 362785
亿 362035
评估 361409
健康 360820
直接 360597
材料 360171
自由 359013
称 358250
行 357943
非洲 356976
导致 356909
告诉 356785
保持 356453
负责 355109
具体 354781
形式 354539
例 352555
叫 352452
专业 352061
不断 351420
曾 351188
款 350700
制定 348080
级 348077
一下 347559
钱 347537
未来 346570
个人 346525
发言 346067
感到 345323
应当 345025
以来 344545
别 343418
人口 342297
局 341804
打 341709
审议 341595
模式 341363
性能 341009
问 340702
整个 340643
带来 340610
增长 340125
责任 339916
观察 339839
预算 338678
日 337943
花 336274
经 336259
稳定 335598
工程 335316
找 334361
科学 333677
实验 333414
仍 333260
如此 332618
欧洲 332406
另 332244
试验 331151
甚至 330834
评价 330426
改革 329357
较 328577
需求 328239
冲突 326505
银行 326417
例如 325411
& 324989
经验 324653
仍然 324411
英国 323074
日本 322763
线 322638
强调 321950
费用 321146
就会 321131
未 320777
全面 320704
进展 320679
进入 320334
形成 319845
7 319580
最近 319027
表现 318202
发 317959
程度 317845
那里 317780
充分 317117
积极 316589
进程 316268
此外 315731
资金 315129
欢迎 314782
a 314416
细胞 313942
反应 313241
达到 312941
力 312891
风险 312708
路 312277
关注 311456
一@@ 310297
心 309059
价格 308751
感觉 308732
尤其 308623
也许 308496
针对 308085
培训 307392
知识 307085
8 307066
关键 306402
组成 306278
死 306184
层 305778
改善 305532
道 303599
按照 301466
光 300700
需 300609
广泛 300258
框架 299896
不@@ 299610
大家 298949
保证 298764
按 298636
挑战 298366
约 297696
开 296514
有人 296343
以便 296115
表 295973
阶段 295358
行政 295263
联系 295034
语言 294983
通常 294302
支助 294174
更加 292955
站 292513
随着 292127
法院 291066
生命 290961
重新 290739
市 290144
适用 289293
面 288876
手 288112
英语 287729
度 287153
超过 287119
以下 287087
总统 286826
简单 286309
犯罪 285654
真正 285134
部队 284495
20 284097
结合 283964
解释 283925
效果 283530
用户 283454
特征 283249
离开 283192
全 282865
最好 282558
相 282335
结论 281864
特派 281824
患者 281538
国内 281531
测试 280979
证明 280746
片 280702
值 280604
神 280497
快 280410
收入 280130
生 280082
维持 280066
独立 280042
事件 279625
综合 279617
明显 276953
同样 276358
当然 275707
一致 275618
涉及 274478
中@@ 274397
客户 274235
安排 273382
限制 273184
想要 272270
买 271199
香港 270944
承诺 270165
相信 269876
图 268436
大多 268287
发展中国家 268196
规划 267839
协议 267794
大量 267777
六 267432
马@@ 266552
体系 266428
适当 266367
是什么 266208
帮 265332
经常 265006
我要 264965
门 264552
结束 264386
伙伴 263654
利益 263568
队 262960
从而 262116
地位 262096
写 261293
! 261270
平等 260871
9 260399
商 260345
张 260245
检查 260157
申请 259960
均 258796
集团 258566
长期 258083
检测 257440
这项 257438
最终 257231
鼓励 256753
首先 256632
秘书处 256528
拉 256404
制造 256000
有些 255880
正式 255686
总是 254982
拉@@ 254054
工具 253513
系列 253291
核 253283
监测 252956
管 252926
创造 252658
武器 252429
元 252376
状况 251628
信 251436
同意 251427
指 250642
理解 249907
将会 249668
水@@ 249474
会员 248853
那样 248776
设立 248430
电话 248231
主 247727
12 247714
记录 247496
加入 246705
强 246296
表达 246028
条约 244054
主义 243932
特点 243808
先 243747
艺术 243271
拿 243097
西@@ 243046
某些 242956
复杂 242763
状态 242633
公共 242504
以上 242500
今年 241584
司法 241301
咨询 241258
比赛 241092
座 240773
算法 240625
阿@@ 240596
越来越 239882
我知道 239569
降低 238878
警察 238387
各项 238104
别人 238050
精神 237600
交易 237463
斯 237337
规则 237329
恢复 237071
据 236540
坐 236445
不仅 236336
·@@ 235864
协助 235505
特性 234386
行业 234169
占 234146
容易 233534
难 233532
指导 233084
满足 232881
热 232422
引起 232364
工业 232066
面临 231850
当地 231734
另外 231415
全国 231015
监督 230944
供 230749
办公室 230740
汽车 230491
发挥 230477
工作组 230408
压力 230075
成本 229828
以色列 229603
做法 229375
至少 229338
15 229080
改进 229058
规模 228147
社区 227774
成果 227572
进 227530
消除 226772
一点 226706
生物 226644
良好 225890
女性 225610
土地 225566
似乎 225309
十分 225304
以前 225221
当时 225183
变得 224934
病 224909
海@@ 224499
内部 224308
重点 224210
北京 223742
多少 223632
符合 223584
效率 222956
思想 222944
数字 222794
立法 222728
允许 222343
达 221828
便 221711
几乎 221686
斯@@ 221666
调整 221590
推动 221582
天@@ 221466
谈判 221040
教学 220852
妈妈 220803
其它 220731
感 220451
永远 219962
医生 219633
且 218855
创新 218523
网 218431
德 218417
干 218281
速度 218168
单 218095
危险 218018
做出 217798
现象 217759
电影 217741
选举 217265
11 216999
金 216978
现有 216953
预防 216838
节 216711
下来 216177
加 216078
临床 216068
些 215901
明确 215794
课程 215585
电子 215446
住 215442
工艺 215201
父亲 214867
身体 214706
剂 214533
球 214402
当局 214276
变 214213
议程 213727
台 213641
流 213402
建筑 213293
威胁 213137
承认 212753
软件 212656
30 212646
无@@ 212529
C 212512
看看 211973
b 211940
困难 211752
4@@ 211651
概念 211600
意识 211358
批准 211122
特殊 211019
类型 211016
气 210144
板 209995
合同 209900
唯一 209865
音乐 209497
重大 209170
数量 209159
协定 209076
愿意 208949
义务 208587
自然 208499
出口 208343
分别 207849
联 207511
近 207463
操作 207312
克 207284
军事 207206
即使 206921
访问 206712
委员 206089
避免 206046
战争 205542
食物 205415
力量 205182
办事处 205030
反对 204843
训练 204632
这次 204427
除了 204200
无论 203688
每天 203680
指标 203540
意味 203517
． 203429
参数 203264
收到 203210
只要 203166
运行 203102
论 203000
官员 202871
声 202643
相互 202574
印度 202126
死亡 201861
在一起 201857
故事 201742
扩大 201552
章 201505
新@@ 201501
人士 201272
巨大 200913
实践 200879
动物 200592
在这里 200481
利 200316
高@@ 200289
经过 200275
交流 200107
难民 200053
商业 199937
时期 199765
高级 199741
暴力 199665
德@@ 199532
正确 199466
州 198786
肯定 198763
新闻 198233
属于 197946
特 197867
以后 197843
文 197642
怎样 196936
美 196863
合理 196836
她们 196740
都会 196594
位置 196148
预测 195975
不知道 195971
估计 195770
科 195651
装置 195455
业 195151
测量 195062
竞争 194929
几个 194758
上述 194684
50 194652
销售 194607
哪 194300
越 194201
保障 194022
详细 193937
基 193480
B 193371
卡 193361
最高 193082
适应 192921
制 192914
而言 192911
罗@@ 192887
联盟 192809
某 192283
词 191956
网站 191628
担心 191626
清楚 191564
特@@ 191414
快速 191179
不可 191001
高兴 190983
错误 190959
现代 190917
上@@ 190847
媒体 190756
5@@ 190553
领导 190552
而是 190198
回 190139
单位 190116
父母 190091
普遍 190047
信号 189785
优先 189628
疾病 189599
正常 189395
山 188864
十 188797
口 188387
财政 188206
卡@@ 188050
经历 188045
母亲 187981
全部 187840
感谢 187489
安@@ 187366
防止 187277
回来 185488
支付 185249
再次 185050
少 184810
统计 184764
定义 184265
重 184046
请求 183899
半 183836
报道 183805
根本 183633
分布 183494
句 183274
方向 183201
除 182976
构成 182723
就业 182605
放 182583
反 182524
手段 182505
儿子 181967
最佳 181888
农业 181775
金融 181469
女士 181468
下降 181462
去年 181456
油 181348
消息 181194
列 181156
派 181038
3@@ 181029
核心 180961
尔 180882
老师 180832
武装 180629
案 180263
科技 180079
设施 180071
兴趣 179972
司 179262
对话 178983
成立 178724
观点 178706
资产 178640
事实 178452
作品 178362
套 178258
载 178173
给予 178038
法国 178037
13 177951
系 177419
卫生 177263
述 177169
发表 176995
比如 176980
16 176470
意思 176426
案件 176178
自动 176120
女人 175953
双 175934
缺乏 175927
履行 175842
心@@ 175613
反映 175571
金@@ 175553
贡献 175484
三@@ 175288
宣布 174848
物质 174741
医院 174301
多@@ 174108
儿 174038
每年 174020
更好 173985
民主 173974
伊拉克 173872
风 173816
上帝 173768
描述 173654
禁止 173599
语 173510
两年 173366
自@@ 173258
德国 173000
平衡 172927
法庭 172914
表面 172537
读 172254
专门 172219
14 172184
安理会 172060
开放 171937
听到 171747
国际社会 171740
群 171548
18 171484
温度 171473
性别 171331
文章 171137
位于 171030
游戏 170956
事项 170927
一个人 170722
可是 170581
放在 170162
其实 170154
破坏 170042
计算机 170010
协商 169997
不再 169366
证据 169325
背景 168891
增强 168848
策略 168360
平均 168300
源 168292
谈 168273
白@@ 168243
确认 167820
测定 167683
声音 167230
达成 167146
来源 167085
树 167058
理由 167054
现实 167006
有助于 166967
仅 166812
电 166786
刚 166686
打击 166488
曾经 166372
对象 165973
通知 165732
集中 165607
歧视 165594
讲 165513
8@@ 165467
副 165349
巴勒斯坦 165268
班 165148
[ 165104
运用 165056
土 165002
差异 165001
临时 164551
飞机 164545
附件 164517
告诉我 164481
迅速 164283
主题 164225
若 164190
当前 164132
尽 164083
足够 163985
时代 163900
危机 163885
包含 163856
权力 163834
模拟 163637
公民 163474
年度 163471
经营 163412
连接 163352
亚洲 163159
6@@ 162988
一天 162681
条例 162660
污染 162367
’ 162347
女孩 162342
能源 162023
根 162007
药物 161918
周 161839
决策 161755
维护 161601
平台 161531
分配 161510
P 161474
小时 161429
明白 161202
员工 161012
利@@ 160944
保留 160937
入 160718
100 160598
色 160469
厅 160440
品 160300
审计 160254
七 160247
处于 160238
论坛 160082
老 160078
含量 160029
] 159832
界 159830
呼吁 159597
显著 159557
第一次 159501
直到 159353
运输 159236
掉 159179
图像 159061
基因 158246
统一 158222
趋势 158204
植物 158118
当你 158066
c 157907
远 157894
加@@ 157830
补充 157171
损失 156772
杀 156762
性质 156613
室 156581
25 156518
举办 156472
提到 156387
名字 156314
条款 156297
优化 156214
相同 156170
巴@@ 156023
男人 155984
相对 155702
变成 155700
坚持 155648
翻译 155411
共 155374
人数 155044
药 154909
民族 154876
声明 154674
大约 154606
登记 154566
失去 154508
克@@ 154383
7@@ 154247
议员 154227
协会 153989
双方 153882
宗教 153768
素 153618
职业 153599
在于 153488
寻找 153357
公开 153261
制作 153248
遵守 153242
样 153196
使得 153143
摘要 153123
接触 152761
角度 152562
哦 152476
诊断 152463
房间 152408
只能 152376
上海 152221
依据 152027
类似 151846
人@@ 151815
手术 151687
回答 151634
外@@ 151531
米 151366
南@@ 151293
试图 151239
培养 151162
人道主义 151061
地球 150887
海洋 150883
应对 150835
40 150830
拒绝 150823
看见 150585
适合 150265
议定 150038
部长 149945
亚@@ 149734
送 149706
传播 149651
思考 149645
真是 149642
房子 149149
照片 149133
膜 149125
食品 148683
纽约 148509
S 148441
费 148298
用来 148203
以为 148156
马 147919
购买 147889
灯 147879
哈@@ 147865
包 147841
喝 147830
确实 147827
分子 147757
本身 147526
居民 147314
有点 147293
关切 147285
17 147215
2@@ 147190
相比 147178
旨在 146951
既 146700
金属 146680
世界上 146679
领土 146635
同一 146266
有时 146261
角 146229
从事 146133
不管 146088
产业 146039
极 145952
想法 145904
比例 145867
充满 145575
另一个 145558
尊重 145464
集 145450
或许 145337
群体 145282
快乐 145253
股 145179
动态 145176
非法 145145
装 145030
愿 144814
规范 144764
收集 144580
攻击 144490
连 144405
可持续发展 144139
酸 144082
党 143903
面对 143862
教师 143689
穿 143662
定 143622
障碍 143399
非政府组织 143392
化学 143297
很快 143161
外国 143125
红@@ 143109
俄罗斯 143034
鱼 142974
动 142843
不得 142742
尼 142682
值得 142651
里面 142603
孩子们 142592
道路 142574
特定 142556
旅游 142533
省 142505
农村 142490
内@@ 142476
团队 142467
液 142374
爸爸 142241
工 142203
事实上 142110
城 142084
发出 142012
相当 141992
年轻 141772
花@@ 141430
老@@ 141366
尔@@ 141339
打算 141305
并没有 141086
状 140636
公众 140467
高度 140302
发布 140168
移动 140147
享受 140004
制订 139817
森林 139602
往往 139582
纳入 139544
邀请 139526
错 139512
这儿 139507
经费 139472
教 139316
该国 139254
身上 139175
船 139111
9@@ 139023
60 138982
块 138789
宣传 138774
波 138742
边 138618
有所 138563
丰富 138408
电脑 138293
开@@ 138086
地@@ 138055
对其 138021
法官 137931
年龄 137817
停止 137779
违反 137665
玩 137610
商品 137574
林 137499
试 137440
山@@ 137428
抗 137411
回到 137393
石 137180
架 136982
长@@ 136939
杯 136771
伤害 136656
态度 136632
重视 136444
身份 136404
过来 136320
重申 136251
有@@ 136104
主管 136064
加工 135928
遇到 135902
奥@@ 135786
晚 135756
棒 135609
寻求 135536
各个 135523
消费 135441
酶 135326
设置 135222
地点 135162
密切 134725
分享 134693
形 134560
底 134534
压 134327
出去 134268
离 134200
定期 134165
下列 134143
病人 134068
达@@ 133900
财务 133741
不可能 133667
酒店 133654
亚 133488
医疗 133478
附近 133464
安装 133367
之外 133325
亦 133302
实行 132788
指定 132737
创建 132664
下@@ 132541
整体 132382
教授 132346
尼@@ 132249
晚上 132142
报 132139
伊@@ 131511
八 131485
加拿大 131258
21 131181
生@@ 131155
工人 131055
妻子 130881
求 130862
共和国 130860
西 130818
提 130643
连续 130540
普通 130229
混合 130156
房 129988
布@@ 129979
回顾 129959
品牌 129950
手机 129841
通信 129748
深 129690
I 129590
微 129529
酒 129467
土著 129066
19 129022
不错 128971
发@@ 128944
画 128927
分@@ 128921
预计 128907
吸引 128892
差 128578
真实 128362
效应 128357
米@@ 128306
议会 128191
有限公司 127957
来到 127946
衣服 127939
若干 127851
学院 127839
必 127809
能量 127570
李@@ 127512
担任 127456
角色 127276
新型 127255
电视 127190
或是 127128
海 127079
多年 127004
准则 126810
于是 126805
里@@ 126741
联邦 126695
-@@ 126689
合成 126601
为此 126570
最新 126482
辆 126407
称为 126394
转移 126371
骨 126313
宪法 126273
明天 126148
财产 126139
好像 126127
旅行 126117
预期 126077
出版 126028
之中 126023
格 125841
尝试 125716
步骤 125708
后来 125678
具 125673
承担 125642
进步 125625
课 125603
修订 125494
科@@ 125392
完整 125374
供应 125341
轮 125289
扩散 125218
给出 125066
王@@ 125063
重@@ 124979
热@@ 124920
纳@@ 124870
正是 124807
病毒 124805
上升 124785
独特 124657
现状 124564
自身 124502
修改 124458
途径 124405
合 124353
抱歉 124166
采购 124128
澳大利亚 124079
律师 124025
蛋白 123825
血 123763
E 123590
犯 123536
我可以 123436
实体 123292
大型 123287
心理 123144
原 123064
有限 123002
相应 122991
D 122963
失败 122863
数据库 122828
自我 122808
人生 122503
说话 122457
象 122360
宣言 122337
重要性 122313
准确 122310
不足 122223
组合 122189
感染 122121
L 121934
优势 121904
眼睛 121773
局势 121746
运作 121612
还要 121497
编制 121487
我希望 121367
黄@@ 121268
罪 121242
狗 121235
广告 121059
团体 121031
提升 120967
签署 120952
打@@ 120927
％ 120874
青年 120760
黑@@ 120758
22 120736
千年 120717
分类 120697
移民 120633
河 120601
女 120581
完善 120571
一旦 120556
紧急 120439
保险 120389
质 120269
痛苦 120178
步 120125
文@@ 120077
空气 120028
编写 119971
裁军 119968
面前 119887
展示 119716
风@@ 119704
幸福 119649
术 119617
强度 119579
女儿 119512
完 119465
论文 119258
授权 119223
活 119213
记者 118954
参考 118717
D@@ 118712
函数 118675
前@@ 118635
提议 118567
生长 118419
库 118413
维@@ 118381
石油 118135
跑 118110
修正 117995
纳 117951
红 117804
深入 117660
不到 117646
恐怖主义 117629
探索 117572
放弃 117538
待 117368
加以 117358
须 117316
电@@ 117304
早 117297
今后 117214
丝 117196
损害 117178
投入 117070
神经 117070
不用 116949
从来 116829
古@@ 116736
军 116655
分离 116492
性@@ 116281
属 116280
更新 116178
含 116167
评论 116156
债务 116152
体制 116131
并非 116125
师 115948
贫穷 115854
立即 115831
贷款 115698
交通 115676
满意 115511
票 115499
二@@ 115371
固定 115368
王 115368
告诉你 115362
沙@@ 115355
24 115337
发达 115336
及时 115209
世纪 115203
萨@@ 115112
识别 115049
环 115035
国@@ 114919
倡议 114886
夫 114774
正如 114773
制备 114718
致力 114606
美@@ 114537
飞 114507
超 114504
颜色 114434
部署 114415
阅读 114360
T 114307
记得 114289
早期 114182
粮食 114156
技能 114074
短 114004
生态 113938
美丽 113894
布 113885
初步 113847
日益 113774
安 113751
‘ 113590
进口 113581
脚 113460
T@@ 113427
距离 113334
依然 113213
突然 113166
雷@@ 113115
落实 113113
i 113090
获取 113078
笑 113074
身 113049
军队 113029
基@@ 112996
伟大 112955
县 112825
取 112782
九 112729
公平 112718
任 112697
家人 112629
元素 112577
如下 112572
民间 112517
级别 112508
货物 112478
启动 112443
感受 112390
版 112380
依赖 112338
岛 112280
明 111999
丈夫 111983
总部 111939
阿富汗 111904
构建 111819
看来 111673
事业 111550
常 111543
体育 111542
保健 111501
严格 111465
打开 111446
欧盟 111359
选 111218
视频 111091
领导人 111069
捐助 111018
钢 111010
是不是 110902
23 110893
多种 110844
要是 110840
皮@@ 110738
显然 110682
满 110566
难以 110559
外交 110497
皮 110430
在内 110343
如今 110264
光@@ 110089
主任 109954
先进 109931
B@@ 109908
厂 109873
家@@ 109871
塔 109748
波@@ 109607
耶和华 109521
有趣 109356
本国 109220
一方面 109140
星期 109114
空 108894
更为 108657
理想 108656
见到 108613
对此 108560
支出 108503
办 108481
流动 108437
价 108359
换 108318
现场 108257
习惯 108186
境内 108127
那种 107942
实质 107917
阐述 107817
消费者 107689
周围 107642
森 107578
000 107555
# 107554
一年 107547
尚未 107478
体现 107384
刑事 107378
料 107373
赔偿 107341
我不知道 107312
怎么样 107301
管制 107130
耶稣 107114
现 106903
逐渐 106818
方便 106817
东@@ 106650
贫困 106639
动力 106566
证 106564
指数 106549
往 106541
公布 106451
首 106401
职位 106363
本@@ 106353
眼 106224
算 106166
下去 106120
信任 106044
双@@ 105919
享有 105907
产 105837
过渡 105812
意大利 105737
纸 105719
免费 105676
原理 105658
鉴于 105518
仅仅 105467
伦敦 105442
赢得 105350
X 105307
各方 105290
罗 105289
命令 105199
抑制 105193
解 105174
倒 105074
华@@ 105061
火 105000
就要 104946
额 104901
白 104895
弄 104870
普@@ 104846
上面 104788
回家 104786
展开 104759
土壤 104738
私人 104738
成分 104713
投票 104659
恩 104635
G@@ 104606
叶 104512
代 104443
监管 104416
坏 104307
转 104140
靠 104123
绝对 104103
专员 104084
西方 104083
d 103971
作者 103872
店 103782
楼 103782
伤 103747
林@@ 103676
某种 103669
员额 103659
四@@ 103585
之@@ 103579
接 103571
紧张 103567
才能 103500
居住 103411
做什么 103244
艾@@ 103185
毫无 103143
张@@ 102911
通 102906
受害者 102866
资本 102856
提取 102765
列入 102749
投资者 102707
召开 102630
盘 102605
顿 102590
成就 102516
P@@ 102508
M@@ 102425
机械 102343
' 102288
中国@@ 102201
成长 102131
全@@ 102004
首次 102002
地址 101941
生存 101887
看法 101779
下面 101768
等等 101569
住在 101562
法@@ 101552
袭击 101515
首脑 101498
随后 101433
可靠 101382
即将 101350
顾问 101304
留下 101288
货币 101272
学会 101249
格@@ 101193
随 101127
视为 101112
强烈 101092
史 101062
输入 101062
两国 100998
他人 100774
车辆 100753
相@@ 100687
边界 100599
么 100413
塔@@ 100329
梦想 100317
谢谢 100264
26 100247
同@@ 100062
配置 99940
来了 99927
常常 99835
的@@ 99827
她说 99785
· 99745
活性 99700
职能 99658
奥巴马 99354
瓦@@ 99278
重建 99266
迪@@ 99243
各地 99217
释放 99198
交换 99125
日期 99089
批 99074
莫@@ 99054
道德 99033
强大 98991
总体 98866
排放 98755
太多 98686
上去 98596
出@@ 98498
应用程序 98498
全体 98397
计 98374
漂亮 98288
战 98268
头@@ 98256
S@@ 98228
苹果 98214
纤维 98202
气@@ 98184
风格 98168
单@@ 98158
日@@ 98154
税 98131
手@@ 98069
今晚 97995
全世界 97922
例子 97920
官方 97866
男孩 97860
R@@ 97835
以外 97679
在线 97672
转@@ 97539
枪 97435
字 97342
铁 97316
正@@ 97277
想到 97270
吉@@ 97254
想象 97212
埃@@ 97078
石@@ 97058
北@@ 97056
做到 96966
到底 96942
博士 96934
男子 96896
怀疑 96834
出生 96796
27 96763
看着 96723
【 96662
仿真 96634
男性 96464
多边 96446
工厂 96446
推进 96444
予以 96419
博@@ 96395
清单 96385
资格 96362
侵犯 96344
轴 96134
期待 95993
莱@@ 95859
多数 95856
完美 95833
基础设施 95752
出席 95687
赛 95569
好@@ 95561
所有人 95552
朝鲜 95531
昨天 95444
考试 95366
除非 95298
规律 95297
意 95243
营养 95213
28 95161
】 95153
调 95152
笔 95131
族 95072
推广 95025
转变 95020
日子 95015
视 94975
糖 94955
体验 94953
睡 94744
贝@@ 94679
流行 94637
倍 94578
所在 94567
草 94534
循环 94427
马上 94306
敏感 94286
养 94213
气候 94137
脸 94128
此类 94093
结婚 94093
转换 94062
接近 94058
害怕 93962
对策 93961
排 93955
扩展 93904
五@@ 93859
N@@ 93809
科学家 93789
空@@ 93782
35 93759
代码 93738
港 93718
跳 93668
答复 93633
黑 93589
记忆 93563
总结 93551
太阳 93527
哪些 93505
10@@ 93481
左右 93471
门@@ 93407
情绪 93308
少数 93249
机关 93206
刚刚 93178
洛@@ 93144
圣@@ 93117
阻止 93101
住房 93031
奇 93004
原@@ 92999
刺激 92852
设 92840
大小 92814
美好 92799
80 92707
中间 92683
互联网 92617
资助 92584
+ 92569
关心 92550
机场 92512
地震 92494
辩论 92397
吸收 92396
伊朗 92369
外部 92336
端 92279
私营 92222
菜 92181
重复 92152
潜在 92133
标志 92120
亲爱的 92011
复合 91953
治理 91915
清 91898
公正 91736
忙 91732
页 91615
气候变化 91592
核武器 91572
生成 91507
奖 91419
追求 91388
K@@ 91368
终于 91339
著名 91253
圈 91204
后续 91169
火@@ 91126
乐 91094
职 91046
配 90844
约束 90818
有的 90774
中央 90655
证实 90639
表演 90628
M 90612
时刻 90608
立场 90434
症 90361
2005年 90331
落 90330
照顾 90313
索赔 90141
职责 90135
定位 90115
题为 90110
到达 90109
星 90036
那儿 90024
遭受 89788
牌 89705
的确 89692
资 89668
成绩 89616
梅@@ 89603
取消 89561
皮肤 89558
最低 89556
损伤 89487
返回 89455
很少 89453
粉 89321
至关 89289
H@@ 89251
2008年 89244
覆盖 89229
肉 89206
篇 89165
2000 89154
文学 89154
搞 89107
减 89021
所谓 88991
添加 88972
记 88935
万@@ 88924
情 88883
发明 88719
― 88658
爱@@ 88638
改 88631
停 88614
否则 88560
浓度 88559
比@@ 88496
韩国 88436
C@@ 88419
人物 88356
节目 88338
掌握 88333
十年 88329
审判 88323
拍 88278
航空 88180
平 88151
监狱 88065
～ 88039
验证 88027
西班牙 87938
久 87904
盐 87889
相反 87882
各自 87849
绝 87776
32 87708
额外 87703
仪 87684
认真 87683
行@@ 87574
呀 87564
初 87563
啦 87499
南 87496
冷 87436
卫星 87289
创作 87278
女@@ 87229
清@@ 87226
平@@ 87144
劳动 87139
人才 87115
名称 86993
不在 86974
封 86927
一半 86860
可能性 86848
小说 86777
突出 86727
指控 86663
得出 86647
品质 86551
服务器 86430
－ 86426
菌 86393
神@@ 86356
国外 86280
等待 86263
形态 86162
注册 86160
* 86158
托@@ 86157
答案 86135
信心 86078
形象 86068
木@@ 86038
明@@ 85997
脑 85980
公@@ 85979
观念 85891
诺@@ 85875
消失 85873
文书 85747
F@@ 85734
70 85679
建造 85620
兰@@ 85603
下午 85518
功率 85490
兰 85422
爆炸 85389
批评 85337
大鼠 85238
名单 85204
事故 85068
八@@ 85034
那时 85029
延长 84936
有权 84926
帕@@ 84703
筹备 84661
罪行 84654
12@@ 84596
amp 84567
劳工 84526
藏 84501
听说 84487
年轻人 84482
后果 84420
子@@ 84400
获 84390
提案 84368
成@@ 84354
巴西 84198
关 84166
分钟 84138
道@@ 84124
工资 84114
图书馆 84064
不够 84044
希@@ 84010
灵活 84009
面积 83931
周期 83874
自愿 83814
言 83801
台湾 83759
公园 83730
候选 83659
卖 83584
礼物 83572
29 83504
村 83464
美国人 83438
音 83422
大脑 83346
常见 83247
机器 83216
苏丹 83215
故障 83190
鸟 83161
易 83135
模糊 83102
塞@@ 83075
1@@ 83059
墨西哥 83026
苏@@ 83023
化@@ 82972
麻烦 82903
绿色 82877
开心 82862
多么 82850
遗憾 82830
检验 82761
血@@ 82669
颗 82638
合法 82615
专题 82607
塞 82606
秘密 82586
旧 82554
典型 82494
期望 82358
F 82355
歌 82307
天气 82288
杂志 82272
缺陷 82246
发射 82242
作业 82170
玻璃 82104
依照 82022
有利于 81984
R 81976
医学 81900
说过 81865
平民 81797
较高 81790
跟踪 81761
融合 81717
相似 81569
货 81543
引发 81534
通@@ 81521
实验室 81511
与会 81507
频率 81504
免疫 81482
顶 81473
院 81439
龙 81381
常规 81301
木 81296
诉讼 81296
飞行 81225
发动 81089
姆 81055
合并 81028
替代 80958
经理 80949
不好 80893
埃及 80874
护理 80842
好处 80808
优秀 80806
交 80804
老板 80742
桥 80731
铁@@ 80663
数目 80661
碳 80661
预 80640
如@@ 80501
麦@@ 80494
墙 80487
200 80454
31 80442
指示 80439
对比 80424
任命 80392
前景 80226
关联 80115
主@@ 80089
输出 80077
毛 80068
高效 80049
我喜欢 80020
2000年 80010
刀 80005
箱 79996
来看 79978
别的 79916
每次 79906
不久 79869
基地 79855
婚姻 79825
具备 79793
警告 79744
肿瘤 79704
家伙 79674
驱动 79671
官 79433
名@@ 79399
匹配 79395
洗 79362
警方 79360
提醒 79303
判断 79212
同事 79177
敦促 79163
当中 79160
后@@ 79149
45 79139
福利 79131
为你 79108
陈@@ 79081
拟订 79060
举措 79049
咖啡 79035
未能 78997
知 78991
辐射 78982
最初 78927
唱 78915
将来 78864
忘记 78813
LED 78765
层面 78691
分为 78674
小姐 78627
物理 78448
夜 78411
农民 78398
学术 78254
干预 78252
南部 78228
数学 78228
存储 78217
古巴 78213
伯@@ 78205
近年来 78189
用途 78179
成熟 78157
大大 78140
账户 78089
温@@ 78082
孔 78039
500 78022
施工 77987
拘留 77985
单独 77899
遭到 77853
收益 77852
实用 77819
数值 77785
观 77779
保存 77656
巴基斯坦 77640
逐步 77567
爱情 77513
彼此 77481
有机 77471
从未 77457
L@@ 77433
休息 77397
人力资源 77350
兄弟 77349
V@@ 77302
合@@ 77289
有力 77265
拟议 77181
33 77179
取决 77170
沟通 77155
艾滋病 77045
朝 77037
失@@ 77030
得以 77019
样子 76944
忘 76923
传 76892
见过 76887
支 76867
现金 76826
对照 76798
茶 76784
应力 76692
e 76653
2006年 76620
版本 76610
学@@ 76581
疗效 76579
华 76557
假 76514
一边 76502
街 76469
事物 76434
玛@@ 76349
传输 76337
俱乐部 76312
属性 76264
岩 76216
巴 76211
物品 76194
世 76150
迪 76147
床 76138
补偿 76107
所说 76101
逻辑 76050
2010年 76024
行动计划 76021
稳定性 76017
切 76012
说道 75992
六@@ 75914
本地 75882
调节 75841
代理 75826
战斗 75734
接着 75734
救 75699
搜索 75698
因而 75681
人群 75626
解决方案 75613
电路 75601
后面 75585
猫 75577
索@@ 75522
响应 75493
股票 75468
密度 75461
彻底 75418
防治 75398
90 75395
贩运 75375
合适 75369
推出 75361
主动 75329
回应 75327
关闭 75262
黎巴嫩 75212
负 75158
细节 75083
曲线 75069
商定 75039
指南 75038
不喜欢 75013
异常 75005
加快 74989
集体 74931
食 74927
体@@ 74918
机理 74850
纲领 74839
本人 74792
共享 74774
杜@@ 74731
55 74716
边缘 74690
对方 74667
照 74558
原来 74547
庆祝 74529
种类 74514
致 74502
动作 74495
2007年 74476
查 74413
还会 74393
妈 74364
发行 74360
N 74335
较大 74295
生效 74290
为何 74280
头发 74252
文明 74214
军@@ 74211
夫人 74210
英文 74209
法规 74197
灵魂 74153
没有人 74103
34 74078
单元 74077
O 74068
融资 74061
国际法 73949
论述 73936
核准 73922
理念 73871
油@@ 73858
多样 73811
欧洲联盟 73809
系数 73681
转让 73655
反@@ 73554
顾客 73553
争议 73460
然 73363
有没有 73361
痛 73295
百@@ 73176
一块 73174
回@@ 73153
对@@ 73145
精度 73087
决心 73022
诗 72982
跨 72900
奇@@ 72860
记住 72782
持 72732
高校 72721
留 72675
已有 72607
不得不 72600
负担 72600
戴 72526
36 72496
15@@ 72491
般 72491
对不起 72448
域 72417
对待 72366
恐惧 72360
减轻 72348
血管 72309
房屋 72305
民 72300
练习 72296
研制 72294
呈现 72216
行使 72210
G 72184
演讲 72141
民众 72104
镇 72100
奇怪 72090
低于 72062
零 72060
2005年@@ 72046
海外 72042
始终 72037
加上 72035
同学 72006
受伤 71990
含有 71943
诺 71904
阿 71891
口@@ 71881
期限 71783
东 71761
我的@@ 71726
国际组织 71715
糟糕 71686
持久 71685
凯@@ 71667
整 71556
雷 71517
好好 71464
争取 71459
曼 71425
出售 71371
毕业 71342
王国 71338
改造 71334
球员 71290
各级 71264
假设 71200
矿 71186
国民 71145
随机 71131
供应商 71088
进来 71056
降 71009
谨 71000
大陆 70906
便利 70903
2004年 70898
起@@ 70844
燃料 70799
构造 70775
配合 70544
有时候 70524
示 70474
可@@ 70470
两@@ 70465
前往 70451
担保 70450
流离失所 70410
地面 70404
兹 70397
持有 70396
为止 70386
腿 70375
断 70345
太平洋 70339
家里 70339
云 70324
特色 70253
离子 70214
文本 70191
2008年@@ 70177
高于 70166
机器人 70152
财富 70150
层次 70143
国王 70057
联络 70027
实 70026
2009年 70011
出发 70008
一生 69951
泰@@ 69945
呆 69941
方程 69939
友好 69923
结 69898
有用 69883
会计 69880
链 69861
激光 69852
没事 69825
o 69820
驻 69814
症状 69723
J@@ 69710
嗯 69694
收 69675
智慧 69670
危害 69667
脆弱 69638
制裁 69552
我@@ 69507
付 69445
龙@@ 69415
模块 69336
不论 69334
主体 69262
流@@ 69246
主权 69239
聪明 69202
包装 69179
入@@ 69161
可行 69122
互动 69086
修复 69067
南非 69062
呈 68939
青@@ 68911
早上 68888
态 68878
市民 68877
上诉 68850
总理 68836
2007年@@ 68804
索 68765
仲裁 68755
透明 68735
普 68688
占领 68683
井 68674
飞@@ 68661
提@@ 68645
干扰 68620
牛 68616
展 68595
科索沃 68592
2004年@@ 68566
2006年@@ 68558
虫 68549
不少 68528
引入 68514
理 68503
各位 68501
红色 68501
取代 68500
极大 68496
铁路 68492
什么时候 68488
双边 68437
哲学 68411
精@@ 68410
杆 68391
娜 68376
区别 68355
截至 68327
辅助 68321
网上 68294
赫@@ 68236
进去 68207
自行 68156
上午 68121
汉@@ 68118
存 68051
提及 68037
梦 68036
卷 68029
贵 67998
过@@ 67984
智能 67969
干@@ 67965
望 67942
那你 67935
土耳其 67904
信仰 67830
家长 67773
观众 67722
九@@ 67708
餐厅 67705
至于 67587
婴儿 67571
小型 67554
干事 67546
盖 67507
工@@ 67473
侧 67433
众多 67408
托 67407
雨 67406
起诉 67372
胡@@ 67363
认可 67355
防@@ 67337
七@@ 67276
转化 67251
来@@ 67166
雇员 67143
士兵 67130
面@@ 67119
瑞士 67093
讲话 67056
证书 67035
谱 66954
48 66929
巴黎 66890
直 66867
混凝 66864
死@@ 66852
赞赏 66820
品种 66811
车@@ 66800
恩@@ 66786
技巧 66734
约翰 66719
两性 66718
线性 66694
熟悉 66692
37 66645
气体 66618
抓 66615
力@@ 66599
和@@ 66597
实例 66566
刚才 66504
香 66491
毛@@ 66489
一道 66476
似 66475
白色 66442
自从 66426
味 66415
赋予 66405
士 66383
氧化 66353
捐款 66348
恐怖 66328
岛屿 66279
A@@ 66262
作家 66217
38 66201
贸发 66182
乐@@ 66168
建 66157
倾向 66145
残疾人 66142
助理 66103
库@@ 66080
装备 66047
法案 66040
潜力 66008
尽快 65969
打电话 65947
2000年@@ 65939
心里 65904
回去 65800
鲁@@ 65799
果 65705
产量 65636
蒂 65488
图片 65447
11@@ 65439
幅 65426
传感器 65419
惩罚 65395
热情 65387
半@@ 65357
65 65319
传递 65295
胜利 65293
连@@ 65289
穿着 65217
58 65196
冲击 65180
利润 65169
39 65148
希腊 65113
执法 65108
外面 65082
控 65071
模 65018
清洁 64974
主持 64960
现行 64938
发送 64931
顺利 64906
氏 64875
祂 64869
当代 64857
通讯 64828
书面 64788
H 64773
最多 64772
诸如 64710
研讨会 64704
电力 64668
情感 64624
变形 64611
不利 64592
接下来 64580
2005 64568
流程 64562
场所 64555
日内瓦 64460
此次 64453
柱 64428
2004 64424
以往 64423
协作 64416
20@@ 64397
公里 64375
福@@ 64360
斗争 64348
情报 64335
56 64323
没错 64280
2003年 64267
V 64257
身边 64192
短期 64179
许可 64160
随时 64156
说法 64152
猪 64125
推 64117
2003年@@ 64113
深刻 64105
很多人 64091
57 64085
学科 64055
不幸 64036
2001年 64011
呼吸 64003
大概 63985
救济 63978
聚 63967
客 63966
加速 63955
软 63953
着重 63928
移徙 63907
实在 63904
常驻 63902
革命 63884
艺术家 63851
原料 63850
富有 63844
2002年@@ 63840
伊 63835
年@@ 63778
投 63732
标记 63727
磋商 63714
伊斯兰 63693
霍@@ 63681
引导 63551
因子 63525
运 63498
垃圾 63419
青少年 63389
查询 63350
杰@@ 63315
不仅仅 63297
睡觉 63297
防 63244
勒 63215
2002年 63194
利率 63188
团结 63158
超@@ 63156
差距 63114
敌人 63032
2009年@@ 63022
13@@ 62995
鞋 62985
某一 62982
商店 62951
前面 62831
冷@@ 62785
感情 62771
考察 62760
O@@ 62749
主流 62699
威@@ 62688
测 62687
2006 62647
声称 62605
假如 62557
克服 62547
案例 62544
颗粒 62542
开支 62492
立 62461
路@@ 62460
42 62459
判决 62444
阿拉伯 62443
储存 62440
邮件 62381
维 62379
全球化 62325
中文 62309
格式 62308
点@@ 62300
尺寸 62274
伦 62263
报纸 62239
立@@ 62229
内心 62197
哪里 62187
切实 62130
委 62108
上涨 62092
背 62076
黑暗 62024
形状 62013
毒品 61995
挂 61992
中国人 61957
命 61924
定@@ 61923
小孩 61897
标 61882
升 61848
通道 61834
难道 61827
g 61784
抓住 61781
公路 61760
效益 61728
讲习 61725
天然 61681
留在 61671
强@@ 61638
数额 61627
认知 61611
而@@ 61559
作@@ 61554
时@@ 61518
发达国家 61471
瑞@@ 61465
要素 61408
收@@ 61390
镜 61353
移植 61320
高速 61316
视觉 61301
足以 61284
周末 61275
拟 61272
今日 61253
1.@@ 61222
强化 61155
古 61139
形势 61117
兵 61071
接收 61030
本次 61026
谢谢你 61024
不必 60994
借 60991
哭 60984
申诉 60892
种族 60892
优 60859
采访 60856
遗传 60855
阳光 60855
300 60842
灾害 60826
2008 60822
调@@ 60816
经济发展 60812
41 60800
深@@ 60796
本质 60773
紧 60772
可怕 60768
尽量 60749
51 60679
经济增长 60641
基督 60623
编辑 60614
K 60604
阻碍 60561
球队 60550
纪念 60548
59 60511
18@@ 60506
61 60501
哪儿 60468
人民币 60456
环保 60452
袋 60449
周@@ 60440
消耗 60401
盖@@ 60381
1号 60373
类别 60337
待遇 60334
中东 60322
文字 60297
社会主义 60278
证券 60273
千@@ 60270
遍 60265
可爱 60240
挺 60232
14@@ 60225
子女 60221
乌@@ 60219
氧 60196
新加坡 60181
情形 60154
活力 60153
寿命 60121
心脏 60103
外地 60092
2001年@@ 60063
陷入 60055
人道 60039
修 60036
学者 60021
有些人 60011
堆 59985
叙利亚 59983
瓶 59967
而已 59931
结@@ 59908
16@@ 59901
转型 59901
月@@ 59881
在@@ 59852
复@@ 59833
电流 59806
勒@@ 59799
涉 59797
付出 59755
在哪里 59652
国内外 59646
情@@ 59605
促使 59578
这家 59565
猜 59551
运动员 59543
2010年@@ 59532
优点 59523
发起 59504
本来 59504
幸运 59503
足 59457
渴望 59396
44 59335
人体 59318
游客 59245
际 59210
吨 59194
62 59179
教训 59177
其次 59155
振动 59114
43 59112
矛盾 59092
54 59052
0 59029
方针 58973
义 58958
意外 58938
老人 58938
到来 58937
实时 58831
能否 58765
46 58753
丽@@ 58735
升级 58735
此种 58722
姆@@ 58652
营销 58640
壁 58616
得@@ 58599
方@@ 58598
激励 58571
索马里 58526
部件 58511
显得 58474
52 58462
荷兰 58454
游 58446
交@@ 58439
清晰 58434
带有 58419
互相 58388
注 58355
太太 58354
推荐 58328
序列 58327
俩 58322
著 58318
依靠 58306
W@@ 58299
秘书 58265
直@@ 58193
愉快 58139
土@@ 58137
各类 58088
保@@ 58040
误差 58037
仔细 57995
曲 57989
共识 57974
圆 57971
家族 57971
53 57952
查@@ 57935
总@@ 57919
退休 57915
63 57911
大使 57906
变@@ 57888
注重 57888
有利 57881
E@@ 57879
归 57860
衡量 57844
身@@ 57808
为@@ 57796
宝贝 57786
种子 57755
宽 57733
失望 57727
通报 57714
前提 57661
导弹 57659
筹资 57642
香@@ 57622
园 57612
微笑 57604
47 57601
眼@@ 57600
烟 57589
住宅 57555
增 57484
局部 57477
男女 57435
灾难 57433
伦@@ 57432
解除 57426
黄 57425
思维 57406
逮捕 57392
收购 57377
曼@@ 57368
服 57322
有益 57280
统治 57275
专注 57269
鸡 57262
洞 57237
上周 57220
河@@ 57219
教会 57194
刘@@ 57179
日常 57123
谈谈 57083
码 57054
以此 57053
强制 57051
氮 57026
付款 56965
合金 56963
命运 56948
参观 56904
大学生 56899
慢慢 56892
燃烧 56850
轻 56763
散 56707
排@@ 56697
业绩 56695
一类 56676
锁 56656
客观 56635
通用 56629
患 56560
脱 56526
费@@ 56526
旋转 56494
不见 56454
欧@@ 56410
国会 56409
地雷 56395
拍摄 56393
多次 56386
出于 56363
轨道 56358
速 56355
至今 56336
弹 56334
千 56261
64 56245
失踪 56194
懂 56193
总额 56192
同步 56142
繁荣 56118
分发 56097
客人 56066
艾滋病毒 56066
删除 56061
居 56059
整合 56041
雇主 56041
野@@ 56033
电压 56026
够 56000
文献 55989
单一 55982
云@@ 55944
变量 55944
兴奋 55930
唐@@ 55927
扫描 55816
国际@@ 55781
人工 55780
花费 55761
时尚 55732
庭 55676
铜 55670
监控 55663
色彩 55622
北部 55606
英 55602
举 55572
劳@@ 55569
2007 55554
嘴 55546
秩序 55542
认证 55525
放松 55507
声@@ 55481
灵 55477
再也 55464
广播 55462
49 55436
印象 55434
和谐 55433
走向 55421
主张 55419
现代化 55413
主意 55409
丁@@ 55385
蒙@@ 55372
图@@ 55369
江 55362
极端 55345
冲 55343
象征 55313
你现在 55306
编码 55296
地图 55287
湖 55264
松 55260
失业 55235
男 55213
纳米 55185
种植 55174
渠道 55167
印 55158
宇宙 55154
一体化 55142
急性 55139
必然 55135
乱 55125
博物馆 55111
北 55084
华盛顿 55084
蒂@@ 55082
母 55044
慢 55036
药品 54962
替 54961
发育 54925
硬 54922
告知 54895
异@@ 54881
疑问 54849
并未 54826
压@@ 54790
放@@ 54790
低@@ 54760
担忧 54751
农@@ 54725
尚 54686
细菌 54684
赢 54678
融入 54666
干什么 54659
排除 54657
队伍 54656
界面 54651
裁决 54648
炎 54639
民@@ 54612
泰国 54609
噢 54585
暂时 54582
海关 54582
过度 54577
代@@ 54551
法治 54543
尾 54524
最为 54516
由此 54486
松@@ 54481
谈论 54463
净 54437
一百 54400
破 54396
十二 54394
这本 54376
研发 54359
极为 54325
_ 54308
编 54279
精确 54271
斯特 54262
娱乐 54214
沙 54136
耐 54132
舒适 54131
观测 54058
肺 54028
管道 53959
三年 53953
宗 53949
怪 53932
天空 53915
针 53905
骨@@ 53897
切@@ 53876
为主 53849
兼 53843
乔@@ 53837
服装 53817
6月 53784
美国@@ 53782
壳 53724
户 53723
生气 53721
75 53715
回归 53701
会@@ 53695
运营 53694
限 53675
击 53662
约会 53642
信贷 53609
阀 53570
蓝 53562
维修 53525
煤 53490
专@@ 53455
十@@ 53434
代价 53409
电池 53384
亲 53374
忽视 53357
可用 53335
罗马 53288
你好 53286
黑色 53277
节点 53275
特朗普 53271
季 53267
校 53251
弹性 53223
落@@ 53218
公寓 53199
冰@@ 53187
才会 53150
梁 53100
讨厌 53095
赛@@ 53029
色@@ 53023
当@@ 53012
心中 52982
共有 52976
组件 52945
理@@ 52937
一支 52922
嘿 52891
浪费 52842
领袖 52842
牛@@ 52824
经典 52772
佩@@ 52759
装饰 52757
集成 52675
债券 52664
星@@ 52659
主导 52650
怕 52650
泵 52644
回收 52603
设定 52595
何@@ 52570
火车 52563
地上 52560
委会 52505
信@@ 52475
化合物 52459
抗议 52446
饮食 52445
非@@ 52415
雪@@ 52407
疯狂 52405
恶化 52399
遵循 52386
我相信 52367
甲 52363
治 52355
中期 52327
路径 52315
询问 52308
两者 52285
汤 52270
削减 52263
2001 52252
众 52182
球@@ 52170
牙 52165
较为 52056
0@@ 52051
极其 52024
受益 52020
非线性 52020
仪式 52004
写作 52002
船舶 51980
地理 51972
登 51972
效力 51965
工作方案 51941
加勒比 51927
腐败 51927
台@@ 51913
意愿 51885
末 51883
摆 51869
新生 51861
某人 51834
不敢 51792
社交 51767
1999年 51758
毁灭 51754
朱@@ 51721
哪个 51709
衣 51705
演员 51693
血液 51683
派对 51672
实@@ 51656
三维 51646
胶 51618
强迫 51604
活着 51573
雅@@ 51534
塑料 51530
沉积 51487
简化 51465
如同 51463
幅度 51421
欧元 51417
硬件 51379
冰 51362
馆 51316
主人 51310
轻松 51279
话题 51276
英@@ 51275
炉 51269
破产 51241
被告 51232
蓝色 51231
听见 51216
鉴定 51213
网@@ 51211
力学 51183
确立 51174
凡 51167
弱 51142
DNA 51121
机@@ 51098
游@@ 51090
轻@@ 51076
终止 51069
不行 51068
竞选 51052
控制系统 51049
夫@@ 51044
缺少 51044
绿 51040
2002 51039
教练 51008
2011年 50993
脱@@ 50988
怎么办 50979
面向 50977
横@@ 50946
2003 50925
支撑 50920
克斯 50817
泡 50804
.@@ 50769
爱好 50676
拿到 50675
语文 50674
读者 50650
围绕 50584
扮演 50577
爆发 50534
冠军 50514
竞争力 50511
中学 50510
监察 50491
康@@ 50480
展览 50473
屋 50456
列出 50442
残疾 50436
X@@ 50435
键 50422
毒 50403
f 50375
后者 50360
尔·@@ 50359
舞 50353
菲@@ 50352
超越 50335
瑞 50312
1000 50294
却是 50288
斯·@@ 50286
英里 50274
变革 50265
以期 50207
父 50177
承受 50124
真@@ 50118
对抗 50117
吃@@ 50108
既然 50097
真相 50090
新西兰 50086
每@@ 50086
脂肪 50064
起草 50057
激烈 50052
档案 50051
沃@@ 50044
那边 50029
弗@@ 50022
分散 50008
动力学 50000
左 49973
这部 49968
大众 49967
粒 49950
永久 49929
有一天 49917
聚集 49912
赞扬 49906
议题 49903
领 49870
血清 49826
二十 49821
瑞典 49800
素质 49778
空中 49773
输 49759
缓解 49751
啤酒 49749
卢@@ 49729
接口 49722
大幅 49712
表决 49705
抗@@ 49687
赞同 49681
原始 49674
提前 49659
原子能 49628
订 49626
花园 49601
压缩 49582
检察官 49525
任意 49521
查明 49504
物体 49474
66 49435
其@@ 49434
癌 49433
农 49418
动@@ 49415
地下 49402
附属 49393
长度 49378
难@@ 49362
帮忙 49358
正义 49342
愿望 49313
战@@ 49311
77 49303
富@@ 49302
百分 49302
前进 49289
蛋白质 49284
瓦 49261
术后 49255
肌 49239
in 49232
回忆 49230
即便 49212
港口 49211
9月 49205
雅 49195
撒 49178
示范 49176
设想 49166
演出 49164
准 49163
癌症 49163
2012年 49154
经@@ 49140
程 49127
反馈 49115
个体 49103
转向 49084
剥夺 49074
和解 49068
税收 49059
这事 49051
制品 49048
我自己 49044
坚定 49009
贴 49005
乌克兰 48990
案文 48924
桑@@ 48891
简直 48876
透过 48876
诱导 48866
更改 48860
脉冲 48859
显 48845
铝 48836
包@@ 48835
酒吧 48827
周年 48826
动脉 48806
涵盖 48805
叶@@ 48802
驾驶 48789
应@@ 48784
满@@ 48766
鱼@@ 48749
题 48733
样品 48727
卢旺达 48700
亮 48699
咱们 48696
制@@ 48694
高中 48684
那@@ 48665
肌肉 48653
那天 48643
味道 48642
杨@@ 48642
目录 48591
看@@ 48577
旁边 48553
网页 48545
影 48530
自主 48528
太@@ 48506
受害 48501
小鼠 48500
废物 48479
苦@@ 48475
标签 48450
度过 48432
列@@ 48418
噪声 48407
季节 48400
液体 48400
打破 48396
深度 48354
刚果民主共和国 48352
摆脱 48335
用品 48321
波动 48305
草@@ 48302
平面 48286
虚拟 48283
原子 48274
第二次 48262
教@@ 48244
h 48240
近期 48206
内在 48199
CT 48189
蔬菜 48179
可靠性 48172
新鲜 48166
昨晚 48163
营 48160
2009 48153
杰克 48150
东部 48148
管@@ 48135
重组 48132
用@@ 48127
醇 48104
首席 48097
不安 48060
派遣 48013
耳 48004
谈话 48004
永@@ 47996
首都 47992
水果 47984
微@@ 47977
67 47932
广大 47922
到处 47919
受@@ 47882
复 47876
丝@@ 47827
槽 47821
蛋 47811
挪威 47803
峰 47795
累 47782
欣赏 47778
下跌 47776
婚礼 47761
以@@ 47758
概述 47750
课题 47738
文档 47719
脑@@ 47718
安保 47716
找出 47715
当事人 47713
注射 47662
国家@@ 47661
厚 47641
教堂 47625
赞成 47621
不如 47605
要么 47589
细 47572
迹象 47572
尸体 47527
东帝汶 47513
上文 47462
桩 47455
乘 47450
优质 47449
侵害 47429
流量 47429
谈到 47412
环节 47401
海地 47397
爬 47393
复制 47384
湿 47365
叫做 47319
纯 47319
多久 47291
交给 47287
美洲 47269
温 47250
谢@@ 47245
雪 47241
翻 47234
爱你 47224
应付 47217
时光 47204
颁布 47192
学家 47164
烧 47157
联@@ 47099
自治 47090
剩下 47088
突破 47085
矩阵 47058
导 47048
国籍 47022
出色 47005
均匀 46984
局长 46926
江@@ 46916
吃饭 46897
冲@@ 46896
推行 46877
偷 46875
专利 46850
女子 46845
科威特 46843
2011年@@ 46819
维和 46790
造 46788
酒@@ 46787
不知 46782
艰难 46777
菲律宾 46775
17@@ 46763
展现 46763
目 46741
有害 46732
言@@ 46695
指挥 46685
陪 46676
异 46674
玩具 46670
对手 46666
盒 46660
透明度 46660
势 46631
混 46629
饮料 46626
汇率 46612
姑娘 46608
核查 46605
地质 46552
社 46544
肝 46527
聚@@ 46470
抱怨 46464
开关 46437
越南 46423
质疑 46416
巩固 46410
对应 46389
简要 46389
争端 46374
究竟 46357
节日 46338
史@@ 46320
开车 46301
装@@ 46296
架构 46275
设法 46238
老年人 46221
产物 46219
心灵 46218
增进 46205
维也纳 46197
苦 46190
背后 46185
节能 46178
11月 46177
划分 46163
自信 46160
光谱 46132
环@@ 46103
400 46076
下载 46060
小心 46048
失 46038
J 46020
英雄 46003
走@@ 45993
隔离 45968
相关性 45965
足球 45959
母@@ 45957
洛 45932
附加 45929
汉 45926
未经 45925
刑法 45912
药@@ 45904
远远 45894
哥伦比亚 45892
吉 45890
扩张 45885
思 45881
密@@ 45855
管辖 45850
堂 45832
阿根廷 45832
职务 45825
福 45820
攸关 45808
起到 45791
古代 45788
伯 45762
差别 45748
优良 45722
界定 45709
羊 45700
国务院 45667
怎么了 45663
当今 45652
体内 45651
2号 45619
p 45611
厨房 45584
丽 45565
影片 45559
最小 45547
活@@ 45538
西部 45534
上市 45531
十一 45523
紧密 45523
友 45506
拉丁美洲 45505
世@@ 45501
法令 45493
斯特@@ 45474
m 45469
影响力 45466
广 45464
躺 45457
愤怒 45437
解@@ 45436
一会儿 45432
任期 45415
光学 45368
肉@@ 45354
破@@ 45344
丁 45332
否认 45326
提请 45323
乐观 45322
合作伙伴 45313
夏天 45305
一代 45292
津贴 45270
几十 45257
穿过 45255
2015年 45254
创 45238
0.@@ 45236
资讯 45225
长官 45220
先@@ 45218
宁 45216
路线 45202
1998年 45193
明年 45193
温暖 45193
疼痛 45184
马来西亚 45180
本周 45157
k 45127
保 45112
择 45091
分解 45063
工程师 45056
7月 45046
束 45031
圣 45030
报@@ 45016
每月 45014
证人 44975
腔 44965
变换 44933
房地产 44922
立刻 44894
回报 44874
干净 44861
戈@@ 44861
谋杀 44854
敢 44849
池 44848
物流 44814
汤姆 44811
外国人 44802
提名 44801
质@@ 44786
穆@@ 44784
5月 44772
清除 44761
何 44756
室内 44734
机遇 44730
生意 44727
剂量 44714
印度尼西亚 44704
利比里亚 44698
手册 44629
两位 44586
聚会 44564
就此 44533
n 44521
古老 44508
全新 44503
谴责 44498
等级 44476
求@@ 44472
缘 44461
移 44459
锻炼 44439
3月 44429
奥运会 44423
19@@ 44416
建模 44405
2.@@ 44388
列表 44331
夏@@ 44308
首@@ 44303
自动化 44286
哥 44282
困境 44269
春@@ 44268
哥哥 44245
公 44244
游泳 44240
手中 44230
剧 44213
司机 44208
疫苗 44199
田 44198
后勤 44170
代替 44158
秒 44146
惊讶 44104
拯救 44104
思@@ 44097
银 44067
饭 44063
偏 44052
别@@ 44016
2010 44012
欠 43995
磁 43993
每周 43958
善 43950
1月 43942
安静 43940
咨 43926
奥 43917
库存 43911
面包 43895
而来 43893
反射 43881
无线 43862
短@@ 43844
胃 43833
潮 43830
载有 43826
生理 43809
经济@@ 43807
2月@@ 43803
办理 43802
人人 43801
电子@@ 43800
缅甸 43800
这时 43797
石头 43758
见面 43756
间接 43750
补贴 43732
领先 43727
喜爱 43721
吸附 43719
观看 43715
加大 43700
68 43688
宝 43685
负面 43685
世界银行 43677
不良 43675
l 43673
大力 43657
样本 43644
想想 43643
余 43632
勇气 43631
谷歌 43629
撞 43612
精 43609
宗旨 43596
食@@ 43567
吹 43559
北美 43553
韦@@ 43543
继承 43541
商务 43536
便宜 43529
名义 43524
哈 43521
田@@ 43521
蒙 43499
建筑物 43490
应急 43482
糟 43480
例外 43468
青 43449
杀死 43426
1999年@@ 43422
金钱 43421
家具 43411
零@@ 43405
密码 43390
工会 43389
旁 43387
莉@@ 43374
符号 43365
一篇 43351
补救 43343
审 43338
息 43338
s 43331
为其 43331
选项 43300
修@@ 43298
祝 43272
为期 43268
10月 43260
妹妹 43260
引用 43234
收费 43225
接@@ 43217
视角 43215
常@@ 43213
玉米 43196
金额 43176
透 43167
自杀 43145
其余 43123
U 43117
少年 43110
略 43108
抱 43090
频 43074
桌子 43067
音@@ 43057
窗 43051
追踪 43002
广场 42983
答 42976
权益 42965
透露 42958
俄罗斯联邦 42946
念 42934
所得 42932
依法 42928
宝贵 42924
混乱 42918
海上 42897
简 42883
嘛 42876
推迟 42875
综述 42861
就是你 42849
译文 42811
5年 42802
活跃 42776
长大 42771
关@@ 42755
班@@ 42724
股东 42701
册 42695
夜@@ 42671
宝宝 42652
妨碍 42645
词汇 42640
仪器 42622
季度 42606
换@@ 42598
争论 42593
吸 42588
粒子 42578
碱 42566
提示 42562
注意力 42560
留@@ 42527
链接 42520
进@@ 42512
脱离 42499
莉 42492
积累 42478
滑 42476
明星 42469
晚餐 42465
终 42462
薄 42458
翻@@ 42454
办公 42444
补@@ 42440
元@@ 42431
大楼 42401
信息技术 42379
优惠 42353
容忍 42324
赛季 42324
乡 42314
部位 42297
软@@ 42273
死亡率 42264
茶@@ 42206
包容 42200
发放 42187
政党 42156
均衡 42147
腐蚀 42125
节@@ 42119
常用 42114
场景 42112
响 42098
种种 42053
宝@@ 42043
许可证 42039
区分 41993
射 41976
分裂 41963
清理 41936
屏幕 41918
检 41917
3号 41915
齐@@ 41901
隐藏 41900
航 41895
激动 41894
特设 41885
2012年@@ 41881
加剧 41879
认定 41875
南方 41865
拟定 41862
之上 41850
过于 41809
承包 41805
边境 41802
主办 41795
介质 41794
遭遇 41790
依 41767
缓慢 41758
录 41721
暗@@ 41701
饼 41686
玛 41683
硅 41662
芯片 41609
英尺 41602
信托基金 41594
形@@ 41591
无关 41591
慢性 41589
催化剂 41576
用作 41569
病例 41546
阳 41529
不大 41523
书@@ 41500
物种 41497
想起 41494
蓝@@ 41488
不该 41477
体重 41466
将要 41443
那位 41428
达尔富尔 41419
v 41394
牺牲 41378
W 41375
虐待 41367
阴@@ 41351
滥用 41316
限度 41314
澄清 41302
酯 41296
理性 41291
城@@ 41282
交付 41255
烟@@ 41238
康复 41237
企业@@ 41225
乘客 41212
化学品 41203
附 41196
帐户 41193
协同 41187
核@@ 41163
调动 41152
查看 41151
精力 41117
运@@ 41109
迫切 41101
刺 41097
丧失 41096
必需 41064
鼠 41049
洗@@ 41047
U@@ 41044
控制器 41033
生日 41033
制止 41030
制约 41024
考@@ 40997
公务员 40988
充足 40984
心情 40982
礼 40980
五年 40970
睡眠 40965
高温 40964
佳 40960
登@@ 40957
被迫 40944
动机 40919
可怜 40917
当选 40914
圆@@ 40911
友谊 40908
演变 40901
顺@@ 40891
不一样 40875
窗口 40855
款项 40835
产出 40828
顺序 40826
戴@@ 40823
灰 40819
极@@ 40812
调解 40803
阿尔@@ 40796
标题 40776
雷达 40755
造型 40738
对外 40736
数百 40727
感激 40714
法定 40697
脸上 40670
基金会 40629
照明 40625
签订 40619
切除 40616
储备 40606
阁下 40604
大气 40593
丹@@ 40547
指@@ 40546
约@@ 40543
真主 40540
钥匙 40538
岩石 40522
爱尔兰 40494
无疑 40478
鬼 40467
钙 40455
多大 40430
购物 40429
数@@ 40427
弹药 40402
靠近 40396
甲@@ 40392
平静 40385
甘@@ 40375
k@@ 40342
氢 40325
整理 40322
博 40313
探 40313
假@@ 40299
暂停 40296
创业 40287
早晨 40270
常设 40266
汉语 40258
节省 40249
静 40232
百万 40227
关节 40221
餐 40212
城镇 40208
局面 40198
酸@@ 40193
萨 40187
创意 40183
目@@ 40183
传@@ 40170
速率 40128
独@@ 40123
1997年 40096
解放 40071
Web 40053
t 40051
黄金 40044
单词 40033
引@@ 40030
专用 40019
牛奶 39996
r 39980
什 39961
1995年 39958
守 39949
语@@ 39937
相当于 39932
讲述 39928
株 39919
再@@ 39917
退@@ 39915
求解 39896
成人 39879
权威 39878
我以为 39867
催化 39847
从@@ 39836
1月@@ 39825
欧 39820
考 39797
编程 39795
电源 39793
见@@ 39793
邻居 39793
重量 39788
上班 39769
增大 39725
印刷 39719
签证 39719
混@@ 39717
复苏 39685
基准 39679
x 39678
请问 39678
说@@ 39657
默@@ 39650
暴露 39641
害 39628
初级 39625
局限 39621
个别 39612
内地 39608
亚太 39576
在家 39575
4月 39569
假期 39562
对付 39557
祝福 39557
伴随 39546
上学 39541
舞台 39535
~ 39528
胜 39526
吃了 39512
阶 39504
页面 39493
大卫 39480
瘤 39473
实力 39431
蛋糕 39408
图形 39407
退出 39407
禁 39402
疗法 39401
首要 39397
佛@@ 39388
圣经 39374
气氛 39370
企图 39367
乐队 39356
骄傲 39353
农场 39347
彩@@ 39338
酌情 39333
天然气 39331
溶液 39319
月份 39306
湾 39277
电机 39251
忽略 39250
半年 39221
远离 39217
冒险 39201
试@@ 39199
实地 39164
配@@ 39163
600 39159
兴@@ 39157
8月@@ 39147
薄膜 39137
网络@@ 39108
魅力 39093
95 39089
演 39079
不但 39049
景观 39032
真理 39010
一周 38985
志愿 38965
激发 38964
走进 38960
爸 38955
殖民 38953
号码 38952
灰@@ 38946
重返 38934
扔 38931
圣诞节 38929
远程 38892
命名 38883
调用 38873
喂 38852
快@@ 38851
囊 38847
答应 38847
碎 38840
耳@@ 38830
收藏 38815
熊 38809
小学 38769
2013年 38708
人格 38707
前后 38704
歌曲 38692
跳@@ 38676
沿着 38670
艘 38647
当作 38614
揭示 38591
定居 38589
恐怕 38578
交叉 38570
葡萄酒 38568
去世 38564
公式 38549
尼日利亚 38541
签 38523
干燥 38504
神秘 38501
借鉴 38488
审理 38486
闻 38468
绩效 38465
价值观 38457
表格 38452
易@@ 38451
打造 38440
戏 38425
选民 38416
分开 38412
分歧 38412
我想要 38380
签名 38360
脂 38349
怀孕 38341
正当 38337
退 38336
糖尿病 38285
水泥 38278
那个人 38270
简@@ 38260
2011 38256
作物 38253
分割 38233
投诉 38228
采 38202
译 38191
右 38183
贾@@ 38175
街道 38169
排名 38166
裂 38145
钻石 38122
施@@ 38114
不停 38104
自然资源 38096
轮@@ 38082
下次 38073
伙计 38034
高压 38023
指责 38018
圣诞 37997
带到 37995
姐姐 37993
汁 37986
海岸 37980
玛丽 37969
反恐 37947
祈祷 37933
一体 37915
干旱 37914
银@@ 37912
先前 37893
租 37891
夫妇 37886
绿@@ 37873
正规 37869
宫 37858
支援 37849
订正 37848
跨国 37846
近@@ 37844
天使 37834
粗 37823
关键词 37800
何时 37788
法语 37776
上次 37764
可见 37763
可行性 37733
安置 37706
采集 37698
恶@@ 37696
校园 37680
Z@@ 37678
代谢 37673
隧道 37669
十五 37668
物@@ 37668
齿 37644
意@@ 37638
另一种 37630
夜晚 37629
我爱你 37628
扎@@ 37603
股市 37599
耦合 37577
湖@@ 37573
周一 37567
事先 37562
n@@ 37528
超声 37525
美利坚合众国 37512
干涉 37511
5号 37460
麻@@ 37447
于@@ 37445
比率 37440
恨 37426
巧克力 37409
士@@ 37397
每日 37369
毕竟 37369
超出 37353
着手 37316
设计师 37312
你@@ 37307
拜托 37299
浆 37271
置 37271
知识产权 37269
摄影 37258
远@@ 37257
谨慎 37248
造@@ 37245
之所以 37242
密 37242
陶瓷 37239
作战 37231
船@@ 37228
亲@@ 37214
迁移 37209
课堂 37201
加热 37200
便是 37196
术语 37193
骨折 37188
电子邮件 37187
政 37185
变动 37184
招@@ 37182
信念 37177
抽@@ 37174
债 37171
波兰 37169
剑 37163
备 37163
6号 37153
蛇 37141
泥 37096
衣@@ 37094
找不到 37086
毒@@ 37085
该项 37078
舞蹈 37063
─ 37052
树脂 37047
1999 37046
果@@ 37046
延迟 37044
渔业 37043
塞拉利昂 37033
器官 37032
勇敢 36998
会谈 36969
无数 36966
罐 36945
虽 36929
生育 36915
海军 36914
伴 36899
跟着 36893
左@@ 36892
欲 36883
筒 36877
85 36875
斑 36866
总数 36862
8号 36855
富 36838
志 36835
细@@ 36812
广@@ 36792
树@@ 36782
进而 36773
穷人 36770
务 36763
午餐 36759
西非 36751
诸多 36748
穆斯林 36741
此时 36728
坚决 36722
线路 36722
寄 36715
施 36689
> 36680
初@@ 36668
插 36647
25@@ 36636
钢@@ 36622
听取 36614
露 36594
人力 36572
处罚 36570
浮@@ 36557
筛选 36557
陈述 36544
弟弟 36543
景 36507
千万 36485
康 36473
紫@@ 36471
含义 36470
逃 36459
容量 36457
再生 36453
撒@@ 36443
补 36442
舱 36406
交互 36394
确 36390
成像 36384
预@@ 36367
病@@ 36365
3年 36356
遭 36338
指令 36331
骗 36289
纪录 36279
线@@ 36271
on 36260
7号 36258
距 36256
护@@ 36246
旧@@ 36244
劳动力 36238
护士 36234
杀害 36226
思路 36216
祝贺 36216
携带 36211
差不多 36210
据说 36208
酷刑 36189
董事会 36186
布什 36182
72 36171
建@@ 36165
四年 36155
乡村 36125
滑@@ 36093
养@@ 36087
迷 36076
好几 36069
焦虑 36049
电信 36023
定量 35998
手指 35995
跳舞 35990
小小 35987
I@@ 35977
24@@ 35970
商@@ 35961
胺 35954
剩余 35953
口头 35949
奖励 35939
刻 35930
脚@@ 35923
希 35915
道歉 35904
科特迪瓦 35869
2013年@@ 35850
标@@ 35847
视@@ 35834
晶 35832
窗户 35820
齐 35817
天堂 35799
引进 35795
10年 35789
丹 35789
佛 35789
结束了 35781
6月30日 35778
干嘛 35773
从没 35770
精彩 35765
吹@@ 35760
朗@@ 35754
老鼠 35745
负荷 35729
此事 35728
贫 35724
进化 35718
隆 35713
< 35710
话说 35706
丹麦 35705
泡沫 35704
点击 35702
男@@ 35698
对称 35694
扣 35694
69 35679
离婚 35679
即可 35675
十四 35671
滴 35661
妮 35651
渗透 35650
武@@ 35645
招聘 35637
无限 35637
材 35625
辛@@ 35618
尖 35591
4月@@ 35587
字@@ 35583
按钮 35574
鼓舞 35572
算是 35571
几何 35565
埃塞俄比亚 35556
从中 35527
性格 35526
体积 35495
威 35471
拨款 35470
广州 35467
黑人 35467
入侵 35461
CN 35447
非洲国家 35416
市@@ 35401
铜@@ 35397
尽力 35395
头脑 35384
诚实 35369
收获 35365
此前 35362
酮 35354
抵达 35352
1998年@@ 35339
沿 35338
懂得 35327
真诚 35323
老年 35313
高等 35306
使命 35302
旅 35299
抽 35273
计量 35267
黄色 35263
磨@@ 35253
垂直 35220
悲伤 35219
邦 35210
吸烟 35206
学到 35200
消极 35195
英镑 35194
孤独 35190
吓 35189
喜 35185
堡 35181
这个世界 35181
保安 35176
双重 35159
订单 35153
高达 35148
延伸 35142
夹 35138
150 35123
叙述 35120
纸@@ 35115
磷 35107
知名 35102
吴@@ 35079
增@@ 35055
幕 35035
惊@@ 35027
看出 35011
阳@@ 34997
场合 34975
女童 34954
影像 34952
布隆迪 34941
牙@@ 34939
疲劳 34932
3.@@ 34925
会见 34917
提起 34903
深深 34898
耶 34880
个性 34874
冬天 34874
开采 34873
不变 34871
3月@@ 34865
私@@ 34862
7月@@ 34841
99 34824
阵 34803
限于 34802
隔 34800
地域 34799
升高 34783
支@@ 34780
糖@@ 34756
管理人员 34729
事@@ 34727
注入 34711
零售 34674
想@@ 34673
保守 34662
合格 34651
制成 34648
能不能 34648
续 34635
外层 34628
an 34617
规 34616
分支 34606
信用 34601
监视 34573
玩家 34572
把握 34565
太空 34558
善@@ 34548
就算 34546
谷 34498
摧毁 34495
d@@ 34491
迷@@ 34490
字母 34461
秀 34452
罪犯 34449
等于 34446
灵@@ 34426
裁 34420
世界@@ 34419
中等 34407
恰当 34407
认同 34404
缺点 34398
说服 34389
快点 34367
焊接 34367
德·@@ 34364
肯尼亚 34354
奥地利 34343
个月 34331
较小 34322
航班 34317
不让 34276
橡胶 34271
病理 34266
议事规则 34265
9号 34259
磁@@ 34257
时机 34247
中部 34241
焦点 34233
巨@@ 34212
旅馆 34207
监禁 34194
拜@@ 34176
新年 34173
大于 34163
浅 34161
将军 34148
设有 34143
困 34141
周二 34139
次级 34139
离@@ 34131
无需 34128
Y 34104
内涵 34099
急@@ 34068
r@@ 34060
政权 34050
行李 34044
普及 34036
设在 34035
从不 34001
绘画 33971
帽子 33966
1996年 33955
集合 33955
占据 33949
生活方式 33935
群众 33911
断裂 33900
不懂 33888
金融危机 33881
密封 33872
惯例 33868
我应该 33862
座位 33853
缩短 33847
诗歌 33841
急 33836
乱@@ 33823
暗示 33815
回复 33793
意图 33791
地板 33783
神经@@ 33778
探测 33764
顺 33743
案子 33738
引擎 33734
乳@@ 33718
豁免 33718
戏剧 33705
摩洛哥 33697
沿海 33697
送到 33691
在家里 33676
授予 33674
防御 33650
素@@ 33649
浪漫 33647
书籍 33644
条文 33644
静脉 33635
砂 33620
感@@ 33619
何种 33618
用以 33616
科研 33589
余@@ 33578
吸引力 33572
毁 33569
能@@ 33550
房@@ 33535
博客 33529
予 33526
深圳 33511
生态系统 33509
如果没有 33499
驱逐 33491
之类 33485
处境 33483
尊严 33478
2014年 33477
根源 33476
不满 33473
小麦 33467
搬 33428
弹@@ 33421
减@@ 33418
电极 33415
摩@@ 33405
空缺 33405
储 33392
启示 33386
退化 33382
委托 33381
港@@ 33376
第@@ 33375
故意 33372
散@@ 33370
成效 33369
框 33354
稳 33345
经济学 33344
绝@@ 33344
披露 33342
病变 33338
灭 33331
71 33324
氯 33307
帽 33304
等@@ 33304
推@@ 33303
判 33302
震惊 33302
面试 33298
交谈 33297
饭店 33286
4号 33279
省@@ 33276
看待 33272
过境 33265
狼 33261
庞大 33246
道理 33225
偿还 33205
维生 33205
带给 33187
语音 33174
13日 33164
比利时 33163
根@@ 33157
销 33157
死刑 33136
苏 33124
容 33122
这点 33118
钠 33116
8月 33108
故 33108
中方 33089
折 33083
金融机构 33082
尊敬 33066
甚 33066
反复 33049
稍 33049
清洗 33048
厚度 33040
新兴 33006
赶 32995
初始 32993
盘@@ 32989
荒漠化 32987
迫使 32985
犬 32984
白宫 32970
饥饿 32970
流体 32966
投@@ 32962
好多 32954
起源 32937
800 32921
稿 32918
王子 32917
亲自 32909
场地 32909
股份 32909
年底 32907
钟 32905
激情 32889
受体 32887
PC 32881
桥梁 32877
就这样 32871
迟 32864
诉 32862
柯@@ 32843
语法 32838
肾 32817
热爱 32797
当事 32787
纠正 32783
写道 32782
翼 32782
醒 32769
阐明 32768
赐 32753
决 32738
耐心 32736
选手 32736
简称 32734
复合材料 32717
不然 32716
智利 32711
Q 32707
向前 32703
肠 32693
拖延 32650
经济学家 32648
处置 32645
聚合物 32621
旗下 32619
预定 32601
观@@ 32596
丢 32586
综合征 32575
施加 32573
足@@ 32566
难题 32559
这@@ 32555
容器 32548
神圣 32540
年12月 32531
水分 32525
吁请 32508
直至 32508
遗产 32496
中华人民共和国 32491
鲁 32482
确信 32474
险 32469
有限元 32464
不可@@ 32428
个@@ 32411
接到 32408
超级 32405
占有 32401
油田 32400
封闭 32396
曲@@ 32373
苯 32372
偷@@ 32352
此项 32346
应有 32338
冷静 32308
缩小 32303
介意 32301
步@@ 32301
发酵 32300
路上 32291
个案 32280
解析 32279
暗 32278
探@@ 32277
光纤 32270
舍 32267
IS 32264
保罗 32263
次数 32255
入境 32252
昂贵 32242
尽@@ 32240
折@@ 32234
参@@ 32225
喷@@ 32216
处在 32206
职权 32201
取@@ 32197
补助 32197
内外 32196
吻 32194
s@@ 32187
受理 32185
豆 32181
76 32173
21世纪 32168
群岛 32161
东南亚 32156
m@@ 32149
c@@ 32120
雇用 32120
嗨 32117
板@@ 32115
任职 32114
庇护 32108
坐@@ 32098
陆@@ 32090
变更 32087
悲剧 32082
冷却 32053
荧光 32036
政@@ 32021
73 32019
空调 32015
2月 32013
断@@ 32011
惊人 32010
副主席 32008
茨 32004
梅 31994
擦 31966
演奏 31958
Add 31940
东北 31910
年代 31908
数十 31906
积 31873
XML 31871
贝 31863
一大 31827
78 31824
汇报 31814
概率 31808
er 31803
仿佛 31797
手里 31797
莎 31797
莱 31790
更换 31786
射线 31776
最早 31774
CD 31768
雨@@ 31768
消@@ 31759
无效 31757
朝@@ 31755
盛 31751
倡导 31743
芬兰 31742
党@@ 31735
罚款 31720
债权人 31711
目的地 31681
见证 31669
频繁 31661
报酬 31655
促请 31642
7月1日 31640
展望 31640
渣 31640
专 31632
拖 31622
本届 31614
损坏 31607
30@@ 31596
元件 31575
氟 31571
志@@ 31566
进攻 31565
画@@ 31557
积分 31557
个小时 31548
走出 31548
热点 31542
微生物 31536
地铁 31533
警 31531
国际会议 31519
义@@ 31510
2013 31502
本港 31479
钉 31478
播放 31459
弯曲 31452
供给 31451
大声 31450
盯 31426
表@@ 31414
谢 31409
脉 31397
体外 31389
与@@ 31388
学位 31373
扬@@ 31366
防护 31362
奇迹 31353
发电 31347
铅 31338
一同 31334
制造业 31333
宏观 31333
激素 31333
画面 31317
信息系统 31291
醒来 31290
姓名 31285
沟 31283
洋@@ 31279
绑架 31273
叶片 31272
不住 31267
试试 31242
过分 31242
影@@ 31236
功 31232
倒@@ 31224
周边 31217
卡车 31213
挑选 31211
迄今 31202
少数民族 31200
背@@ 31191
董事 31189
救援 31163
井@@ 31158
无人 31146
健全 31139
绕 31135
通信技术 31133
牙齿 31129
三十 31124
安全@@ 31103
相处 31103
追 31102
p@@ 31092
改@@ 31084
电子商务 31060
兹@@ 31057
4.@@ 31046
桶 31043
保密 31035
少@@ 31034
送给 31022
守@@ 31016
乐趣 31010
船只 31008
打印 31004
摩擦 31000
菜@@ 30992
弗 30986
涂 30979
检索 30976
导航 30975
AC 30972
河流 30965
74 30957
早餐 30947
弥补 30945
埋 30938
家中 30922
国有 30910
柜 30909
冒 30906
木材 30892
静@@ 30883
搭 30882
位@@ 30878
矿@@ 30872
内陆 30869
孙@@ 30867
校长 30865
锅 30864
餐馆 30853
宣称 30838
玉@@ 30819
共@@ 30816
固体 30805
爆 30796
型@@ 30787
剪@@ 30786
当天 30781
行事 30773
露@@ 30773
说出 30772
医 30765
言论 30758
囚犯 30745
品@@ 30741
森@@ 30735
负债 30732
耶路撒冷 30711
阳性 30704
意志 30702
地产 30699
臂 30695
川 30677
邻国 30657
自豪 30655
此@@ 30653
旅客 30642
2016年 30631
人居 30631
若@@ 30631
薪金 30628
春天 30625
英格兰 30623
范畴 30621
进度 30621
Q@@ 30619
右@@ 30607
名叫 30598
确切 30591
格鲁吉亚 30587
炸弹 30583
激活 30540
贴@@ 30540
浏览 30531
落后 30529
带领 30526
外勤 30521
行星 30512
式@@ 30510
拔 30508
分析师 30503
合约 30498
椅子 30491
载体 30491
交往 30468
觉 30449
1994年 30442
多样化 30436
很久 30435
族裔 30435
调度 30418
划@@ 30415
杂@@ 30406
磨 30406
商人 30403
国际贸易 30395
北方 30388
策划 30387
这笔 30380
酷 30370
销毁 30356
放下 30353
家庭暴力 30351
紧@@ 30343
成形 30340
骑 30339
竟然 30338
底@@ 30332
垫 30309
星期五 30296
诞生 30295
开设 30289
耶@@ 30289
聊天 30289
荣幸 30289
该@@ 30287
网格 30278
汞 30269
带@@ 30263
购 30260
眼前 30249
缝 30240
教室 30225
83 30223
神经网络 30221
阶层 30217
看作 30210
供@@ 30186
布局 30186
珠 30175
锌 30173
降解 30166
祷告 30155
增多 30149
隔@@ 30132
迎接 30124
定于 30123
塞尔维亚 30121
读书 30107
葡萄 30104
原本 30101
想过 30101
便于 30093
开启 30083
护照 30081
伴侣 30077
单纯 30074
碰 30068
98 30063
十三 30055
去除 30045
减小 30032
入口 30030
胸@@ 30029
分摊 30026
两个人 30019
饰 30019
兴 30018
出血 30003
88 29999
低温 29985
敏 29985
权限 29985
死去 29982
煮 29976
种族主义 29961
过多 29941
羊@@ 29935
夏 29927
分化 29924
管辖权 29924
零件 29919
挖掘 29913
2012 29909
赫 29899
犹太人 29887
籍 29885
村庄 29880
生产力 29880
违背 29880
诗人 29877
灰色 29853
荣誉 29841
终端 29838
说到 29832
信用卡 29808
崩溃 29802
0年 29787
并发症 29785
麻 29782
天线 29774
停@@ 29770
总会 29765
映射 29746
信道 29742
耳朵 29737
细则 29699
租赁 29689
任@@ 29686
插入 29676
听@@ 29675
彼得 29669
拨 29669
改为 29648
IT 29632
微软 29622
化工 29621
等到 29615
物资 29614
洛杉矶 29607
菜单 29603
南斯拉夫 29602
力度 29591
薪酬 29580
侵略 29569
门口 29568
铺 29567
社会@@ 29560
东京 29558
困扰 29551
女生 29548
纹 29529
沙漠 29522
征 29516
明智 29513
利比亚 29505
高层 29503
买卖 29498
乌干达 29493
顿@@ 29476
120 29461
祖 29460
凭 29431
初期 29429
客@@ 29429
停留 29419
来临 29410
弯 29392
主席团 29377
整@@ 29353
迄今为止 29351
削弱 29333
废水 29329
文中 29317
视野 29316
2014年@@ 29314
奠定 29310
移交 29307
大厦 29300
阻 29286
撤销 29265
盆地 29264
席 29255
没法 29252
裁定 29252
创伤 29250
只需 29248
过滤 29246
油气 29238
应变 29230
止 29225
筹措 29211
煤@@ 29207
拓展 29206
螺旋 29199
广东 29198
葡萄牙 29169
教育@@ 29168
z 29158
短暂 29157
适宜 29157
咬 29150
线索 29137
82 29126
告 29118
虚@@ 29115
杰 29101
魔@@ 29099
警@@ 29096
Y@@ 29093
照@@ 29090
做@@ 29088
日常生活 29087
周五 29081
大人 29078
模板 29078
野 29077
套@@ 29071
玫瑰 29061
东方 29052
归@@ 29049
侧重 29048
话语 29036
卷@@ 29012
轨 29011
家园 29008
乔治 28995
度假 28988
粉@@ 28986
采@@ 28986
奥运 28969
灾 28964
84 28958
队员 28957
定制 28954
现时 28938
碎片 28930
还@@ 28907
百分比 28901
器件 28896
永恒 28890
婚 28885
未@@ 28876
火箭 28874
大师 28873
校@@ 28872
体会 28868
百 28863
渐渐 28859
新技术 28858
基督教 28849
致命 28848
1998 28837
老婆 28819
从前 28818
毒性 28815
仅有 28807
消灭 28807
习俗 28800
加州 28799
央行 28795
航空公司 28789
开玩笑 28781
再见 28763
事态 28762
卖@@ 28760
正好 28755
中断 28748
预警 28746
另有 28732
操纵 28724
食用 28717
其后 28712
柬埔寨 28708
违法 28707
不容易 28698
冠 28698
聚合 28698
聊 28697
各种各样 28694
夏季 28682
货@@ 28679
西亚 28677
扬 28664
极限 28662
鼻子 28658
时间表 28655
风景 28653
狂@@ 28648
栏 28637
CO 28622
发誓 28621
欢乐 28609
反而 28604
IP 28603
真空 28593
桌 28586
较少 28586
下文 28582
5.@@ 28581
要@@ 28580
收缩 28576
5000 28572
一贯 28572
得知 28572
欺骗 28558
屋子 28543
树木 28543
你知道吗 28540
引 28540
气象 28539
恤金 28529
杰出 28529
原谅 28528
鸡@@ 28528
关税 28525
记@@ 28521
嘉@@ 28507
鸡蛋 28506
胶@@ 28499
恶 28498
参照 28484
势力 28467
账 28463
早已 28456
散发 28450
当年 28438
缺 28431
短缺 28430
严厉 28424
打扰 28417
海滩 28405
所有权 28394
节奏 28390
全力 28381
消防 28380
烤 28374
句子 28371
围 28366
固 28364
媒介 28364
棉 28362
征聘 28357
精神@@ 28349
列车 28347
边@@ 28345
临@@ 28324
助 28321
薪 28321
变异 28317
旅游业 28300
迟到 28299
水中 28298
尤@@ 28295
成年人 28286
追@@ 28283
沮丧 28282
冬 28275
汇 28267
齿轮 28265
捐赠 28259
刷 28254
兔 28251
志愿者 28242
晶体 28242
图案 28232
因@@ 28222
宪章 28220
特·@@ 28218
秘鲁 28217
79 28211
81 28204
肥 28198
抗体 28197
u 28195
会晤 28188
搭配 28188
尺度 28185
还原 28180
指引 28176
刚果 28174
雾 28171
总之 28169
独自 28155
演化 28131
播 28117
公主 28108
哥@@ 28102
财@@ 28097
难过 28091
民事 28079
运转 28074
28@@ 28071
86 28064
安慰 28051
穿上 28048
芯 28046
矿物 28042
斜 28033
误 28033
风暴 28031
20年 28025
鼓 28025
效 28020
世上 28006
直升机 28005
无论如何 28003
职员 28003
23@@ 28000
放到 27998
交通@@ 27990
现已 27990
调控 27988
抵抗 27986
5日 27975
熟 27974
负载 27968
尼泊尔 27960
2年 27958
工程@@ 27956
牧师 27956
选@@ 27940
内存 27936
偏@@ 27934
上下 27931
喜@@ 27931
硫 27924
储蓄 27915
接待 27915
导向 27883
沉默 27873
漏 27865
符 27862
种族歧视 27859
斗 27850
礼貌 27845
瑜伽 27838
可信 27826
豆@@ 27824
拍卖 27818
纠纷 27813
琳 27812
祖国 27806
承@@ 27802
逼 27793
开会 27789
带走 27788
峰会 27779
日前 27763
依@@ 27760
以色列人 27750
麻醉 27744
严肃 27738
塑造 27738
事宜 27735
直接投资 27734
心理学 27731
菲 27729
欢@@ 27725
t@@ 27713
遇见 27708
借口 27694
我的朋友 27691
屋顶 27690
美味 27688
桥@@ 27669
赚 27655
放置 27652
教科文 27650
电台 27648
企业家 27643
高等教育 27627
5月@@ 27626
宠物 27621
克罗地亚 27617
克林顿 27616
生物@@ 27600
修建 27591
武力 27566
好事 27549
审核 27546
胎 27541
96 27537
知@@ 27534
微波 27533
业@@ 27527
淡@@ 27526
延续 27521
沉@@ 27520
大地 27518
克·@@ 27514
磅 27514
婚@@ 27500
公认 27497
围@@ 27486
互 27485
度@@ 27482
月亮 27469
美国政府 27469
自然灾害 27463
舒@@ 27458
市场@@ 27457
火灾 27455
讯 27451
龄 27449
吊@@ 27448
流域 27448
向@@ 27443
所@@ 27439
奉 27434
眼镜 27434
部落 27431
酒精 27431
范@@ 27425
权@@ 27424
$ 27414
大门 27409
罚 27407
划 27395
置于 27388
乐意 27382
纪律 27380
贯彻 27371
辩护 27370
is 27346
驻@@ 27342
愚蠢 27339
订立 27338
经委 27330
存款 27328
试点 27324
审美 27320
规约 27320
膨胀 27319
碰撞 27313
擅长 27312
得不到 27309
选定 27307
名额 27303
枚 27303
棵 27303
荣耀 27303
导演 27302
备选 27301
死于 27297
五十 27292
甲基 27285
爵士 27283
缩 27275
民主党 27266
克隆 27264
职工 27264
坎@@ 27260
乔 27255
枝 27252
叔叔 27251
要点 27243
随便 27239
承载 27216
模具 27210
将近 27208
隐 27206
1月1日 27203
介 27196
防范 27191
震 27191
冻结 27180
踢 27171
市长 27167
广阔 27165
领取 27160
硬@@ 27156
40@@ 27145
有待 27144
毕业生 27142
支柱 27130
标准化 27127
选出 27125
忍受 27104
配备 27098
契约 27096
传说 27088
Z 27086
氯@@ 27082
税@@ 27082
自然@@ 27081
温和 27079
山区 27077
错过 27071
厉害 27070
火焰 27061
卫@@ 27050
喷 27026
基层 27026
上市公司 27025
有意 27016
拿@@ 27008
阿尔及利亚 27004
1993年 26993
手续 26982
钻 26978
生物学 26972
直径 26962
星期一 26949
函 26945
没关系 26939
角@@ 26935
入学 26933
在乎 26932
早就 26931
拥抱 26926
同情 26925
尼亚 26923
19日 26909
g@@ 26909
饿 26909
幻想 26893
拿出 26892
美食 26891
闭 26889
肥胖 26888
周六 26887
示威 26887
街上 26886
同等 26885
跑@@ 26885
无辜 26877
坚强 26876
紧迫 26876
就是这样 26867
获悉 26854
暴@@ 26848
本土 26843
安哥拉 26817
废 26807
居然 26800
700 26793
考验 26793
春 26792
这边 26784
伤心 26782
勘探 26778
存@@ 26756
97 26749
喊 26748
y 26744
商标 26741
60@@ 26733
愈 26729
创立 26724
甜 26710
j@@ 26701
街头 26698
仆人 26696
振 26685
布朗 26681
顶@@ 26678
税务 26677
年级 26674
藏@@ 26672
吸@@ 26664
视察 26662
灵感 26656
粮农 26654
越@@ 26654
支配 26653
请@@ 26653
工商 26650
狂 26650
正面 26647
外科 26646
多元 26646
久@@ 26626
奶 26622
击@@ 26609
塞浦路斯 26607
工业化 26604
填 26601
伦理 26599
援 26578
导@@ 26567
填补 26565
再说 26564
双手 26551
供应链 26544
泽@@ 26538
送@@ 26533
环境保护 26522
研究报告 26522
流通 26520
模仿 26516
静态 26515
份额 26509
蚀 26501
有罪 26500
烂 26500
红外 26496
定价 26495
平方米 26492
水资源 26491
码头 26486
传送 26484
工作@@ 26482
唱歌 26472
分数 26469
苏格兰 26467
早@@ 26465
h@@ 26458
莫 26457
星球 26454
200@@ 26438
长远 26436
二氧化碳 26435
6.@@ 26431
帝国 26431
促成 26417
镜头 26417
表情 26409
奶奶 26407
肯 26406
衰退 26399
被捕 26399
有意思 26397
胆@@ 26394
三分之一 26392
东南 26392
封@@ 26388
第三方 26388
收取 26385
角落 26373
轴承 26362
征@@ 26357
支票 26352
冬季 26348
l@@ 26345
十六 26344
早些 26340
泰 26338
词@@ 26334
估算 26332
漆 26331
92 26330
梦@@ 26320
外界 26311
传达 26310
发光 26304
警官 26296
径 26292
腹 26291
楼@@ 26288
许 26277
躲 26266
颈 26266
神奇 26259
孔@@ 26256
包裹 26240
妇 26227
奋斗 26226
电缆 26221
惊喜 26218
战胜 26217
大选 26213
坛 26210
首相 26203
各@@ 26201
分区 26200
不妨 26199
二零零@@ 26189
周日 26186
跟随 26166
易于 26154
源于 26153
韩@@ 26153
尿@@ 26150
麦克@@ 26150
什@@ 26137
87 26120
境 26118
7日 26116
机组 26110
i@@ 26105
溶 26090
皇家 26085
碰到 26081
酚 26079
信息@@ 26077
旅程 26070
啥 26058
随之 26045
齐全 26041
发病 26040
数学模型 26039
4年 26033
艺 26017
女朋友 26015
肺@@ 26012
字符 26009
坑 26003
居@@ 25993
碗 25979
偶尔 25978
报表 25973
全都 25970
维尔 25970
上来 25948
恤 25944
女王 25943
一千 25941
恶劣 25920
91 25919
人心 25916
膏 25898
洪水 25879
炮 25864
申报 25854
产权 25850
全身 25844
余额 25841
航行 25818
给你们 25811
再来 25804
领@@ 25803
年纪 25795
西北 25789
截止 25784
院校 25766
b@@ 25760
秋@@ 25760
欲望 25754
负有 25753
公告 25746
轻易 25737
竞赛 25719
默 25715
仓库 25712
尔斯 25708
198@@ 25707
速@@ 25707
钢铁 25703
钱@@ 25701
管理系统 25691
组建 25689
目光 25685
只@@ 25684
借此 25680
全球经济 25677
岗位 25676
震@@ 25676
去@@ 25672
共和党 25671
杀人 25660
人家 25657
同期 25657
到@@ 25644
巡逻 25634
大胆 25627
部@@ 25625
枪@@ 25624
of 25623
规格 25618
载@@ 25613
茎 25607
财务报表 25607
成年 25602
下滑 25596
己 25596
智力 25596
怀@@ 25593
芝加哥 25584
腰 25583
辞职 25578
国防 25564
沉重 25564
93 25561
点儿 25556
崇拜 25555
条@@ 25553
突变 25553
题目 25547
东道国 25525
产@@ 25517
此后 25507
9日 25490
切割 25487
预先 25485
感知 25476
业主 25474
每当 25472
纽@@ 25471
缺血 25471
配偶 25464
一番 25462
跨越 25458
尤 25439
污水 25437
串 25422
行走 25413
救助 25409
洋 25406
疯了 25397
中小企业 25395
类@@ 25395
不止 25389
动员 25388
建成 25384
总裁 25378
一如既往 25377
良@@ 25375
澳 25374
粗@@ 25371
优雅 25363
光明 25363
美联储 25358
鱼类 25338
介入 25322
宁@@ 25321
商业银行 25312
邮@@ 25302
好消息 25296
十九 25294
学员 25289
量@@ 25288
酱 25287
抛弃 25278
人为 25269
○ 25268
诗@@ 25264
染 25261
太阳能 25258
所属 25247
期@@ 25246
封锁 25228
烟草 25222
滚@@ 25218
电子地图 25203
长达 25202
赞助 25201
我想你 25200
借助 25196
并行 25190
27@@ 25189
鲍@@ 25182
地带 25181
结晶 25178
特权 25176
扎 25174
18日 25173
1994年@@ 25164
磨损 25163
蔓延 25159
会议室 25155
休闲 25150
惠@@ 25146
运送 25144
征收 25143
砖 25138
密集 25126
不当 25125
次@@ 25124
94 25116
怎么回事 25113
传染 25098
景@@ 25095
珠@@ 25095
疼 25094
深化 25088
精心 25085
研究生 25078
列为 25074
加密 25070
二十@@ 25069
鞋子 25066
粘 25059
去过 25055
白人 25050
推向 25048
汽车@@ 25047
慈善 25042
1992年 25041
乳 25036
选用 25036
衍生 25025
人民政府 25020
家属 25019
展@@ 25018
杀@@ 25013
针@@ 25010
依旧 25007
肾@@ 25000
练 24998
吐 24997
大西洋 24995
写@@ 24988
淀粉 24988
汽@@ 24984
推导 24983
航天 24980
工作计划 24973
瞧 24972
烧@@ 24963
护 24961
最@@ 24961
香港@@ 24961
鼻 24961
杂 24952
噪音 24948
解读 24945
功@@ 24940
盈利 24936
描绘 24933
绳 24930
肽 24928
神经元 24919
上空 24915
配套 24910
偶 24894
排斥 24890
89 24884
据称 24884
星星 24879
众人 24876
鬼@@ 24862
爱上 24854
1990年 24847
卧室 24847
盒子 24836
空白 24836
生病 24825
服用 24816
周四 24807
汽油 24807
继 24806
绝望 24804
歌手 24795
彩色 24793
总量 24785
住院 24780
模@@ 24777
成型 24772
同行 24769
折磨 24769
废除 24767
竞争对手 24760
一九九@@ 24754
1996年@@ 24752
住区 24752
大海 24749
彩 24745
支架 24743
境外 24740
最后一次 24738
情节 24737
1年 24736
休@@ 24731
狭窄 24727
编@@ 24723
以至于 24718
盐@@ 24716
年12月31日 24711
野生 24709
中药 24708
百姓 24707
煤炭 24702
抽象 24700
年中 24697
复员 24681
氛围 24680
50@@ 24676
好奇 24676
英语@@ 24673
热量 24671
厄立特里亚 24663
消化 24659
玉 24655
训 24644
罗斯 24638
MS 24633
视图 24627
漫长 24626
汇编 24609
坚信 24606
假装 24605
体育@@ 24601
走过 24586
长久 24581
话@@ 24580
涂料 24577
26@@ 24565
梁@@ 24542
上课 24539
量化 24539
言语 24530
美学 24528
灯泡 24527
币 24520
纯粹 24518
毫米 24507
开幕 24499
潮流 24487
残@@ 24486
失业率 24485
鼻@@ 24483
启发 24476
GDP 24462
益 24460
培育 24456
评 24454
墙上 24452
12月@@ 24442
忠诚 24433
天赋 24428
烦恼 24410
招募 24409
约定 24406
后期 24404
标识 24402
飘@@ 24400
图书 24397
除@@ 24393
知情 24392
尖@@ 24391
热带 24391
租金 24384
语义 24368
调制 24366
适 24366
偏见 24364
州@@ 24362
喜悦 24358
同志 24353
随意 24351
14日 24341
阴影 24338
股价 24336
没@@ 24332
席位 24320
十八 24319
柔@@ 24308
联合国宪章 24291
后悔 24290
温室气体 24279
胸 24269
师@@ 24264
选取 24243
问卷 24238
俄 24234
不定 24228
迹 24217
布拉@@ 24214
比尔 24211
胖 24210
16日 24203
水稻 24203
总共 24199
多元化 24198
操作系统 24198
航@@ 24196
海事 24194
数以 24185
中央@@ 24184
严@@ 24172
停火 24169
岩@@ 24163
星期二 24162
遇 24161
举@@ 24156
恋 24151
欺诈 24146
锡 24136
苏联 24133
中介 24128
反思 24126
在场 24124
纲要 24121
扫 24114
栋 24112
敌 24108
卓越 24105
向上 24105
严峻 24102
摩 24088
奴隶 24085
0.05 24084
排列 24075
小镇 24074
白天 24057
车站 24055
发展战略 24054
喝酒 24049
强劲 24045
营地 24036
昆虫 24034
是@@ 24015
医药 24012
结局 24007
高速公路 24005
州市 24000
因特网 23993
中毒 23992
哇 23979
刺@@ 23975
格局 23970
大批 23963
认 23962
接纳 23955
还好 23953
发展趋势 23949
夫妻 23941
涂层 23936
投标 23933
内罗毕 23932
仁 23922
富裕 23920
外观 23908
裂缝 23905
生物多样性 23900
缔结 23899
战士 23898
没收 23898
现代@@ 23880
致@@ 23879
位移 23877
豪华 23877
00 23873
丙@@ 23873
瑟@@ 23872
全民 23869
恐怖分子 23869
裔 23868
利亚 23844
驻地 23842
动议 23836
溶剂 23834
召集 23826
织物 23826
收回 23825
笔@@ 23825
本法 23822
手工 23813
寒@@ 23811
24小时 23808
典 23805
照料 23805
皆 23803
敌对 23797
修理 23794
站点 23792
系统@@ 23788
锅炉 23788
约旦 23785
布置 23784
与其 23783
动画 23772
盛@@ 23771
执@@ 23770
洪@@ 23770
虎 23764
哭泣 23758
罗马尼亚 23756
原有 23738
舍@@ 23734
上海@@ 23732
两天 23725
插@@ 23718
成千上万 23714
表征 23714
尾@@ 23713
纷纷 23711
患有 23709
失效 23706
底部 23706
篮球 23706
单个 23699
还记得 23698
颁发 23697
丢失 23695
劲 23691
旗 23690
北京@@ 23688
想说 23687
已知 23686
琴 23675
微型 23667
除外 23667
原油 23661
看不到 23658
7.@@ 23656
敬 23656
惠 23655
茨@@ 23649
帐 23647
节约 23642
／ 23642
日志 23639
解雇 23638
笔者 23631
美妙 23627
波斯尼亚和黑塞哥维那 23626
市场经济 23620
幼儿 23605
抢 23603
报名 23603
加深 23601
克莱@@ 23599
巴士 23597
球场 23593
中国大陆 23592
本月 23586
拜 23584
大国 23579
首长 23574
电视台 23562
不公平 23554
坡 23554
施行 23554
假定 23553
臭 23542
英国人 23541
西藏 23539
幼儿园 23523
恒 23521
呃 23516
肠@@ 23516
治@@ 23514
陷 23513
凝胶 23511
奈@@ 23510
随@@ 23498
艇 23496
智@@ 23493
就让 23491
新疆 23487
微观 23485
第一步 23483
电气 23479
然@@ 23476
西南 23475
无聊 23468
走廊 23466
实习 23463
奉献 23461
等你 23458
平安 23445
肝@@ 23442
破裂 23435
罢 23435
子弹 23426
痛@@ 23418
填写 23417
我的心 23417
11日 23414
周三 23410
一带 23409
涨 23409
管理层 23406
规章 23404
场@@ 23402
莫斯科 23402
魔法 23400
决赛 23396
充 23385
鉴别 23371
手法 23365
8年 23362
步伐 23361
报复 23359
6年 23356
运算 23352
窝 23351
守则 23350
坦@@ 23349
杀伤 23348
寒冷 23338
报价 23336
瘦 23326
轮胎 23325
售 23322
谷@@ 23310
al 23307
浅析 23303
佐@@ 23288
分辨率 23288
论@@ 23287
剪 23279
挤 23274
金融@@ 23272
温柔 23263
期刊 23259
CP 23257
– 23245
净化 23244
挖 23227
索引 23225
口袋 23221
阿塞拜疆 23217
分布式 23214
一阵 23208
真的吗 23206
录像 23205
豪@@ 23203
迷人 23203
动荡 23202
创始人 23201
清醒 23195
幼@@ 23169
一点点 23164
电梯 23160
利息 23150
检讨 23149
签字 23145
改良 23143
宜 23139
浅@@ 23133
算@@ 23125
绘制 23125
示例 23122
升@@ 23120
干部 23118
硕士 23116
星期四 23112
广义 23111
1997年@@ 23109
砸 23105
治愈 23096
股权 23096
损 23095
岸 23090
更具 23088
配方 23088
预订 23086
= 23085
林业 23079
学期 23077
年前 23075
二维 23066
成因 23060
深处 23056
浪 23054
姿态 23052
3000 23043
上个月 23042
沉 23040
供水 23034
十七 23028
近似 23027
一头 23005
挂@@ 23004
近东 22999
默认 22999
会计准则 22996
律 22994
刑 22990
象@@ 22987
优于 22983
累积 22977
相信我 22976
计@@ 22974
名词 22973
狮子 22965
免@@ 22953
手臂 22950
几分钟 22949
形容 22948
球迷 22940
外汇 22939
斯里兰卡 22939
逊 22939
海水 22936
繁殖 22924
胃@@ 22914
妮@@ 22911
单击 22910
晚饭 22907
9.@@ 22880
船上 22874
开口 22869
硅@@ 22868
流入 22863
经社 22859
职业@@ 22853
笑@@ 22851
拉·@@ 22833
间隔 22832
毫不 22829
染色 22826
光线 22822
盆 22822
凶手 22821
一刻 22814
论证 22811
多重 22807
缓冲 22806
as 22789
粉丝 22789
灯光 22787
指望 22782
行政@@ 22777
祖@@ 22763
宾@@ 22762
徐@@ 22761
钾 22760
讲@@ 22758
均有 22757
感动 22753
伤亡 22745
吃惊 22740
都@@ 22740
几百 22738
写信 22733
罕见 22725
7年 22719
浮 22718
击败 22713
望@@ 22708
该死 22703
雇佣 22699
果实 22695
告@@ 22692
辞 22689
佳@@ 22687
英寸 22684
手上 22679
用水 22678
陆地 22671
朵 22668
罩 22666
亲密 22664
尴尬 22663
院长 22661
弃 22659
后代 22658
好朋友 22656
争 22654
裁判 22648
苗 22646
苦难 22640
繁多 22632
树立 22628
所致 22625
统筹 22624
间@@ 22622
档 22620
地层 22615
集会 22613
青春 22612
本着 22610
联赛 22610
迈@@ 22609
射@@ 22608
源自 22608
6月@@ 22604
否定 22603
朗 22603
80@@ 22600
输送 22593
免 22587
查阅 22587
职@@ 22586
众所周知 22585
促 22574
预见 22573
大致 22570
推理 22566
队长 22563
尘 22562
详情 22549
笑话 22545
大街 22540
莎@@ 22540
天上 22539
熟练 22530
珍贵 22525
健身 22524
树林 22523
预报 22514
肩 22513
闹 22506
填充 22501
尺 22496
数千 22490
尤为 22487
钢琴 22485
250 22483
拖@@ 22480
舒服 22479
佛教 22478
集@@ 22476
印发 22475
扇 22474
实话 22467
残留 22465
组@@ 22461
配件 22459
数字化 22454
进出口 22453
十二@@ 22451
乙@@ 22448
荣@@ 22448
欣 22446
种群 22444
衬衫 22442
岛@@ 22441
带上 22437
储@@ 22436
相机 22436
呼 22435
怒 22434
穿越 22429
美国总统 22423
危地马拉 22421
教导 22420
片@@ 22413
外交部 22408
精英 22405
上网 22404
触@@ 22399
加沙 22389
分成 22388
变为 22388
营造 22387
心态 22382
陌生人 22380
眼泪 22366
外来 22364
横向 22353
公斤 22352
竟 22344
离散 22343
李 22341
肯@@ 22337
饲料 22337
蒸汽 22333
印@@ 22331
脑袋 22327
逃避 22324
倾听 22316
价@@ 22314
外交部长 22313
一眼 22312
胶囊 22306
磁场 22300
没问题 22297
够了 22294
最后一个 22294
报导 22288
追溯 22282
2017年 22277
建筑@@ 22276
东盟 22274
构 22274
徒 22273
戈 22266
匈牙利 22264
趟 22263
必@@ 22262
共和 22254
探究 22242
替换 22242
遣返 22238
6日 22236
马克 22221
问责制 22218
激@@ 22209
存活 22207
积@@ 22202
霜 22190
冰箱 22173
休 22167
屈@@ 22163
猎@@ 22149
10月@@ 22143
家乡 22138
泥@@ 22136
今 22121
廉价 22119
白俄罗斯 22096
批判 22095
努@@ 22094
斜@@ 22094
感谢你 22092
善良 22087
来讲 22084
离职 22079
医@@ 22075
PS 22071
毒素 22069
6个月 22056
谎言 22056
葛@@ 22054
不同于 22049
墨@@ 22049
滤波器 22042
开办 22033
眼中 22029
中美 22025
提问 22023
鲜@@ 22023
叠 22017
种@@ 22017
1.5 22014
少量 22014
放大 22005
概算 22003
好看 21999
败 21978
习 21972
冒@@ 21970
凡@@ 21969
滤@@ 21965
官@@ 21964
拒 21961
兵@@ 21956
人性 21951
平行 21944
副本 21942
超市 21935
邪恶 21934
前来 21932
厄瓜多尔 21931
隐@@ 21931
汗 21929
招 21923
歌@@ 21923
撒谎 21919
称作 21917
浅谈 21915
当下 21914
晶@@ 21913
烤@@ 21911
困惑 21910
废弃 21906
说说 21904
犹太 21902
闪@@ 21901
吻合 21899
寒 21898
武 21897
陪伴 21891
构想 21889
装配 21886
育 21884
起飞 21884
偶然 21877
高峰 21877
人事 21868
特遣队 21867
一流 21866
布鲁@@ 21860
旋 21859
安全问题 21858
电阻 21854
近日 21852
量子 21852
历 21851
刀@@ 21846
增殖 21841
姐妹 21838
汤@@ 21838
珍惜 21833
骨头 21833
附@@ 21824
x@@ 21818
扭转 21807
纯@@ 21802
赤@@ 21800
筹集 21796
致使 21795
延@@ 21791
状@@ 21790
乡@@ 21789
船长 21787
2.5 21784
机械@@ 21783
判处 21782
大厅 21774
保险公司 21772
二者 21765
你说的 21759
月二十@@ 21759
轻武器 21759
刻@@ 21756
遗@@ 21755
排雷 21752
瞬间 21744
饱和 21741
提倡 21732
评定 21729
缴纳 21721
乘坐 21719
等我 21719
海底 21716
遥远 21711
慷慨 21708
自由@@ 21702
明亮 21699
4日 21695
通货膨胀 21694
澳洲 21671
监 21671
汇@@ 21667
通胀 21667
猛@@ 21665
并@@ 21663
肌@@ 21661
传媒 21650
流感 21646
朝着 21627
月球 21626
想像 21623
府 21621
参议员 21620
尽早 21618
氨酸 21614
天才 21612
频道 21612
充@@ 21610
曾@@ 21610
总经理 21603
外资 21592
电磁 21585
电网 21584
一会 21577
人身 21574
大豆 21566
军官 21565
灭绝 21564
8.@@ 21560
简介 21560
首席执行官 21557
复兴 21550
隆@@ 21548
诱惑 21542
处理器 21539
议案 21535
可否 21531
参赛 21527
转交 21526
植入 21522
血压 21521
负@@ 21515
幽默 21514
军人 21506
不锈 21498
无线电 21498
竹@@ 21479
疟疾 21474
摸 21472
一个@@ 21471
发电机 21471
孤立 21471
男朋友 21467
下一步 21466
祭 21466
睡着 21459
柄 21456
奎@@ 21453
可再生能源 21451
铺@@ 21451
时限 21448
好人 21447
腺 21440
前任 21427
被@@ 21427
流动性 21425
拜访 21424
应由 21421
赚钱 21421
司长 21418
平稳 21417
就@@ 21414
舞@@ 21411
城堡 21409
以致 21406
领导者 21406
三角 21404
增长率 21402
亨利 21401
重叠 21401
分组 21394
发给 21392
缓 21386
受过 21385
29@@ 21383
画家 21382
不好意思 21368
漫@@ 21366
诊所 21363
北约 21362
股@@ 21361
劳 21360
组分 21357
焊 21348
镍 21348
步行 21345
诸 21343
小女孩 21332
中医 21317
欧美 21310
加载 21304
可惜 21298
政治权利 21295
服从 21293
端@@ 21292
四周 21284
高血压 21281
街@@ 21276
战场 21275
沙特阿拉伯 21270
2014 21269
难度 21266
忧虑 21262
匹 21261
镜子 21260
瓜 21253
e@@ 21241
奖学金 21239
留给 21237
定罪 21223
闻名 21220
无力 21217
想着 21216
星期三 21210
乘@@ 21208
厘米 21205
宁愿 21204
摇 21188
未知 21184
海域 21184
出台 21180
问@@ 21174
万亿 21162
得分 21161
会面 21159
教材 21159
残忍 21159
特有 21155
讲座 21144
绝不 21141
箱子 21138
前所未有 21136
民用 21122
界限 21122
摊款 21120
滤波 21116
呼@@ 21108
伤口 21106
阻力 21104
永 21098
自决 21089
称赞 21088
免受 21087
玻璃@@ 21086
岁月 21085
圆形 21063
灯@@ 21063
天津 21057
势头 21046
待@@ 21044
性价比 21044
麦 21036
泄漏 21033
夹@@ 21032
被动 21022
指挥官 21018
腹@@ 21017
深远 21016
荷 21011
神话 21009
审批 21006
坝 21005
社会保障 21003
散步 21002
缺失 20995
过后 20995
克拉@@ 20994
全文 20989
1996 20982
翅膀 20981
谋 20979
鸭 20976
兽 20972
倾斜 20971
着@@ 20971
散射 20970
挑 20965
两家 20964
扭曲 20964
童年 20962
焦@@ 20958
娶 20957
摄入 20954
妥协 20947
魔 20944
旋@@ 20930
校正 20928
委内瑞拉 20925
大自然 20919
矿山 20919
贩卖 20918
怀 20917
该法 20911
年后 20910
动词 20906
隐私 20901
临 20900
会不会 20885
发作 20880
突 20879
17日 20875
平时 20874
押 20869
干细胞 20865
藻 20865
参 20863
裂纹 20862
急剧 20861
主机 20845
核定 20844
调试 20844
紧紧 20843
养护 20839
楼梯 20839
一度 20838
虚 20836
礼@@ 20834
小男孩 20831
虎@@ 20831
乃至 20830
指向 20822
to 20818
团@@ 20814
概括 20810
搬到 20809
卡尔@@ 20808
新华社 20801
弄@@ 20799
创@@ 20797
表达式 20796
马里 20789
内阁 20786
性感 20785
最快 20784
中都 20779
冻 20773
问问 20773
历@@ 20768
摩西 20765
赵@@ 20765
创造力 20764
轨迹 20761
抗原 20756
情景 20755
职业生涯 20746
焦 20743
头部 20740
政府机构 20737
自我@@ 20737
心脏病 20735
绒 20734
扫@@ 20732
哈萨克斯坦 20730
构件 20727
当初 20720
放射 20717
决@@ 20716
en 20707
多媒体 20705
坐标 20699
脖子 20698
误解 20698
既是 20695
益处 20694
治安 20693
约翰·@@ 20691
地狱 20687
铭记 20687
逆 20648
溴 20645
川@@ 20644
帅 20643
栽培 20628
演示 20628
覆 20623
跌 20616
恒@@ 20607
桃@@ 20602
营业 20593
法人 20590
草地 20590
总监 20587
赶紧 20585
保险@@ 20584
医师 20582
史密斯 20580
昨日 20579
还给 20575
较多 20567
做成 20566
在意 20554
液压 20554
共计 20552
我也是 20547
锦@@ 20547
创造性 20545
气味 20542
无意 20538
实物 20535
太阳@@ 20520
缴 20519
精密 20518
靶 20518
报警 20513
缸 20506
只好 20503
哈利 20498
沙发 20497
旅游@@ 20495
借@@ 20492
统计数据 20491
壮@@ 20490
有关部门 20471
买方 20464
AP 20461
客户端 20461
先后 20458
军方 20456
辉煌 20450
弟兄 20447
版权 20446
本科 20443
仇恨 20441
戒指 20439
跑步 20438
鹿 20433
凭借 20432
我方 20431
110 20430
脑子 20422
火山 20421
杭州 20419
消 20411
约翰@@ 20411
小于 20410
逃离 20407
饮 20404
载荷 20402
1991年 20401
级@@ 20394
副@@ 20393
垄断 20390
欲@@ 20375
行驶 20367
农业@@ 20360
年间 20360
脚本 20352
复活 20348
尿 20347
肝脏 20347
复原 20344
刑罚 20340
书记 20339
词语 20339
IC 20333
妥善 20327
com 20324
证@@ 20324
群@@ 20317
放心 20315
赤字 20315
爷爷 20298
记载 20297
再度 20293
抵押 20292
晚@@ 20291
放入 20289
萃取 20282
献 20281
近代 20276
激进 20275
瓣 20275
鹰 20274
拿走 20271
制剂 20270
霉素 20268
图表 20263
牛肉 20263
邦@@ 20253
收拾 20252
飞行员 20248
合法性 20243
主观 20237
雄@@ 20232
遥感 20231
饼干 20228
侵蚀 20218
一看 20217
定向 20212
悬@@ 20210
生殖 20210
公报 20208
脏 20208
听我说 20207
水质 20207
号@@ 20205
煤矿 20201
倾@@ 20198
初探 20197
的人 20190
化疗 20187
镇@@ 20187
券 20182
问道 20182
潜@@ 20181
市政 20178
执政 20170
短信 20167
荷@@ 20162
一向 20161
格雷@@ 20160
荣 20159
米兰 20155
赞美 20143
占@@ 20136
1994 20134
举例 20124
我明白 20121
现@@ 20114
反正 20106
终@@ 20105
攻@@ 20103
运气 20096
署长 20093
两岸 20091
水域 20086
销售@@ 20084
斑@@ 20068
核实 20065
℃ 20063
国内生产总值 20059
直线 20057
㈡ 20052
此刻 20049
正交 20046
哪怕 20044
哈哈 20042
讽刺 20041
等候 20039
折扣 20037
战术 20034
暖 20029
烹饪 20029
寻@@ 20027
数码 20026
停车 20011
开拓 20009
射击 20004
单身 19997
a@@ 19990
证件 19987
夜间 19984
抢劫 19982
遏制 19980
传动 19972
亚美尼亚 19971
显现 19968
卫 19967
人文 19965
那时候 19962
指明 19961
丰@@ 19955
两倍 19953
郑@@ 19952
谘询 19950
高管 19948
通风 19947
横 19932
带回 19929
邮票 19929
普京 19923
相位 19921
Facebook 19914
氧化@@ 19913
禁令 19909
火星 19904
中午 19903
通往 19903
泉 19896
备@@ 19894
录音 19892
第一@@ 19892
引渡 19890
爱我 19887
累@@ 19887
基督徒 19876
东欧 19870
排序 19867
放缓 19867
健@@ 19863
逾 19863
小波 19858
拥挤 19855
抑郁 19854
便@@ 19851
宽度 19851
世界各国 19850
到期 19847
氨基酸 19842
四川 19840
收敛 19840
物料 19839
打败 19837
炎症 19837
获胜 19836
远销 19835
伤@@ 19832
处决 19830
定为 19828
并无 19828
预备 19824
某事 19823
中华 19822
姓 19817
裤子 19817
冬@@ 19809
跨国公司 19809
12月 19803
10日 19790
专辑 19790
住所 19790
加纳 19790
同性恋 19784
人民@@ 19781
大城市 19777
澳门 19775
策 19762
编号 19759
控件 19758
家庭成员 19756
文化@@ 19754
一辈子 19747
他@@ 19747
炸 19745
走路 19739
月24日 19738
秋天 19738
初次 19737
买家 19732
厕所 19730
泽 19726
900 19722
使@@ 19716
灌注 19704
住宿 19700
伏 19688
耗 19672
纺织 19670
身材 19667
前途 19666
参议院 19666
空军 19663
滚 19660
生涯 19652
捕 19643
止@@ 19641
加固 19636
简便 19631
称@@ 19628
聚焦 19628
原型 19625
剥削 19624
销量 19624
有名 19623
惹 19620
殖民地 19612
管理@@ 19612
挣扎 19610
协 19608
对面 19598
判定 19596
救@@ 19596
性状 19585
刚@@ 19583
减缓 19580
操 19580
铝@@ 19579
㈠ 19576
市区 19576
寻常 19572
芬@@ 19571
控@@ 19568
腰@@ 19567
探险 19564
雄 19564
1993年@@ 19561
乌 19555
书写 19551
兴起 19550
复发 19548
学历 19545
孕妇 19541
融 19541
诚信 19540
生产@@ 19539
故@@ 19536
生态@@ 19534
残酷 19530
8日 19528
测@@ 19527
纱 19520
样式 19508
斗@@ 19505
蒙古 19505
看见了 19496
三天 19493
j 19486
有毒 19485
1997 19482
减肥 19480
色素 19474
惨@@ 19471
纪 19468
采纳 19468
9年 19459
中国经济 19457
有钱 19454
撰写 19453
西班牙语 19452
违约 19451
财政部 19444
都市 19435
醉 19435
虾 19433
援引 19431
玩@@ 19429
传染病 19426
切换 19425
莲 19425
优越 19421
信息化 19419
评分 19411
机票 19410
辱 19410
00@@ 19408
序 19404
从此 19396
挡 19396
克里@@ 19392
感冒 19392
钩 19387
灌 19386
脚步 19382
裙子 19380
两只 19377
抛 19369
起点 19368
镁 19368
类似于 19366
放电 19353
胞 19353
涂@@ 19351
审评 19350
赴 19345
穴 19344
再一次 19341
好吃 19339
不肯 19337
中非 19336
并购 19336
人均 19329
样@@ 19329
国家安全 19328
不准 19327
国际化 19326
重庆 19322
变迁 19319
不舒服 19316
经贸 19313
试论 19310
召 19307
鼓@@ 19306
法例 19302
分手 19300
院@@ 19292
裤 19291
勤 19282
福音 19282
世界卫生组织 19272
捕捉 19272
man 19266
好玩 19262
最爱 19256
割 19255
伪 19253
采矿 19252
舌 19251
搜寻 19246
兔子 19245
也门 19243
一再 19236
顶级 19234
信誉 19233
回事 19230
胁迫 19228
撤离 19224
国家机构 19219
迭代 19219
问责 19213
受损 19212
固@@ 19209
审视 19194
终结 19193
缩@@ 19191
天哪 19190
名人 19189
有序 19180
死者 19179
注定 19179
宫@@ 19177
游行 19172
组装 19171
尼克 19169
塔利班 19168
椅 19167
薪水 19166
肖@@ 19164
绝缘 19160
力求 19157
箭 19156
法则 19154
见解 19149
涉嫌 19148
读@@ 19145
特区 19142
残 19141
外语 19140
奖金 19138
斯基 19135
禁@@ 19129
许@@ 19126
指纹 19125
助@@ 19122
分段 19119
东亚 19117
掌 19117
访 19112
预后 19109
12日 19102
磷酸 19101
肌肤 19095
穿@@ 19091
好评 19087
说谎 19077
外表 19075
准入 19073
猜测 19072
著作 19072
II 19070
分析法 19070
一期 19068
演@@ 19068
高频 19068
小子 19064
拍@@ 19064
机密 19064
笑容 19064
城市@@ 19060
成都 19060
辅导 19055
晚期 19054
坦 19053
轮廓 19050
社会组织 19049
轻微 19047
猪@@ 19045
舞会 19040
哥斯达黎加 19037
高端 19037
净@@ 19035
一时 19032
近来 19032
六十 19030
时空 19030
滩 19022
植 19017
杀手 19008
有你 19006
以免 18994
肚子 18991
虚假 18986
预言 18980
存放 18979
差点 18976
197@@ 18971
詹姆斯 18969
搅拌 18964
经合 18952
选材 18950
内皮 18947
南京 18942
无比 18941
一个小时 18940
拉斯 18937
包围 18936
举动 18932
育@@ 18927
抗生素 18924
耐@@ 18914
顺便 18903
必定 18902
做事 18898
工业@@ 18898
圆满 18896
申@@ 18895
午饭 18894
原文 18893
大臣 18891
威尔 18889
礼拜 18885
谋@@ 18884
GB 18876
凉 18876
善于 18874
血浆 18874
y@@ 18873
皇帝 18864
梯度 18863
民兵 18863
恶心 18858
外套 18854
移@@ 18854
简报 18851
结算 18849
城里 18845
列举 18842
凯 18822
层@@ 18821
国别 18818
杆菌 18814
70@@ 18810
氟@@ 18803
动物园 18800
字符串 18798
赛事 18785
科学技术 18784
马尔@@ 18784
乐器 18780
抢@@ 18767
村@@ 18765
大道 18761
政府部门 18760
生计 18758
世界经济 18756
章程 18755
立体 18750
少于 18747
194@@ 18745
智 18731
四处 18727
京都议定书 18726
紫色 18726
即时 18723
1995 18719
骂 18715
势@@ 18712
充电 18699
祖先 18691
法制 18690
黎 18683
拆 18682
全局 18681
甜@@ 18675
过敏 18674
怪@@ 18672
地形 18670
春节 18669
下午@@ 18665
猴子 18665
逃跑 18665
欧元区 18656
崛起 18655
孟加拉国 18654
信赖 18649
无害 18649
痕 18649
嘲笑 18647
你不知道 18645
命@@ 18644
2016年@@ 18641
吩咐 18641
片段 18641
星期六 18640
概况 18638
杂交 18637
重构 18635
剧@@ 18632
嫉妒 18632
微小 18628
启@@ 18626
微信 18619
轿车 18618
课@@ 18617
海盗 18613
福特 18613
垂@@ 18612
痕迹 18610
候 18609
买到 18607
风险管理 18607
才@@ 18603
郡 18602
厚@@ 18597
教徒 18597
源@@ 18595
工作原理 18585
敲 18584
播@@ 18578
转动 18573
奶酪 18571
查找 18571
公安 18568
截面 18563
醚 18555
定性 18553
统计学 18549
帕 18548
掩盖 18546
阵列 18546
ID 18544
云南 18544
保加利亚 18544
资@@ 18536
定理 18533
加重 18532
at 18530
荷载 18530
巨头 18529
出门 18528
us 18522
垂 18522
珠宝 18519
铸 18517
辛 18516
吸取 18512
当成 18511
爱人 18510
地基 18507
矢量 18507
扰 18503
修饰 18501
固有 18501
务@@ 18494
遗留 18492
下雨 18488
敬@@ 18487
洁净 18477
z@@ 18476
锡@@ 18476
握 18472
征求 18471
厂商 18467
惊奇 18464
洲 18454
示@@ 18453
地中海 18451
窄 18449
儿@@ 18445
30年 18442
卖方 18438
or 18431
买@@ 18426
锋 18426
年12月@@ 18425
一分钟 18423
193@@ 18421
管理者 18414
大学@@ 18413
液@@ 18411
环境@@ 18407
往@@ 18402
突尼斯 18400
信件 18396
新增 18396
陶@@ 18395
乃是 18388
深受 18388
水准 18387
等一下 18383
9月@@ 18378
艺术@@ 18377
触发 18373
电器 18370
乌拉圭 18367
国家元首 18366
抵 18363
丢了 18362
刊 18362
有望 18360
付@@ 18357
优@@ 18356
稍微 18353
含水 18351
否决 18339
殿 18332
浸 18327
误@@ 18326
剪切 18321
一句话 18319
建构 18318
蜂@@ 18318
琼斯 18315
不明 18307
想你 18305
熟@@ 18305
重力 18303
地毯 18298
沃尔@@ 18291
行程 18291
埃 18284
潘@@ 18283
水面 18282
骑士 18281
现任 18279
吞@@ 18278
苷 18277
身心 18277
粮 18274
浙江 18272
日后 18268
自治区 18268
分量 18266
20日 18263
弦 18263
限@@ 18263
第一章 18260
中亚 18254
炒 18250
南南合作 18247
伯特 18242
圣灵 18236
氢@@ 18236
血糖 18236
西岸 18235
辣 18231
顾 18229
整天 18227
安娜 18226
柱@@ 18222
分担 18220
气温 18205
签发 18205
起床 18200
棉@@ 18195
氧@@ 18194
不可以 18193
研 18193
监@@ 18187
导师 18184
信托 18183
站起来 18183
老化 18171
尼亚@@ 18163
益@@ 18156
芬 18156
历史@@ 18153
妊娠 18151
灌溉 18136
顶部 18136
供电 18135
摩托车 18134
货运 18134
宿舍 18127
口味 18126
磁盘 18122
仓 18120
影子 18114
每一天 18114
驱 18114
寻 18111
喔 18107
底下 18106
环境问题 18106
过时 18104
论点 18101
掌控 18094
民族@@ 18094
棕色 18087
布里@@ 18086
竹 18084
二级 18082
简短 18080
这块 18067
2015年@@ 18061
仇 18060
迈克 18058
刮 18057
惊 18057
捍卫 18052
应以 18051
男生 18051
抵制 18048
薄@@ 18038
柔软 18030
多哈 18027
Al 18026
伞 18026
花钱 18026
斯坦 18023
劝 18022
警务 18018
宽@@ 18017
农药 18011
纵@@ 18010
禁运 18009
尔德 18008
下周 18006
湿@@ 18003
ar 18002
看电视 18000
剧院 17991
小时候 17984
柳@@ 17982
资本主义 17979
一事 17978
一枚 17977
` 17973
振@@ 17972
真菌 17971
塑性 17965
俗 17963
将@@ 17960
中止 17955
老虎 17953
染料 17952
平常 17948
习近平 17947
按摩 17947
拉伸 17946
宽带 17941
必将 17941
坏@@ 17938
胆 17937
燃 17935
业界 17926
悠久 17926
洁 17922
出版社 17919
捕获 17919
先知 17911
收养 17907
强奸 17906
未成年人 17903
货币政策 17902
巧 17899
极度 17890
宽容 17886
接种 17884
核算 17879
染色体 17877
罢工 17873
归纳 17871
感应 17866
住@@ 17864
90@@ 17863
听众 17861
鲜 17857
比起 17851
快捷 17845
标本 17843
户外 17838
艰苦 17836
慢@@ 17834
偏差 17832
往来 17832
鲜明 17832
大使馆 17828
不易 17827
肩膀 17826
贝尔 17825
泡@@ 17813
逆@@ 17811
植被 17799
去哪里 17797
狄@@ 17796
新闻@@ 17791
独 17791
济@@ 17789
园@@ 17786
四十 17784
走私 17781
沉淀 17778
水下 17767
膜@@ 17764
合伙人 17761
弱点 17760
气息 17760
详尽 17760
既定 17756
弓 17754
让@@ 17754
月十@@ 17748
闭@@ 17739
南海 17737
青年人 17737
降临 17733
面板 17733
挤压 17725
公共汽车 17723
在床上 17717
原先 17716
每一次 17713
出租 17708
开来 17708
启用 17706
雕塑 17704
淡 17703
社会福利 17703
效能 17700
兑 17699
锁@@ 17698
乍得 17697
临界 17694
v@@ 17693
手表 17692
评审 17691
不可思议 17690
主持人 17682
振兴 17680
AS 17678
互补 17677
难以置信 17676
马丁 17676
恶性 17675
熔 17665
房价 17664
阻塞 17661
丸 17658
少女 17651
恶魔 17651
相连 17648
薄弱 17648
即@@ 17646
聘用 17646
繁@@ 17644
口语 17639
显微 17634
柏林 17634
世贸组织 17631
淘汰 17631
魔鬼 17629
最长 17628
it 17627
钱包 17627
追究 17621
赞 17619
坐下 17614
衫 17611
转递 17607
冲动 17606
老爸 17601
阿拉@@ 17601
儿童权利公约 17592
卡尔 17592
传奇 17591
阴 17586
肠道 17579
叶子 17575
女友 17572
好象 17570
味@@ 17568
脑海 17562
湾@@ 17561
照射 17555
童@@ 17554
摇@@ 17548
迎@@ 17547
斯塔@@ 17546
手套 17539
扣@@ 17539
基质 17535
粉末 17534
时常 17533
第一天 17532
服务业 17530
递交 17527
下述 17525
电动 17525
桑 17519
橄榄 17519
130 17518
凸 17514
变压器 17507
热烈 17507
社团 17505
剩 17504
胜@@ 17504
政治家 17503
Windows 17502
法学 17501
发票 17497
吵 17497
情况报告 17497
世人 17489
前者 17486
印尼 17483
起初 17482
直觉 17475
银行业 17474
姿势 17471
傻 17469
键盘 17466
一次性 17450
纪@@ 17448
路面 17448
事儿 17439
采样 17439
工作室 17438
背叛 17438
工作经验 17433
色谱 17433
降@@ 17431
伸出 17428
每人 17426
岭 17424
轻轻 17424
上方 17421
管理员 17421
阿里巴巴 17407
105 17406
撤出 17406
递 17406
常会 17405
季@@ 17404
宝石 17398
iPhone 17396
外出 17396
延误 17395
派@@ 17382
床上 17381
评级 17381
奶油 17373
商场 17371
30日 17369
扯 17369
独一无二 17368
娘 17362
嫁给 17361
法律援助 17356
海湾 17356
加紧 17354
体面 17351
肺癌 17351
恋爱 17350
间谍 17350
狼@@ 17347
歌唱 17346
浴 17345
瓜@@ 17344
怪物 17338
领空 17337
登录 17336
特异性 17330
谋求 17327
戒 17326
章节 17325
臭氧 17322
湿地 17319
显而易见 17317
凝 17315
洗钱 17310
瑟 17309
可疑 17306
车子 17304
监护 17303
点钟 17301
邓@@ 17299
时至 17298
析 17296
冰岛 17291
心肌 17291
浓@@ 17291
国防部 17289
浴室 17288
棉花 17283
SA 17280
意识形态 17279
胡 17278
劳动@@ 17275
娅 17270
老是 17268
总线 17267
陌生 17266
铃 17265
声誉 17264
备份 17258
入手 17257
保养 17254
胎儿 17249
秦@@ 17247
庄 17243
切断 17237
文物 17237
墨 17236
弹簧 17234
穷 17233
添加剂 17232
多糖 17230
登上 17227
异议 17225
蛋@@ 17219
浓缩 17215
高专 17215
吉姆 17211
化学武器 17204
直流 17203
行政部门 17202
无视 17199
泪 17197
艾 17193
交际 17188
反抗 17187
宏 17186
特质 17185
转子 17184
施政 17182
预料 17182
茜 17179
煽动 17174
好莱坞 17162
男女平等 17162
天生 17161
am 17160
间隙 17158
降至 17158
1995年@@ 17153
狗@@ 17152
张力 17151
强壮 17150
研究员 17150
三国 17140
发音 17138
这话 17136
此举 17134
推翻 17133
倒是 17129
葬 17127
司法部 17117
嫩 17115
从业 17113
堵 17109
姆·@@ 17109
革 17101
主教 17095
棚 17095
购置 17093
闪 17091
接入 17089
幼 17088
我一直在 17088
左边 17086
你的@@ 17083
破碎 17082
董事长 17081
不可或缺 17080
议 17079
追随 17077
聚类 17075
贵族 17075
遗传算法 17073
人选 17066
完@@ 17066
沥青 17062
维度 17056
贯穿 17056
出租车 17055
宋@@ 17055
俄国 17051
输@@ 17051
3D 17050
亲戚 17050
屏 17046
抵消 17046
盲 17046
返 17044
听听 17041
身后 17041
留意 17040
辞@@ 17038
纵向 17036
鸟类 17031
技 17027
助手 17024
冰淇淋 17021
经济效益 17020
并用 17015
盟 17013
前期 17007
钛 17000
字段 16998
铀 16998
宁静 16995
骨髓 16995
伪造 16992
山脉 16986
锁定 16986
乙醇 16985
情人 16982
泰勒 16977
新娘 16975
特使 16974
邮政 16973
金融市场 16973
子孙 16971
关怀 16968
服务员 16964
各界 16961
获益 16957
身份证 16957
代理人 16955
奶@@ 16950
徒@@ 16948
美术 16948
语句 16946
避@@ 16946
几@@ 16943
探测器 16942
韩 16942
司@@ 16938
认@@ 16935
引领 16932
骚扰 16928
196@@ 16927
死后 16927
开创 16925
秋 16911
考核 16911
铸造 16909
f@@ 16906
美军 16903
创办 16902
军备 16899
利物浦 16897
公立 16894
城市化 16878
宣告 16877
生产线 16876
也应 16872
解剖 16872
贵@@ 16867
不动 16866
咽 16861
挫折 16858
恶意 16856
物业 16855
漏洞 16853
寺 16850
尔顿 16845
亚马逊 16843
回头 16842
京@@ 16841
优化设计 16839
古典 16837
家庭@@ 16836
按时 16836
派出 16830
榜样 16826
谅解 16825
ST 16823
透@@ 16819
美金 16812
同类 16811
下放 16804
晚会 16803
氧气 16796
溶@@ 16791
质量控制 16791
暂行 16790
铬 16790
亲属 16788
又要 16787
半岛 16781
留言 16781
短语 16777
迈克尔 16775
吸入 16772
点燃 16772
稍后 16769
望远镜 16768
信徒 16766
飓风 16765
分级 16764
联合国大会 16757
格尔 16751
烃 16750
生动 16747
踩 16747
辛苦 16742
汀 16739
肿 16733
识 16733
等离子体 16729
仙 16728
棒球 16726
分层 16725
革新 16724
尾巴 16720
畸形 16714
断层 16713
外包 16706
尝 16705
差@@ 16704
简历 16703
玩耍 16700
民主主义 16699
城乡 16696
伸 16694
伏@@ 16693
准@@ 16692
晓@@ 16681
右边 16677
祭司 16670
郊区 16670
学费 16667
实务 16667
曲面 16666
君 16663
开枪 16662
人工智能 16660
制药 16659
最少 16659
占用 16656
优美 16654
皇@@ 16654
危及 16652
均可 16648
攻 16646
偿 16643
注视 16643
潜能 16643
SS 16642
一日 16636
泛 16633
冷战 16624
泛@@ 16616
捷克共和国 16609
装修 16609
被害 16605
叙事 16604
留下来 16604
芽 16603
智能手机 16601
摔 16600
中立 16597
斯坦@@ 16595
同在 16584
污@@ 16584
伟 16583
拆除 16583
测验 16578
听力 16577
等人 16574
一整天 16572
分泌 16571
大事 16562
月27日 16558
乙 16557
炭 16556
钟@@ 16556
音频 16551
放射性 16550
债务人 16548
IBM 16547
型号 16542
机动 16540
感恩 16534
坦克 16529
拳 16529
汉堡 16528
打扮 16527
触 16525
集群 16524
牙买加 16519
塞内加尔 16517
斯洛伐克 16515
教学@@ 16512
险@@ 16512
理事 16507
压迫 16505
诚@@ 16496
州长 16495
查理 16494
罪恶 16494
布莱@@ 16493
降落 16484
电位 16481
保卫 16480
跨界 16478
硫@@ 16474
征服 16470
糖果 16468
争@@ 16467
资深 16467
年内 16466
半导体 16465
硬化 16460
截@@ 16459
信通 16451
音乐会 16451
不说 16450
届时 16448
同伴 16447
建筑师 16446
鸣 16445
延期 16444
六年 16442
β 16438
氨 16438
BP 16432
养殖 16428
运动@@ 16428
宾馆 16422
光滑 16420
感恩节 16417
国际法庭 16413
生化 16413
蒸发 16411
柏@@ 16401
混合物 16401
车间 16396
互@@ 16392
190@@ 16385
不远 16383
营养不良 16382
渔@@ 16381
de 16379
胚胎 16379
诊 16378
遗忘 16377
睡@@ 16373
劳动者 16368
订@@ 16368
中非共和国 16364
用地 16364
世界杯 16360
旧金山 16357
双向 16352
昆@@ 16352
上限 16351
坚实 16348
发病率 16344
雨水 16335
同胞 16334
里程碑 16334
缺@@ 16331
胳膊 16331
天下 16328
邻近 16327
宿 16325
日记 16317
减弱 16316
非凡 16316
带动 16310
粗糙 16309
阿尔巴尼亚 16307
PA 16304
筋 16304
充当 16302
庆 16302
撑 16301
恒星 16299
卡塔尔 16296
继@@ 16296
期货 16291
化学@@ 16289
绿色@@ 16289
庆@@ 16288
诱发 16288
不容 16287
亏损 16285
勃@@ 16284
酸性 16283
硬币 16282
宴会 16281
备忘录 16279
上床 16278
连贯 16278
粮食安全 16275
水库 16270
杰克逊 16268
减免 16265
群落 16256
营@@ 16256
大象 16251
七年 16248
流失 16248
鞋@@ 16248
运营商 16239
据此 16238
延 16236
缺损 16235
特许 16231
准许 16228
悬浮 16225
高尔夫 16223
卡片 16221
警报 16218
孕 16217
迎来 16216
叉 16214
纳税人 16211
多长 16210
看电影 16209
里约 16208
推测 16202
咨询服务 16199
增添 16195
学业 16191
渗 16184
表述 16184
烧结 16182
聆听 16178
奖项 16177
拿起 16177
全方位 16176
乎 16175
财务@@ 16174
今@@ 16173
吸顶灯 16168
防守 16167
平原 16165
抚养 16164
大赛 16163
萨尔瓦多 16156
法律@@ 16153
警卫 16152
配额 16150
烷 16149
娜@@ 16144
终点 16144
党派 16141
视力 16140
跑到 16140
废@@ 16139
措辞 16137
目睹 16136
回避 16135
深信 16132
赶上 16130
口译 16122
艾滋 16121
典礼 16120
伯格 16118
信用证 16110
宾 16106
百分点 16103
交易所 16099
咬@@ 16097
12个月 16096
个性化 16095
疏@@ 16090
2W 16088
口腔 16088
填@@ 16085
服务@@ 16080
多层 16077
消毒 16072
厨师 16071
统 16071
番 16070
眼光 16064
订购 16063
妻 16060
景象 16060
村民 16055
炉@@ 16054
TA 16053
我想知道 16052
蒙特利尔 16043
房产 16042
丧生 16037
难民营 16036
愈合 16032
阶级 16031
付诸 16030
新产品 16028
2017年@@ 16026
塑 16023
编列 16013
哀@@ 16011
万物 16008
零售商 16006
夺 15999
沙滩 15998
稀土 15998
所属行业 15996
拼 15996
海啸 15995
过高 15992
分娩 15989
增至 15987
物理@@ 15986
１ 15983
1993 15982
了不起 15980
卖给 15980
与众不同 15973
威尔@@ 15971
国产 15970
旗@@ 15970
精致 15969
马克思 15969
小孩子 15967
30W 15964
真好 15961
经由 15960
持@@ 15956
上校 15952
詹@@ 15949
了@@ 15947
犹大 15942
次序 15939
二战 15935
有机@@ 15935
犯人 15935
容纳 15934
好友 15933
AR 15931
巴塞尔 15931
暖@@ 15929
世界贸易组织 15928
荡 15925
劳动力市场 15923
归还 15923
衰老 15921
科技@@ 15919
桂@@ 15915
在前 15913
姐 15912
mm 15911
按@@ 15909
眼神 15903
混沌 15895
座@@ 15892
膝 15891
彭@@ 15889
手下 15889
新建 15888
悄悄 15887
烦 15887
猴 15887
艺术品 15886
仰@@ 15885
显微镜 15883
区内 15876
含@@ 15872
服饰 15865
投影 15863
电动机 15861
矿床 15860
品尝 15859
经济危机 15857
截 15852
马克思主义 15851
料@@ 15849
制服 15842
乙烯 15841
携手 15835
切尔西 15834
选票 15830
厌恶 15829
孤@@ 15829
交货 15828
下令 15819
土豆 15817
童 15815
福祉 15814
美女 15813
贪@@ 15810
黛@@ 15807
宣@@ 15805
探析 15803
弱势 15802
就是我 15799
吊 15794
停车场 15787
不予 15785
我们的@@ 15784
参见 15780
雇 15778
蜡烛 15777
与否 15771
忽然 15771
吞 15770
搭@@ 15769
核能 15768
FC 15766
病情 15766
卷入 15765
高科技 15763
内战 15755
北极 15752
MA 15748
CA 15743
胡子 15743
DP 15740
天地 15740
儿童@@ 15732
山羊 15732
留学 15731
集装箱 15728
菲尔德 15723
燃油 15711
门徒 15706
梯 15702
饮用水 15697
想念 15695
烯 15694
休假 15689
仁@@ 15688
享 15685
仙@@ 15683
为人 15681
BA 15680
辈 15680
矮 15678
驶@@ 15678
140 15675
排队 15674
膝盖 15674
排水 15672
政客 15671
看似 15668
万一 15666
低估 15661
束缚 15659
2015 15657
玛丽@@ 15656
弗兰克 15652
副作用 15648
研究院 15642
产品质量 15639
置@@ 15637
局@@ 15635
整整 15632
GPS 15628
180 15623
使者 15623
偶像 15621
灭@@ 15620
警惕 15618
微博 15606
巡@@ 15605
协@@ 15602
滴@@ 15602
德尔 15595
分辨 15593
评判 15593
进球 15593
奔 15591
and 15586
相遇 15585
草原 15585
忠实 15583
奔@@ 15582
溶解 15581
国际刑事法院 15575
桃 15571
把手 15568
CC 15567
油价 15565
食品@@ 15564
企 15563
健 15562
墓 15561
称呼 15561
争吵 15557
珍@@ 15556
仍旧 15552
钻井 15545
去哪儿 15534
地下水 15534
城区 15533
弯@@ 15527
写下 15523
多余 15523
地表 15521
轴@@ 15518
辉 15517
全国各地 15511
4000 15509
洗澡 15508
刚好 15506
深层 15505
居留 15503
经营者 15500
激 15499
始于 15496
恰恰 15496
织 15496
客厅 15493
广东省 15479
刊登 15476
早日 15476
单片机 15475
用量 15472
途中 15472
均@@ 15469
两周 15459
彼@@ 15458
别墅 15457
阈值 15454
阀门 15453
细胞@@ 15445
仍未 15442
该部 15442
穷@@ 15440
前沿 15435
电容 15435
胰岛素 15431
牢 15427
闪烁 15421
秀@@ 15420
应为 15419
夸@@ 15418
饱 15417
预约 15412
南北 15410
摄像机 15409
团伙 15406
腾 15406
我的生活 15404
波长 15402
侦查 15401
国际货币基金组织 15397
滑雪 15397
审讯 15388
日趋 15387
理智 15381
侵权 15380
郎 15380
全年 15379
回合 15377
商学院 15375
0年@@ 15370
计算机@@ 15366
金牌 15366
一倍 15363
Al@@ 15362
奇妙 15362
妇@@ 15362
女孩子 15358
挥发 15353
尼加拉瓜 15349
顾@@ 15347
贬值 15346
玻利维亚 15344
Google 15343
凉@@ 15343
肺炎 15343
仿 15330
母语 15325
雕刻 15324
SP 15323
限定 15323
商业@@ 15322
邻 15321
弱势群体 15320
会计@@ 15318
顾及 15318
南亚 15316
招标 15311
锚 15311
刚度 15306
津巴布韦 15304
割@@ 15302
拼@@ 15299
作证 15296
谅解备忘录 15295
小狗 15290
老实 15289
不相信 15286
奇异 15285
摄影师 15281
簿 15281
深感 15277
卵 15275
凶@@ 15270
不懈 15268
科学@@ 15268
嘉宾 15267
向下 15263
唱@@ 15259
泄露 15258
丝毫 15256
床@@ 15254
检@@ 15254
搞定 15253
失误 15252
坐落 15251
打断 15251
腹部 15246
摆@@ 15245
盟友 15243
避开 15243
娃娃 15241
商会 15235
演说 15233
培训班 15232
仪表 15230
留学生 15229
抹 15225
候@@ 15223
花朵 15222
氧化物 15221
电视节目 15221
洞@@ 15215
言论自由 15213
功效 15212
网址 15205
偏离 15201
无情 15199
一个女人 15198
古怪 15196
15日 15195
DC 15194
统@@ 15190
巢 15186
瓶@@ 15183
电厂 15183
| 15181
加油 15177
会费 15176
祝愿 15175
巨 15174
向量 15170
涌 15168
藤 15166
乔治@@ 15162
卡拉@@ 15158
没用 15154
浪@@ 15154
总局 15145
民警 15145
陷阱 15145
面部 15145
20世纪@@ 15142
站@@ 15142
良 15141
旅途 15139
小区 15134
本条 15134
偶@@ 15131
接头 15130
二十三 15129
侮辱 15129
迈出 15129
区@@ 15126
产妇 15125
至@@ 15124
真心 15122
勇@@ 15117
区间 15116
那一刻 15115
重重 15113
低下 15111
何处 15111
备受 15110
无所@@ 15110
侧@@ 15108
捕捞 15106
碎@@ 15103
髓 15097
等效 15093
网球 15092
责 15089
比重 15084
撞击 15081
我愿意 15080
山东 15074
模特 15068
计数 15067
溜 15066
若是 15063
金色 15058
转到 15054
香蕉 15054
嵌入 15053
税率 15052
无须 15051
闲@@ 15051
曼谷 15045
讯息 15044
抓@@ 15043
技术转让 15042
检察 15040
沉降 15036
el 15024
文件夹 15024
唑 15021
充实 15018
肩@@ 15018
怒@@ 15017
格里@@ 15015
搜集 15012
厂家 15010
中小型 15007
恐慌 15007
末@@ 15007
获奖 15006
败@@ 15006
强硬 15004
全家 14999
凯特 14999
估值 14994
抽烟 14994
杯子 14989
段落 14985
公共卫生 14983
星期天 14980
皇 14979
心理@@ 14978
露出 14975
一点儿 14965
岛上 14961
判@@ 14956
释@@ 14956
盘子 14955
搜查 14949
靠@@ 14948
简洁 14946
好运 14942
爆破 14941
保管 14940
SP@@ 14939
波斯尼亚 14936
省份 14936
仔 14929
暴 14923
承运人 14920
砂@@ 14919
罪名 14912
船员 14912
线程 14910
争夺 14908
几率 14904
开门 14902
受访 14900
寂寞 14899
华尔街 14896
冷冻 14895
现今 14895
享用 14894
我们@@ 14893
瘦@@ 14892
马车 14892
三十@@ 14891
前言 14891
布兰@@ 14885
无知 14883
公用 14880
帧 14878
滤 14878
下游 14872
赶@@ 14869
忍 14866
有事 14866
中小 14865
精细 14862
喜剧 14860
培 14859
急需 14859
清晨 14859
不曾 14857
工作时间 14856
毛里求斯 14856
唱片 14847
甜蜜 14847
牵@@ 14846
狐狸 14846
墙壁 14844
客房 14843
侵入 14842
稀@@ 14841
指称 14834
192@@ 14832
15年 14827
曝光 14826
赌 14824
警察局 14823
动手 14820
猫@@ 14819
诸@@ 14814
基本法 14813
诠释 14812
麦克 14810
驳回 14809
眼里 14808
医疗服务 14805
AS@@ 14804
柔性 14802
而去 14801
电话号码 14787
1500 14786
从小 14786
连同 14786
疯 14785
山上 14783
代数 14778
斯顿 14777
悬挂 14776
托管 14775
立陶宛 14775
调研 14775
庄@@ 14774
境界 14772
兆 14770
下属 14768
下车 14768
传真 14767
常数 14764
缓存 14763
160 14762
陆 14762
传承 14760
超级@@ 14751
浓 14749
不等 14748
吕@@ 14745
以防 14740
果汁 14734
α 14731
答@@ 14730
峰值 14727
斯科@@ 14722
孟@@ 14718
击中 14716
求职 14716
址 14713
WTO 14712
用药 14711
冠@@ 14710
天天 14707
葬礼 14700
众议院 14698
活化 14698
离去 14698
时钟 14697
娃 14696
幽@@ 14696
拔@@ 14696
以南 14693
鼠标 14693
撤回 14691
原材料 14690
忍@@ 14689
挣 14687
囊@@ 14683
富人 14682
圣诞老人 14677
月2日 14674
反弹 14671
四分之一 14671
蜡 14669
尊 14668
不已 14665
国债 14663
自觉 14663
说来 14663
谈@@ 14663
织@@ 14655
越过 14654
评@@ 14652
丑 14646
决不 14645
定律 14641
合作社 14640
希尔 14640
o@@ 14633
关上 14633
返@@ 14628
光电 14624
放大器 14624
迁 14621
爱心 14620
申 14620
崇高 14618
几内亚 14613
显@@ 14611
硬度 14611
可视化 14610
每位 14606
挽救 14605
博弈 14604
锥 14600
兼容 14596
题@@ 14594
经纪人 14591
参阅 14590
突@@ 14589
展出 14586
布鲁塞尔 14585
容@@ 14581
自发 14581
政府首脑 14580
帝@@ 14576
停下 14570
蝴蝶 14569
马克@@ 14569
涅@@ 14568
激光器 14568
童工 14568
路线图 14562
氯化@@ 14561
赖 14561
忙碌 14559
历程 14554
祖父 14554
致辞 14553
一两 14552
黑客 14551
公共服务 14550
烈 14550
斯洛文尼亚 14544
洒 14543
树枝 14540
计划生育 14536
凋亡 14534
一来 14532
萎缩 14528
楼上 14527
抬 14526
枝@@ 14517
勤@@ 14516
年会 14516
板块 14512
红十字 14512
郭@@ 14510
舆论 14509
纯化 14506
陈 14505
脾气 14500
蒸@@ 14500
水源 14498
香味 14498
相符 14497
喀麦隆 14496
开辟 14496
壁@@ 14494
坚@@ 14492
多达 14492
弥@@ 14492
亲人 14490
用到 14489
头痛 14487
卫生部 14481
政治@@ 14480
格斯 14480
迈 14478
车队 14477
乃 14475
一个男人 14474
0.01 14473
卢 14472
吐@@ 14472
pH 14471
赞比亚 14471
想象力 14470
省级 14470
坊 14469
会话 14467
36@@ 14466
匠 14464
弗雷@@ 14461
中外 14458
国有企业 14457
三明治 14454
开头 14450
阴谋 14449
违@@ 14448
容许 14447
苯@@ 14446
期权 14440
面具 14436
队列 14435
街区 14433
累计 14429
语境 14427
绑 14425
动用 14421
艾伦 14412
邻@@ 14411
波特 14409
发掘 14408
役 14407
利亚@@ 14400
用语 14399
流变 14392
腐@@ 14391
厌倦 14389
嘴里 14388
结核 14388
告别 14385
给定 14385
蒙特@@ 14385
质量@@ 14385
分公司 14382
度量 14379
犹如 14379
大桥 14378
飞船 14377
我的名字 14375
新颖 14374
甚@@ 14373
儿女 14369
附带 14369
收益率 14368
盗@@ 14368
弟 14356
路由 14356
SC 14352
蓬勃 14351
限额 14351
鞭@@ 14349
剧本 14346
菌@@ 14344
价钱 14343
导出 14342
荒@@ 14342
祖母 14340
101 14338
在外 14338
沙拉 14337
氨@@ 14334
尽头 14331
香烟 14330
疑 14328
蜜蜂 14322
规矩 14318
天主 14316
销售额 14316
毁坏 14315
帝 14308
访谈 14308
人质 14307
几内亚比绍 14307
无线@@ 14305
大笑 14301
榜 14300
纹@@ 14298
醋 14298
不利于 14296
兑换 14296
先天 14283
加沙地带 14283
联想 14274
0.5 14273
精简 14273
搭档 14272
当做 14270
苗@@ 14261
不怕 14258
始@@ 14258
ST@@ 14253
优异 14252
大韩民国 14250
汉字 14249
新一代 14248
哥们 14246
适@@ 14244
回国 14242
环绕 14242
健康@@ 14240
德里@@ 14238
好转 14231
不时 14229
le 14228
长城 14228
航运 14226
双眼 14223
立足 14223
溢 14220
碱@@ 14220
广西 14214
良心 14211
砖@@ 14208
风味 14207
牌照 14205
帐篷 14203
方言 14201
丑闻 14199
融化 14199
子宫 14197
紧缩 14196
僵局 14195
平方 14192
化妆品 14191
打扫 14191
分列 14186
GC 14180
修补 14180
鲜花 14179
农产品 14173
笔记 14172
辩 14172
饲养 14172
昏@@ 14170
华丽 14166
损耗 14166
身为 14164
泪@@ 14159
拍照 14157
名誉 14155
严 14154
舟 14151
繁忙 14144
水解 14142
液相 14142
穗 14140
宜@@ 14137
掺 14133
无可 14133
大不列颠及北爱尔兰联合王国 14130
漫画 14129
热水 14129
业余 14127
后裔 14127
颇 14126
传导 14124
肢 14123
压制 14121
制动 14119
医疗保健 14115
晕 14115
狂热 14113
魏@@ 14113
贿赂 14112
人民代表大会 14111
出资 14105
餐@@ 14103
亲切 14100
喜欢你 14100
笼 14099
做完 14096
总督 14095
捕鱼 14090
嵌入式 14089
唐 14083
准时 14082
导管 14082
星系 14079
扶持 14078
下方 14074
屋@@ 14074
货车 14073
跃@@ 14073
酰胺 14073
读取 14068
脊 14066
鸟儿 14062
波士顿 14059
冯@@ 14058
多家 14056
旁@@ 14050
狗狗 14049
联网 14049
首选 14045
打死 14040
疯子 14037
完毕 14032
拟合 14031
灌@@ 14030
行径 14028
察 14026
水文 14025
扶@@ 14024
求助 14024
灿烂 14022
获@@ 14022
保护@@ 14021
日报 14019
昌@@ 14017
礼品 14017
w@@ 14014
民意 14014
珀@@ 14013
闭嘴 14011
密钥 14001
草稿 14001
产品@@ 13999
撞@@ 13999
不许 13995
研@@ 13992
番茄 13987
呼叫 13983
唇 13982
俄@@ 13978
伊丽莎白 13977
格拉@@ 13975
陛下 13975
回想 13972
词典 13971
u@@ 13970
景色 13969
酵母 13966
图象 13964
格林 13960
藉 13959
2016 13956
碧@@ 13955
实证研究 13954
吉他 13951
扭 13946
接管 13942
遥@@ 13937
兴建 13933
坚固 13933
梨 13932
把@@ 13931
卖淫 13928
走开 13927
姜@@ 13924
皮革 13924
编译 13924
12.@@ 13923
嘴唇 13922
崭新 13920
公益 13915
奴 13914
塞族 13913
大麻 13913
尚@@ 13913
黑山 13907
深切 13905
禁毒 13899
欣@@ 13895
登陆 13894
导入 13893
专项 13891
证词 13888
孤儿 13885
盲目 13884
狮 13883
第三@@ 13882
就职 13879
你是谁 13876
约翰逊 13873
戒@@ 13866
光芒 13865
赶快 13864
伍@@ 13862
诉诸 13862
丛 13861
续@@ 13859
葡萄@@ 13859
远处 13859
20世纪 13858
na 13858
毫 13858
玩笑 13858
剖析 13857
蜜 13856
双语 13851
2020年 13850
姿 13847
衍射 13847
鲨鱼 13847
过剩 13846
批@@ 13843
炸药 13843
悲惨 13842
一共 13841
化石 13840
马德里 13837
哈佛 13836
胚 13836
添 13831
借贷 13830
静止 13826
导电 13823
洛克 13823
100@@ 13822
新兴市场 13822
舰 13820
AC@@ 13817
百年 13813
酸钠 13807
链@@ 13807
悲@@ 13804
电荷 13804
残余 13803
中美洲 13798
脂@@ 13798
曼联 13797
润 13797
筹 13795
该文 13795
勾@@ 13793
升起 13793
衬@@ 13790
巴拉@@ 13788
耕地 13784
海峡 13781
取出 13779
基因组 13772
救灾 13772
敏捷 13771
男友 13771
下班 13770
春季 13769
视网膜 13767
中华@@ 13766
偏远 13766
底层 13763
灵敏度 13761
随访 13756
格林@@ 13755
对立 13754
名声 13752
户@@ 13752
楚@@ 13750
胆固醇 13749
作法 13746
执照 13746
矩 13746
PCR 13744
里斯 13744
国务卿 13742
陆军 13741
技术支持 13740
汇款 13740
不法 13736
钓鱼 13735
阐释 13735
传感 13733
纸张 13730
量表 13728
增生 13727
问候 13727
安妮 13725
石化 13722
指派 13721
奋@@ 13716
互利 13713
泉@@ 13713
小儿 13712
得益 13711
卓@@ 13709
养老金 13698
军火 13697
外籍 13694
显示器 13690
组织结构 13689
蜜@@ 13687
岗 13686
购@@ 13686
马拉@@ 13684
10.@@ 13683
AM 13682
念@@ 13682
牌@@ 13682
气球 13680
愿景 13678
验@@ 13675
增值 13674
DS 13671
观光 13671
奥尔@@ 13670
变性 13669
本能 13667
Ti 13662
男士 13661
个个 13660
衷心 13656
附上 13653
打印机 13647
疾@@ 13642
十几 13640
贷 13639
汽 13637
给@@ 13637
那一天 13635
195@@ 13634
俗@@ 13630
哮喘 13630
彻@@ 13628
绳子 13623
舌头 13622
征税 13621
屑 13620
水晶 13618
特里@@ 13617
固化 13615
行人 13615
阵线 13615
巴拿马 13613
静电 13606
年初 13605
热门 13604
注射液 13603
行政管理 13602
骗子 13602
先决 13601
不及 13600
兑现 13600
敬畏 13598
AR@@ 13596
自私 13594
气流 13593
递@@ 13593
John 13592
自动@@ 13591
羽毛 13588
陪审团 13586
承 13585
莫桑比克 13585
礼服 13582
二十五 13576
联合国总部 13576
软骨 13574
销@@ 13574
我需要你 13572
一线 13571
日本人 13570
牲畜 13565
反过来 13564
鲸 13564
SQL 13561
主要内容 13560
想出 13558
极具 13558
稳步 13557
直观 13555
错过了 13555
壮 13550
纹理 13549
大笔 13547
材质 13547
阿拉伯国家 13543
本体 13536
福德 13536
柴油 13535
月25日 13530
国家政策 13527
序言 13525
罗伯特 13524
呐 13522
直播 13522
小伙子 13520
细致 13520
二十四 13517
骨骼 13517
ta 13516
山谷 13514
置换 13514
空气污染 13513
爱沙尼亚 13511
棘手 13510
缓和 13510
兼顾 13508
引人注目 13506
情愿 13506
班级 13499
马耳他 13494
这首歌 13493
编织 13491
堆@@ 13489
来访 13489
褐色 13489
昌 13488
恐龙 13487
炼@@ 13486
谜 13486
人间 13485
微妙 13485
阻@@ 13485
宽恕 13481
迁@@ 13481
牵 13467
尼·@@ 13466
起步 13464
女神 13461
桌面 13456
一侧 13453
软弱 13453
多于 13449
妹 13448
中性 13446
团聚 13445
11.@@ 13439
大体 13435
钻@@ 13434
为本 13432
外贸 13432
圆桌会议 13430
3个月 13427
生境 13427
艰巨 13427
老兄 13426
帆 13425
结尾 13424
逃@@ 13424
发展方向 13423
冥想 13422
草坪 13421
脊髓 13416
风机 13416
我在这里 13415
教育部 13415
饮用 13410
晋升 13409
肝癌 13408
公顷 13407
幻@@ 13407
爬@@ 13405
挤@@ 13403
整套 13403
生产能力 13401
耍 13396
精美 13395
血症 13393
字体 13391
抑郁症 13390
树上 13388
没了 13388
瓶子 13386
听从 13385
转身 13384
这就是我 13384
个人@@ 13381
痒 13380
普查 13378
扑@@ 13376
堕胎 13372
恐吓 13372
内政 13371
The 13370
新闻发布会 13370
幸存者 13369
办事 13368
发型 13367
戏@@ 13367
沙特 13367
驱动器 13366
猪肉 13362
潜 13354
假日 13351
脸@@ 13350
盆@@ 13349
无机 13346
坟墓 13345
资本市场 13343
杨 13341
系统设计 13338
缩减 13334
简易 13328
1988年 13321
相等 13321
墙@@ 13320
团长 13319
海报 13316
互助 13313
IL 13311
茶叶 13311
快要 13310
难忘 13309
丰 13307
天主教 13305
盖茨 13302
湖泊 13301
举报 13299
月21日 13294
日程 13290
务实 13289
震动 13289
回返 13286
朴 13285
赠款 13280
匿名 13276
民主@@ 13276
楼宇 13275
屁股 13273
溃疡 13273
西方国家 13272
书店 13262
分工 13262
盼望 13260
1989年 13259
肘 13257
诚 13256
介@@ 13252
推销 13249
耗@@ 13249
巧妙 13248
追逐 13248
渡@@ 13247
隐瞒 13244
院子 13243
一手 13241
富含 13240
袭 13238
外壳 13233
机床 13233
孤单 13232
几千 13229
中风 13227
开发银行 13227
中央银行 13226
友善 13226
晒 13226
游览 13225
电视@@ 13223
精灵 13223
在路上 13220
堂@@ 13218
筑 13217
全权 13216
取向 13215
高档 13215
外空 13214
插件 13213
角膜 13213
劣 13212
瓷 13211
二百 13209
102 13208
折叠 13206
CEO 13204
触摸 13203
无条件 13199
肉体 13199
售价 13197
律法 13197
滨@@ 13196
八年 13194
爷 13192
ES@@ 13190
起码 13189
培@@ 13187
拓扑 13183
生命周期 13183
浸@@ 13180
抑 13176
江苏 13172
蚂蚁 13172
转运 13170
野生动物 13168
钢管 13167
带宽 13165
笑声 13165
扣除 13163
不在乎 13160
巨人 13160
AT 13159
奖@@ 13159
海拔 13158
功夫 13155
蜘蛛 13151
酷@@ 13146
万圣节 13145
流传 13145
规@@ 13142
裂变 13139
弧 13137
营运 13135
人造 13132
拉脱维亚 13130
赶到 13129
维斯 13128
钢板 13128
淋@@ 13123
概要 13122
机体 13120
申明 13120
醛 13116
众@@ 13114
心理学家 13113
验 13113
时间@@ 13111
青蛙 13108
备用 13106
伟@@ 13097
铝合金 13097
紫外 13095
国际关系 13093
经销商 13092
簇 13091
招待 13090
不顾 13088
厄@@ 13087
日历 13087
聘请 13085
109 13084
浏览器 13083
上传 13082
崔@@ 13082
抛@@ 13082
谐波 13078
园林 13077
国情 13075
进出 13074
临近 13072
莎士比亚 13070
各样 13066
相干 13064
塑@@ 13060
辊 13054
浩@@ 13052
永不 13050
但愿 13046
生活@@ 13045
出名 13041
亭 13040
成品 13039
裙 13038
用法 13037
军事@@ 13036
辣椒 13036
餐桌 13036
CS 13029
装有 13028
湖南 13022
手动 13020
改动 13020
清算 13020
切削 13018
the 13017
交道 13017
壶 13015
多孔 13011
淡水 13011
合资 13008
气质 13008
注释 13008
服@@ 13005
像素 13004
扩@@ 13003
搜索引擎 13003
办公@@ 13002
不堪 13001
渡 12995
秋季 12993
思念 12991
终身 12988
蜂蜜 12988
忘@@ 12986
车上 12986
桌上 12982
孙 12981
覆@@ 12981
鸣@@ 12981
北京市 12980
土地@@ 12979
画廊 12978
谷物 12976
定型 12974
屈服 12972
电视机 12968
电话@@ 12967
奥林匹克 12965
撕@@ 12965
检疫 12964
国民经济 12963
糊 12962
腾@@ 12962
豪 12957
逢 12956
揭露 12952
火车站 12950
描写 12946
矿业 12941
就读 12940
口号 12938
前方 12936
我要你 12933
约合 12929
罪@@ 12927
关掉 12926
司法@@ 12926
欢呼 12926
任用 12922
自定义 12922
释 12921
那场 12919
祥 12918
Java 12914
菌株 12914
资本@@ 12914
擦@@ 12913
粘@@ 12913
推断 12911
农田 12906
复方 12905
SR 12902
世卫组织 12901
巨额 12899
海运 12898
锰 12898
武汉 12896
健康状况 12893
撒哈拉 12888
社@@ 12888
恩典 12884
上司 12880
胜任 12875
十字架 12873
坦白 12872
缘故 12871
侠 12869
小额 12869
广告@@ 12869
互联 12863
掌@@ 12862
无家可归 12861
偏好 12860
夸张 12860
一万 12858
赖@@ 12857
始 12856
抚@@ 12855
召唤 12852
公务 12850
妙@@ 12849
重金属 12846
多功能 12843
ad 12842
战役 12842
DB 12839
我愿 12839
磁性 12836
秒钟 12836
维亚 12834
无人机 12833
解散 12832
圆柱 12829
甲烷 12828
更@@ 12827
子公司 12826
业内 12824
二元 12822
尖叫 12822
哥本哈根 12820
共产党 12819
夜里 12819
净额 12817
污泥 12815
研讨 12815
外形 12813
GIS 12812
咳嗽 12811
未曾 12811
动摇 12810
雅各 12810
倘若 12809
违规 12807
拳@@ 12804
开发商 12803
租@@ 12803
经济衰退 12803
搭建 12797
滑动 12796
物流@@ 12794
斯德哥尔摩 12791
沈@@ 12791
5年@@ 12789
锐@@ 12789
加倍 12788
委任 12787
典@@ 12785
器材 12785
诅咒 12785
颠覆 12785
推移 12782
堤 12781
6000 12778
夏威夷 12777
电视剧 12775
来过 12773
妙 12770
空运 12770
台阶 12767
剧烈 12766
22@@ 12765
尔曼 12765
着陆 12764
烫 12763
1990年@@ 12755
斯克 12755
开端 12754
伪@@ 12752
指着 12751
波形 12744
潜水 12744
股份有限公司 12744
债权 12743
研所 12742
过滤器 12741
125 12740
一起来 12740
订阅 12736
柴@@ 12731
希拉里 12730
1.2 12729
端口 12728
沿岸 12727
q 12723
用心 12723
眠 12721
竞技 12721
枯@@ 12720
蔡@@ 12715
华人 12714
年份 12714
爽 12714
账单 12713
脆 12712
加利福尼亚 12711
棍 12711
外长 12710
弗兰@@ 12707
综 12707
屋里 12706
绅士 12703
基石 12702
斯蒂@@ 12701
粘度 12701
通告 12701
木头 12698
珍 12697
w 12696
京 12695
首位 12691
树叶 12687
演习 12686
做饭 12685
穷国 12685
犹豫 12684
铁矿 12684
垫@@ 12681
增速 12680
属@@ 12679
坯 12678
自制 12677
程式 12674
像@@ 12673
〕 12670
尽情 12670
窑 12670
工序 12667
专业化 12665
身体健康 12665
浪费时间 12663
弗里@@ 12661
外在 12657
知晓 12655
开列 12654
外商 12653
雕像 12652
肥@@ 12649
润滑 12648
栖息 12644
国旗 12639
锤 12639
遍布 12638
三方 12637
公共政策 12636
潮湿 12636
抽样 12633
绞@@ 12632
阅 12631
科目 12628
愉悦 12626
傻瓜 12625
扩 12623
付费 12622
熊@@ 12618
音乐@@ 12618
病因 12617
放开 12616
汲取 12616
摄像头 12610
威廉@@ 12608
处以 12604
伍德 12603
专长 12602
早上好 12602
电磁@@ 12602
迷失 12601
肝炎 12600
加权 12599
努力工作 12598
电影@@ 12598
芳 12596
紫 12594
你的名字 12593
跟进 12593
毛病 12592
西欧 12590
唤醒 12587
免遭 12584
金斯 12574
用尽 12571
民航 12570
伸@@ 12568
本局 12568
不结盟运动 12567
时装 12567
枪支 12563
智能@@ 12562
个子 12561
淹没 12554
篮 12552
35@@ 12551
入住 12550
器@@ 12550
矩形 12548
叫@@ 12547
滞后 12546
维奇 12544
举止 12542
炸@@ 12539
敞开 12538
面孔 12537
刀具 12534
赏@@ 12527
两侧 12525
处方 12525
电解 12522
缺口 12522
特拉@@ 12521
老朋友 12519
阻挡 12514
三百 12513
室外 12513
比喻 12513
尔特 12506
喉 12505
旅费 12504
公司@@ 12502
出行 12502
责备 12501
磷@@ 12498
@ 12495
况 12494
霸@@ 12489
缴款 12486
贪婪 12486
拆@@ 12483
昂@@ 12483
血栓 12478
除去 12477
丹尼尔 12476
半径 12476
蒸 12476
下落 12475
大家庭 12473
纺 12470
一身 12469
怜悯 12468
雷斯 12464
财 12462
OS 12459
硫酸 12457
国度 12456
〔 12455
重型 12453
烈@@ 12452
相爱 12451
一封信 12450
埃尔@@ 12450
烧伤 12450
字典 12449
获利 12449
焊@@ 12448
甘 12447
牢固 12446
解答 12446
爱国 12439
堵塞 12436
挺好 12434
倾 12431
刮@@ 12431
熵 12431
各州 12430
雅虎 12430
兽@@ 12429
勤奋 12429
正直 12428
美术馆 12423
轰炸 12420
送交 12419
卖掉 12416
学说 12416
追加 12416
199@@ 12415
副总统 12415
敏@@ 12413
老公 12413
小朋友 12412
养成 12410
鸟@@ 12410
尼斯 12409
规程 12408
医学@@ 12403
爪 12403
山顶 12401
让步 12401
鸡肉 12399
亲吻 12398
逐@@ 12396
品味 12395
吃掉 12388
己@@ 12388
附录 12388
本案 12385
现存 12384
实效 12380
流血 12380
3.5 12379
总务 12378
飘 12369
济 12361
观赏 12361
碟 12360
总能 12356
奈 12353
学年 12349
安定 12348
EC 12346
家务 12346
态势 12346
毕@@ 12344
早点 12343
略@@ 12343
电讯 12340
辨识 12340
照会 12337
恩·@@ 12335
良性 12335
旺@@ 12334
屏蔽 12333
联检 12333
免除 12332
哭@@ 12332
暴雨 12332
应收 12329
摘 12326
星期日 12325
牵头 12325
产能 12324
体力 12324
霉 12324
沟@@ 12322
竞@@ 12320
魂 12320
2017 12317
奥斯卡 12315
柴油机 12314
身处 12313
喷射 12312
羟基 12312
出示 12311
乐园 12310
RNA 12309
克里斯@@ 12308
右手 12308
公务员制度 12306
洞穴 12305
遮@@ 12300
强加 12298
顶尖 12298
丛林 12297
礼仪 12297
巴林 12296
柏 12294
等同 12292
MRI 12289
数据处理 12289
亮@@ 12288
增设 12284
寄@@ 12283
衰减 12283
珍珠 12282
光源 12279
承办 12278
遵照 12277
连锁 12275
卧@@ 12274
屠杀 12273
预示 12267
处@@ 12265
替代品 12263
氨基 12263
洁@@ 12263
原告 12261
共振 12256
DA 12255
模态 12254
到位 12253
经受 12253
队友 12253
起始 12250
卵巢 12249
日渐 12248
收音机 12245
串@@ 12244
念头 12244
身旁 12243
悟 12240
逊@@ 12239
大片 12238
哈里@@ 12235
平板 12234
涌@@ 12232
锯 12232
辈子 12231
半数 12229
牵引 12228
野兽 12227
票据 12226
中产阶级 12224
贼 12223
证券@@ 12222
青岛 12222
宗@@ 12221
牧@@ 12221
处长 12220
氯化 12219
短短 12219
防卫 12219
录取 12217
习@@ 12216
克劳@@ 12214
坡@@ 12212
身高 12210
逃脱 12209
满意度 12208
亲眼 12206
闪电 12206
索取 12203
首领 12203
视线 12201
林肯 12196
转速 12196
os 12194
部委 12194
雕 12194
白血病 12187
陪同 12185
肉类 12183
午夜 12180
旋律 12179
泪水 12178
尸 12176
上级 12174
那段 12167
园区 12166
琴@@ 12166
湿度 12165
AD@@ 12164
胜过 12164
MP 12161
污 12161
受力 12159
医学院 12152
普通人 12152
高原 12152
引力 12151
邮政编码 12151
青睐 12149
线条 12146
结石 12146
族群 12145
通行 12143
熔@@ 12142
祈求 12142
技术@@ 12140
卡特 12139
构@@ 12137
昂 12136
维多利亚 12133
系@@ 12131
罗马@@ 12131
并发 12127
感官 12127
长江 12126
通话 12124
扶 12121
披@@ 12121
米勒 12116
效用 12113
斯托@@ 12111
砍 12111
在职 12109
奥斯@@ 12109
航线 12108
肾脏 12106
逝 12104
受益人 12103
抬头 12101
104 12100
热处理 12095
惹@@ 12094
赌博 12091
雀@@ 12088
叙 12084
条纹 12081
组织@@ 12081
威士忌 12079
艾米 12078
潜艇 12072
缘@@ 12071
源头 12069
烟雾 12069
父@@ 12065
看成 12065
www 12063
电力系统 12063
淋巴细胞 12060
友@@ 12058
喝@@ 12058
翅 12057
五百 12052
和谐社会 12052
数据@@ 12049
伊斯兰教 12048
商务@@ 12047
关押 12046
卫星@@ 12046
特工 12042
犯有 12042
中国共产党 12041
塘 12040
中欧 12038
瀑布 12038
成功@@ 12037
难得 12037
录@@ 12035
悬 12031
上演 12028
中央政府 12028
礁 12027
数学@@ 12023
清新 12021
趋 12019
催@@ 12018
态@@ 12017
掉@@ 12017
SD 12014
亲近 12014
芳香 12012
绑定 12010
2003@@ 12008
羊毛 12008
范例 12007
０ 12006
PLC 12002
献给 12000
偷偷 11997
掺杂 11996
乐于 11993
控告 11992
十足 11991
边坡 11991
学习@@ 11988
韵 11987
㈢ 11986
气动 11986
凝固 11984
挂钩 11983
阻尼 11982
飞往 11982
限期 11980
我们之间 11978
餐饮 11978
行列 11977
原发性 11976
晕@@ 11976
颜@@ 11976
内核 11969
客商 11964
鼠@@ 11964
前行 11963
单体 11962
百度 11961
循 11960
灌木 11960
投机 11959
漏@@ 11959
盟约 11957
错@@ 11957
铵 11952
香料 11952
偷走 11951
向导 11951
逼近 11950
交易@@ 11948
免疫@@ 11947
月3日 11947
活泼 11947
相容 11947
植物@@ 11945
幕@@ 11944
踏 11943
拉斯@@ 11941
起伏 11940
光栅 11937
碘 11935
册子 11934
项目管理 11934
同盟 11933
隐喻 11932
嘉 11930
核对 11930
燕@@ 11930
盈余 11929
小偷 11928
椭圆 11927
塞尔 11926
猎人 11926
造就 11925
缴付 11921
悲观 11918
法律文书 11916
有形 11910
适度 11910
逆转 11908
里·@@ 11908
铅@@ 11907
凶 11904
宏观经济 11904
着眼于 11901
暑假 11899
热衷 11897
纺织品 11897
老龄 11897
根除 11895
寡@@ 11894
三级 11893
控股 11892
无形 11891
结构设计 11890
差分 11889
牛排 11889
芳@@ 11881
MC 11880
布基纳法索 11880
致病 11878
不难 11876
认出 11876
微量 11875
服务中心 11874
1992 11873
平凡 11872
患儿 11871
流利 11871
贵方 11871
108 11870
新人 11870
主角 11869
线圈 11869
亚当 11868
350 11866
宣誓 11866
籽 11864
伍 11862
午@@ 11862
闸 11862
医疗保险 11860
批量 11859
暴风雨 11859
今早 11858
烦@@ 11856
晨@@ 11855
触及 11850
手机@@ 11849
/@@ 11847
袋子 11847
增益 11846
稳态 11839
粉碎 11836
防水 11833
冻@@ 11831
亨@@ 11830
审慎 11830
常任理事国 11826
稳@@ 11826
颜料 11826
扰动 11825
察觉 11824
程@@ 11823
坏事 11821
沿@@ 11819
拱@@ 11815
滞 11813
瘫痪 11813
过量 11811
纲 11809
卧 11808
扣押 11804
黄油 11804
信函 11801
激光@@ 11800
改组 11796
法国人 11795
API 11794
脾 11791
没有你 11788
我想说 11787
雄性 11786
突发 11785
出路 11784
106 11782
缺席 11780
此处 11778
草莓 11777
闷 11774
窦 11773
庞@@ 11770
一端 11766
算子 11765
结盟 11764
弃权 11763
勉强 11762
基线 11762
混淆 11762
水流 11761
宇 11758
空气@@ 11757
霸 11756
做为 11754
洋葱 11754
汇总 11751
责@@ 11748
ch 11745
外周 11745
廉@@ 11744
可比 11740
血流 11739
闭会 11738
韧性 11732
同位素 11727
巷 11723
危@@ 11720
胸部 11720
妇人 11718
数月 11717
误导 11715
残疾儿童 11710
瓶颈 11710
趋于 11710
黑夜 11708
关爱 11706
行情 11705
103 11704
大火 11701
嫁 11701
毁掉 11701
美德 11698
AM@@ 11694
PE 11691
场面 11691
嘴巴 11690
未必 11689
水位 11689
时髦 11685
上游 11684
Ⅱ 11683
往前 11683
振荡 11683
降水 11682
无穷 11681
封装 11679
口感 11678
蕾 11678
son 11676
卫生@@ 11675
扩充 11673
你是我 11672
贸 11672
跌@@ 11672
可笑 11670
电报 11665
菊 11661
案@@ 11659
多态 11657
小事 11653
es 11650
腹腔镜 11650
车祸 11650
仿@@ 11648
遗址 11648
威尔士 11647
日本@@ 11647
BC 11646
乌兹别克斯坦 11644
出国 11640
私人@@ 11640
比额 11639
疗 11639
矫正 11634
NBA 11633
巴格达 11630
琼@@ 11630
尔森 11628
丘@@ 11625
事后 11622
弱@@ 11621
长长 11619
质量保证 11618
多国 11614
贝宁 11614
开除 11613
IN 11612
没时间 11611
温馨 11605
捕@@ 11604
碱性 11604
西安 11604
网友 11603
贸易@@ 11599
估价 11598
技术创新 11598
卢森堡 11596
世俗 11594
物理学 11593
隶属 11591
帖 11587
柔 11585
纳税 11585
抵御 11584
琪 11584
默默 11583
炼 11579
照亮 11579
小鸟 11575
上海市 11574
晓得 11574
羡慕 11574
出自 11573
嫌疑 11572
微粒 11570
嵌 11567
波浪 11566
老大 11563
衬 11562
跨@@ 11561
公共@@ 11559
数字@@ 11559
荒谬 11557
10分钟 11555
神父 11555
具@@ 11552
杂质 11551
情人节 11548
呼吸@@ 11547
中国传统 11543
地下室 11543
境况 11541
山姆 11541
控制@@ 11540
爆@@ 11539
莲@@ 11535
会儿 11534
队@@ 11534
说起 11533
口服 11532
游泳池 11532
频谱 11532
一到 11531
冶金 11528
虫@@ 11528
伪装 11527
干活 11524
棋@@ 11524
途 11524
门票 11524
结婚@@ 11523
趋向 11523
演唱 11521
名册 11519
打发 11518
质素 11517
源代码 11516
野外 11514
卖出 11513
刑事诉讼 11512
海里 11511
颤 11511
案情 11508
宏@@ 11507
羽 11507
宿@@ 11506
上月 11505
油漆 11505
题材 11504
琳@@ 11502
发觉 11500
冈@@ 11499
一家人 11498
NO 11496
皮质 11492
凡是 11490
皮特 11488
跳跃 11486
住户 11485
佬 11482
娜·@@ 11482
杉 11482
极化 11482
各式 11480
宽松 11480
彩虹 11479
难点 11478
以内 11477
匆匆 11477
二十六 11476
沉浸 11474
初中 11472
善意 11471
衰竭 11470
南瓜 11465
缓@@ 11464
光束 11458
老天 11457
祸 11455
高大 11451
热线 11448
厄 11444
饮酒 11442
光盘 11440
杠杆 11439
火鸡 11438
克斯@@ 11437
民政 11437
眉 11431
冲洗 11429
溪@@ 11426
机能 11425
燃料电池 11425
文职人员 11423
宴 11421
饭@@ 11420
浴@@ 11418
浦@@ 11417
拖欠 11416
苍@@ 11416
务必 11415
不适 11409
不禁 11408
肢体 11408
哲学家 11404
应激 11403
依存 11402
大奖 11402
趣 11402
甩 11399
亏 11397
彼得@@ 11397
瞄准 11397
一下子 11395
反叛 11394
马其顿共和国 11394
后卫 11393
强行 11391
原位 11385
邮箱 11385
亚伯拉罕 11384
工况 11384
禽 11384
财务报告 11381
粒度 11377
核证 11375
已婚 11369
CAD 11367
阻抗 11365
福建 11364
讨 11364
浙江省 11361
廊 11360
奏 11358
导游 11357
汇集 11357
袜子 11356
25年 11355
真爱 11355
认捐 11355
农村妇女 11354
香水 11354
钓 11353
伙 11350
哺乳动物 11347
香气 11345
压力@@ 11343
选中 11342
油画 11340
挺@@ 11338
渐 11333
例@@ 11332
承担责任 11332
顽固 11332
挖@@ 11328
回家了 11325
找@@ 11324
路边 11324
经纪 11323
出卖 11322
煤气 11321
县@@ 11319
能耗 11318
宪 11317
面包@@ 11317
滑坡 11316
时段 11315
高昂 11315
当日 11314
副总裁 11310
疑@@ 11309
硬盘 11309
异构 11308
be 11307
译@@ 11303
小屋 11302
稻 11300
数组 11299
来信 11299
灰尘 11298
际@@ 11298
高潮 11297
业已 11296
通向 11296
面料 11296
低压 11295
洲@@ 11293
花生 11293
陀@@ 11290
大纲 11289
7年@@ 11287
可变 11287
孔隙 11287
巡回 11287
拼命 11287
电化学 11286
淋 11284
晚宴 11283
三角形 11282
设计方案 11282
螺@@ 11280
人际关系 11279
柜台 11273
产值 11272
潮@@ 11272
饮水 11272
切口 11270
游离 11267
峡谷 11264
英译汉 11262
社会学 11259
跟@@ 11259
懒 11258
红细胞 11256
图标 11255
二十一世纪 11249
13.@@ 11248
无助 11245
过早 11245
出庭 11243
1980年 11241
侧面 11241
瑞克 11241
处分 11240
国防军 11237
马路 11236
例句 11235
耕 11235
教科书 11234
栓塞 11232
TP 11231
月底 11231
洪 11231
伸展 11226
布雷@@ 11225
中世纪 11223
挑@@ 11223
相邻 11222
红酒 11222
复习 11220
世间 11217
乳液 11217
再现 11217
俯@@ 11216
CE 11213
打来 11212
植株 11210
米尔 11207
面粉 11207
教皇 11206
柔和 11206
警探 11205
薇@@ 11202
中共 11200
宗教信仰 11199
厂@@ 11197
邀 11197
世纪@@ 11196
绿化 11196
绵@@ 11195
克制 11193
外债 11186
致电 11185
穿刺 11184
培训课程 11183
射频 11182
勇 11176
盾 11167
不要@@ 11164
有效期 11163
讲解 11160
喀@@ 11159
径向 11159
酰 11159
3年@@ 11157
生产工艺 11157
呼唤 11156
改正 11156
反向 11154
流向 11153
获准 11152
IS@@ 11151
约翰内斯堡 11150
跨境 11150
下调 11149
赛车 11149
诚意 11144
武术 11143
重心 11143
费率 11141
开销 11140
来回 11139
棒@@ 11131
ER 11130
贯 11129
才华 11126
Twitter 11125
盘旋 11124
葡萄糖 11124
Linux 11123
切片 11121
悲哀 11121
甲酸 11121
脚下 11119
顶端 11118
养老 11117
播出 11116
工件 11115
传热 11114
走来 11113
文化遗产 11112
基底 11109
宫殿 11108
市场份额 11108
生长因子 11107
梳理 11105
双胞胎 11104
村子 11103
超声波 11098
氏@@ 11097
品牌@@ 11094
通知书 11093
太空@@ 11091
月26日 11089
万年 11088
美观 11088
精子 11085
绵羊 11076
楚 11072
苍白 11072
杜 11070
回路 11066
范 11063
竖@@ 11061
耐磨 11061
上下文 11060
私有 11059
精华 11056
俊@@ 11055
不便 11054
映 11054
塔吉克斯坦 11051
可乐 11046
奉@@ 11044
癌@@ 11042
紧要 11042
硼 11041
解脱 11041
贝尔@@ 11041
里克 11041
凯瑟琳 11038
火器 11038
纯洁 11038
自卫 11036
郊 11032
不动产 11026
余地 11026
最美 11026
疲惫 11026
美容 11024
宇航员 11023
实证 11023
劫@@ 11021
深圳市 11021
亡 11020
ma 11019
方差 11019
打赌 11016
注明 11016
畏惧 11014
纳斯 11014
柠檬 11013
术前 11011
水体 11008
试剂 11006
15.@@ 11003
山东省 11003
免于 11001
高盛 10999
公爵 10996
利害 10996
水力 10996
门诊 10996
风险评估 10996
一揽子 10995
AP@@ 10993
欺@@ 10993
瓦斯 10993
色调 10990
内置 10988
痰 10986
猛烈 10985
出入 10984
锂 10984
门户 10983
卫生保健 10982
纤维@@ 10982
席@@ 10980
灶 10978
受不了 10977
石墨 10975
高贵 10974
1992年@@ 10973
听证会 10973
活塞 10972
借款 10971
埋@@ 10969
造影 10969
会长 10967
反驳 10967
激起 10967
浪潮 10966
舌@@ 10963
敌@@ 10962
精神病 10962
丽莎 10959
月23日 10959
重新开始 10959
挑衅 10958
上皮 10956
水印 10956
基因@@ 10953
门外 10953
SO@@ 10951
用餐 10951
中华民族 10948
闹@@ 10948
佐 10942
皱 10942
扰乱 10941
二期 10939
末端 10939
坏死 10934
略有 10932
爱因斯坦 10931
领事 10930
同上 10927
坦桑尼亚联合共和国 10924
牛仔裤 10924
惩治 10923
薇 10923
mg 10920
入睡 10919
电影院 10919
旗帜 10918
法典 10918
DJ 10915
凸@@ 10913
窒息 10912
贫@@ 10912
胃癌 10911
妖@@ 10909
吃什么 10908
急救 10908
世贸 10906
歌词 10906
校准 10905
自助 10905
文盲 10902
肮脏 10902
弥漫 10897
店里 10895
南极 10894
抹@@ 10892
网路 10892
难受 10891
正要 10890
语言学 10889
驾 10889
改编 10887
蛇@@ 10887
商界 10886
壮大 10885
会议议程 10884
流泪 10884
凝@@ 10883
广为 10883
来得 10880
体操 10879
款式 10879
自称 10879
归属 10875
陶 10874
全职 10872
出身 10872
国际市场 10871
扁 10870
操守 10870
国土 10865
怀念 10865
特别关注 10865
晚安 10863
伯爵 10862
签约 10861
景点 10860
计算公式 10860
摄@@ 10859
猛 10859
过失 10856
卡拉 10855
窗外 10855
·阿@@ 10854
架@@ 10850
知觉 10850
抗氧化 10848
枢纽 10848
评注 10847
运载 10847
沃 10846
助长 10841
电泳 10839
妆 10838
嫌疑人 10837
转发 10835
房地产@@ 10834
布什总统 10833
笨 10832
夫·@@ 10831
丹尼 10828
有种 10828
指甲 10827
纤维素 10827
无可@@ 10826
宋 10825
涡 10824
均等 10823
权能 10823
∶ 10822
店铺 10822
脂肪酸 10821
仅@@ 10817
溜@@ 10817
轰@@ 10815
说完 10811
为数 10810
炒@@ 10810
升值 10809
齿@@ 10808
尼尔 10805
责任感 10805
语气 10804
胀 10803
装载 10803
粘土 10800
花粉 10800
附着 10799
捷 10798
核电站 10795
普拉@@ 10794
违法行为 10793
必要条件 10790
权重 10790
敦@@ 10789
私下 10789
车道 10789
二十二 10787
支护 10787
划界 10785
生物技术 10785
开幕式 10784
比利 10783
王后 10783
做梦 10782
叛乱 10782
充斥 10781
十五@@ 10781
唇@@ 10781
津@@ 10780
线上 10780
0号 10779
音乐家 10778
大衣 10775
溪 10774
高尚 10774
情境 10773
新世纪 10768
金字塔 10767
用力 10764
蕾@@ 10762
遇难 10761
雅典 10761
五千 10760
血小板 10760
曹@@ 10758
鲍勃 10758
111 10756
篮@@ 10756
化学物质 10755
AD 10754
机车 10752
豹 10749
体育运动 10746
免税 10744
彻 10744
资产@@ 10740
我们俩 10737
内政部 10736
稀 10736
歌声 10735
项链 10735
韦 10734
纷@@ 10731
三星 10730
装运 10730
领带 10730
剑@@ 10726
虔诚 10726
字节 10721
装满 10721
da 10720
妥 10720
各省 10719
狱@@ 10717
举起 10716
罗姆 10716
刑事责任 10712
坏人 10711
拥 10711
卡路里 10710
本性 10707
107 10702
废料 10702
软件@@ 10700
封面 10696
取样 10693
平滑 10693
笔记本 10691
巾 10690
投降 10690
优先权 10688
付钱 10685
飞速 10684
海豚 10683
自在 10681
坦率 10680
熊猫 10676
磺酸 10676
降雨 10676
笼罩 10675
水管 10673
建设@@ 10672
抽取 10672
45@@ 10671
救护车 10670
两个小时 10665
增幅 10665
土著人 10662
贸@@ 10662
天真 10661
媒 10661
平方公里 10654
招生 10646
用处 10645
色情 10645
酷爱 10644
应得 10642
年12@@ 10641
不小心 10640
反应堆 10639
掩饰 10638
水手 10637
112 10635
畅@@ 10634
接地 10632
消防@@ 10632
孙子 10631
意象 10631
三点 10630
交替 10630
藤@@ 10630
鸭子 10629
天花板 10627
县级 10626
欧安 10626
送往 10625
21@@ 10624
薪资 10623
脱硫 10622
写入 10621
疫情 10619
竭力 10618
惟一 10615
收容 10612
拉美 10610
染@@ 10610
镇上 10610
歌剧 10609
SC@@ 10605
四方 10605
失衡 10604
驱@@ 10599
枕头 10598
面貌 10598
优选 10596
求婚 10593
出差 10591
人和 10590
编纂 10590
冰川 10589
蒙特雷 10589
基体 10588
布尔 10588
典范 10585
依次 10580
减排 10579
车库 10579
踏@@ 10578
可谓 10576
仁慈 10574
克鲁@@ 10574
弦@@ 10573
·卡@@ 10572
印第安人 10572
条目 10572
托运 10570
例行 10568
军用 10568
氰@@ 10568
十分钟 10567
台风 10566
阴性 10562
失控 10561
纵 10560
涛 10559
大米 10558
硝@@ 10558
狂欢 10557
解开 10556
频@@ 10556
综合症 10555
菲利普 10554
德拉@@ 10553
篮子 10550
一号 10548
经济全球化 10544
盈@@ 10538
作风 10537
术中 10537
女巫 10536
备案 10535
票@@ 10534
脱水 10534
金矿 10533
蟹 10527
艺@@ 10524
畅 10520
试样 10520
适于 10518
侦察 10517
好笑 10516
转为 10516
四十@@ 10515
步入 10515
瞩目 10515
庄严 10514
境地 10513
自由基 10513
配有 10513
不值得 10512
战斗机 10512
移除 10512
115 10511
调查研究 10511
国际机场 10509
光子 10508
排出 10508
16.@@ 10507
游说 10507
武警 10506
炎@@ 10506
14.@@ 10505
驾车 10504
结核病 10503
聊聊 10502
紫外线 10501
愁 10500
泳 10499
趁 10499
分校 10498
迷惑 10498
do 10497
微机 10497
斐济 10495
汗@@ 10494
海牙 10493
跑道 10493
车轮 10493
随即 10492
尊@@ 10491
心理健康 10490
敏锐 10490
翁 10490
外交官 10488
加班 10486
服役 10486
力气 10483
电邮 10483
害羞 10482
驾驶员 10480
生于 10478
缠 10477
结余 10476
不合 10474
力图 10474
头顶 10472
蜂 10472
er@@ 10471
2001@@ 10465
一年中 10465
信封 10463
卜 10463
导体 10462
模样 10462
失调 10459
便捷 10458
夺走 10457
苏州 10457
塞尔@@ 10453
棋 10453
德班 10452
想来 10452
大为 10447
订约 10446
开罗 10445
ba 10444
拦截 10440
lt 10439
流出 10439
20分钟 10437
国界 10437
德国人 10436
工作岗位 10435
飞行器 10433
CO@@ 10431
一一 10431
避 10428
2006@@ 10426
人手 10425
15分钟 10424
一连串 10424
包装@@ 10421
闲 10421
测井 10416
大理 10415
50年 10414
长老 10414
AT@@ 10413
躲避 10413
可观 10412
猜想 10412
遥 10411
蛋白酶 10410
阵地 10410
颁奖 10410
苏珊 10409
殴打 10408
楼下 10407
毕业@@ 10404
PP 10403
拱 10403
爱丽丝 10401
竞争优势 10400
稳健 10398
凤@@ 10395
存储器 10394
稳固 10392
奉行 10390
此人 10390
脊柱 10390
停滞 10387
地步 10386
数控 10386
腔@@ 10384
五月 10379
削 10379
唯@@ 10379
沾@@ 10379
10号 10378
抬起 10377
握手 10377
纤 10375
内部控制 10373
海洋@@ 10373
2008@@ 10372
格外 10371
渔 10370
01 10365
奇特 10364
帐@@ 10362
1991 10361
19世纪 10360
拨出 10358
肤色 10357
ET 10356
可取 10356
阿姨 10356
通路 10355
厂房 10349
法老 10346
懒@@ 10342
应许 10340
微弱 10340
点头 10340
腺@@ 10340
归咎 10338
压抑 10336
洪都拉斯 10336
0年前 10335
隔壁 10335
归于 10334
双层 10331
更正 10331
肋 10330
TC 10329
旅行社 10329
病房 10327
所得税 10325
民族主义 10324
争辩 10323
喉@@ 10323
评委 10323
电能 10322
意向 10321
替@@ 10321
辖 10321
过往 10319
逃走 10319
ke 10316
整洁 10316
裁@@ 10313
小学生 10312
刚性 10310
抗菌 10310
环球 10310
叹 10304
科比 10304
娱乐@@ 10303
启 10301
私有化 10301
安全感 10298
凝聚 10297
照看 10295
州立 10294
逗留 10294
焚烧 10292
全程 10291
战后 10285
AI 10283
关节炎 10283
想听 10282
Si 10280
尘@@ 10280
拉加 10280
Be 10279
鳞@@ 10279
SO 10277
镀@@ 10276
泥土 10273
归因 10270
辉@@ 10269
间断 10264
纽约市 10262
党员 10261
肯尼迪 10260
时分 10258
33@@ 10257
时30分 10251
调和 10251
拐 10249
缺氧 10248
170 10246
专心 10246
个星期 10242
外伤 10241
电场 10240
黄瓜 10240
拼写 10239
企@@ 10236
浮动 10236
1986年 10235
欧洲@@ 10234
微分方程 10230
电脑@@ 10230
1990 10228
魔术 10228
择@@ 10227
整数 10227
误会 10227
矿石 10226
赦免 10225
自然界 10224
社会责任 10222
人的@@ 10219
珊瑚 10218
截然不同 10217
孕@@ 10213
隙 10213
威廉 10212
旺 10212
蓄意 10212
共存 10211
1200 10208
原籍 10208
器具 10206
工商@@ 10206
自尊 10206
两边 10205
无权 10204
规例 10204
银行@@ 10203
油脂 10201
遗弃 10200
透镜 10198
教养 10197
缠@@ 10193
免疫系统 10192
号召 10192
CA@@ 10187
身子 10186
怀着 10185
颈部 10185
所见 10184
铅笔 10184
IC@@ 10183
波多黎各 10183
眼下 10179
丘 10178
镇压 10177
心思 10175
亦可 10173
燃气 10173
贺@@ 10173
发热 10172
验收 10172
咸@@ 10170
漫步 10170
悉尼 10167
私 10167
江苏省 10166
实测 10163
巴拉圭 10163
GA 10161
寸 10161
日之前 10160
中学生 10158
内部审计 10155
展会 10155
中旬 10154
毛巾 10154
深厚 10154
莉莉 10153
人口@@ 10152
周期性 10152
刃 10149
杆@@ 10148
一并 10147
深表 10145
识字 10144
幽灵 10143
坚果 10142
怎 10142
1.1 10141
挡@@ 10140
摊@@ 10140
公然 10139
重塑 10137
本书 10136
摊 10135
车型 10135
十一@@ 10133
冒犯 10131
惧怕 10131
盗窃 10130
上百 10127
审@@ 10126
减灾 10125
追寻 10125
阿布@@ 10124
译者 10123
动植物 10122
监控系统 10122
纽约时报 10122
阅@@ 10121
植@@ 10120
五十九 10117
纪录片 10117
渠 10113
外围 10112
TS 10111
劝@@ 10110
麦当劳 10109
羞辱 10108
TD 10106
咖啡@@ 10103
总有一天 10103
垃圾@@ 10102
非常感谢 10102
滚动 10100
黎明 10100
亚太地区 10099
售@@ 10098
奔跑 10098
工作日 10098
率领 10097
Ni 10096
抵押贷款 10096
闪耀 10096
玲 10095
肥料 10095
轮到 10095
PR 10091
悠@@ 10091
担当 10091
BS 10090
极好 10088
猎 10086
伦·@@ 10085
不规则 10084
专栏 10083
搬迁 10082
站立 10081
安宁 10079
纪念日 10078
学习英语 10076
圈子 10075
歇 10074
填料 10072
快乐@@ 10072
吼 10071
飞翔 10070
收支 10068
五十七 10067
多方 10067
惨 10067
递给 10065
五十八 10064
租用 10064
阵@@ 10064
君@@ 10060
柴 10060
肚@@ 10060
al@@ 10056
德斯 10056
碰@@ 10055
城市规划 10054
高职 10054
光泽 10049
贤 10046
保姆 10043
4.5 10042
腹泻 10042
38@@ 10038
检察长 10037
高山 10037
17.@@ 10034
强力 10034
银行家 10034
乔布斯 10032
前锋 10032
炮@@ 10032
完备 10030
进取 10030
气象@@ 10028
历来 10024
着迷 10022
SI 10020
虚构 10020
鹅 10019
阿里@@ 10017
运输@@ 10016
找工作 10014
低廉 10010
哈佛大学 10010
迈进 10009
90年代 10007
便携式 10004
患病 10003
查尔斯 10003
大连 10000
珍妮 10000
抗拒 9999
袜 9999
5分钟 9995
现正 9994
河南 9992
114 9991
虚弱 9990
面对面 9990
保护环境 9989
落下 9989
仓@@ 9988
大气层 9988
誓言 9988
高低 9988
孢子 9987
垮 9986
月22日 9986
傲慢 9983
致死 9982
姆斯 9980
贮 9980
凸显 9978
喉咙 9978
野蛮 9978
律@@ 9977
警长 9977
契机 9976
措词 9976
箱@@ 9976
DSP 9973
会期 9973
恰好 9973
水电 9972
粥 9971
厦门 9969
窃 9969
行为@@ 9967
农夫 9966
稀释 9965
谐振 9963
镉 9963
高高 9963
化物 9962
极少 9962
碳@@ 9959
夸 9958
奢华 9958
丝绸 9957
有空 9957
全额 9955
口径 9953
布莱尔 9952
小组讨论 9951
加速度 9949
阿拉伯语 9949
港元 9948
空前 9947
大雨 9946
低迷 9943
综合评价 9943
全球变暖 9942
铸@@ 9942
九月 9941
理所当然 9941
前瞻性 9940
寡妇 9940
办@@ 9939
裂@@ 9939
演绎 9933
闻@@ 9933
赋 9932
受灾 9931
绘 9930
令@@ 9929
博览会 9927
法律问题 9927
疯@@ 9926
淋巴结 9925
偿付 9924
混蛋 9924
衣物 9924
蘑菇 9922
屏障 9921
庄园 9921
智能化 9920
竭尽全力 9920
郁@@ 9919
救赎 9917
间歇 9917
首尔 9917
压缩机 9913
实证分析 9912
勇士 9910
涌入 9910
冠心病 9909
渔船 9908
石油@@ 9907
商量 9906
利斯 9901
社区@@ 9901
左手 9899
公私 9898
听觉 9897
矿井 9897
硫酸@@ 9896
视作 9894
赌场 9893
迫害 9893
钴 9892
二十年 9889
辍学 9889
土库曼斯坦 9887
产假 9886
吉米 9885
噩梦 9885
大夫 9885
融@@ 9885
诱@@ 9885
阿森纳 9885
紊乱 9884
英国@@ 9884
地名 9882
整齐 9882
大堆 9881
先锋 9880
粘膜 9880
30天 9878
写出 9877
离不开 9877
终生 9876
尸@@ 9875
实验@@ 9871
敬意 9871
背部 9871
通气 9871
向往 9870
奶牛 9869
括号 9869
外联 9868
向外 9867
姬 9867
渍 9866
归功 9865
看好 9864
羁押 9863
不惜 9862
地盘 9862
口音 9861
蠢 9861
2004@@ 9859
室友 9859
警局 9859
踏上 9859
克尔 9857
分隔 9856
阿里 9856
MI 9855
财力 9855
VC 9854
螺栓 9854
誉 9854
带头 9853
扭@@ 9853
血统 9852
补给 9852
SE 9848
2.0 9847
客车 9847
屏@@ 9847
愚@@ 9846
大坝 9845
森林@@ 9845
摇滚 9844
嫌犯 9843
营养@@ 9843
西装 9843
8000 9839
① 9837
很早 9837
借给 9834
一无所知 9833
分形 9833
七日 9832
性命 9831
增高 9830
一口气 9829
囊肿 9829
相称 9829
天体 9827
永生 9826
化妆 9823
家居 9822
转而 9822
镀 9821
交织 9820
养分 9820
吸毒 9818
近年 9818
授 9815
骨架 9815
购物中心 9814
不高兴 9813
基地组织 9811
袍 9808
官僚 9807
黑洞 9807
独家 9806
1373 9805
起重机 9805
医治 9802
垒 9802
浑@@ 9801
源泉 9800
大有 9799
衰@@ 9799
打下 9798
阿拉伯利比亚 9797
上场 9795
甲板 9795
传统文化 9794
家用 9794
兽医 9793
冠状动脉 9792
叉@@ 9790
反击 9790
换取 9790
深海 9789
身穿 9789
抗震 9788
唯有 9787
造林 9786
结实 9785
迦 9785
HIV 9784
台北 9784
很久以前 9784
原创 9783
山地 9780
较差 9780
连通 9778
撤@@ 9777
每晚 9776
主宰 9774
教育机构 9772
育种 9772
陵@@ 9771
可选 9767
税款 9765
减低 9760
功课 9760
侦探 9759
文凭 9756
Mar@@ 9755
上台 9755
迅猛 9755
扇@@ 9754
司令 9753
人工@@ 9752
高斯 9752
2500 9751
借用 9751
人力资本 9750
挪@@ 9748
西撒哈拉 9746
忍不住 9745
谣言 9744
农作物 9743
指针 9743
这一年 9743
远方 9743
笛 9742
打包 9741
开花 9740
运河 9740
约瑟 9738
背面 9738
1987年 9737
膀胱 9737
舰队 9735
只有你 9734
液晶 9734
环形 9733
离心 9733
传授 9732
络 9732
奢侈品 9731
气管 9731
年长 9730
杖 9730
聚氨酯 9730
诺贝尔 9729
评述 9727
映@@ 9725
衔接 9723
二极管 9721
发展前景 9719
表层 9719
门槛 9719
而后 9717
附有 9717
HPLC 9716
沙龙 9716
少见 9714
确诊 9712
表面活性剂 9710
新闻中心 9707
环境污染 9707
散布 9706
侍@@ 9705
48@@ 9702
6年@@ 9702
BBC 9701
做生意 9701
坚 9701
开业 9701
族@@ 9700
盐酸 9700
迁徙 9700
骑自行车 9700
冷漠 9698
作文 9697
有限责任公司 9696
忠@@ 9693
捉@@ 9693
TV 9692
企鹅 9692
物价 9692
艘船 9691
光临 9690
盲@@ 9689
左侧 9688
不符 9684
甲醇 9684
石油公司 9684
此地 9683
光荣 9681
巨型 9681
炫耀 9681
和农村 9680
凝视 9679
螺纹 9679
鞘 9679
荒 9678
360 9676
堆积 9676
星座 9676
日元 9674
18.@@ 9673
凹 9673
至上 9673
廷 9671
赏 9671
飙升 9671
人生@@ 9670
CS@@ 9669
一例 9666
计画 9666
113 9665
爱德华 9665
布斯 9661
叠加 9658
镇痛 9654
文件系统 9652
兼职 9651
事例 9650
鸽子 9649
RC 9647
存货 9646
牧场 9645
畅销 9644
硒 9644
苹果@@ 9642
蚊子 9640
出发点 9638
吵架 9638
单车 9635
抄 9635
莎拉 9635
赞@@ 9633
健身房 9631
军品 9631
知识分子 9631
过错 9631
肖 9630
穿透 9628
养育 9624
解放军 9624
阿拉伯联合酋长国 9624
中场 9623
薯 9623
愤@@ 9619
甲醛 9618
投资@@ 9617
边上 9616
服装@@ 9615
环境管理 9615
法律顾问 9614
职业教育 9614
培养基 9613
反演 9611
强制执行 9610
岩体 9609
心跳 9609
严谨 9608
亚·@@ 9608
捡 9607
教学方法 9607
保温 9606
公交车 9604
盈 9601
臭@@ 9601
食管 9601
ME 9600
中小学 9600
收据 9599
潘 9599
王朝 9599
灵性 9596
原产 9595
海鲜 9595
文职 9594
筛 9594
微不足道 9593
率先 9592
要不 9591
版@@ 9590
资源@@ 9590
圈@@ 9589
大都 9589
克罗@@ 9588
世代 9587
商讨 9583
尖锐 9580
波导 9580
座椅 9579
办学 9578
7.5 9576
献@@ 9576
细微 9574
赋@@ 9572
滑稽 9570
煎 9570
传给 9569
疲倦 9568
＂ 9568
30分钟 9567
贝克 9567
雾@@ 9566
纽约@@ 9565
线粒体 9564
RS 9562
动物@@ 9562
忧伤 9562
腐 9562
慈@@ 9561
杰夫 9560
口中 9559
胎@@ 9559
脏@@ 9559
人称 9556
探针 9555
嘴@@ 9554
裹 9554
为由 9553
忘掉 9553
凌@@ 9552
香槟 9552
砷 9550
颤抖 9547
单调 9544
股票市场 9544
公营 9543
足迹 9543
合乎 9542
山西 9541
严密 9537
遵从 9537
漂浮 9532
稻@@ 9532
怀特 9531
转过 9530
海边 9528
扑 9527
闪光 9526
儿基会 9525
阳台 9525
公交 9523
幻 9522
Co 9521
形貌 9520
点火 9520
哈马斯 9519
寿@@ 9519
时报 9519
ES 9518
会否 9517
据悉 9517
克拉克 9516
先例 9514
光辉 9514
胡萝卜 9514
重现 9514
奢侈 9513
一九@@ 9510
元首 9510
各部 9510
秘诀 9510
IP@@ 9504
犯错 9504
促销 9503
结构@@ 9503
丰田 9501
不信任 9500
滋味 9497
诺言 9496
出场 9495
杀虫剂 9495
风筝 9495
判例 9494
盛行 9494
1990年代 9493
张开 9492
耐用 9492
前线 9490
片刻 9489
海面 9487
不良反应 9486
极力 9486
表皮 9486
对话框 9485
阳极 9484
流行@@ 9483
疏散 9483
茂@@ 9483
复仇 9482
经文 9482
书法 9480
体制改革 9480
气泡 9480
华盛顿@@ 9479
NA 9478
扶贫 9478
忠 9477
十月 9476
并联 9476
挥@@ 9475
流逝 9475
宏伟 9474
铂 9473
长途 9472
创下 9471
乐团 9468
19.@@ 9467
害@@ 9467
是非 9467
皇后 9466
裁员 9466
惩处 9465
监护人 9465
连结 9463
喜好 9462
抗性 9462
只用 9461
兄 9460
商用 9460
鸡尾酒 9460
契 9458
祭@@ 9455
点子 9454
金融服务 9453
05 9452
2009@@ 9452
进食 9451
长者 9448
野心 9447
马里@@ 9445
体检 9444
晨 9443
栗 9443
电线 9443
119 9442
内衣 9440
SE@@ 9439
印度洋 9439
方位 9437
有限元分析 9435
诚挚 9435
116 9434
馀 9434
浑身 9433
手势 9432
基础教育 9430
眼球 9430
跟上 9430
你和我 9429
统计分析 9429
情侣 9428
流产 9428
邮局 9428
谈及 9426
湖人 9424
放手 9422
纳米比亚 9422
光照 9421
个人资料 9420
裁减 9420
师父 9419
拉丁 9416
辣@@ 9416
匀 9414
国民@@ 9414
托尼 9413
津 9412
EP 9411
激酶 9411
甄选 9411
08 9410
草拟 9410
迪拜 9410
国立 9406
市值 9406
标定 9406
摇摆 9405
高地 9405
减速 9404
1985年 9402
尼古@@ 9402
着急 9402
金子 9401
点心 9398
耳机 9398
迷路 9398
此案 9397
EC@@ 9396
钳 9396
钢筋 9395
甜点 9392
不只 9391
国防部长 9390
水利 9390
五十六 9388
折射 9388
锦标赛 9386
斜坡 9384
2018年 9382
六十一 9382
震撼 9382
芝 9380
托马斯 9376
物件 9375
串联 9374
家庭生活 9374
马丁@@ 9374
应予 9373
蓄@@ 9372
伴@@ 9371
开发区 9369
放宽 9368
匮乏 9367
劫 9365
昧 9364
这条路 9364
在线地图 9363
堕落 9363
质谱 9361
海马 9360
为了你 9358
职业培训 9358
颇为 9356
幕后 9355
侵袭 9353
文艺 9353
灾@@ 9351
怡 9349
热心 9349
多远 9348
寄给 9347
策@@ 9347
辨认 9347
好些 9346
刊物 9345
滨 9344
耗费 9344
鼓掌 9344
往返 9342
商家 9341
产业化 9340
心智 9340
来着 9340
美分 9340
称号 9339
ir 9338
4年@@ 9336
共处 9336
矿区 9336
电力@@ 9335
蒙古@@ 9335
贪污 9335
阳市 9334
怎能 9332
37@@ 9330
无法@@ 9330
CR 9329
热闹 9327
列支敦士登 9325
过大 9325
118 9323
披萨 9323
1.3 9322
夹克 9321
纠缠 9321
章@@ 9320
危 9317
朴@@ 9316
峰@@ 9314
毛衣 9313
最深 9312
匆忙 9311
车厢 9309
布朗@@ 9308
贫民窟 9308
55@@ 9307
开出 9307
附表 9307
亲身 9306
以人为本 9306
中子 9304
RE@@ 9302
帮帮 9301
矿产 9301
往常 9300
终极 9300
应答 9299
吉尔吉斯斯坦 9297
掩@@ 9297
甜美 9297
for 9293
基因表达 9293
DVD 9292
忍耐 9292
喷雾 9291
录制 9290
枕 9287
细胞凋亡 9287
磁带 9286
看书 9285
DE 9284
无罪 9284
US 9283
抨击 9283
断面 9281
盛大 9280
载入 9277
不宜 9276
傍晚 9275
幢 9273
一维 9272
在校 9272
构思 9272
应聘 9271
冰冷 9269
凭证 9269
弗莱@@ 9269
担负 9267
理财 9266
128 9265
徘徊 9265
最强 9265
夺取 9264
贩毒 9261
遗嘱 9261
周转 9260
国家公园 9259
热力学 9257
以求 9256
关门 9255
生殖健康 9255
丙 9254
醉@@ 9252
弧@@ 9251
抱有 9250
转入 9250
蓝图 9248
PM 9246
遵 9246
纯度 9245
FDA 9244
绘图 9244
搁置 9243
购物@@ 9243
In@@ 9242
CE@@ 9241
可溶 9241
营业@@ 9241
升温 9240
争执 9238
出具 9237
清真寺 9237
疑虑 9237
执行@@ 9236
新时代 9236
２ 9236
为时 9235
椎 9235
病原 9235
逐 9235
在等待 9234
HTML 9233
那天晚上 9233
克利@@ 9232
五十五 9231
布雷顿 9231
粒@@ 9230
佣金 9228
仗 9226
效@@ 9226
四月 9225
工作安排 9225
慢性@@ 9225
模块化 9225
发电厂 9222
科尔 9222
绕@@ 9222
聘 9222
伸缩 9221
海伦 9221
奴役 9219
摩尔 9219
顺应 9219
件@@ 9218
2007@@ 9216
·拉@@ 9216
北欧 9216
恰@@ 9211
市镇 9208
廷@@ 9208
有幸 9208
上衣 9207
变质 9207
蓄 9206
送来 9204
右侧 9203
噪 9201
家禽 9200
衰 9200
忧郁 9199
起因 9199
贮存 9197
加盟 9196
泄 9196
南京@@ 9193
核电 9193
发烧 9192
芙@@ 9192
靴 9192
惯@@ 9190
虹@@ 9190
强势 9189
澡 9189
丰厚 9188
住处 9188
ch@@ 9187
利·@@ 9187
隐蔽 9185
上天 9184
批发 9184
可控 9183
拉克 9183
重度 9183
一律 9182
商务部 9182
光度 9179
暖和 9179
果断 9179
其间 9176
合作@@ 9176
富集 9176
欧文 9176
现代社会 9176
针刺 9176
瘾 9175
艺人 9174
宣读 9173
考生 9173
设计@@ 9173
XX@@ 9172
壮观 9171
咯 9170
脱落 9170
营销@@ 9170
流行病学 9169
切开 9168
细分 9167
cm 9166
防火 9166
储量 9165
蚊 9163
不丹 9161
勺 9161
饥荒 9160
衰落 9159
友情 9157
上层 9155
外侧 9155
我也不知道 9155
邮寄 9155
冗余 9154
浓厚 9153
笔记本电脑 9153
润@@ 9152
埋葬 9151
文斯 9151
适量 9149
注销 9146
逗 9146
套管 9145
镜@@ 9145
有否 9142
品位 9141
悲痛 9141
拉开 9140
男孩子 9140
韧带 9140
基本@@ 9139
玉米@@ 9139
厨@@ 9138
劫持 9136
斑点 9136
体育馆 9135
减压 9135
简述 9134
所作所为 9133
伊斯坦布尔 9132
图像处理 9132
瓦尔@@ 9132
仰 9130
鹿@@ 9130
展览会 9127
皮瓣 9127
起身 9125
220 9124
润滑油 9124
外星人 9123
轧 9122
Ar@@ 9121
萨姆 9120
和平@@ 9119
调查表 9119
上部 9118
攀升 9117
赠 9116
漫 9115
退火 9115
纹身 9113
追查 9109
黄金@@ 9109
出境 9107
范式 9107
非洲人 9106
透视 9104
牛仔 9101
受众 9100
牙医 9100
无所谓 9099
伽@@ 9098
管理制度 9097
月29日 9096
欢喜 9095
小岛 9093
小船 9092
堡@@ 9091
× 9088
付给 9088
最低工资 9088
网上@@ 9088
坦桑尼亚 9087
贫血 9087
id 9086
你好吗 9085
命题 9085
巴尔@@ 9084
微分 9084
找寻 9082
123 9081
上任 9081
那年 9080
掩护 9078
禅@@ 9078
面条 9078
不负 9077
撕裂 9076
油藏 9076
抽屉 9075
阻挠 9073
剧场 9072
初始化 9070
萨拉@@ 9070
窗帘 9068
我很好 9066
地理位置 9064
投资组合 9063
疡 9062
呆@@ 9059
规避 9059
九年 9058
塑料@@ 9058
3月31日 9055
贵州 9052
乡下 9051
马铃薯 9051
多谢 9050
客气 9047
晓 9047
完工 9046
三月 9045
拥护 9045
稍@@ 9045
闭幕 9045
全美 9044
孝@@ 9044
愿@@ 9044
款额 9042
牵涉 9042
看守 9042
辅@@ 9038
刹车 9037
孔子 9037
通信@@ 9037
挤出 9036
低碳 9035
刑@@ 9035
联邦调查局 9035
宣扬 9034
斯卡@@ 9032
调速 9032
急性@@ 9031
红十字会 9030
11月@@ 9029
毛泽东 9027
爱她 9026
搜@@ 9025
慌@@ 9023
蝇 9023
河边 9022
水泵 9018
精通 9018
化解 9017
钞票 9015
扔掉 9011
加入我们 9010
深夜 9010
民间@@ 9008
后台 9007
四大 9007
Ch@@ 9006
03 9004
余下 9004
总署 9003
爱德华@@ 9002
钼 9001
成交 8995
ah 8993
头盔 8993
轻型 8993
信服 8992
国际经济 8992
增量 8992
IMF 8991
悦 8990
造福 8990
两点 8989
体型 8989
欢 8989
雕@@ 8989
客户@@ 8988
经营@@ 8988
吉尔 8987
转录 8987
增效 8986
un 8984
合伙 8984
制冷 8982
移动@@ 8982
名片 8980
全能 8979
122 8978
努 8976
癫痫 8976
汪@@ 8975
饱@@ 8972
投放 8963
出错 8962
剖面 8962
普通话 8961
一九八@@ 8959
最先 8959
燃@@ 8959
毁@@ 8958
票房 8957
激增 8956
职场 8955
水肿 8954
中型 8952
庙 8952
退休金 8952
序@@ 8950
废墟 8949
浆@@ 8948
非统 8948
é 8945
趣味 8945
药剂 8944
呕吐 8941
房地 8941
走势 8939
辨别 8939
西雅图 8938
渐进 8937
演进 8937
弹道导弹 8936
冈 8935
照着 8935
行政机关 8935
辛格 8935
间距 8933
界@@ 8932
乒乓球 8931
婚姻@@ 8931
筹@@ 8929
常识 8928
打架 8928
早上@@ 8927
妄@@ 8925
扫盲 8925
方可 8924
2002@@ 8922
奥利@@ 8922
期盼 8922
程序员 8921
颜 8921
450 8920
向后 8920
夏日 8919
柳 8919
仆 8918
好坏 8915
魔力 8915
德曼 8913
位点 8912
南苏丹 8911
长寿 8911
问及 8910
转达 8908
行之有效 8907
ou 8905
粉红色 8903
对等 8902
人文@@ 8901
视频@@ 8900
黄河 8900
旅@@ 8899
纳粹 8899
SOA 8894
孕育 8894
手枪 8892
牛顿 8892
02 8891
3天 8891
彰显 8891
渴 8891
COP 8890
臣@@ 8889
寄生 8886
器械 8885
零食 8884
0.0@@ 8879
虚拟@@ 8879
庆典 8878
你的眼睛 8877
80年代 8873
剥@@ 8873
倒闭 8871
法国@@ 8869
洗涤 8868
第二次世界大战 8868
览 8868
域名 8867
AB@@ 8866
欣慰 8866
电站 8864
哟 8863
me 8862
哀悼 8862
et 8861
时效 8861
预应力 8860
怨 8858
理查德 8858
香肠 8858
大屠杀 8855
胚@@ 8855
影视 8854
University 8853
致敬 8853
凯文 8852
岳@@ 8852
追赶 8852
往下 8851
驳 8851
操控 8849
栖 8848
0.1 8845
琳达 8845
矿物质 8845
拿下 8842
空袭 8842
卡扎菲 8840
敢于 8839
利益相关者 8838
晃 8838
生日@@ 8837
蕴含 8837
酗酒 8837
忙于 8834
欧洲人 8834
三角洲 8832
总计 8830
赔 8830
露西 8830
闻到 8829
单单 8828
反之 8828
庭@@ 8827
敷 8827
婆 8826
1年@@ 8825
狩猎 8825
沿线 8824
烧烤 8824
眉@@ 8824
an@@ 8822
消费@@ 8822
先是 8821
目击者 8821
诈骗 8821
阻断 8821
上调 8820
用电 8820
长江@@ 8820
要买 8819
拐@@ 8817
暂 8817
AN 8816
·哈@@ 8816
对准 8815
恶性肿瘤 8815
注@@ 8815
熟知 8815
盗 8814
um 8813
大腿 8813
野餐 8813
执业 8812
隐患 8809
倒塌 8807
常务委员会 8807
结肠 8807
说服力 8807
二十一 8804
第一季度 8803
117 8799
遗传学 8798
1982年 8797
佛罗里达州 8796
订婚 8796
诊治 8796
AL@@ 8794
对流 8794
迎 8793
冲浪 8792
ERP 8791
崩@@ 8791
抱@@ 8791
数据分析 8791
面向对象 8789
须@@ 8788
no 8787
幻觉 8787
西部地区 8787
常务 8786
PID 8784
屈 8784
避孕 8783
恭@@ 8781
骑马 8778
法学院 8776
迦@@ 8775
信奉 8773
南南 8772
数据挖掘 8771
迫 8771
扩建 8770
喊道 8769
乔治·@@ 8766
航空@@ 8766
CL@@ 8764
忧 8763
日落 8763
桌@@ 8763
次要 8763
烂@@ 8763
皱纹 8762
自由贸易 8761
戴尔 8760
执着 8758
月28日 8758
柯 8758
驰 8758
两个孩子 8756
马达加斯加 8755
杀戮 8754
脚趾 8754
飞越 8754
2015年后 8753
2.2 8751
40年 8751
膳食 8751
跌倒 8750
师生 8749
去掉 8748
委托人 8748
交错 8747
结成 8747
访@@ 8746
绩 8744
妈妈说 8741
晒@@ 8741
可口 8739
梯@@ 8739
洗手间 8738
萧@@ 8738
退还 8738
恐怖袭击 8737
息@@ 8737
丢掉 8736
着力 8734
农业生产 8733
栓 8732
首饰 8731
交通工具 8730
创业@@ 8730
河水 8730
僵尸 8729
电气@@ 8728
菲尔@@ 8727
依托 8724
新近 8724
液态 8724
动人 8723
毅 8723
re@@ 8722
铸铁 8720
黑白 8720
兼@@ 8719
满满 8719
生命力 8718
鉴 8718
12年 8717
瞧瞧 8717
蒂斯 8717
夸大 8715
交通事故 8714
定量分析 8713
嚷 8712
德语 8712
额度 8712
解码 8710
1991年@@ 8708
涨@@ 8708
财物 8708
风光 8708
德里 8707
6.5 8706
坚硬 8706
in@@ 8705
粗鲁 8703
医疗@@ 8701
线性@@ 8700
露天 8700
WARGAME 8699
集成电路 8699
人口普查 8698
炎热 8698
婴儿@@ 8697
农户 8695
掠 8695
恐怖@@ 8694
陈旧 8694
乏味 8691
自律 8691
地下@@ 8690
干掉 8690
身影 8690
罕@@ 8689
尘埃 8688
CT@@ 8687
多哥 8687
暴力事件 8686
头衔 8684
雌@@ 8684
企业文化 8683
丧@@ 8682
拓宽 8681
合一 8680
复合@@ 8680
遇上 8677
咖啡馆 8676
及格 8675
坠 8673
过期 8673
出价 8668
浇 8667
工作报告 8666
断定 8665
质子 8664
Fe 8663
ra 8663
嗜 8662
DM 8661
数据中心 8661
使馆 8660
亮点 8659
伦敦@@ 8659
综合@@ 8659
亮度 8657
开通 8657
苍蝇 8657
朝鲜半岛 8654
这个月 8654
河道 8653
抉择 8652
登山 8652
CM 8651
金刚石 8650
蚕@@ 8649
道德@@ 8649
海南 8648
赠@@ 8648
赶出 8648
推定 8647
者@@ 8647
阿斯@@ 8646
回升 8645
慈爱 8645
ia 8644
丢弃 8644
快餐 8644
学生@@ 8643
六月 8640
叠@@ 8640
1.4 8639
背包 8639
编辑器 8638
克莱尔 8636
届满 8636
科技创新 8636
翠@@ 8636
2.1 8635
一个女孩 8635
上尉 8635
本该 8635
故乡 8634
三千 8632
压倒 8630
表单 8630
恳求 8629
相近 8629
浊 8626
辨 8626
直辖市 8625
入狱 8624
退役 8624
仇敌 8623
叫声 8623
出任 8622
页@@ 8621
人事@@ 8620
继承人 8620
贡 8620
饱受 8620
满怀 8619
饶 8619
手腕 8618
共鸣 8616
熏@@ 8616
究 8616
赌@@ 8615
醇@@ 8614
墓地 8613
糊涂 8613
伴有 8612
干脆 8611
钻孔 8611
现实主义 8610
另一半 8608
判别 8607
运费 8607
乎@@ 8606
掠夺 8606
皮层 8605
下达 8604
无奈 8602
花瓣 8600
赚取 8600
觉醒 8598
Na 8597
乙酸 8597
搏 8597
Michael 8596
克里斯 8596
喂养 8596
发动机 8595
袖 8595
联合国@@ 8594
询 8594
牛津 8591
筑@@ 8590
巧合 8588
里亚 8587
领导力 8587
金融体系 8586
社会化 8585
糊@@ 8585
誉为 8585
赶走 8584
陵 8584
民法 8581
神经系统 8581
祢 8578
近乎 8578
两相 8577
可悲 8577
扇门 8577
浸泡 8577
理学 8577
精品 8576
鳄鱼 8576
螺钉 8575
浇@@ 8573
牢记 8573
查出 8570
海绵 8570
相继 8570
马拉松 8570
挨@@ 8569
哼 8567
尼日尔 8567
巫师 8567
都是你 8567
圣地 8566
羟 8565
农历 8564
二十七 8563
转基因 8561
懒惰 8560
交通运输 8559
凭@@ 8559
拷贝 8558
耀@@ 8558
开阔 8557
总和 8556
货币@@ 8556
乔丹 8555
大卫@@ 8555
马拉维 8555
保育 8554
律师事务所 8554
掌管 8554
埃德@@ 8553
巴克@@ 8553
共进 8552
多米尼加共和国 8552
St@@ 8551
换言之 8550
阴极 8549
香港特别行政区 8549
播种 8548
项目@@ 8548
10000 8547
告诫 8547
昔 8547
捧 8544
晋@@ 8544
SD@@ 8543
一心 8543
业务流程 8542
论者 8542
透射 8542
颈@@ 8541
思索 8539
为准 8538
地貌 8537
任一 8536
法文 8535
轻轻地 8535
散文 8534
web 8533
吞噬 8533
LE@@ 8532
换成 8531
特种行业 8531
哈哈@@ 8530
试用 8530
碳水化合物 8529
惯性 8528
五十@@ 8527
纯净 8527
但@@ 8526
你还好吗 8526
联邦@@ 8525
携 8524
摄取 8522
栅 8522
弗雷德 8521
斯科 8520
2年@@ 8519
联委会 8519
弃@@ 8518
高位 8518
胶原 8517
无尽 8516
地处 8515
贩卖人口 8515
安迪 8514
智商 8514
禽流感 8514
涌现 8513
诉求 8513
玩意 8512
自由主义 8512
20.@@ 8511
守护 8511
障 8511
谱@@ 8509
平坦 8507
聚乙烯 8507
响起 8506
田间 8506
管理器 8505
诽谤 8505
189@@ 8504
凹@@ 8504
印制 8504
授@@ 8502
照相机 8500
意想不到 8499
复用 8498
前夕 8496
选拔 8495
Ⅰ 8494
光彩 8494
教程 8493
39@@ 8490
意在 8490
射流 8489
疏忽 8489
带入 8487
一月 8486
轻度 8486
III 8485
仑 8483
池塘 8483
七月 8481
童话 8481
房租 8480
浓郁 8480
迭@@ 8480
通量 8480
马达 8480
领地 8479
2005@@ 8478
斥 8478
学报 8477
申请书 8476
羽@@ 8476
贮藏 8473
图画 8472
赠送 8472
拆卸 8470
拦 8468
喝醉 8467
打球 8467
早饭 8467
见识 8467
LC 8466
朝鲜@@ 8466
概 8465
过夜 8465
疫 8464
斡旋 8460
赔@@ 8460
战略目标 8458
心意 8456
英语学习 8456
邪 8456
7000 8455
套房 8455
检出 8452
窃@@ 8452
无处不在 8451
引爆 8450
火花 8450
医务 8449
压电 8449
禽@@ 8448
董@@ 8448
保罗@@ 8446
135 8445
人行道 8445
国家队 8445
1967年 8444
河北 8444
尖端 8443
大家好 8442
橙 8442
硅谷 8442
宪政 8441
回馈 8440
珀 8440
好比 8439
新闻稿 8439
硫化 8436
SA@@ 8435
教学模式 8435
种族灭绝 8435
菲尔 8435
项@@ 8435
门前 8434
吉布提 8433
寺庙 8433
肺部 8433
co 8430
思维方式 8430
接替 8429
相识 8429
茅@@ 8429
高空 8429
譬如 8428
担@@ 8427
会员卡 8426
上映 8425
判刑 8424
心目 8424
行长 8423
我的爱 8422
未见 8422
该处 8421
发芽 8419
商业化 8419
有一个人 8419
杯@@ 8416
落入 8416
CH@@ 8415
插值 8415
泽民 8415
心爱 8414
德拉 8413
空闲 8413
° 8412
秃@@ 8412
骆驼 8412
娇@@ 8411
蹲 8410
夺@@ 8408
阿拉伯@@ 8408
新任 8407
低调 8406
印度@@ 8406
增值税 8405
牢@@ 8405
绍@@ 8405
佩戴 8404
客运 8404
步枪 8404
石膏 8403
121 8402
二年 8402
夕 8399
三日 8398
划定 8398
新能源 8398
侵@@ 8397
美景 8397
花序 8397
生机 8396
宁波 8395
抽出 8392
油墨 8392
标准@@ 8391
领养 8391
尔德@@ 8390
招呼 8389
有助 8388
航海 8388
农民工 8386
胺@@ 8386
这天 8385
拢 8383
来往 8383
傻@@ 8382
新区 8382
耀 8382
有线 8381
跃 8380
老头 8378
六十二 8376
比特币 8376
产地 8375
政府@@ 8375
暴行 8375
由@@ 8372
CPU 8371
我校 8370
作弊 8364
樱桃 8364
荫 8364
疲软 8362
共产主义 8361
杰克@@ 8359
师傅 8357
下个月 8356
米尔@@ 8356
周刊 8355
地球化学 8355
排气 8355
战机 8354
Mc@@ 8353
法医 8353
缝合 8352
11号 8351
交战 8350
十六@@ 8350
两地 8349
停顿 8349
勃勃 8348
开火 8348
小费 8347
沾 8347
旷野 8345
体温 8344
崇@@ 8344
碰巧 8344
腹腔 8341
在下 8340
高炉 8340
悬崖 8339
盏 8339
大战 8338
管线 8336
参展 8335
游艇 8335
进修 8334
酸奶 8334
向着 8333
大方 8333
黄昏 8332
喻 8331
固态 8331
脉@@ 8331
靠着 8331
佛罗里达 8329
某@@ 8329
戒烟 8328
体育场 8327
子宫@@ 8326
警员 8326
失眠 8325
1999@@ 8323
辛勤 8323
迷你 8323
民事@@ 8322
紧凑 8322
栽 8320
绝佳 8319
配合物 8319
中心@@ 8317
临床试验 8317
午 8317
希尔@@ 8316
MO@@ 8315
兵力 8315
内蒙古 8315
独有 8314
根基 8312
丑陋 8310
分期 8310
公会 8308
06 8307
阁 8306
安·@@ 8305
征得 8304
辐照 8304
PP@@ 8301
泳池 8301
表扬 8301
钢筋混凝土 8301
1979年 8300
石英 8300
历史学家 8299
派人 8298
地政 8296
法兰@@ 8296
126 8295
莱特 8295
十字 8294
急于 8293
解体 8293
授课 8292
黏膜 8290
ley 8289
炮弹 8289
官长 8286
答辩 8286
对冲基金 8284
天性 8283
掌声 8283
ton 8281
辅 8281
闷@@ 8281
叮@@ 8280
移动电话 8279
嫌 8278
空心 8277
路透社 8277
人脸 8276
拘捕 8276
敌意 8275
顺从 8275
酯@@ 8274
先驱 8273
圣洁 8273
曼哈顿 8272
喘 8270
ad@@ 8269
产科 8269
小提琴 8269
蝙蝠 8269
漂 8266
考古 8266
婴 8264
四川省 8261
迈向 8261
博茨瓦纳 8258
不能说 8256
别无选择 8256
双赢 8256
庭长 8255
数据采集 8254
纽带 8254
诱人 8254
财务管理 8254
锈@@ 8252
梳@@ 8250
捆 8249
厌烦 8248
芙 8247
咨询公司 8246
河南省 8246
损@@ 8245
主动脉 8243
尔斯@@ 8242
怨@@ 8241
手头 8241
链路 8241
根深蒂固 8239
质询 8239
岁@@ 8238
围巾 8237
抛光 8237
欺负 8237
07 8235
3.3 8234
温室 8234
浸润 8233
你是@@ 8229
多项式 8229
雇佣军 8229
ar@@ 8226
安德@@ 8226
铃@@ 8226
列于 8225
军团 8223
制图 8219
建设项目 8218
未来@@ 8217
Cu 8215
亲手 8215
斯科特 8214
高产 8214
素养 8213
菜肴 8213
摆动 8211
惊叹 8210
雪花 8210
吸血鬼 8209
自体 8209
莱斯 8209
加利福尼亚州 8208
园艺 8208
抵@@ 8207
轮流 8207
溢@@ 8206
1984年 8205
气压 8205
池@@ 8204
阻滞 8204
流水 8203
口岸 8201
怎么看 8200
撤消 8200
对阵 8199
空洞 8197
路易@@ 8197
十大 8196
构架 8196
CH 8195
摘@@ 8195
喇叭 8194
疏 8194
搅 8193
英文@@ 8193
仪@@ 8192
扩增 8191
摆放 8190
迈克尔·@@ 8190
那个女孩 8189
抵触 8188
掷 8188
承付 8187
躁 8187
股票@@ 8186
﹐ 8186
相辅相成 8184
软件开发 8184
德勒 8183
无能为力 8182
荡@@ 8180
猜@@ 8179
二进制 8177
地理信息系统 8174
书本 8173
景区 8173
一年一度 8172
恐 8172
做自己 8171
13号 8169
切入 8169
形容词 8169
流浪 8169
ak 8168
仇@@ 8168
相差 8168
看望 8168
调集 8167
re 8166
以至 8166
学士 8166
工作流 8166
罗伯特·@@ 8165
上车 8164
否 8164
拳击 8164
香草 8164
浦 8162
施肥 8161
可逆 8159
投射 8159
陕西 8159
援@@ 8158
橙色 8157
俄语 8156
单据 8155
巴巴多斯 8154
疾 8154
臣 8154
创新@@ 8153
LO@@ 8152
路程 8152
预防@@ 8152
中英 8151
预审 8149
多普勒 8148
议长 8148
te 8146
同比 8146
体罚 8145
逛 8145
平息 8144
无私 8144
互惠 8143
宿主 8143
推特 8143
本会 8143
国有@@ 8142
PI 8139
5.5 8138
IN@@ 8138
绳之以法 8137
中文@@ 8135
保全 8135
渔民 8135
多变 8133
kg 8131
肥皂 8131
谋生 8131
独立@@ 8130
画画 8130
知识管理 8128
蜡@@ 8128
鼎@@ 8128
粒径 8126
赤贫 8126
音响 8126
行进 8124
中级 8123
半球 8123
放映 8123
入选 8122
熬 8121
关系@@ 8120
汀@@ 8119
疑惑 8119
奴隶制 8118
送达 8118
修女 8117
抓紧 8117
再有 8116
划拨 8116
可知 8116
东方@@ 8113
法师 8113
自然环境 8112
不知不觉 8111
当晚 8111
优缺点 8109
内侧 8109
蛮 8109
难怪 8109
溅 8108
寂静 8107
忆及 8107
小丑 8106
现年 8106
卫生间 8104
睡眠@@ 8104
资产负债表 8104
汇票 8101
蓬@@ 8100
小路 8099
水电站 8098
穿梭 8098
甸 8097
市场竞争 8096
梗 8096
适时 8096
雀 8096
不通 8095
弓@@ 8094
近视 8093
螺 8091
锐 8091
原谅我 8090
蒸馏 8090
迫@@ 8090
il 8089
三个代表 8089
步兵 8089
而行 8089
受苦 8088
声波 8087
幼虫 8087
买入 8085
历经 8085
辽@@ 8085
1.6 8083
小姑娘 8083
忧@@ 8083
米饭 8082
好奇心 8080
帮@@ 8080
1978年 8076
纪念品 8076
大叫 8075
履约 8075
交联 8074
再造 8074
12月31日 8073
实业 8072
威力 8071
赤 8071
选区 8071
马尔代夫 8071
幼苗 8070
款@@ 8069
David 8067
内镜 8067
外人 8067
明明 8067
三类 8066
186@@ 8065
免得 8065
猎物 8065
刑事诉讼法 8064
龙虾 8064
签@@ 8063
联合国儿童基金会 8062
女工 8060
摩纳哥 8060
伐 8059
福建省 8059
得意 8058
201@@ 8056
大蒜 8056
美好的@@ 8056
洽谈 8055
议@@ 8055
该市 8054
遇@@ 8052
陆续 8052
博士学位 8050
咒 8050
跳动 8050
慈悲 8049
薯条 8047
共用 8046
建制 8046
谈起 8046
失落 8045
Sh@@ 8042
q@@ 8042
耗尽 8042
喘@@ 8040
娘@@ 8040
少年@@ 8040
旅行者 8040
梦境 8040
派驻 8040
10:@@ 8039
盐水 8039
讲究 8039
幅画 8037
平均值 8037
校区 8037
驱使 8036
核酸 8035
18个月 8034
旨意 8034
萨摩亚 8034
无常 8032
起动 8032
喷嘴 8031
复位 8031
政体 8031
晚上@@ 8031
标明 8031
昏迷 8029
人造@@ 8028
球形 8028
资质 8028
艳 8026
汇聚 8025
耻辱 8024
凌晨 8023
纳德 8023
庭院 8021
影像学 8021
货品 8021
下巴 8020
理应 8018
NET 8017
凹陷 8017
迈阿密 8017
晶粒 8016
灵敏 8015
葱 8015
比值 8014
结节 8014
西瓜 8014
逸 8014
生态学 8013
馅饼 8012
好啦 8011
卑@@ 8010
保有 8009
日内 8009
240 8008
AA 8008
押@@ 8008
第二@@ 8008
沼泽 8005
留住 8005
张贴 8003
辩@@ 8003
刚果@@ 8001
顺着 8001
杭@@ 7999
食谱 7998
极性 7997
电信@@ 7997
跳过 7997
看清 7996
膛 7996
以利 7995
发货 7995
豆腐 7995
刻意 7993
开裂 7993
德尔@@ 7991
鸿@@ 7991
害虫 7990
小猫 7990
肇事 7989
两个@@ 7988
剥离 7988
山坡 7988
拘@@ 7988
玄@@ 7988
淋巴 7987
吉尔@@ 7986
2.3 7985
休克 7985
比特 7985
电子产品 7985
振奋 7984
跪 7981
Re@@ 7980
USB 7978
毗邻 7977
渊源 7977
锦 7977
共同@@ 7976
无损 7976
流畅 7976
水上 7974
受援 7972
联接 7972
不合适 7971
乳酸 7971
腐烂 7969
椒 7967
科学院 7967
９ 7967
杀掉 7966
心率 7965
拉德 7965
追回 7965
RP 7964
敦 7964
椎@@ 7964
3.2 7963
市场化 7963
撤 7963
粉煤灰 7963
功耗 7962
卡洛@@ 7962
找回 7962
仅次于 7961
激怒 7960
句@@ 7959
瘫 7959
精准 7958
魂@@ 7957
慕 7956
AN@@ 7955
守卫 7955
练@@ 7955
es@@ 7954
特曼 7954
传闻 7953
市政府 7951
纬 7950
Internet 7949
写到 7949
显露 7949
段@@ 7949
公元前@@ 7948
路过 7948
未决 7947
七十 7946
旅行@@ 7946
珍妮@@ 7946
闭合 7946
到时 7945
PT@@ 7944
束@@ 7944
相信自己 7944
2.4 7943
来电 7943
技艺 7942
概览 7942
la 7941
学派 7941
风扇 7941
主场 7940
124 7939
管理办法 7939
规制 7939
侯@@ 7938
快走 7938
美好@@ 7938
归类 7937
慎重 7937
当务之急 7935
丰盛 7934
快速@@ 7934
相变 7934
蹄 7934
湘@@ 7933
断言 7930
砂岩 7930
筛查 7930
蒋@@ 7930
修好 7929
敲门 7928
自由度 7928
日语 7927
解剖学 7927
共生 7925
剑桥 7924
照相 7924
读写 7924
垢 7923
转会 7923
咖啡因 7922
浴缸 7922
渡过 7922
特斯 7922
捷克 7921
欧洲央行 7919
无声 7916
乡镇 7915
捐献 7915
不育 7914
搞笑 7914
星级 7914
神学 7914
异步 7913
造价 7912
建国 7910
8年@@ 7909
盗版 7907
斐@@ 7906
游戏@@ 7905
帆船 7904
PD@@ 7903
元数据 7903
存有 7903
我的父亲 7903
木质 7903
ME@@ 7902
壳聚糖 7901
我俩 7901
月2@@ 7901
评为 7900
兆@@ 7899
加工@@ 7899
召回 7899
怪异 7899
天文 7898
脑部 7896
偏移 7894
定时 7893
演唱会 7893
乌龟 7892
发展@@ 7892
底线 7890
研训 7890
居所 7889
梳 7889
账@@ 7889
看重 7888
茂 7888
ya 7886
现况 7886
对啊 7885
克雷@@ 7884
永磁 7884
黏 7884
及早 7881
可可 7880
梭 7880
翼@@ 7880
妞 7879
孕产妇 7879
镇静 7879
琼 7878
特种 7877
风情 7877
枪手 7876
詹姆斯·@@ 7876
迪·@@ 7876
图谱 7875
潭 7875
爷@@ 7875
脸色 7875
校园@@ 7874
铲除 7874
降温 7874
新闻报道 7873
抑或 7872
摩根 7871
蝶 7871
南美 7870
撕 7870
政务 7870
引诱 7869
强国 7869
卸 7868
瞎 7865
难免 7865
北韩 7864
声学 7864
施工@@ 7864
泳@@ 7864
关乎 7861
昏 7861
一世 7859
巴塞罗那 7859
狱 7858
价值链 7857
揭开 7857
34@@ 7856
腾讯 7854
伊斯@@ 7853
人次 7852
河北省 7852
党内 7850
我的儿子 7850
一年@@ 7849
史蒂夫 7847
嗪 7847
赐予 7847
图纸 7846
减税 7845
酿造 7845
当场 7844
在座 7843
打工 7843
127 7842
四日 7842
水量 7841
细心 7841
忙@@ 7839
超大 7838
偏低 7836
出手 7835
砌 7835
枣 7833
崩 7830
防空 7829
睾丸 7828
300@@ 7827
牌子 7827
对接 7825
灭亡 7825
移居 7824
鲜艳 7824
屠@@ 7822
黎@@ 7822
彬@@ 7817
CI 7816
微量元素 7816
发疯 7814
高手 7814
彩票 7813
虐 7812
针织 7812
回转 7810
大意 7810
酬 7810
重生 7809
匙 7808
固然 7808
超重 7808
唉 7807
茱@@ 7806
体质 7804
松弛 7800
饺子 7800
卤@@ 7797
IV 7795
正常人 7795
贺 7795
60年代 7793
矫@@ 7793
羞愧 7793
亚伦 7792
杠 7791
液压@@ 7790
风力 7790
阵容 7789
温泉 7788
疹 7788
沐浴 7787
打动 7786
VI 7784
圣地亚哥 7783
学界 7782
内特 7781
械 7781
公义 7779
筹划 7779
罗宾@@ 7778
超微 7778
空虚 7777
迫不及待 7777
全息 7776
加氢 7776
该区 7776
拿去 7775
雄厚 7774
PE@@ 7773
涨幅 7772
外汇储备 7770
费城 7770
耕作 7769
英勇 7769
哩 7768
遣 7768
巴菲特 7766
曲折 7766
特纳 7766
焊缝 7763
电子设备 7762
聋 7762
坦诚 7761
有机物 7761
痉挛 7760
马拉 7760
晶体管 7759
泊@@ 7758
湖北 7758
症@@ 7758
伤痛 7755
奥·@@ 7755
睁 7755
存在问题 7752
实习生 7752
戴维斯 7751
砍伐 7751
发展规划 7749
女演员 7748
报刊 7748
经营理念 7748
万分 7747
火腿 7747
大宗商品 7746
鲸鱼 7746
准备好了吗 7744
杀了我 7744
宝座 7742
必备 7741
烧毁 7740
老太太 7740
下肢 7739
挑剔 7739
绵 7739
请愿 7739
冥@@ 7737
赢家 7737
黏@@ 7737
失真 7736
教义 7736
菇 7736
保障措施 7735
迟早 7735
CCD 7733
搜 7733
靴子 7733
病理学 7731
落到 7731
身着 7731
墨水 7730
拨@@ 7730
缝@@ 7729
捏 7728
剥 7727
掀起 7727
渐@@ 7727
应邀 7726
硕士学位 7726
评选 7726
洗手 7724
波音 7723
{ 7722
毛细管 7721
细小 7721
室温 7720
捉 7720
\ 7719
弊端 7719
装甲 7719
走近 7718
1.8 7716
亩 7716
儒@@ 7716
纸板 7716
克里 7715
哎 7714
不足之处 7713
尘土 7712
0.7 7711
up 7710
小吃 7710
标注 7709
Server 7708
篇章 7708
骑车 7708
分部 7707
车身 7706
避难 7706
邓小平 7705
联席 7704
反腐败 7702
我的父母 7702
沈阳 7702
沃尔玛 7701
高尔夫球 7701
水池 7700
改建 7699
酿 7699
甲方 7698
玩游戏 7696
重用 7695
纪念碑 7694
罐@@ 7694
CF@@ 7693
置身 7693
顶点 7693
我喜欢你 7692
会计师 7691
恐@@ 7691
中情局 7690
训@@ 7690
君主 7689
证券交易所 7689
RO@@ 7688
光亮 7688
帕克 7687
比方 7687
锈 7685
5天 7683
毫克 7683
壁垒 7682
半场 7681
新车 7680
LD@@ 7678
探寻 7678
产业@@ 7677
好久 7675
核试验 7675
平壤 7674
悉 7674
前端 7672
忠告 7671
不能@@ 7670
公投 7670
排球 7670
义务教育 7669
切尔 7667
布满 7667
后备 7666
风俗 7666
132 7664
班上 7664
牢房 7663
亡@@ 7662
八月 7661
如意 7661
波段 7661
三个人 7660
地道 7660
缠绕 7660
半夜 7658
烟气 7658
憎恨 7653
流速 7653
滋@@ 7652
访客 7651
手持 7650
荣获 7649
公牛 7648
珊 7648
无礼 7647
麦凯恩 7647
二甲@@ 7646
IPO 7645
HA 7644
PL@@ 7644
分流 7643
碎石 7643
麦克斯 7643
Re 7642
亚洲@@ 7640
谎 7640
后退 7639
随机@@ 7639
喝水 7638
继任 7638
阶梯 7638
爱的@@ 7637
传入 7636
7天 7634
啉 7634
皇室 7634
维尔@@ 7634
3.1 7632
战略规划 7631
梢 7631
粉色 7631
网民 7631
发售 7629
集束 7628
阀@@ 7627
结社 7626
倍@@ 7625
涩 7625
防火墙 7625
快递 7624
敷@@ 7624
边际 7624
平和 7623
牙科 7623
阿拉伯国家联盟 7623
复活节 7622
舒 7622
王室 7620
国家利益 7619
暗杀 7619
田野 7619
北非 7618
副总理 7617
偷运 7614
国家行动 7614
视听 7613
汤米 7612
对外贸易 7611
果子 7611
亮相 7610
有损 7610
路透 7609
圣诞树 7608
阿卜杜@@ 7607
ka 7606
墩 7606
工地 7606
闯入 7606
FS 7605
HS 7605
受限 7605
人与人 7604
求得 7604
信用@@ 7603
我们在一起 7603
灌输 7602
终身@@ 7602
证券市场 7600
南美洲 7597
悠 7596
首批 7595
也好 7593
华为 7593
膜炎 7593
驾@@ 7592
北京奥运会 7591
恩斯 7590
骚乱 7589
介于 7587
五天 7586
老挝 7586
学士学位 7585
该案 7585
轮椅 7584
阵营 7584
撤退 7583
灼@@ 7583
下届 7582
归来 7582
分行 7579
珊瑚礁 7579
绽放 7579
重启 7579
拉斯维加斯 7578
自然人 7578
活检 7577
亚特兰大 7576
糖尿病患者 7576
西红柿 7575
嚼 7573
哲 7571
生长发育 7570
多伦多 7569
静静 7569
会所 7567
钙@@ 7567
供货 7565
普斯 7564
IR 7563
遗迹 7560
消逝 7559
甲状腺 7559
辙 7557
ie 7556
低频 7556
存取 7556
美方 7555
ha 7554
我不要 7554
无用 7554
画像 7554
外向 7553
道义 7553
披 7550
栅栏 7550
梦中 7550
花岗岩 7550
MS@@ 7549
三者 7548
校友 7548
账号 7548
皮肤@@ 7546
泊 7544
颂@@ 7544
静静地 7543
修剪 7539
药材 7539
波斯@@ 7538
碳酸 7538
宅@@ 7537
抗争 7537
罗斯福 7537
莉亚 7536
慧 7535
离子@@ 7534
复审 7532
科夫 7532
超人 7532
高涨 7532
肿胀 7530
餐具 7530
跨度 7528
另行 7527
公共交通 7526
著称 7526
不朽 7525
哲@@ 7525
^ 7524
回报率 7523
管理模式 7523
劲@@ 7522
罢@@ 7522
产业结构 7520
打仗 7519
坚定不移 7518
威慑 7518
岭@@ 7517
小波变换 7516
布尔@@ 7516
丧 7515
47@@ 7514
气相 7513
泛滥 7513
作曲家 7512
罐头 7511
迎合 7511
雌性 7511
封建 7510
巴西@@ 7508
亚的斯亚贝巴 7507
着火 7506
酿酒 7506
相片 7504
04 7503
名牌 7503
圭亚那 7503
右翼 7502
湍流 7502
固定@@ 7501
本市 7501
极小 7501
乙方 7500
叛@@ 7499
兰德 7497
汉娜 7497
芭@@ 7497
连接器 7497
In 7495
500@@ 7494
麻疹 7493
年老 7492
陷于 7491
西蒙 7490
要好 7490
要紧 7490
卵@@ 7489
古典@@ 7488
伊利诺@@ 7487
绣 7487
渲染 7486
阔@@ 7485
一模一样 7484
低价 7484
腕 7484
谚语 7484
安妮@@ 7483
新界 7483
桨 7483
晚间 7482
格兰@@ 7482
萧条 7482
单身@@ 7481
花儿 7481
火炬 7480
罗斯@@ 7480
评估报告 7480
关键字 7476
海洛因 7476
誓 7474
上年 7473
PO@@ 7471
废气 7470
忌 7469
二十八 7468
六日 7468
文件@@ 7468
说明书 7468
送回 7467
喝咖啡 7466
看着你 7465
粘结 7465
全会 7464
哈维 7464
邪@@ 7464
笼子 7463
位居 7462
颇有 7462
景气 7460
迷信 7460
戏剧性 7457
全然 7456
坚守 7456
爸妈 7456
吓坏 7455
地球@@ 7455
杉@@ 7455
皮带 7455
堪@@ 7454
聚丙烯 7453
沉思 7452
大众@@ 7450
咸 7449
CRP 7448
不爱 7446
佩 7446
喷涂 7446
巧@@ 7446
月中 7446
老妈 7446
赛跑 7445
190 7444
Corr 7443
痘 7443
霞 7443
挪 7440
沸腾 7440
耸@@ 7440
大树 7439
打出 7439
后院 7438
头疼 7438
详 7437
震荡 7437
沙子 7436
CR@@ 7435
威尔逊 7435
22日 7434
派别 7434
钨 7434
阵子 7434
别处 7433
平面@@ 7433
前人 7432
太阳系 7432
抢救 7432
麻痹 7431
病学 7430
社群 7430
虚伪 7430
0.2 7429
缩写 7428
竟@@ 7427
MR 7426
加油站 7426
环保@@ 7425
一经 7424
九龙@@ 7424
伸手 7424
go 7423
大肠杆菌 7423
升至 7421
疆@@ 7421
金属@@ 7421
培训中心 7420
坠落 7419
12号 7417
加仑 7417
盲人 7417
不理 7416
普罗@@ 7416
贝拉 7416
矿工 7415
课堂教学 7415
健身@@ 7414
儒家 7414
热带@@ 7414
蹦@@ 7414
里德 7412
隐性 7411
夫斯基 7410
家电 7408
血腥 7407
复印件 7406
醒@@ 7406
印度人 7405
RT 7404
As 7403
高分子 7403
梦幻 7402
矮@@ 7402
熄灭 7401
军备竞赛 7399
加压 7399
幸福@@ 7399
房舍 7399
岗@@ 7398
拓 7397
交界 7396
写给 7396
中和 7395
姚明 7395
洛克@@ 7395
里昂 7394
顶峰 7394
倾倒 7392
昆明 7392
值@@ 7391
协同作用 7391
拥@@ 7391
中日 7390
丝绸之路 7389
只得 7389
知名度 7389
Co@@ 7388
八十 7388
微风 7388
光合 7387
高阶 7387
内疚 7386
受雇 7386
转换器 7386
地壳 7383
架子 7383
弹道 7380
哨 7379
音译 7379
挽回 7378
催 7377
四肢 7377
电容器 7377
中西部 7376
末期 7376
自有 7376
血脂 7376
鸿 7376
化身 7375
瓦尔 7375
轰 7375
揍 7372
波恩 7372
离开我 7372
吓人 7371
郁 7371
化为 7369
毯子 7369
修行 7367
纤@@ 7367
跌幅 7367
nm 7366
专属 7366
外科医生 7366
登机 7366
见见 7365
买东西 7364
砍@@ 7364
处处 7363
应从 7363
水道 7363
粤@@ 7363
九龙 7362
心底 7362
性别歧视 7362
IM@@ 7361
接收机 7361
188@@ 7360
揽 7360
财经 7360
人类学 7359
分光光度法 7359
稀有 7358
幸存 7357
事务所 7356
as@@ 7355
撇@@ 7355
迈克尔@@ 7354
充填 7353
初学 7353
质量管理 7353
玩意儿 7351
六十三 7350
捷@@ 7348
放慢 7345
许诺 7345
0000 7341
售出 7341
担 7341
理会 7340
公职人员 7339
用例 7339
载波 7339
舰@@ 7338
车票 7337
儿科 7336
} 7335
路口 7334
甘油 7333
44@@ 7332
慈善机构 7331
se 7330
电镀 7329
同情心 7327
我和你 7327
局域网 7326
我是@@ 7325
等价 7325
蛾 7325
警觉 7323
氮@@ 7322
淮@@ 7322
申请表 7322
谦卑 7322
巴布亚新几内亚 7321
安徽 7320
舵 7320
穿孔 7319
min 7318
勃 7318
合办 7317
鳍 7317
进军 7316
毛发 7315
雌 7315
16号 7314
上将 7314
中美关系 7313
喀布尔 7313
小企业 7313
芒 7313
答道 7312
仓储 7311
设@@ 7310
乳房 7309
所学 7308
遥控 7308
朝向 7307
霍华德 7307
花卉 7306
逾期 7304
阿拉伯人 7304
对外开放 7303
秉承 7303
传言 7302
保住 7302
精明 7302
共聚物 7301
呼声 7301
品格 7301
向来 7300
套装 7300
敌军 7300
10天 7299
出院 7298
杂草 7298
城墙 7297
帖子 7297
甲状腺@@ 7297
票价 7297
颅 7297
精选 7296
三相 7294
巨星 7294
造纸 7292
权衡 7291
衡@@ 7291
路易 7291
ey 7289
揭@@ 7288
股权@@ 7288
遗失 7288
金融业 7288
平均@@ 7283
黄酮 7283
濒临 7281
刘 7280
坚持不懈 7280
宁可 7280
淡淡 7280
众生 7279
长沙 7279
隐含 7279
外加 7278
拘禁 7277
迷宫 7277
珥 7276
脂质 7275
中西 7274
劳动法 7272
病害 7272
在你身边 7270
根系 7270
蛋白@@ 7270
青年@@ 7269
知识经济 7267
臭氧层 7267
起义 7266
摄氏度 7265
萨斯 7264
金枪鱼 7264
宾客 7262
MD 7261
细化 7261
创始 7260
皆@@ 7259
谭@@ 7258
雄心勃勃 7256
拿破仑 7253
武士 7253
闭环 7253
八日 7251
控诉 7250
受托 7249
xml 7245
环境卫生 7245
积压 7245
1540 7242
28日 7242
鬼魂 7242
不失 7241
裸 7241
二世 7240
公司治理 7240
跟我来 7240
郊@@ 7240
瘀 7238
铭 7238
倒退 7237
粘性 7236
奶粉 7235
烟囱 7235
am@@ 7233
欠@@ 7233
疮 7233
诺夫 7233
布莱克 7232
酒店@@ 7232
攀@@ 7230
贷@@ 7230
惯 7229
PD 7228
坪 7228
埃里@@ 7228
海浪 7226
丰富多彩 7225
宰 7225
国务 7224
实况 7224
盎司 7224
高考 7224
氢气 7223
美国国会 7222
凝聚力 7221
汤姆@@ 7221
瓦解 7221
电动汽车 7221
布罗@@ 7220
逝世 7220
预制 7220
无意识 7219
煤层 7219
国民党 7218
万能 7216
擅自 7216
领悟 7216
面谈 7215
广州市 7214
ISO 7213
切合 7213
大陆架 7213
老龄化 7213
共度 7211
叹息 7211
禁忌 7211
转弯 7211
阔 7211
导线 7209
客机 7207
滩@@ 7207
饮@@ 7207
医用 7206
肩负 7206
课本 7206
月光 7205
育儿 7205
骤@@ 7205
明日 7203
痴呆 7203
史密斯先生 7202
艾玛 7202
机电 7199
ne 7198
以为@@ 7198
时代@@ 7198
社会保险 7198
四百 7197
统计局 7197
1949年 7196
宣传@@ 7196
最差 7196
江西 7196
人体@@ 7194
会同 7194
同源 7194
心肌@@ 7193
就业@@ 7192
总值 7192
饰演 7191
25日 7190
屁 7190
储藏 7189
大熊猫 7188
安心 7188
安息 7188
专制 7187
丹尼@@ 7187
亚历山大 7187
火山@@ 7187
专科 7186
避难所 7185
人性化 7183
提炼 7183
公共场所 7182
惜 7180
托克劳 7180
该类 7178
锋@@ 7178
唤起 7176
纠@@ 7176
舞蹈@@ 7175
软化 7173
配制 7173
把戏 7172
el@@ 7171
举足轻重 7171
勒斯 7171
盼 7170
妓女 7169
讲到 7169
赫尔@@ 7169
43@@ 7168
镶 7166
ri 7164
安盟 7164
咳 7163
换热 7163
ko 7162
诺基亚 7162
叫醒 7161
得主 7160
凯蒂 7159
森·@@ 7159
驻扎 7159
减至 7158
博士@@ 7158
婉@@ 7158
漆@@ 7158
长短 7158
兄弟姐妹 7157
落地 7157
有别 7155
10月1日 7154
荒唐 7154
何况 7151
检查站 7151
财政政策 7151
文摘 7150
不尽 7149
搞@@ 7148
既@@ 7148
舱@@ 7148
陪@@ 7148
一百万 7146
放过 7146
萝卜 7146
一瞬间 7144
搬运 7144
猫咪 7144
破解 7144
RA@@ 7141
国际金融 7140
战时 7140
抑@@ 7140
浮现 7139
按揭 7138
暨 7137
en@@ 7136
共赢 7136
计划@@ 7136
这栋 7136
公安机关 7134
逐年 7134
ER@@ 7133
小心翼翼 7133
衔 7133
远景 7133
台湾@@ 7132
工程项目 7132
银河 7132
匹@@ 7131
较快 7131
最好的朋友 7129
印花 7128
已故 7128
洗衣机 7127
欢笑 7126
波黑 7125
滋养 7125
完好 7124
集团公司 7124
退回 7123
你在哪里 7122
互换 7121
斩@@ 7121
蜂窝 7120
杀菌 7119
公关 7118
合法化 7118
塑胶 7118
公元@@ 7117
质地 7117
福克斯 7116
索尼 7116
切成 7115
习得 7114
尼龙 7114
界线 7114
突显 7114
输电 7114
优先级 7113
勒索 7113
继电器 7113
陈列 7112
鹿特丹 7112
天文学家 7111
新手 7111
新闻媒体 7110
保守党 7108
当心 7108
徒刑 7108
箭头 7108
韧 7108
内向 7105
伊丽莎白@@ 7104
英俊 7104
迷恋 7104
外汇@@ 7103
水产 7103
贤@@ 7103
153 7102
Bo@@ 7102
分项 7102
加尔@@ 7102
中途 7101
古董 7101
联大 7101
都一样 7101
水性 7099
底特律 7098
129 7097
政变 7095
添@@ 7095
湿润 7093
遗体 7093
石灰 7091
代理商 7090
安吉@@ 7090
丙烯酸 7089
战略@@ 7089
临到 7088
哈里 7088
圣人 7088
地段 7087
股骨 7087
9000 7086
三十五 7086
戳 7085
轧制 7085
主营 7083
所罗门 7083
朋@@ 7083
围着 7082
新书 7082
觉察 7082
逼@@ 7082
PC@@ 7081
下行 7081
凯西 7081
坎 7081
富豪 7081
支气管 7081
电影节 7080
馆@@ 7080
li 7079
位子 7079
整治 7079
侵权行为 7076
风速 7076
点半 7074
翻新 7073
巴斯 7072
单向 7071
熔融 7071
外衣 7069
火力 7067
嫩@@ 7064
亦@@ 7063
分销 7063
虚拟现实 7063
di 7059
宅 7059
死人 7058
远见 7058
归结 7057
汉族 7057
克里斯蒂@@ 7056
山市 7056
运到 7056
ML 7054
46@@ 7053
操作@@ 7053
素质教育 7053
解密 7053
凑@@ 7052
旦 7052
新高 7051
时域 7050
鹰@@ 7050
136 7049
倒霉 7049
募集 7049
iPad 7048
偏向 7048
庆幸 7048
摄 7048
路由器 7048
葛 7046
帘 7045
不同寻常 7044
想见 7042
行车 7042
商业模式 7041
泻 7040
愈来 7038
联合国安全理事会 7038
厌@@ 7037
宠 7037
财政部长 7037
配送 7036
UNEP 7034
搬@@ 7034
病症 7034
灭火 7032
场馆 7029
威尼斯 7029
饰品 7029
芽@@ 7028
河里 7027
公屋 7026
对你说 7026
筹款 7026
赋权 7026
PVC 7024
日向 7024
禅 7024
胡椒 7023
施用 7022
辩护律师 7022
不复 7021
专利@@ 7021
产后 7021
投资银行 7021
我在这 7018
皂@@ 7018
凡事 7017
民营 7017
为生 7015
旱@@ 7015
串行 7014
德利 7014
走走 7013
布料 7011
瞬时 7009
鹅@@ 7009
阿布哈兹 7008
IM 7007
调查报告 7007
酮@@ 7007
杏仁 7006
自大 7006
活下去 7005
生来 7005
着装 7005
貌似 7005
修辞 7003
潜意识 7003
美人 7003
信号@@ 7002
响@@ 7002
滔@@ 7002
org 7001
肾上腺素 7000
乔伊 6999
教学法 6998
自家 6998
罗伊 6997
饮品 6996
用完 6995
伐@@ 6994
多亏 6993
好过 6993
并存 6993
语用 6993
叛军 6992
加利@@ 6991
工党 6991
追捕 6991
15号 6990
ni 6990
膝关节 6990
后方 6989
商品@@ 6989
偷窃 6988
躯体 6988
火箭@@ 6987
漂@@ 6986
短片 6986
配对 6985
磨削 6983
10月31日 6981
分枝 6980
棕榈@@ 6979
试探 6979
里奇 6979
不了 6978
拾 6978
ard 6977
婴幼儿 6977
新德里 6977
El@@ 6975
史学 6975
月饼 6975
主演 6974
五十三 6972
交易会 6972
勾 6972
杰作 6972
Ma 6971
默克尔 6971
法轮功 6970
层级 6969
装扮 6969
钢笔 6969
走出去 6967
坝@@ 6965
教师@@ 6964
梗阻 6964
编排 6963
肺结核 6963
迈克@@ 6963
钢丝 6962
达尔 6960
历时 6959
亏@@ 6958
动脉@@ 6958
鹤 6958
230 6957
下台 6957
公路@@ 6957
口气 6957
禁用 6957
克拉 6956
共事 6951
小国 6951
推力 6951
两端 6950
套餐 6950
淡化 6950
布里 6949
心肌梗死 6949
拨打 6949
教派 6949
昆 6949
欠缺 6949
过敏@@ 6949
忠于 6948
un@@ 6947
裂解 6947
堤@@ 6946
ina 6945
怀里 6945
胶质 6945
谣 6945
路易斯 6945
上瘾 6941
210 6939
市场需求 6939
作好 6937
文学@@ 6937
电车 6937
研磨 6937
TR@@ 6936
番@@ 6936
悦@@ 6935
班机 6935
著作权 6934
固执 6932
管家 6932
普林@@ 6931
变频 6930
特尔 6930
苦恼 6930
魄 6930
鹦鹉 6930
敲@@ 6929
MBA 6928
挫败 6928
文体 6928
证券公司 6928
驱动程序 6928
动静 6927
小猪 6927
构筑 6924
轮子 6924
中东地区 6922
认罪 6922
想一想 6921
降低成本 6921
各向异性 6919
解放@@ 6919
早先 6918
色泽 6918
27日 6917
占地 6917
镶嵌 6917
艰辛 6916
修道院 6915
困@@ 6914
往事 6913
装卸 6913
医疗机构 6912
后天 6912
社会地位 6912
蠢@@ 6912
131 6911
习惯了 6911
貌 6911
化学反应 6910
一旁 6909
三维@@ 6909
健康保险 6909
投保 6909
腊@@ 6909
好不好 6908
猴@@ 6908
声援 6906
开工 6905
三十一 6904
武装力量 6904
肖像 6904
自然保护区 6904
力争 6903
渗流 6903
解救 6903
老年@@ 6902
骗@@ 6902
11:@@ 6901
磷脂 6900
持股 6899
稀少 6898
集结 6898
0年代 6897
休闲@@ 6897
成瘾 6897
耐久 6897
露营 6897
摩尔多瓦共和国 6896
路基 6896
德森 6895
穿戴 6895
WP 6893
四十八 6893
差额 6893
正视 6893
涡轮 6893
澳@@ 6893
匀@@ 6891
横跨 6891
享@@ 6890
唐代 6889
家庭作业 6889
用具 6889
墓@@ 6888
怀抱 6888
法律效力 6888
57@@ 6886
痊愈 6886
四天 6885
学问 6884
渗@@ 6884
理化 6884
夺得 6883
医务人员 6882
台词 6881
部族 6880
五十四 6879
恋人 6878
70年代 6877
拘押 6877
命中 6876
阿曼 6876
胃口 6874
债@@ 6873
克森 6873
法郎 6872
直立 6872
行政法规 6872
挨 6871
备件 6870
探访 6869
最后一天 6868
致意 6868
粮@@ 6866
133 6865
事业单位 6865
呵呵 6864
宽敞 6863
拉动 6863
安德鲁 6862
伺服 6861
生产成本 6860
驾驶@@ 6859
如果@@ 6857
敞@@ 6857
果然 6857
测绘 6857
人才培养 6856
我是谁 6856
萨拉 6856
业务@@ 6855
耕@@ 6855
阿拉斯加 6855
布伦@@ 6854
收紧 6854
.1 6853
塘@@ 6853
就任 6852
粗暴 6852
贵重 6852
似@@ 6851
攀登 6851
得救 6850
GF 6849
幸福感 6849
绿地 6849
通讯@@ 6849
慧@@ 6848
源码 6848
转矩 6848
东耶路撒冷 6847
花瓶 6847
点缀 6846
脲 6846
过热 6846
食品安全 6846
上楼 6844
以对 6843
取而代之 6843
哄 6842
周到 6841
巴斯@@ 6841
细腻 6841
公证 6840
直布罗陀 6840
联系人 6840
ro@@ 6839
侦@@ 6839
窝@@ 6839
透析 6838
九日 6836
捐@@ 6835
海滨 6834
容积 6833
杰森 6833
胰腺 6832
里奥 6832
BO@@ 6829
文化交流 6829
以东 6826
抢走 6826
萌发 6826
三十二 6823
卜@@ 6823
哈尔@@ 6823
摇头 6823
窗@@ 6823
高新技术 6823
因果关系 6822
早起 6821
俊 6820
瞬态 6820
苛刻 6820
138 6819
蒙受 6819
事关 6818
坚称 6818
宝藏 6818
23日 6817
交由 6817
破产法 6817
教员 6816
VB 6815
分明 6815
普通@@ 6815
壁画 6814
怨恨 6814
孢 6813
畸变 6812
接手 6809
毛里塔尼亚 6807
神情 6807
肩上 6807
记忆力 6807
炭@@ 6806
无缝 6803
食堂 6803
白痴 6802
腰带 6802
生物武器 6799
缩放 6799
羞 6798
使徒 6797
社交网络 6797
好东西 6796
斯-@@ 6794
病患 6794
伤残 6793
真空@@ 6793
试行 6793
露面 6793
开挖 6792
香港邮政 6792
下场 6791
多彩 6791
秘 6791
德育 6788
FPGA 6786
乌鸦 6785
劣势 6784
取缔 6783
凝结 6782
放疗 6781
新陈代谢 6781
狠狠 6780
梨@@ 6779
主轴 6778
主页 6778
利于 6778
NS 6776
虫子 6776
TO@@ 6775
毅力 6774
健康教育 6772
外婆 6772
缀 6772
忏悔 6771
涂抹 6771
藏品 6771
谦虚 6771
售后 6768
青春期 6767
原子@@ 6764
愁@@ 6764
南方@@ 6762
苯酚 6762
交出 6759
美化 6759
化验 6758
海港 6757
混杂 6757
肝硬化 6757
上门 6756
趴 6756
专职 6755
二十九 6755
兴奋剂 6755
践踏 6755
EM@@ 6754
四十九 6754
睡衣 6754
凉爽 6753
亨利@@ 6752
偏振 6752
四季 6751
恋@@ 6751
网络安全 6751
淋巴瘤 6750
股本 6749
越发 6749
亵渎 6748
多多 6748
差错 6748
歪曲 6748
屎 6747
各人 6746
抱负 6746
圣诞@@ 6745
人际 6741
南斯拉夫联盟共和国 6741
基建 6740
寓@@ 6739
遍及 6739
岸@@ 6738
摔倒 6738
咱 6737
获释 6736
亲爱 6735
气道 6735
贺卡 6734
2011@@ 6733
比对 6733
萃 6733
营利 6733
一角 6731
同居 6731
单证 6730
姊妹 6730
配料 6730
CC@@ 6729
核心竞争力 6728
河谷 6728
独处 6728
编入 6726
脱颖而出 6726
操@@ 6724
赛场 6724
壳体 6722
径流 6722
心脏@@ 6722
O2 6721
岩浆 6721
静脉@@ 6721
送进 6720
反感 6719
幽默感 6719
矿产资源 6719
手掌 6718
接枝 6718
调配 6718
遵行 6718
出演 6717
机动车 6717
电解质 6717
辩解 6717
近距离 6717
缓缓 6716
4.2 6714
PN 6713
匪 6713
适配器 6713
诈 6712
孩童 6711
走运 6711
1981年 6710
身亡 6710
议事 6709
回到@@ 6708
微微 6708
脸部 6708
姜 6706
De 6705
偏爱 6704
多发 6704
·斯@@ 6701
145 6700
高龄 6700
GS 6697
预留 6697
155 6696
奏效 6695
食者 6695
0年代初 6694
WS 6694
唯 6693
相对@@ 6693
咒语 6692
外国@@ 6692
无核 6691
土耳其@@ 6689
树种 6689
二维码 6687
铁路@@ 6687
Bar@@ 6686
TM 6685
两党 6683
威廉姆斯 6682
枯 6682
自闭症 6682
异质 6681
排行榜 6681
违 6681
读完 6680
责令 6679
上皮细胞 6678
工作坊 6678
法律责任 6678
挥 6677
振幅 6675
施压 6675
杏@@ 6675
思潮 6674
拽 6674
脉动 6674
画作 6673
脑梗死 6673
不走 6672
天文台 6672
握@@ 6672
流露 6671
并入 6670
理想@@ 6670
老式 6670
账目 6670
神秘@@ 6669
Group 6668
耀眼 6668
液化 6666
好听 6664
钢材 6664
巴里 6662
FA 6661
耐力 6661
ED@@ 6659
热切 6659
预估 6659
常态 6658
徒步 6658
敢@@ 6656
晋 6656
熙@@ 6655
艳@@ 6655
芥@@ 6655
府@@ 6652
恒定 6652
箔 6652
对华 6651
感性 6651
燕 6651
时而 6650
铁矿石 6650
28.@@ 6647
危险废物 6646
堪称 6645
弄清 6645
瑕疵 6645
政界 6644
传记 6643
关岛 6642
民生 6642
量级 6642
ic 6641
中枢 6641
贫民 6641
费力 6641
钱财 6641
接吻 6640
高中生 6640
260 6639
一首歌 6639
比利@@ 6639
规章制度 6639
唔 6638
皱@@ 6638
精制 6638
前台 6636
彼 6636
施工技术 6636
天鹅 6634
月一日 6634
病灶 6634
调味 6634
离岸 6633
服务贸易 6632
电镜 6632
减去 6631
女郎 6631
7月31日 6630
孟买 6630
商贸 6629
坠毁 6629
活性炭 6629
年限 6628
玛格丽特 6627
龙头 6625
米歇尔 6624
涵 6620
幼稚 6618
热潮 6618
基础设施建设 6617
钦佩 6617
绪 6616
安德森 6615
提早 6615
金伯利 6615
黑色@@ 6614
基坑 6613
137 6611
各处 6611
萤@@ 6611
26.@@ 6610
壁炉 6610
大卫·@@ 6610
Bank 6608
均值 6608
外源 6607
摄影@@ 6607
建于 6606
很@@ 6605
德州 6605
犹@@ 6605
航道 6605
主力 6603
OK 6602
化肥 6602
音乐节 6602
清偿 6601
金刚 6600
内脏 6599
契@@ 6599
戊@@ 6599
搭乘 6599
联结 6599
差旅 6598
管子 6598
喝茶 6597
HRC 6596
一如 6596
舔 6595
三十六 6593
和睦 6593
浸出 6593
王星 6593
里根 6593
暂@@ 6592
终究 6592
识@@ 6592
克洛@@ 6590
尊贵 6590
舞者 6590
辰 6590
倾销 6588
反转 6588
总而言之 6587
大哥 6586
连任 6586
中英文 6584
延缓 6583
监理 6583
舞弊 6583
1983年 6582
肖恩 6581
踢球 6581
从头@@ 6579
余生 6579
尔多@@ 6579
莉·@@ 6579
走动 6579
字面 6578
无误 6577
兜 6576
咀嚼 6576
奖牌 6575
庄稼 6575
检修 6575
渣@@ 6575
百计 6575
初创 6574
尚无 6573
径@@ 6573
一起玩 6572
姑@@ 6572
访华 6570
物理学家 6569
印记 6568
背着 6568
倒下 6567
心电图 6567
维多利亚@@ 6567
英特尔 6567
闪亮 6567
寸@@ 6566
曲子 6566
合资企业 6565
文人 6565
简明 6565
西斯 6565
孜@@ 6564
颞 6564
哈利@@ 6561
引述 6561
证明书 6561
金正恩 6561
刷新 6560
致函 6560
丑@@ 6559
审问 6559
新奇 6559
叹@@ 6558
棱@@ 6558
筷子 6558
里亚@@ 6558
镀层 6558
尼斯@@ 6557
胶带 6557
海岸线 6556
精算 6555
雏@@ 6554
加蓬 6552
影院 6552
素材 6552
即兴 6550
场上 6550
胆碱 6550
贝尔格莱德 6549
砌@@ 6548
萨尔@@ 6548
1.7 6547
千克 6547
法兰 6547
入门 6544
搬家 6543
保罗·@@ 6542
一年后 6541
信息管理 6541
时装@@ 6541
耐药性 6540
议院 6540
醋酸 6540
打招呼 6539
声望 6538
大块 6538
四十五 6537
安德鲁@@ 6536
未有 6536
21日 6535
赦 6535
地平线 6533
痴迷 6532
节制 6532
希族 6531
改装 6531
罪人 6531
制片 6530
十二月 6530
一团糟 6529
生死 6529
编译器 6529
高中@@ 6529
打着 6528
接电话 6528
落叶 6528
厌 6527
家兔 6527
急切 6527
龟 6527
ab@@ 6526
134 6525
不比 6525
牧 6523
羞耻 6523
PV 6522
刻画 6522
西亚@@ 6522
恶作剧 6521
γ 6520
席卷 6520
印第安 6519
狡猾 6519
电弧 6519
绕过 6519
挣钱 6518
10时 6517
梦见 6517
相伴 6517
堡垒 6516
因数 6515
民事诉讼 6515
爸爸妈妈 6515
瓷器 6515
合计 6514
基部 6514
笨蛋 6514
st 6513
二轮 6512
息息相关 6511
柱子 6511
国都 6510
学术@@ 6510
苦苦 6510
投掷 6509
订货 6509
因应 6508
浩 6508
死因 6507
修斯 6505
和你在一起 6505
清代 6504
铺平 6504
1972年 6503
PR@@ 6503
中度 6502
往后 6501
56@@ 6499
ti 6499
固相 6499
慈 6499
三十三 6498
重症 6497
充气 6495
霉菌 6493
为首 6492
木星 6492
全国@@ 6491
想不到 6491
环氧树脂 6491
讲师 6491
参选 6490
致以 6490
会场 6489
特里 6489
窗子 6488
警戒 6488
WG 6487
朱 6487
银色 6487
查验 6486
独立宣言 6485
马克·@@ 6485
如上 6484
漂移 6483
特大 6483
荷尔蒙 6483
酵@@ 6483
年头 6482
离家 6482
颊 6482
您好 6481
棚@@ 6481
现代性 6480
五十一 6479
残骸 6479
萝@@ 6479
蚕 6479
民国 6478
转折点 6478
引致 6477
考量 6477
小肠 6476
板材 6476
假说 6474
脓 6474
铺设 6474
乳化 6473
传到 6473
卡斯@@ 6473
约旦@@ 6473
千百 6472
拟@@ 6472
煎@@ 6472
英亩 6472
IT@@ 6471
排污 6471
羞@@ 6471
听懂 6470
教育系统 6470
成套 6469
生日快乐 6469
除掉 6469
9年@@ 6468
不善 6468
达尔文 6468
急诊 6467
整顿 6467
肉瘤 6467
六十四 6466
夏令营 6466
民俗 6466
捣@@ 6465
宠@@ 6464
士气 6462
偿@@ 6461
力矩 6460
填满 6460
客体 6460
靶@@ 6460
定稿 6459
将就 6459
战线 6459
越境 6459
鲁棒性 6459
狭隘 6458
随处 6458
寄生虫 6455
睹 6455
时不时 6454
贵宾 6454
保佑 6453
联手 6453
14号 6452
使团 6452
烹调 6452
脱掉 6451
26日 6450
奔驰 6450
戈登 6450
24日 6448
玛丽亚 6448
畏 6448
土族 6447
天父 6447
奥秘 6447
爱情是 6447
迪士尼 6447
六十五 6446
引出 6446
下手 6445
块@@ 6445
明朗 6445
妖 6444
心血管 6444
创收 6443
公车 6442
每股 6442
高铁 6442
139 6441
企业集团 6441
金黄色 6440
BT 6439
动向 6439
滥@@ 6439
起见 6439
金星 6439
褐 6438
一群人 6437
寡 6437
工艺品 6437
破损 6437
颇具 6434
ml 6432
可望 6432
幻灯片 6431
电动@@ 6431
售卖 6429
时滞 6429
多半 6426
围岩 6425
舟@@ 6425
融资@@ 6425
平板电脑 6424
漫游 6424
安东尼 6423
木板 6423
条街 6423
沉迷 6423
执 6421
盟国 6421
二十世纪@@ 6420
今年夏天 6420
加一 6420
MM 6419
挡住 6419
计入 6419
重写 6419
新郎 6418
逻辑@@ 6418
人意 6417
哑@@ 6416
暑 6416
书架 6415
粘附 6415
精神分裂症 6415
奏@@ 6413
经济改革 6412
苑 6412
内裤 6411
白酒 6411
多级 6410
热烈欢迎 6410
搅@@ 6409
滋生 6409
铸件 6409
行者 6408
诗篇 6408
is@@ 6407
剪辑 6407
索偿 6406
0.3 6405
同性 6404
老百姓 6404
分子量 6403
拳头 6402
聚酯 6402
车手 6401
LS 6400
动漫 6400
思想政治教育 6398
迪亚@@ 6398
属灵 6397
金发 6397
交代 6396
加息 6396
安全生产 6396
GE 6395
AL 6393
中国人民银行 6393
各异 6393
多维 6393
循环@@ 6392
特异 6392
击球 6391
动乱 6391
顽强 6391
吉普@@ 6390
年幼 6390
杂项 6389
牢牢 6389
时间序列 6387
玛利亚 6387
赤道 6387
丛@@ 6386
克林@@ 6386
成人@@ 6386
率@@ 6386
赌注 6386
不清 6385
二手@@ 6385
流动@@ 6385
双臂 6384
云计算 6383
扶轮 6383
消化@@ 6383
深渊 6381
西娅 6381
捆绑 6380
相对论 6380
店主 6379
怀有 6379
棘 6379
首府 6379
顾虑 6378
加薪 6377
大一 6377
私营企业 6376
绿茶 6376
歇@@ 6375
筛@@ 6375
防腐 6374
毒药 6373
油井 6373
需@@ 6373
4月1日 6371
兼并 6371
色散 6370
丰收 6369
何等 6369
兮 6368
太阳能电池 6368
踢足球 6368
CP@@ 6367
睁开 6367
社会团体 6367
记下 6367
尝尝 6366
澳元 6366
碘@@ 6366
铭@@ 6366
2.6 6365
ID@@ 6365
亚瑟 6365
支派 6365
生物质 6365
臂@@ 6365
受惠 6364
五十二 6363
最高@@ 6363
灾区 6363
葡萄园 6363
霍尔 6363
An@@ 6362
会好 6362
制导 6362
独自一人 6362
钛@@ 6361
9月30日 6360
昔日 6360
三十九 6358
罚金 6358
库克 6355
生命@@ 6355
分会 6354
管用 6354
聚糖 6354
创新能力 6353
窃取 6353
零售业 6353
习惯法 6352
打碎 6352
打听 6351
贝蒂 6349
五日 6348
子民 6348
繁华 6348
继而 6348
ner 6346
囚禁 6346
深水 6345
准确度 6344
孔径 6343
之路 6342
死掉 6342
1975年 6341
倒入 6341
勋章 6341
恩惠 6339
144 6338
傲 6338
斯拉@@ 6337
离婚@@ 6335
SM 6334
吾 6333
天气@@ 6332
希特勒 6332
所长 6332
梵@@ 6332
经理人 6331
一氧化氮 6330
恭喜 6330
托盘 6330
林地 6329
回落 6328
多·@@ 6328
意大利@@ 6328
2小时 6327
第一夫人 6327
虫病 6327
㈣ 6325
势必 6325
小队 6325
好心 6324
客户服务 6323
庇护所 6323
德黑兰 6323
罪孽 6323
村里 6322
删去 6321
马桶 6321
芝士 6320
剧情 6318
卡通 6318
煮@@ 6318
装饰@@ 6318
论据 6318
绑@@ 6317
触犯 6317
薪@@ 6316
盛宴 6315
果树 6314
秘@@ 6314
12:@@ 6312
仲@@ 6312
罐子 6312
责任@@ 6311
五角大楼 6310
甚少 6310
烤箱 6309
一幢 6308
换热器 6308
收割 6308
斯塔 6306
如果可以 6305
详述 6305
轻而易举 6305
高跟鞋 6305
国人 6304
被盗 6304
by 6303
前列 6303
提琴 6303
科技公司 6303
忽@@ 6302
淋浴 6302
逝去 6302
枪杀 6301
脚踝 6299
东非 6298
入世 6297
咆哮 6297
主义者 6296
广播电台 6296
球面 6296
下部 6295
缉@@ 6294
同比增长 6293
村落 6293
科斯 6292
精油 6292
可行性研究 6290
陀螺 6290
灰度 6289
冷水 6288
境@@ 6288
棺材 6288
ge 6287
宽阔 6287
骨干 6287
29日 6285
EN 6284
师资 6284
弗吉尼亚 6284
自然而然 6284
卡·@@ 6283
寿 6283
报销 6283
暮@@ 6282
店员 6281
献身 6281
第一名 6281
19世纪@@ 6279
这些年 6279
菊@@ 6278
及第 6277
日出 6277
亟需 6276
人气 6276
开源 6276
永远@@ 6276
着色 6276
net 6275
座谈会 6275
确有 6274
萝 6274
十字路口 6273
掘@@ 6273
穆罕默德 6273
团队精神 6271
PO 6270
德里克 6269
精炼 6269
1976年 6268
西蒙@@ 6268
低声 6267
支承 6267
溢出 6267
创业者 6266
惩戒 6266
存档 6265
对数 6265
有期徒刑 6265
洗衣 6265
航空航天 6264
委@@ 6261
裸@@ 6261
衡 6260
三个@@ 6259
冰雪 6259
句法 6257
恐怖组织 6256
暴跌 6256
由来 6256
干酪 6255
有色 6255
艰@@ 6254
IF@@ 6253
处死 6253
毯 6253
警示 6253
口粮 6252
护送 6252
责怪 6252
巷道 6251
翻修 6251
服刑 6250
摩加迪沙 6248
栏目 6247
on@@ 6246
官兵 6246
气化 6246
沸@@ 6246
胶片 6246
高压@@ 6245
洗礼 6243
贡@@ 6243
思想家 6241
史诗 6240
芦@@ 6240
蒲@@ 6240
贾 6240
在线@@ 6239
振作 6238
人民群众 6237
养活 6237
光伏 6236
大洋 6236
枪击 6236
照耀 6236
缆 6236
垦 6235
320 6234
斯通 6234
邮 6233
187@@ 6232
正值 6232
用不着 6232
交汇 6231
言辞 6231
人情 6230
暂定 6230
标的 6230
金融时报 6230
产前 6229
豫 6229
安抚 6228
建筑设计 6228
TE 6227
寨 6227
危急 6226
衣柜 6226
迪斯 6226
因果 6225
查理@@ 6225
洋溢 6225
脑卒中 6225
风雨 6225
4月30日 6224
厨 6223
水溶性 6223
社会科学 6223
移位 6223
回流 6222
省长 6222
着想 6222
项目经理 6222
含糊 6221
最短 6221
甘肃 6221
甲基@@ 6221
镇定 6221
看医生 6220
可卡因 6219
理工 6219
卫队 6218
衬衣 6218
CN@@ 6217
接获 6217
湖北省 6217
到场 6216
奖赏 6216
鸦片 6216
圆锥 6215
大肆 6215
委内瑞拉玻利瓦尔共和国 6214
最小化 6214
茅 6213
全港 6212
岸边 6212
绳索 6212
专利权 6211
怪兽 6211
蔑视 6211
RE 6210
US@@ 6210
叔 6209
废止 6207
两百 6206
粘贴 6206
147 6205
喷气 6205
碳纤维 6205
反倾销 6204
钦 6204
江泽民 6203
霉@@ 6203
保证金 6202
可口可乐 6202
祸@@ 6202
涉@@ 6201
引流 6200
该行 6200
字样 6199
欠款 6198
自负 6198
白细胞 6195
谐 6195
成败 6194
碳纳米管 6194
4.3 6192
高点 6192
体贴 6190
通用汽车 6190
点亮 6189
蓬 6189
掌权 6188
有源 6187
罗恩 6187
面子 6187
墨尔本 6185
饲@@ 6185
布赖@@ 6184
秦 6184
突击 6184
心怀 6183
摒弃 6183
两场 6182
床单 6182
动物模型 6180
奖杯 6180
年之后 6179
港币 6179
航天器 6179
五月@@ 6178
修养 6178
台上 6178
IE 6177
兜@@ 6177
辽宁 6177
取胜 6175
小王子 6174
统计@@ 6174
夹杂 6172
2012@@ 6170
心室 6170
癌细胞 6169
分心 6168
配电 6168
机械化 6167
生殖@@ 6167
网关 6166
高雅 6166
中年 6165
贞@@ 6164
传单 6162
围墙 6162
五金 6161
每秒 6161
狐@@ 6161
象是 6161
剔除 6160
熔化 6160
传出 6159
宰@@ 6159
出事 6158
烘@@ 6158
鹏 6158
效仿 6156
〉 6155
钢结构 6155
厥 6154
国家标准 6154
巴哈马 6153
故事@@ 6153
不单 6152
各组 6152
委派 6152
恩赐 6152
阴暗 6152
1970年 6151
结识 6151
例证 6150
兰花 6150
发展报告 6149
大酒店 6149
求求你 6149
途@@ 6149
麦克风 6148
黄素 6148
Ca 6147
照样 6147
蒂娜 6145
二月 6144
古迹 6144
1.0 6142
贵国 6142
全省 6140
牟@@ 6140
管控 6140
细胞瘤 6140
驰@@ 6140
29.@@ 6139
实实在在 6139
冰块 6138
恼 6138
确凿 6138
红利 6138
待命 6137
焊接@@ 6137
空气质量 6137
组别 6136
到访 6135
明文 6135
椭圆形 6135
通货膨胀率 6135
推崇 6134
沦为 6134
苯胺 6134
鸭@@ 6134
受让 6133
瘘 6133
离合器 6132
逆向 6130
奸@@ 6129
妥当 6129
衣着 6129
什么都没有 6128
三十八 6127
海龟 6127
休会 6126
假冒 6124
全市 6124
瘟疫 6124
立方 6124
蚁 6124
三十四 6123
前列腺 6123
碑 6123
滞留 6122
到家 6121
窖 6121
湖南省 6120
硕@@ 6119
49@@ 6118
医疗器械 6118
形体 6117
诉@@ 6117
远期 6117
甫 6116
税务局 6115
翔 6114
主旨 6113
精髓 6113
FT 6112
塞拉@@ 6112
害死 6112
楼层 6112
mRNA 6110
成真 6110
短路 6110
凸轮 6109
逃犯 6107
全力以赴 6105
幸好 6105
拇指 6105
ur 6104
乖 6104
失败者 6103
互连 6101
心头 6100
联合国海洋法公约 6100
要件 6100
CD@@ 6099
先行 6099
脂蛋白 6099
美联社 6098
MT 6097
无与伦比 6097
波利@@ 6097
重整 6096
乐曲 6095
集聚 6095
黄土 6095
CNN 6094
不合格 6094
十一月 6094
学校@@ 6094
扣留 6094
发泄 6093
井下 6092
消融 6092
淘@@ 6092
烘焙 6092
270 6091
发抖 6091
御@@ 6091
甜心 6091
韵@@ 6091
我一个人 6090
or@@ 6089
贝鲁特 6089
风景@@ 6089
专案 6088
投身 6088
特意 6088
股份@@ 6088
st@@ 6087
第二季度 6087
it@@ 6086
建材 6086
芬芳 6086
即刻 6084
公职 6083
其一 6083
难堪 6083
徽 6082
非法移民 6082
回收率 6080
收录 6078
泥沙 6078
维系 6078
Peter 6077
SF 6076
提单 6076
世界人口 6075
变态 6075
心碎 6075
紧急状态 6075
在我身边 6074
总算 6074
渗漏 6074
锅@@ 6073
IA 6072
劳资 6072
莫过于 6072
俄亥俄州 6071
四分之三 6070
清白 6070
节能@@ 6070
Li 6069
VR 6068
不胜@@ 6067
凯利 6067
纱@@ 6067
Mo@@ 6066
厚厚 6066
概@@ 6066
我亲爱的 6064
Sch@@ 6063
同年 6063
讲故事 6063
预设 6062
环氧 6061
乞丐 6059
裁撤 6059
赎罪 6059
冤@@ 6058
表彰 6058
微米 6057
专家系统 6056
短裤 6056
破灭 6056
药用 6056
帝国主义 6055
专有 6054
如是说 6054
敌方 6053
螨 6053
180@@ 6052
8月1日 6052
宏大 6052
Le@@ 6051
哈特 6051
斤 6051
锆 6050
弘扬 6049
翩@@ 6049
口水 6048
大教堂 6048
脸颊 6047
1974年 6046
比分 6046
埃及人 6045
测度 6045
一年级 6044
保释 6044
应用软件 6043
文·@@ 6043
1969年 6042
后门 6042
黑塞 6042
59@@ 6041
节余 6041
世界人权宣言 6040
程序@@ 6040
货架 6040
企业管理 6039
促@@ 6039
闹钟 6039
下沉 6038
滋润 6037
窜 6037
立法机关 6037
淬火 6036
稠 6036
肾病 6036
裕 6036
戴维 6035
明信片 6035
盛会 6035
聋@@ 6035
ro 6034
低头 6034
滴定 6034
畜@@ 6034
硫化物 6033
争斗 6032
运往 6032
营救 6031
难以@@ 6031
枯竭 6030
残暴 6030
一个字 6029
不光 6029
写成 6028
立方米 6028
德国@@ 6027
进出口@@ 6025
复议 6024
滥 6024
立面 6024
繁 6024
医疗卫生 6023
塔尔 6022
美式 6022
6月1日 6021
宝马 6021
注意事项 6021
自旋 6020
吉利 6019
哑 6019
糕 6019
随身 6019
千米 6018
带子 6018
搏@@ 6018
关节@@ 6017
放牧 6017
熙 6017
节食 6017
嗅觉 6016
波斯 6016
难看 6016
De@@ 6015
隆重 6015
收听 6014
吃早餐 6013
集市 6013
58@@ 6012
你的爱 6012
双腿 6012
常任 6011
let 6009
卑鄙 6009
戴维@@ 6009
郎@@ 6009
深部 6008
藐视 6008
27.@@ 6005
标示 6003
毛虫 6003
加速器 6002
地铁站 6002
蛙 6002
维拉 6001
达州 6001
受控 6000
奖品 6000
石棉 6000
雌激素 6000
鲜血 6000
原地 5999
左翼 5999
阻燃 5999
彼得·@@ 5998
周岁 5997
拾@@ 5997
糖浆 5997
le@@ 5996
归档 5996
公元前 5995
救生@@ 5995
麻木 5995
发声 5993
维克 5993
贩 5993
制作人 5992
我的女儿 5992
名列 5991
信息披露 5990
戴安娜 5990
无能 5990
赖以 5990
首届 5990
孵化 5989
整夜 5989
君王 5987
致密 5987
超高 5987
闯 5987
骗局 5987
硬膜 5986
借钱 5985
打篮球 5985
农村@@ 5984
挥手 5984
维他命 5984
不平 5983
窟 5983
窦@@ 5983
联发 5983
肚 5983
4.1 5982
五年@@ 5982
晴 5982
独裁 5981
鉴@@ 5979
10点 5978
电感 5977
触动 5976
抗氧化剂 5975
大堂 5974
梯子 5974
飞过 5974
全盘 5973
半天 5973
核桃 5972
精湛 5972
ii 5970
积极主动 5970
建筑材料 5969
米·@@ 5969
发短信 5968
新项目 5967
直流@@ 5967
脾@@ 5967
一棵树 5966
族人 5966
畅通 5966
冷藏 5965
帕尔@@ 5965
盛开 5965
联合@@ 5965
迪亚 5965
北美洲 5964
拖车 5964
粉尘 5964
药效 5964
字眼 5963
旨 5963
近些年 5963
卖家 5962
120@@ 5961
加拉@@ 5961
142 5960
不等式 5959
绒@@ 5959
蓝天 5959
据@@ 5958
温州 5958
竭 5957
年鉴 5956
清扫 5956
缔造 5956
凯尔 5954
狠 5954
脊@@ 5954
一个故事 5953
心力衰竭 5951
惊恐 5951
绕组 5951
HP 5950
远端 5950
釉 5950
太迟 5949
男童 5949
球赛 5948
骑@@ 5948
３ 5948
弗洛@@ 5947
CRC 5946
线虫 5946
音节 5944
扁@@ 5943
敬拜 5942
器皿 5941
回购 5940
软组织 5940
联机 5939
骇@@ 5939
3.4 5938
双侧 5938
小行星 5938
急速 5938
贝壳 5938
房东 5937
纠结 5937
荷兰@@ 5937
二号 5936
退缩 5936
时速 5935
羊群 5935
记忆@@ 5934
邮报 5934
国家统计局 5933
曰 5932
灯具 5932
诉说 5932
乙酰 5931
失明 5931
隐形 5931
25号 5930
ED 5930
斯利 5930
昼夜 5930
香港人 5930
加州大学 5928
风能 5927
食材 5927
对劲 5926
循环经济 5926
投行 5926
办公桌 5925
绩效@@ 5925
骑兵 5925
5.2 5924
Di@@ 5924
眷@@ 5924
上前 5923
石块 5922
小心点 5921
额@@ 5921
二类 5920
淫 5920
脐@@ 5920
阳光@@ 5919
URL 5918
用人单位 5918
三十年 5917
酋长 5917
渴求 5916
灯笼 5916
750 5915
戈尔 5915
摸@@ 5915
改写 5915
比尔·@@ 5915
供热 5914
刷@@ 5913
年12月23日 5913
扮 5913
消遣 5913
高处 5913
非得 5912
保人 5911
发扬 5911
心愿 5910
议论 5910
GM 5909
RA 5909
旺盛 5909
2200 5908
不解 5908
凤 5908
斯蒂芬@@ 5908
蓄电池 5908
酿@@ 5908
领事馆 5908
911 5907
以利亚 5907
烷基 5907
啤酒@@ 5906
打入 5906
招致 5904
自拍 5902
退税 5901
高额 5901
开朗 5900
亿万富翁 5898
入场 5898
忽 5898
琳·@@ 5898
渐近 5896
少许 5895
慕@@ 5894
袖@@ 5894
打猎 5893
科尔@@ 5893
耐热 5893
链条 5893
首发 5893
升降 5892
马尔 5892
ABC 5891
双脚 5891
数据结构 5890
时尚@@ 5890
翘@@ 5889
帐单 5888
最后一@@ 5888
本年 5888
级数 5888
稀缺 5887
宗族 5886
松鼠 5886
氧化铝 5886
转播 5886
存入 5885
繁重 5885
超临界 5885
侦察机 5884
思绪 5884
国际学校 5883
政治生活 5883
疏远 5882
贴近 5882
斯巴@@ 5881
77@@ 5880
定额 5880
此时此刻 5879
罚@@ 5878
里程 5878
HR 5875
剃@@ 5874
SL@@ 5873
厌氧 5873
幸 5873
探望 5873
系统分析 5873
圣徒 5872
征兆 5872
兴旺 5871
未成年 5871
CONF 5870
ap@@ 5870
补编 5870
语言@@ 5869
宴@@ 5868
该校 5868
七天 5867
放假 5867
定论 5866
支持向量机 5865
涡@@ 5865
代办 5864
心血管疾病 5864
悬而未决 5863
预付 5863
工作站 5862
咕@@ 5861
二千 5859
偏心 5859
扫描电镜 5859
西尔@@ 5859
某物 5858
阿什@@ 5858
工作流程 5857
听证 5855
捐 5855
问答 5855
比尔@@ 5854
网络技术 5854
臀部 5854
产品设计 5852
前苏联 5852
叶绿素 5852
页岩 5851
假释 5850
台独 5850
寥@@ 5850
猿 5850
突触 5850
商机 5849
庭审 5848
配比 5848
1300 5847
MT@@ 5845
\N 5845
活儿 5845
生物燃料 5845
谨@@ 5845
闸@@ 5845
UV 5844
驾驭 5844
四十一 5843
蜗牛 5843
变电站 5842
标语 5842
消防员 5842
碳酸@@ 5842
信息中心 5841
雾化 5839
畜 5838
科学发展观 5838
加利 5837
瑞秋 5837
绊 5837
苔 5837
珍视 5836
进气 5836
数据类型 5835
索尔 5835
救命 5834
大步 5833
方程组 5833
淹死 5833
脉搏 5833
143 5832
动脉瘤 5832
救我 5832
每两年 5830
特立尼达和多巴哥 5830
两架 5829
催眠 5829
流转 5829
测算 5829
生命权 5829
片子 5828
核武 5827
督察 5827
错综复杂 5827
主人公 5825
纶 5825
醋@@ 5825
面团 5825
口腔@@ 5824
腓@@ 5824
2030年 5823
份子 5823
开心@@ 5823
检察院 5823
劳拉 5822
战俘 5822
肾小@@ 5822
"" 5821
ET@@ 5821
哈尔滨 5821
梭@@ 5821
道夫 5821
的士 5820
James 5819
屡 5819
瑞德 5819
谓 5818
9点 5817
排练 5817
象棋 5817
ker 5816
冰冻 5816
看护 5816
梅尔 5814
沉睡 5814
网状 5814
而至 5814
虽说 5813
不容@@ 5812
下楼 5810
逆境 5810
清洁能源 5808
一只@@ 5807
公开@@ 5806
打字 5806
66@@ 5805
焚@@ 5805
约瑟夫 5805
菲利@@ 5804
上路 5803
不遗余力 5803
剩@@ 5803
朵@@ 5803
弹奏 5802
斑块 5802
来宾 5802
畔 5802
SH@@ 5801
吡@@ 5801
塌 5800
正文 5799
计时 5799
辖区 5799
分布@@ 5798
失灵 5798
室内@@ 5798
译本 5798
逼迫 5798
中山 5797
方法论 5797
母亲节 5797
MR@@ 5796
姨妈 5796
约书亚 5796
汁@@ 5794
庸 5793
某处 5791
算什么 5791
发怒 5790
肿瘤细胞 5790
im@@ 5789
四十四 5789
科医生 5789
侯 5788
做爱 5788
艾丽@@ 5788
轮船 5788
［ 5788
扔进 5787
摇晃 5786
丽丝 5784
古城 5784
里约热内卢 5784
爵夫人 5783
饭菜 5783
合唱 5782
听音乐 5782
尿素 5781
工夫 5781
海洋生物 5780
田地 5780
遂 5780
主编 5779
围栏 5779
返还 5779
俱@@ 5777
耿@@ 5777
交接 5776
外貌 5775
钉子 5775
3.6 5774
四千 5773
上线 5772
医保 5772
针灸 5771
ha@@ 5768
刷牙 5768
纬度 5767
2.7 5766
280 5765
审定 5765
谜@@ 5765
Mark 5764
不作为 5764
勇于 5764
篇幅 5764
he 5763
荒凉 5763
1600 5762
卓 5761
重伤 5761
30年代 5760
贬低 5760
ler 5759
反常 5759
经营管理 5759
记号 5759
音调 5759
ov 5757
巴勒斯坦国 5757
民调 5757
蒜 5757
出人意料 5756
劈 5756
母婴 5755
僵硬 5753
美貌 5753
诡异 5753
141 5752
全日制 5752
新药 5751
冷淡 5750
扼杀 5750
改变世界 5750
甘蔗 5750
老家 5750
胰 5750
哥伦比亚大学 5748
从现在开始 5747
层析 5747
羊肉 5747
效劳 5746
热忱 5746
仰望 5744
格莱@@ 5744
胫骨 5744
饰@@ 5744
杰弗@@ 5743
锭 5743
鼎 5743
三十七 5742
模范 5742
星巴克 5741
狐 5741
艾尔@@ 5741
at@@ 5740
公海 5740
冈比亚 5740
性情 5740
改变自己 5740
污水处理 5740
法系 5740
资产阶级 5740
鸽 5740
梗塞 5739
胡锦涛 5738
抄@@ 5737
杰瑞 5737
芬奇 5737
175 5736
治国 5736
WebSphere 5735
肤@@ 5735
.2 5733
资历 5733
156 5732
鼓吹 5732
户口 5731
红外光谱 5731
ag@@ 5730
大地震 5730
妄 5730
碍 5729
洒@@ 5728
百万富翁 5728
绿洲 5728
轧@@ 5728
低落 5727
缆@@ 5727
外邦 5726
选育 5726
三峡@@ 5725
外币 5725
清水 5725
燃煤 5725
劳务 5724
病态 5724
过世 5724
听话 5723
告终 5722
校验 5722
了解自己 5721
凌晨@@ 5721
Car@@ 5720
ac 5720
前列腺癌 5720
白内障 5720
训练有素 5718
面目 5718
148 5716
FBI 5716
最近@@ 5716
音符 5715
东区 5714
交存 5714
清澈 5714
睡不着 5714
］ 5714
吗啡 5713
ai 5712
时节 5712
显示屏 5712
顿时 5712
09 5711
借助于 5711
捷径 5711
电商 5711
讳 5710
郑州 5710
橄榄油 5709
冕 5708
5.1 5707
全套 5707
回声 5707
身心健康 5707
风电 5707
八卦 5705
保险费 5704
稀疏 5703
纸质 5703
抵销 5701
稿@@ 5701
奥利弗 5699
性爱 5699
环流 5699
掩 5698
茧 5698
以太网 5697
古希腊 5697
贷款@@ 5697
DI 5695
乳头 5694
巴尼 5694
按键 5694
略微 5694
表达方式 5694
遗漏 5694
G20 5693
二手 5693
喷发 5693
夜空 5693
深色 5693
白菜 5693
4.4 5692
无菌 5692
钻头 5692
调查问卷 5691
大半 5690
布鲁斯 5690
码@@ 5690
两用 5689
玫瑰@@ 5689
变色 5688
正经 5688
相聚 5687
0.4 5686
ac@@ 5686
高价 5686
和尚 5685
能带 5684
会前 5683
传教士 5683
母鸡 5683
闯进 5683
青铜 5683
165 5682
东海 5682
镑 5681
翠 5680
字幕 5679
报告书 5679
鸿沟 5679
山峰 5678
珍珠@@ 5678
直肠 5678
袁@@ 5678
吸水 5677
蚁@@ 5677
恋情 5675
速效 5675
镜像 5675
挑起 5673
软件设计 5673
157 5672
3月1日 5672
Paul 5672
富于 5672
晚点 5672
MW 5671
情绪@@ 5671
馏 5671
羊羔 5670
不致 5669
外流 5669
数次 5669
凑 5668
名录 5668
得体 5668
抗击 5668
劝说 5667
康复@@ 5667
14年 5666
明尼苏@@ 5666
厉 5665
婆@@ 5665
法律体系 5665
矢 5665
发展历程 5664
控制台 5664
借款人 5663
建筑业 5663
该书 5663
ani 5662
北方@@ 5662
单人 5662
各族 5662
扭矩 5662
LE 5661
热力 5661
狭@@ 5660
安徽省 5659
有些事 5659
来水 5659
2.8 5658
躺着 5658
分子@@ 5657
问世 5657
硝酸 5656
锋利 5655
雪橇 5655
面纱 5655
样机 5654
动身 5651
保持沉默 5650
疗程 5650
芭蕾 5650
99@@ 5649
抗炎 5649
Th@@ 5648
全球@@ 5648
大都市 5646
巴比伦 5646
飞跃 5645
末尾 5644
现成 5644
缝隙 5644
雷尔 5644
19号 5643
该段 5642
凯莉 5641
外科手术 5641
总统@@ 5640
本期 5640
比拟 5639
纸币 5639
辞去 5639
·马@@ 5638
反省 5638
基因型 5638
意大利人 5638
量子@@ 5638
塑料袋 5636
颈椎 5636
风险投资 5636
达西 5635
NC 5634
绝对@@ 5634
8点 5633
公积金 5633
内燃 5633
输尿管 5632
90天 5631
今夜 5631
脉络 5631
仔@@ 5630
民营企业 5629
酚@@ 5629
人大 5628
插座 5628
料理 5628
调到 5628
抖 5627
整形 5627
暗中 5627
消亡 5627
财政@@ 5626
核苷酸 5625
流派 5624
中秋节 5623
已然 5623
控制中心 5623
旱 5622
希伯来@@ 5621
1973年 5620
贞 5620
驼@@ 5620
研究@@ 5619
鞍@@ 5619
真主党 5618
破旧 5618
加勒比海 5616
四十二 5616
饱满 5616
只见 5615
羔羊 5615
少校 5613
浮选 5613
肌腱 5613
154 5612
爽@@ 5612
螺旋@@ 5612
领导能力 5612
Tom 5611
冶炼 5611
四十六 5611
朗读 5611
繁琐 5610
输掉 5610
何不 5609
猫头鹰 5609
种质 5609
芒@@ 5609
赖斯 5609
犯罪现场 5607
脱下 5607
芋 5607
讲讲 5605
2O 5603
那个男人 5603
参量 5602
无偿 5602
会议@@ 5601
硝酸盐 5601
豌豆 5601
踪 5601
轩@@ 5601
长足 5601
素食 5600
腺癌 5599
迭 5599
挥舞 5598
款待 5598
La 5597
瞪 5595
DD 5594
肤 5593
铲 5593
计算机技术 5592
别动 5591
察@@ 5591
组长 5590
颠倒 5589
：@@ 5589
取悦 5588
结了 5588
自已 5588
隔绝 5588
146 5587
SL 5587
霍 5587
152 5586
汗水 5585
胎盘 5585
饿死 5584
帕特@@ 5583
溶胶 5583
金融中心 5583
侨@@ 5582
定点 5582
拖拉机 5582
箭@@ 5582
脂肪@@ 5582
身份验证 5582
1977年 5581
中长期 5580
程序设计 5580
重回 5580
加德@@ 5579
ra@@ 5578
意念 5578
乍 5577
伦理学 5577
姓氏 5577
德克萨斯州 5577
胜地 5577
苔丝 5577
荧@@ 5577
动量 5576
栖@@ 5576
li@@ 5575
明代 5575
碗@@ 5575
碧 5575
重庆市 5575
重振 5575
等值 5574
无从 5573
腈 5573
橱 5572
莓 5572
Android 5571
海豹 5571
那双 5571
Mo 5570
嗜@@ 5570
揉 5570
职司 5570
采购@@ 5570
释义 5570
功能@@ 5569
云南省 5568
教给 5568
5.3 5567
搞好 5567
计算机科学 5567
学徒 5566
年12月20日 5566
EA 5565
树干 5565
纽约州 5564
跟前 5563
8.5 5562
ter 5562
17号 5561
薄壁 5561
超细 5561
宫颈 5560
茜@@ 5560
1325 5559
不忘 5559
PT 5558
饮食习惯 5558
孤 5557
并列 5557
电动车 5557
过头 5557
1998@@ 5556
不公 5556
够@@ 5556
救治 5556
理工大学 5556
19年 5555
康乐 5555
马特 5555
俘虏 5554
终将 5554
已@@ 5551
希腊人 5551
罕 5551
节水 5551
辩称 5551
阿德@@ 5551
诗意 5550
增补 5549
群组 5549
166 5548
保健@@ 5548
富兰克林 5548
弗朗@@ 5548
爱过 5548
测序 5547
全心全意 5545
砾 5545
哺乳 5543
才智 5543
秸秆 5543
售后服务 5542
病菌 5542
爱意 5541
耽搁 5541
咽@@ 5540
滑冰 5540
恐怖活动 5539
钟声 5539
型式 5538
难关 5538
中西@@ 5537
蜜月 5537
地震@@ 5536
新星 5535
人力资源@@ 5534
OR@@ 5532
侵 5531
栽@@ 5531
竣工 5531
而出 5531
通行证 5531
普利@@ 5530
缔@@ 5530
方方面面 5529
六点 5528
便士 5527
财产权 5527
→ 5526
冗长 5526
发自 5526
这下 5526
0年代末 5524
白白 5523
下颌 5522
仙女 5522
模拟器 5522
烟花 5522
纱线 5522
绒毛 5520
选型 5520
阁楼 5520
排泄 5519
冲压 5518
吴 5518
富足 5518
山水 5518
怎么@@ 5518
正统 5518
果酱 5517
蔗糖 5517
早前 5516
垃圾桶 5515
幸@@ 5515
确@@ 5515
自如 5515
冰激凌 5514
完美@@ 5514
滴滴 5514
0.6 5513
酱油 5513
你猜 5512
养老@@ 5512
眠@@ 5512
藏身 5512
高能 5512
Microsoft 5511
及@@ 5511
抚 5511
曲率 5511
一桩 5510
三元 5510
止血 5510
这些年来 5510
军舰 5509
况且 5509
蒙特 5509
交会 5508
斥@@ 5508
SW@@ 5507
乙酯 5507
克兰@@ 5507
岂不 5507
20年前 5506
中尉 5506
检验@@ 5506
漂白 5506
疱疹 5506
给与 5506
美容@@ 5506
SH 5505
扫雷 5505
用车 5505
耗时 5505
旋风 5504
病原体 5504
SAR 5503
古人 5503
同化 5503
情势 5503
20000 5501
中医药 5500
工程学 5500
欢迎@@ 5500
嗓音 5499
当着 5499
调谐 5499
身体@@ 5499
公吨 5498
HC 5497
细胞因子 5497
测控 5496
TCP 5495
中空 5495
健壮 5495
相传 5495
还算 5495
ON 5494
为难 5494
积蓄 5494
天国 5493
小游戏 5493
格子 5492
流器 5491
马来@@ 5491
5月1日 5490
ASP 5490
查尔斯@@ 5490
游荡 5490
乖@@ 5489
区域经济 5489
受邀 5489
沉没 5489
霍乱 5489
钞 5488
威廉·@@ 5487
那个地方 5487
陆上 5487
值班 5486
孩@@ 5486
火柴 5486
168 5485
戴夫 5485
缴费 5485
信噪比 5483
普尔 5483
秤 5483
长大后 5483
单边 5482
回答问题 5481
难说 5481
尿道 5480
瞬 5479
笛@@ 5479
劝告 5478
奸 5478
摔@@ 5478
法律事务 5478
青光眼 5478
产业链 5477
括 5477
起誓 5477
供需 5475
期满 5475
橡树 5475
背离 5475
键入 5475
等着你 5474
宇@@ 5473
接通 5473
茄 5473
四十三 5472
表态 5472
International 5471
VD 5470
急忙 5470
杂货店 5470
计价 5470
厘@@ 5469
药理 5469
48小时 5468
培根 5468
玫瑰花 5468
鞍 5468
黑龙江省 5468
交朋友 5467
大餐 5467
粉体 5467
置疑 5467
1971年 5466
凋@@ 5466
幂 5465
审计@@ 5464
权势 5464
省钱 5464
经济结构 5464
人机@@ 5463
差劲 5463
提法 5463
爱护 5462
格雷 5461
瓷砖 5461
金砖 5461
嫁@@ 5460
成名 5460
置评 5460
6.2 5459
LD 5459
倾诉 5459
独联体 5459
爵士乐 5458
弟子 5457
瑙@@ 5457
触碰 5457
普鲁@@ 5456
睦邻 5456
CL 5455
巡演 5455
瞒 5455
吟@@ 5454
推开 5454
死神 5454
爆炸@@ 5453
爪子 5453
VM 5452
我的梦想 5452
罗杰 5452
翻转 5452
送入 5452
扼要 5451
活下来 5451
闭上眼睛 5451
填埋 5450
慰问 5450
捕食 5450
漆黑 5450
百合 5450
纸条 5450
折断 5448
新中国 5448
简约 5448
选址 5447
罗伯@@ 5446
课程@@ 5446
胡同 5444
结交 5443
橄榄@@ 5442
陈规 5442
NASA 5441
现金流 5441
金正日 5441
悲 5440
搞错 5440
摸索 5440
Ma@@ 5439
收容所 5439
朱利@@ 5439
11月1日 5437
PH 5437
克里斯托@@ 5437
布鲁克林 5437
税收@@ 5436
忧愁 5435
我期待 5435
矛 5435
惠及 5434
草药 5434
沃尔特 5433
绘@@ 5433
凿 5432
庸@@ 5432
荫@@ 5432
尼克松 5430
巴克 5430
联合国安理会 5430
裨益 5430
传球 5429
不可逆转 5428
交配 5428
哨@@ 5428
女性@@ 5428
无故 5428
对峙 5427
〈 5426
优劣 5426
老挝人民民主共和国 5426
佛陀 5425
呼吸道 5425
藻类 5425
贝利 5425
11月30日 5424
0年代中期 5423
嘘 5423
晴朗 5423
高等学校 5423
停战 5422
出产 5422
大萧条 5422
涉足 5421
红军 5421
重演 5421
地方@@ 5420
158 5419
世博会 5419
普顿 5419
央@@ 5418
罗夫 5417
忘记@@ 5416
扎实 5416
医护人员 5415
手术室 5415
过氧化物 5415
根治 5414
惠普 5413
电波 5413
超导 5413
公民社会 5412
夹具 5412
突发事件 5412
刀片 5410
手稿 5409
椎间盘 5409
橡皮 5409
生理学 5409
sa 5408
地里 5408
手脚 5408
孙女 5407
低速 5406
凭着 5406
拌 5406
瑞斯 5406
祝@@ 5406
抵挡 5405
营收 5405
辩证 5405
音量 5405
顶层 5405
ps 5404
何方 5404
插图 5404
斌 5404
新发现 5404
倦 5403
供求 5402
235 5401
深呼吸 5400
长相 5400
作响 5399
节约@@ 5399
英语口语 5399
CG 5398
im 5398
后世 5398
忘却 5397
栗@@ 5397
君子 5396
李鹏 5396
看做 5396
附加值 5396
魔术师 5396
西南@@ 5395
防备 5395
受精 5394
歉意 5394
151 5393
产业集群 5393
保险业 5393
杜绝 5393
灭菌 5393
罪过 5393
革@@ 5393
工艺流程 5392
度假@@ 5392
往年 5392
彗星 5391
极致 5391
轮回 5391
殿下 5390
饶@@ 5390
许许多多 5389
黑板 5389
互信 5388
人类@@ 5388
射手 5387
错觉 5387
演练 5386
留心 5386
她家 5385
每桶 5385
耳环 5385
螺丝 5385
象牙 5385
士人 5384
美洲@@ 5384
前门 5383
囚 5382
拖着 5382
新浪 5382
洗衣@@ 5382
些许 5381
收率 5381
索菲@@ 5380
China 5379
北京大学 5379
投资项目 5379
断路器 5379
1800 5378
内毒素 5378
有如 5378
si 5377
俄罗斯人 5376
刑事案件 5376
困苦 5376
冷却@@ 5375
剪刀 5375
国民生产总值 5375
报答 5374
腓 5374
卢比 5373
在世 5372
温哥华 5372
μ 5371
抚摸 5371
拐角 5371
国家机关 5369
早早 5369
Me 5368
异化 5367
侦测 5365
才干 5365
哀 5364
杰里@@ 5364
赡@@ 5364
遮盖 5364
PL 5363
运动鞋 5363
50年代 5362
忆 5362
书包 5361
共轭 5361
雪茄 5361
飞快 5361
学校教育 5360
形变 5360
颇@@ 5360
我的母亲 5359
沪@@ 5359
一味 5358
浆果 5358
癖 5358
蠕变 5358
扛 5357
撑@@ 5356
剧中 5355
名言 5355
品德 5355
嗅 5355
摄影机 5355
停滞不前 5354
十八@@ 5354
跑车 5354
格兰特 5353
潜水@@ 5353
Cr 5352
挨饿 5352
毫不犹豫 5352
捞 5351
202@@ 5350
SM@@ 5350
信息安全 5350
派生 5350
人种 5349
按着 5349
内科 5348
招牌 5348
1960年 5346
消退 5346
生物学家 5346
肆 5346
酸化 5346
定子 5345
宣 5345
惟有 5345
递增 5345
提要 5344
六百 5343
可不可以 5343
总书记 5343
欣喜 5343
德鲁@@ 5342
把门 5342
泼@@ 5342
王位 5342
伊斯 5341
办公楼 5341
垂体 5341
行善 5341
岔 5340
食欲 5339
土星 5338
混凝土 5338
关头 5337
联动 5337
印刷@@ 5336
摇篮 5336
驴 5336
149 5335
木制 5335
赎回 5335
转基因@@ 5335
钻进 5335
MD@@ 5334
恼火 5333
酰@@ 5333
1961年 5332
二十世纪 5332
报应 5332
抬高 5332
租约 5331
1100 5330
灯塔 5330
讨@@ 5330
成纤维细胞 5328
Go 5327
柏拉图 5327
计数器 5327
11年 5326
刑警 5326
一无所有 5325
喧嚣 5325
方程式 5325
责任心 5325
趁@@ 5325
尺@@ 5324
早晚 5324
波及 5324
NP 5323
漂亮@@ 5323
皂 5322
喷泉 5321
大军 5321
招收 5321
消化道 5321
人民币汇率 5320
岩溶 5320
虾@@ 5320
坑@@ 5319
熔体 5319
塞进 5318
磺@@ 5318
走访 5318
有钱人 5316
罗兰 5316
至多 5316
监听 5315
http 5314
so 5314
个数 5314
耳边 5314
亚历山大@@ 5313
别管 5313
室@@ 5313
当量 5313
输血 5313
呼喊 5312
1951年 5311
安息日 5311
马萨诸塞州 5311
耕种 5310
综@@ 5309
HT 5308
副教授 5308
助剂 5308
航天飞机 5308
信条 5307
最后@@ 5307
深情 5307
热能 5307
从头 5306
啃 5306
留出 5306
西撒 5306
湖区 5305
溃@@ 5305
烯烃 5304
芝@@ 5303
兰特 5302
涡流 5302
AB 5301
PHP 5301
里头 5301
小说家 5300
滑板 5300
爱上@@ 5300
琪@@ 5300
合成@@ 5299
听不到 5299
老妇人 5299
回波 5298
通讯社 5298
不良@@ 5297
2013@@ 5294
肿块 5294
银子 5293
病假 5292
渥太华 5291
钦@@ 5291
插管 5290
椰@@ 5290
假若 5289
管教 5289
赶来 5288
突袭 5287
多肽 5286
感染者 5286
禁区 5286
检定 5285
斋@@ 5284
稽@@ 5284
螺杆 5284
做起 5283
坐标系 5283
可视 5282
幺 5282
废除死刑 5282
装入 5282
难于 5282
口香糖 5281
可言 5281
地缘政治 5281
增产 5281
悔 5281
放出 5280
爹 5280
拮@@ 5279
旦@@ 5279
COM 5277
当面 5277
慰 5277
手提 5277
男人们 5277
心上 5276
卸@@ 5275
开到 5275
辽宁省 5275
伤病 5273
夹层 5273
巴尔干 5273
投篮 5273
墙体 5272
诚然 5272
毕 5271
递归 5270
供暖 5269
小鸡 5269
记入 5269
DR 5268
互不 5268
尾部 5268
说再见 5268
宠物@@ 5267
巢@@ 5267
蛛@@ 5267
1.9 5266
做人 5266
前身 5266
帅哥 5266
改成 5266
门店 5266
ts 5265
茸 5265
讨好 5265
焕发 5264
缅@@ 5264
He 5262
流化床 5262
翘 5262
内分泌 5261
使劲 5260
侄子 5260
凤凰@@ 5260
蒙德 5260
哎呀 5259
收缴 5259
肠炎 5259
亚特 5258
佛山 5258
时序 5258
台湾问题 5256
嘎@@ 5256
甲状@@ 5255
罗马人 5255
夷 5254
磁共振 5254
下层 5253
宣判 5253
田径 5253
福尔摩斯 5253
0.8 5252
UML 5252
胞@@ 5252
酝酿 5252
迟缓 5251
边远 5250
颌 5250
自主@@ 5249
钒 5249
订定 5248
芒果 5247
以北 5246
徐 5246
越南@@ 5246
数据流 5245
注册@@ 5245
巴特 5244
机型 5244
被毁 5244
烘烤 5243
紧随 5243
遮 5243
嗓子 5242
探头 5242
散热 5242
砰 5242
裤@@ 5242
上报 5241
供养 5241
巴马@@ 5241
层层 5240
沸 5240
爱吃 5240
亚当@@ 5239
伤感 5239
土体 5239
坐牢 5239
搅拌@@ 5239
社会工作 5239
薄荷 5239
工匠 5237
帐目 5237
阳离子 5237
非法@@ 5236
ly 5235
民族文化 5235
丰满 5234
记得你 5234
趾 5234
UN 5233
丢@@ 5233
络合 5233
不成熟 5232
唾@@ 5232
大伙 5232
姚@@ 5232
深知 5232
耶夫 5232
大麦 5231
旱地 5231
预想 5231
脚印 5230
砸@@ 5229
语调 5229
债券市场 5228
圭@@ 5228
文艺复兴 5228
金银 5228
火药 5227
译成 5227
额头 5227
神灵 5226
笋 5226
篇@@ 5226
裂隙 5226
资金@@ 5226
小溪 5225
征用 5225
攻读 5225
勘查 5224
律所 5224
背诵 5224
里夫 5224
就使 5223
尽善尽美 5223
疝 5223
反洗钱 5222
执政党 5222
欢快 5222
生产设备 5222
盟军 5222
长大@@ 5222
宽广 5221
玷污 5221
路段 5221
了结 5220
下水 5219
歪 5219
退款 5219
喊叫 5218
嘧啶 5218
的爱 5218
降价 5218
HTTP 5217
四十七 5217
埃及@@ 5217
安娜@@ 5217
楼房 5216
油机 5216
商事 5215
多巴胺 5215
小巷 5215
比亚@@ 5215
舰船 5215
400@@ 5214
薄板 5214
勋爵 5213
热狗 5213
积聚 5212
官司 5211
耐受 5211
稚@@ 5210
缩水 5210
乡村@@ 5209
美术学院 5209
天气预报 5208
谓@@ 5208
升华 5207
知识库 5206
籍@@ 5206
腰椎 5206
记起 5206
铃声 5206
集体@@ 5206
18号 5205
大风 5205
傲@@ 5204
小熊 5204
徒劳 5204
真话 5204
从属 5203
原住民 5203
葱@@ 5203
吸纳 5202
管理体系 5202
补丁 5202
讨价还价 5201
透气 5201
伍德@@ 5200
推论 5200
私立 5200
继发 5200
表面@@ 5200
99.@@ 5199
背心 5199
干杯 5198
达·@@ 5198
华尔街日报 5197
巨噬细胞 5197
恨@@ 5197
遇害 5197
领会 5197
惟@@ 5196
谢尔@@ 5196
巅峰 5195
来得及 5194
细胞癌 5194
肝细胞 5194
32@@ 5192
天基 5191
积雪 5191
５ 5191
14:@@ 5190
建议书 5190
播放器 5190
理查德·@@ 5190
斯图@@ 5189
苏丹@@ 5189
型材 5188
汤姆·@@ 5188
劳伦斯 5187
叶轮 5187
陈水扁 5187
华盛顿特区 5186
嘉莉 5186
基点 5186
指头 5186
脚注 5186
驾照 5186
us@@ 5185
亲友 5185
何必 5185
卢克 5185
启蒙 5185
恍@@ 5185
连铸 5185
单层 5184
蒸气 5183
要约 5183
Pa 5182
一盒 5182
憩 5182
泄@@ 5182
斯顿@@ 5181
缤纷 5181
好意 5180
美满 5179
入射 5178
眼部 5178
迟@@ 5178
佛得角 5177
白皮书 5176
诱 5176
PDF 5175
俄罗斯@@ 5175
原定 5175
多元文化 5175
自营 5175
分子筛 5174
恕 5174
En@@ 5173
回信 5173
声响 5173
眉毛 5173
看我的 5173
高层建筑 5173
社会环境 5172
阿司匹林 5172
腔内 5171
初衷 5170
每个人都会 5170
萍 5170
言不@@ 5170
詹姆斯@@ 5170
世界观 5169
僧 5169
脊椎 5169
7点 5168
牙膏 5168
成百 5167
朴素 5167
犯规 5167
墙面 5166
枯萎 5166
阿萨德 5166
本领 5165
电离 5165
资料库 5165
ty 5164
气缸 5164
脐 5164
吉林省 5163
建筑工程 5163
测量@@ 5163
胚胎@@ 5163
请教 5163
受难 5162
天数 5162
3500 5161
日光 5161
显像 5160
域@@ 5159
您@@ 5159
河口 5159
除尘 5159
192 5158
1997@@ 5158
交换机 5158
沃克 5158
精力充沛 5158
全场 5157
星际 5157
年12月22日 5156
祭祀 5156
扉 5155
雨伞 5155
波罗的海 5154
合力 5153
巴比@@ 5153
招标@@ 5153
MB 5152
卢萨卡 5152
条理 5152
胃肠 5151
季后赛 5150
54@@ 5149
不息 5149
商标@@ 5148
增订 5148
赏赐 5148
原生 5147
特制 5147
两面 5145
威斯康@@ 5145
手柄 5145
济南 5145
仲 5144
替补 5144
航母 5144
广州@@ 5143
挤满 5143
帮派 5142
跌至 5142
轻视 5142
承接 5141
旱灾 5141
纤维化 5141
ga 5140
莱索托 5140
复核 5139
姬@@ 5139
血红蛋白 5139
等不及 5138
兑@@ 5137
打折 5137
报仇 5137
机智 5136
薛@@ 5136
SS@@ 5135
埃尔 5135
就餐 5135
弗拉@@ 5135
诊疗 5135
黑猩猩 5134
中俄 5133
ki 5131
不值 5131
Robert 5130
你在哪 5130
扎根 5130
竹子 5130
同种 5129
基督@@ 5129
月初 5129
省略 5129
英汉 5129
虫害 5129
驱逐出境 5129
则@@ 5128
基板 5128
硝基 5128
希伯@@ 5127
尼克@@ 5126
引脚 5126
阿姆斯特丹 5126
基团 5125
树下 5125
北极@@ 5124
年满 5124
盖子 5124
从容 5123
征询 5123
我最好的朋友 5123
To 5122
北朝鲜 5122
并肩 5122
红外线 5122
问好 5122
恪守 5120
技@@ 5120
末日 5120
次日 5120
菩萨 5120
全境 5119
史蒂@@ 5119
层状 5119
戏曲 5118
刑期 5117
参看 5117
心律失常 5117
五万 5115
低级 5115
深陷 5115
稻草 5115
谢意 5115
无序 5113
疗@@ 5113
历年 5111
宇宙@@ 5111
托马斯·@@ 5111
谦逊 5111
方块 5110
火炉 5110
马其顿 5109
租借 5108
粗略 5108
动能 5107
对她说 5107
廓 5107
腾出 5107
HD 5106
提振 5104
检测@@ 5104
生前 5104
圣战 5103
买单 5102
解法 5102
附注 5101
出新 5099
88@@ 5098
伊莎@@ 5098
家门 5098
护卫 5098
眨眼 5098
瘢痕 5097
误区 5097
陀 5097
陶醉 5097
基调 5096
奥斯陆 5096
税法 5096
穆 5096
道具 5096
四点 5095
国营 5095
畜牧业 5095
钟头 5095
七年@@ 5094
伊斯兰@@ 5094
拆迁 5094
耐烦 5094
门窗 5094
卡梅伦 5092
投资基金 5091
鞭 5091
Ro@@ 5090
保费 5090
合营 5090
热泵 5089
逸@@ 5089
妆@@ 5088
帐号 5088
恰 5088
信箱 5087
动因 5087
大山 5087
捅 5087
活到 5087
硫化@@ 5087
道教 5087
闭塞 5087
OP 5086
七点 5086
污秽 5085
潜伏 5085
焰 5085
五号 5084
冲刷 5084
请来 5084
质感 5084
软管 5084
雷诺 5084
平整 5083
莎莉 5083
中国制造 5082
厢 5082
娜塔@@ 5082
心想 5082
我的人生 5082
遮蔽 5082
der 5081
晚上好 5081
An 5079
乙二醇 5079
书房 5079
无毒 5078
犹 5078
美感 5078
开立 5077
收看 5077
新奥尔良 5077
高危 5076
另类 5075
归宿 5075
拧 5075
泥浆 5075
渗入 5075
立体@@ 5075
IX 5074
喧闹 5074
肆虐 5074
苏醒 5074
di@@ 5073
停靠 5073
达拉斯 5073
鲨 5073
兄弟们 5072
克什米尔 5072
河岸 5071
米特 5071
布莱恩 5070
第三人 5070
还有我 5070
av@@ 5069
几何@@ 5069
化石燃料 5069
卸载 5069
好孩子 5069
拖鞋 5069
本事 5068
共性 5066
募@@ 5066
失去你 5066
有机质 5066
机翼 5066
逃生 5066
4.6 5065
不知所措 5065
劳力 5065
瞎@@ 5065
草图 5065
出局 5064
患@@ 5064
分给 5063
户主 5063
1993@@ 5061
母公司 5061
电阻率 5061
1400 5060
PET 5060
为啥 5060
书桌 5060
出缺 5060
瞥 5060
误诊 5060
两岸关系 5059
书信 5059
新闻记者 5059
粪便 5059
詹姆@@ 5059
李先生 5058
查尔斯·@@ 5058
绝非 5058
轻声 5058
163 5057
330 5057
朦胧 5057
觉@@ 5057
中国特色 5056
褪色 5056
剂@@ 5055
英美 5055
基数 5054
宋代 5053
慕尼黑 5053
文学作品 5052
纾@@ 5052
MATLAB 5051
融洽 5051
6点 5050
中间@@ 5050
流亡 5050
租户 5050
小康社会 5049
笑脸 5049
美酒 5049
贴心 5049
霍尔@@ 5049
布丁 5048
选为 5048
火锅 5047
编造 5047
命令行 5046
零点 5046
合唱团 5045
观察者 5045
肋骨 5044
锻 5044
162 5043
刺绣 5043
商谈 5043
美丽的@@ 5043
费尔@@ 5043
坚韧 5042
敲定 5042
深沉 5042
底座 5041
阿克@@ 5041
教区 5040
腿部 5040
棕@@ 5039
滋 5039
竞标 5039
201 5038
趣@@ 5038
效忠 5037
寓意 5036
不起 5035
吸气 5035
币@@ 5035
钟表 5035
Pro 5034
教廷 5034
电工 5034
蒸蒸日上 5034
讲授 5034
无名 5033
自学 5033
迫在眉睫 5033
度假村 5032
背负 5032
亲生 5030
异丙@@ 5030
5.4 5029
居于 5029
拼接 5029
低位 5028
显出 5028
睾@@ 5028
9月份 5027
一国两制 5027
山西省 5027
希腊@@ 5027
独具 5027
穆罕默德·@@ 5027
跟着我 5027
陷害 5027
科技大学 5025
蓉 5025
饲 5025
2018年@@ 5024
整流 5024
肯尼@@ 5024
强烈谴责 5023
知悉 5023
柑橘 5022
消解 5022
烷@@ 5021
Ta 5020
不列颠 5020
菠萝 5020
赛道 5020
UN@@ 5018
体能 5018
国家预算 5018
萨米 5018
沃德 5017
老兵 5017
交易员 5016
P2P 5015
屈曲 5014
腺炎 5014
FP 5013
一张照片 5013
写字 5012
ab 5011
履@@ 5011
这么多年 5011
伊万@@ 5010
徽章 5010
波束 5010
轴线 5010
供应链管理 5009
岳 5009
还款 5009
Ab@@ 5008
矿化 5008
5.6 5007
佛罗伦萨 5007
犯@@ 5007
钝 5007
憎恶 5006
班子 5005
称职 5005
货物运输 5005
五大 5004
叫作 5004
狼人 5004
生活费 5004
督促 5004
车门 5004
预知 5004
饵 5004
三角@@ 5003
分析家 5003
涂鸦 5003
颌@@ 5003
转折 5002
馏@@ 5002
大洲 5001
情报机构 5001
片面 5001
要不然 5001
非常@@ 5001
展品 5000
聘@@ 5000
9月1日 4999
CF 4999
乌托邦 4999
抗菌@@ 4999
耽误 4999
唤 4998
弹出 4998
料到 4998
欧共体 4998
甲苯 4998
凝血 4997
三号 4996
产区 4996
原件 4996
手性 4996
省市 4996
逆变器 4996
ell 4995
掉进 4995
路人 4995
损毁 4994
猎犬 4994
落成 4994
乏 4993
分界 4993
沙星 4993
粘连 4993
5月31日 4992
恭喜你 4992
直升飞机 4992
督导 4992
辟 4992
马云 4992
Ⅲ 4991
区域@@ 4991
小额信贷 4991
气孔 4991
环状 4991
一席之地 4990
方形 4990
低音 4989
晴@@ 4989
米奇 4989
242 4988
National 4988
听器 4988
十字@@ 4987
名下 4987
舒缓 4987
圣殿 4986
逐一 4986
不死 4985
两岁 4985
复数 4985
私立学校 4985
爵 4984
莹 4984
迷茫 4984
锯齿 4984
二日 4983
心房 4982
未完成 4982
不去 4981
媚 4981
小山 4981
师范大学 4981
长处 4981
防务 4981
ry 4980
保鲜 4980
好感 4980
突起 4980
out 4979
凯恩 4979
民族团结 4979
西伯利亚 4979
交换@@ 4978
枯燥 4978
搬走 4977
DF 4976
赞誉 4976
发布会 4975
举手 4974
哪位 4974
盾牌 4974
葵 4974
卒 4973
海平面 4973
恶性循环 4972
呵 4971
MP@@ 4970
萘 4970
性生活 4969
明早 4969
股东@@ 4969
邮政局 4969
小米 4968
怒气 4968
来年 4968
自古 4968
血肿 4968
贱 4968
道别 4968
公元 4967
鲁迅 4966
时刻@@ 4965
狮子@@ 4965
欧亚 4964
能干 4964
脑血管@@ 4964
下图 4962
最新@@ 4962
连杆 4962
飞机@@ 4962
161 4961
助力 4961
胰腺炎 4961
one 4960
莫斯 4960
伸张 4959
六十六 4959
斯卡 4959
刻苦 4958
挚爱 4958
卡罗 4957
射杀 4957
床垫 4957
延时 4957
菲利普@@ 4957
Sa@@ 4956
巴萨 4955
投向 4955
辨证 4955
乃@@ 4954
断开 4954
反响 4953
安全网 4953
为人知 4952
垮@@ 4952
一路上 4951
出口@@ 4951
卢卡斯 4951
沉着 4951
阿尔 4951
髋@@ 4951
SOD 4950
澜 4950
激励机制 4950
20号 4949
68@@ 4949
仕 4949
边防 4949
远东 4949
上扬 4948
入院 4948
宏观调控 4948
榜单 4948
年青 4947
抖动 4946
豚鼠 4946
风化 4946
鲁莽 4946
BI 4945
地理@@ 4945
瓣膜 4945
眸 4945
自传 4944
见于 4944
慢跑 4942
抛售 4942
专责 4941
甙 4941
傅@@ 4940
各区 4940
直肠癌 4940
囚@@ 4939
营养素 4939
中将 4938
年12月15日 4938
锌@@ 4938
共创 4937
天然@@ 4937
大声@@ 4936
文莱 4936
耶鲁 4936
韵律 4936
火热 4935
证监会 4935
em@@ 4934
拉姆@@ 4934
放纵 4934
无畏 4934
帕特里克 4933
550 4932
公债 4932
对齐 4932
橘@@ 4932
满月 4932
食用@@ 4932
差价 4931
3.8 4930
会议中心 4930
ri@@ 4929
受审 4929
胶体 4929
不休 4928
减慢 4928
割礼 4928
月经 4928
流淌 4928
交流@@ 4927
反垄断 4927
荒野 4927
足球队 4927
Am 4926
IB 4926
康德 4926
同伙 4925
想念你 4925
芳烃 4925
海员 4924
算术 4924
虹 4924
株@@ 4923
所为 4922
推销员 4922
罗德@@ 4922
变数 4921
寄存器 4921
摔跤 4920
溴@@ 4920
牛津大学 4920
国庆 4919
进驻 4919
UI 4917
气旋 4917
著名@@ 4917
讽 4916
夜总会 4915
金币 4915
两难 4914
本报 4914
机电@@ 4914
颤动 4914
50000 4913
Apple 4913
公署 4913
向北 4913
陕西省 4913
6.3 4912
他是谁 4912
滚筒 4912
莫里@@ 4912
15:@@ 4911
司令部 4910
奋力 4910
有赖于 4910
蜥蜴 4910
保险箱 4909
著@@ 4909
布利@@ 4907
接收器 4907
罗姆人 4907
肥沃 4907
银河系 4907
一代人 4906
咄@@ 4906
完蛋 4906
插手 4906
现代人 4906
加之 4905
增压 4905
得罪 4905
时时 4905
柬 4905
再者 4904
居高 4904
手无@@ 4902
晶格 4902
萌芽 4902
豁免权 4902
宽大 4901
图书@@ 4900
愤 4900
电流@@ 4900
一对一 4898
余留 4898
未获 4898
自给自足 4897
资源配置 4897
轰动 4896
Richard 4895
价位 4895
内源 4895
顺服 4895
制冷@@ 4893
十天 4893
维数 4893
车载 4893
闺@@ 4893
患病率 4892
晶状体 4892
石材 4892
扁平 4891
龙卷风 4891
兰州 4890
近海 4890
参谋长 4889
批发@@ 4889
酶@@ 4889
头皮 4888
积金 4888
不配 4887
抗旱 4887
桂 4887
论及 4887
宁夏 4886
美国国务院 4886
丈 4885
工业区 4885
拣 4885
比较优势 4885
五点 4884
常年 4884
洗衣服 4884
濒危 4884
腻 4884
屁@@ 4883
心声 4883
机油 4883
江南 4883
窄@@ 4883
软硬件 4883
万事@@ 4881
发球 4881
泼 4881
韦伯 4881
新材料 4880
考古学家 4880
橱柜 4879
自力更生 4879
休止 4877
惊吓 4877
挑战@@ 4877
竿 4877
减退 4876
高等@@ 4876
栩@@ 4875
高职院校 4875
地主 4874
远程@@ 4874
3.7 4873
剖@@ 4873
取笑 4873
工艺@@ 4873
新事物 4873
艾米@@ 4873
苏珊@@ 4873
惬意 4872
迅@@ 4872
铲@@ 4872
雄心 4872
技术服务 4871
邸 4871
白领 4869
课件 4869
休息室 4868
ers 4867
il@@ 4867
内生 4867
红新月 4867
立马 4866
誓@@ 4866
硝化 4865
免费@@ 4864
EL@@ 4863
励磁 4863
痕量 4863
要靠 4863
gt 4862
松开 4861
俱 4860
加工工艺 4860
弊 4860
钢铁@@ 4860
当上 4859
炉子 4859
空地 4859
平滑肌 4858
通俗 4858
之地 4857
我很@@ 4856
缺水 4855
螺母 4855
亚胺 4854
内膜 4854
巴巴 4854
德克萨斯 4854
戊 4854
咖啡店 4853
特别@@ 4853
血迹 4853
调拨 4853
质粒 4853
塔克 4852
能效 4852
能级 4852
6.1 4851
交融 4851
保湿 4851
岛国 4851
斧 4851
立案 4851
收发 4850
谊@@ 4850
风湿 4850
飞来 4850
FL@@ 4849
巴厘 4849
犯罪嫌疑人 4849
烟火 4848
模量 4847
特斯拉 4847
闲暇 4847
ay 4846
拉里 4846
分包 4845
拆分 4845
650 4844
ine 4844
教职 4844
联通 4844
腿@@ 4844
格言 4843
荒漠 4843
认清 4843
辜负 4843
乖乖 4842
退学 4842
锰@@ 4842
循@@ 4841
木屋 4841
铀@@ 4841
攻势 4840
橙@@ 4840
媒@@ 4839
新式 4839
紧急@@ 4839
萨克 4839
致富 4838
赞助商 4838
4.7 4837
咱俩 4837
粘合剂 4837
圣诞快乐 4836
摩根大通 4836
水生 4836
职守 4836
腺瘤 4836
吻@@ 4835
打进 4835
菠菜 4835
赛马 4835
丢脸 4834
罗伯特@@ 4834
公共安全 4833
妈咪 4833
握住 4833
超额 4833
较量 4833
伯利兹 4832
炖 4832
不放弃 4831
星云 4831
闲置 4831
信守 4830
宫廷 4830
电磁场 4830
花样 4830
AF@@ 4829
多酚 4829
睛 4829
决策@@ 4828
导数 4828
缴@@ 4828
坪@@ 4827
会议厅 4826
大好 4826
大局 4826
流星 4826
磁铁 4826
解调 4826
阑@@ 4826
物权 4825
马戏团 4825
无法忍受 4824
椎体 4824
点点 4824
该州 4824
销售人员 4824
卿 4823
开学 4823
海区 4823
粪 4823
前妻 4822
却说 4822
复印 4822
孟加拉 4822
对冲 4822
常有 4822
地块 4821
工作台 4821
管网 4821
荆棘 4821
球星 4820
电子显微镜 4820
编剧 4820
克莱斯勒 4819
大喊 4819
契合 4819
小二 4819
查查 4819
可贵 4818
合作协议 4818
小腿 4818
惊慌 4818
白云 4818
膀胱@@ 4818
国家主席 4817
店@@ 4817
心境 4817
服务生 4817
气相色谱 4817
圆盘 4816
泰德 4816
那末 4816
存量 4815
榨 4815
窃听 4815
催生 4814
私募 4814
驱散 4814
停泊 4813
小编 4813
名气 4812
私法 4812
驻留 4812
严酷 4811
蹄@@ 4811
212 4810
压裂 4810
受阻 4810
找找 4810
管理信息系统 4809
输卵管 4809
塞浦路斯共和国 4808
浮游 4808
锥形 4808
叶变换 4807
布拉格 4805
救出 4805
气囊 4805
蜗@@ 4805
一早 4804
以西 4804
桔 4804
法术 4804
领导@@ 4804
OT 4803
教书 4803
热水器 4803
盛名 4803
受训 4802
极易 4802
游玩 4802
集邮 4802
就诊 4801
这回 4801
6时 4800
承租人 4800
布鲁克 4799
某天 4799
滞@@ 4799
货柜 4799
重任 4799
悔改 4798
折旧 4798
葬@@ 4797
隔热 4797
庙@@ 4796
耗资 4796
Li@@ 4795
未婚 4795
熏 4795
创面 4794
史无前例 4794
如期 4794
学习能力 4794
接连 4794
海藻 4794
韦尔 4794
亨特 4793
性恋 4793
本科生 4793
电平 4793
颂 4793
阵阵 4792
AV@@ 4791
函件 4791
重担 4791
我不相信 4790
暴发 4790
领受 4790
IF 4789
备有 4789
感人 4789
词组 4789
贝克汉姆 4789
主线 4788
打倒 4788
负起 4788
IR@@ 4786
跳水 4785
长发 4785
作案 4784
师范 4784
袋鼠 4784
估量 4783
角逐 4783
麻醉@@ 4783
休斯顿 4782
氧化酶 4782
罪案 4782
装饰品 4782
实用@@ 4781
录像带 4781
社会效益 4781
葫芦 4781
ana 4780
左转 4780
桔@@ 4779
稍稍 4779
吉祥 4778
比作 4778
阿波罗 4778
制片人 4777
军用飞机 4776
廖@@ 4776
机率 4776
栅@@ 4775
深圳@@ 4775
职业道德 4775
饥@@ 4775
检方 4774
玛雅 4774
达斯 4774
4个月 4773
日圆 4773
管路 4773
低点 4772
防洪 4772
如实 4771
小人 4771
朋 4771
踪迹 4771
扬声器 4770
沟通能力 4770
潮汐 4770
股息 4770
镁合金 4770
吵醒 4769
抛出 4769
雅加达 4769
159 4768
电力公司 4768
二苯醚 4767
侨 4767
分派 4767
十七@@ 4767
插头 4767
ak@@ 4766
布宜诺斯艾利斯 4765
悉@@ 4765
自然科学 4765
头条 4764
年青人 4764
轻柔 4764
钢琴@@ 4764
兼容性 4763
年12月18日 4763
至此 4763
遵@@ 4763
悔@@ 4762
音乐剧 4762
VP 4761
勘察 4761
球菌 4761
药学 4761
西北@@ 4761
高强 4761
启迪 4760
哈里斯 4760
正则 4760
纺织@@ 4760
1000@@ 4759
225 4758
友人 4758
婚纱 4758
期货@@ 4758
水槽 4758
火炮 4758
绣@@ 4758
丁香 4757
十四@@ 4757
冷酷 4756
喀土穆 4756
夷@@ 4756
汽轮机 4756
看得见 4756
下旬 4755
公差 4755
殷@@ 4755
自信心 4755
晃@@ 4754
纯正 4754
造访 4754
何地 4753
拒@@ 4753
痴@@ 4753
线人 4753
亚裔 4752
员@@ 4752
折射率 4752
闪闪发光 4752
不服 4751
隐私权 4751
雪地 4751
um@@ 4750
准予 4750
逼真 4750
胆囊 4749
TI@@ 4748
推车 4748
支气管@@ 4748
相交 4748
转载 4748
铸就 4748
杀人犯 4747
连衣裙 4747
葵@@ 4746
侵占 4745
坤 4745
成语 4745
测距 4745
然大@@ 4745
特利 4745
砂浆 4745
年夜 4744
底板 4744
新年快乐 4744
输送机 4744
除名 4744
惩 4743
篱笆 4743
什么叫 4742
滑移 4742
船体 4742
认得 4742
该局 4742
Se@@ 4741
埃博拉 4741
脱位 4740
区块 4739
指认 4739
牵连 4739
反面 4738
富士@@ 4738
扎克 4738
方案设计 4738
NE@@ 4737
埋藏 4737
头号 4737
微波炉 4737
拉夫 4737
热解 4737
颈动脉 4737
年12月10日 4736
惑 4736
胆管 4736
迪斯尼 4736
饶恕 4736
悖论 4735
暗淡 4735
皮毛 4735
胆囊@@ 4735
苜蓿 4735
法式 4734
13:@@ 4733
剖 4733
实实 4733
止境 4733
沿用 4733
一分钱 4732
代代 4732
淑@@ 4732
微处理器 4731
汽水 4731
述评 4731
马尼拉 4730
驯鹿 4730
1月31日 4729
乙酰@@ 4729
人工神经网络 4729
前一年 4729
回首 4729
掏 4729
小贩 4728
恭 4728
发火 4727
奥兰@@ 4727
淫@@ 4727
粗糙度 4727
吹嘘 4726
犬@@ 4726
辅导员 4726
充裕 4725
汤普森 4725
顶上 4725
164 4724
6.7 4723
俯瞰 4723
肿@@ 4723
冲击波 4722
民选 4722
辑 4722
康纳 4721
诺斯 4721
钻探 4721
枢@@ 4720
疑似 4720
起舞 4720
下级 4719
膨@@ 4719
采摘 4719
高级@@ 4719
掏出 4718
真棒 4718
行不通 4718
YouTube 4717
报警@@ 4717
沸石 4716
赎 4716
世界纪录 4715
检视 4715
每组 4715
钡 4715
异性 4714
智者 4713
榜首 4713
搂 4712
断绝 4712
玛丽·@@ 4712
端午节 4711
锻造 4711
商议 4710
里斯本 4710
啮合 4709
ic@@ 4708
出去玩 4708
房门 4708
长成 4708
16:@@ 4707
传道 4707
因为@@ 4707
中国传统文化 4706
刘易斯 4706
华北 4705
嘎 4705
回旋 4705
什幺 4704
实情 4704
阿拉木图 4704
高速@@ 4704
外墙 4703
肿瘤@@ 4703
褶 4703
记者招待会 4703
5点 4702
QQ 4702
前南 4702
参谋 4702
固件 4702
艾滋病@@ 4702
马库@@ 4702
大湖区 4701
夺回 4701
装船 4701
金融资产 4701
各家 4700
洞察力 4700
燔 4700
叫喊 4699
杰拉德 4699
哪@@ 4698
东北@@ 4697
模糊控制 4697
漂流 4697
凌 4696
吞吐量 4696
铜矿 4696
18世纪 4695
宽泛 4695
归入 4695
艾米丽 4695
农业部 4694
发亮 4694
沫 4694
洛斯 4694
调节器 4694
3G 4693
印章 4693
打的 4693
搁 4693
380 4692
lbe 4692
小汽车 4692
碰上 4692
遮住 4691
不尽相同 4690
投资公司 4690
无人驾驶 4690
消磨 4690
惯常 4689
疤痕 4689
躁@@ 4689
俄勒@@ 4688
海岸@@ 4688
涵义 4688
窗体 4688
扫描仪 4687
指正 4687
败坏 4687
185 4686
总体规划 4686
星光 4686
饱和度 4686
高举 4686
各行各业 4685
开场 4685
朱莉 4685
甲酯 4685
18年 4684
四川@@ 4684
外延 4684
期末 4684
权柄 4684
讯号 4684
车程 4684
风度 4684
ti@@ 4682
对称性 4682
潜入 4682
HD@@ 4681
公司法 4681
勤劳 4680
岩性 4680
弗格森 4680
木工 4680
蚤 4680
歧@@ 4679
每逢 4679
社会保障@@ 4679
万事 4678
展厅 4678
挥霍 4678
收件人 4678
轻便 4678
陨石 4678
67@@ 4677
累累 4677
与日俱增 4676
假发 4676
和合本 4676
水污染 4676
筹码 4676
概念@@ 4675
裁缝 4675
脑筋 4674
鲑鱼 4673
所有制 4672
细长 4672
英超 4672
进城 4672
买进 4671
珠海 4671
菊花 4671
依附 4670
物联 4670
自此 4670
霸权 4670
快照 4669
调情 4668
TO 4667
十二指肠 4667
汉姆 4667
航天@@ 4667
判例法 4666
黑莓 4666
六十七 4665
良知 4665
历代 4664
原体 4664
胶粘剂 4664
余年 4663
氢化 4663
锻@@ 4663
4天 4662
有线电视 4662
语音@@ 4662
贾斯@@ 4662
定下 4661
7月份 4660
连线 4660
内尔 4659
利弊 4659
律师协会 4659
眨 4659
瓦伦@@ 4658
礼堂 4658
自立 4658
写完 4657
杰克·@@ 4657
珍藏 4657
DO@@ 4655
指示@@ 4655
东西方 4654
面试官 4654
体育锻炼 4653
托斯 4653
郁闷 4653
新世界 4652
晚年 4652
水龙头 4652
艾丽 4652
足球@@ 4651
基站 4649
数控@@ 4649
et@@ 4648
抹去 4648
萨尔 4648
利润率 4647
劳动合同 4647
无线网络 4647
电子书 4647
花纹 4647
奥斯汀 4646
波尔@@ 4646
鼓起 4646
新鲜@@ 4645
勉 4643
榴@@ 4643
4.8 4642
DA@@ 4642
位列 4642
快活 4642
牙刷 4642
防线 4642
分子生物学 4641
口罩 4641
壮丽 4641
1968年 4640
油炸 4640
13年 4639
巴德 4639
车床 4639
接合 4638
攀 4638
暴乱 4638
牡蛎 4638
数值分析 4637
斯坦福大学 4637
过低 4637
平庸 4636
蜿蜒 4636
不舍 4635
意料 4635
臼 4635
拣选 4634
暴躁 4634
竖 4634
收款 4633
时延 4633
艾莉 4633
丙烯酰胺 4632
安然 4632
雨季 4632
中继 4631
胜出 4631
轮换 4631
年12月19日 4630
核磁共振 4630
宪兵 4629
情怀 4629
窥@@ 4629
伤人 4628
冲进 4628
槟@@ 4628
茅斯 4628
169 4627
小声 4627
材@@ 4627
经销 4627
高超 4627
代号 4626
明清 4626
管理软件 4626
虑 4626
2天 4625
下水道 4625
福布斯 4625
外边 4624
版画 4624
阿米@@ 4624
ANSYS 4623
东莞 4623
教育改革 4623
脑出血 4623
卵石 4622
录用 4621
感应@@ 4621
取暖 4620
向东 4620
显性 4620
联合国教科文组织 4620
风貌 4620
淀 4619
免疫组化 4618
拼搏 4618
演艺 4618
适中 4618
184@@ 4617
密封@@ 4617
年产 4617
麦卡@@ 4617
凄@@ 4616
我不在乎 4616
特雷@@ 4616
预热 4616
转账 4615
加里 4614
吡啶 4614
地质@@ 4614
气愤 4614
刀子 4613
御 4613
输出@@ 4613
出走 4612
发生@@ 4612
淘宝 4612
腮@@ 4612
闯@@ 4612
农发 4611
高估 4611
债务危机 4610
嘶@@ 4610
自由贸易区 4610
连锁店 4610
婆婆 4609
欣然 4609
爬行 4609
顺畅 4609
拂 4608
苏格拉底 4608
锯@@ 4608
ms 4607
放学后 4607
祝你好运 4607
视而不见 4607
记念 4607
世行 4606
中国人民@@ 4606
鳞 4606
兄@@ 4605
占地面积 4605
太忙 4605
每一步 4605
祸害 4605
卡因 4604
厕 4604
固定资产 4604
机身 4604
米高 4604
酒馆 4604
折衷 4603
透彻 4603
DO 4602
平均数 4602
息肉 4602
休眠 4601
绪@@ 4601
凭什么 4600
出土 4600
华裔 4600
想方设法 4600
伤痕 4599
单相 4599
橡@@ 4599
猖獗 4599
轨@@ 4599
保镖 4598
奥斯 4598
测评 4598
烤肉 4598
直达 4598
课后 4598
167 4597
中国公民 4597
尚有 4597
死亡@@ 4597
转向@@ 4597
夕@@ 4596
大马士革 4596
烦人 4596
人均收入 4595
僧@@ 4595
监视器 4595
10年前 4594
八十年代 4594
莫尔 4594
阿曼达 4594
公益@@ 4593
危险@@ 4593
CI@@ 4592
倒数 4592
同业 4592
哈尔 4592
付清 4590
年均 4590
文森特 4590
电路板 4590
课税 4590
6月份 4589
mo 4589
米兰@@ 4589
承保 4588
眼科 4588
潘基文 4587
药店 4587
贝多芬 4587
龟@@ 4587
World 4586
冉@@ 4586
集中营 4586
悬臂 4585
讲台 4585
LP 4584
凤凰 4584
哄@@ 4584
崇尚 4584
NT 4583
学分 4583
抗病 4583
移送 4583
胡须 4583
1980年代 4582
公道 4582
关键时刻 4582
幸运@@ 4582
葡萄球菌 4581
毕业典礼 4580
然无@@ 4579
特拉 4579
苍 4578
中国历史 4577
开庭 4577
笔译 4577
鱿鱼 4577
逍遥法外 4576
1945年 4575
塔里@@ 4575
尾气 4575
数学家 4575
派系 4575
佳节 4574
安慰剂 4574
平衡@@ 4574
早年 4574
积水 4574
SAT 4573
不绝 4573
憧憬 4573
罹患 4573
仍可 4572
刃@@ 4572
功率@@ 4572
巴赫 4572
注水 4572
渺小 4572
网点 4572
委托@@ 4571
异国 4571
文化多样性 4571
群山 4571
衬底 4571
同住 4570
总得 4570
撤军 4570
蜘蛛@@ 4570
陡峭 4570
中国银行 4569
允 4569
变种 4568
乘车 4567
艺术形式 4567
贝克@@ 4567
89@@ 4566
ax 4566
内斯 4566
搜救 4566
暑期 4566
加拿大人 4565
大学英语 4565
斯宾塞 4565
燕麦 4565
车主 4565
轨道交通 4565
LA 4564
吊销 4564
悄然 4564
米歇@@ 4564
[...]
