#version: 0.2
t h
i n
a n
th e</w>
t i
r e
e r
e n
o n
o n</w>
o f</w>
a r
an d</w>
in g</w>
e d</w>
o r
o u
t o</w>
i t
e r</w>
s t
e s</w>
a l
i n</w>
r o
a ti
a t
o s
a p
a l</w>
i s</w>
e c
i c
a t</w>
a c
o m
o r</w>
e l
e s
i s
i l
ap os
& apos
a n</w>
a s</w>
a s
v e</w>
T h
&apos ;
en t</w>
ati on</w>
u r
o l
q u
p l
e n</w>
s i
p ro
e m
o t
r i
o u</w>
f or</w>
t s</w>
th at</w>
l y</w>
@ -
@- @</w>
c on
u s
w h
e v
d i
u n
l i
a m
a b
s u
c e</w>
ti on</w>
a g
Th e</w>
a d
y ou</w>
c h
n o
h a
c om
on s</w>
i t</w>
e t
o p
re s
it h</w>
l e</w>
l o
t r
s h
w ith</w>
e x
qu ot
&apos; s</w>
quot ;</w>
& quot;</w>
u l
th e
ar e</w>
it y</w>
f or
b e</w>
er e</w>
ou n
l e
a y</w>
i g
c i
m ent</w>
t er
u c
i m
f f
i r
i d
v er
at e</w>
b y</w>
b e
l d</w>
2 0
p er
我 们</w>
n e
w as</w>
m e</w>
a r</w>
ou r</w>
p or
a k
d e
al l</w>
w or
en t
p ar
st r
er s</w>
e t</w>
b u
ha ve</w>
th er</w>
m e
on al</w>
no t</w>
ou t</w>
ou ld</w>
g r
o o
p e
o w
d s</w>
ur e</w>
ro m</w>
t e
on e</w>
c l
th is</w>
ati ons</w>
g h
a in
f rom</w>
re n
u d
il l</w>
es s</w>
s o</w>
s e
t er</w>
s p
u m
i c</w>
t ed</w>
20 0
en ts</w>
an t</w>
i r</w>
e ar
C h
ti c
an ce</w>
c an</w>
w ill</w>
t h</w>
re d</w>
it s</w>
v i
c h</w>
h as</w>
r a
h e</w>
i z
m o
c o
d uc
ou r
at ed</w>
a y
an g
in g
con t
ar y</w>
w e
al ly</w>
i d</w>
ev el
他 们</w>
g i
or e</w>
w e</w>
pl e</w>
&apos; t</w>
p os
m an
ic h</w>
p re
d ing</w>
d er</w>
ab le</w>
m in
g o
ti es</w>
S t
d is
u t
on g</w>
si on</w>
ati onal</w>
for m
om e</w>
y our</w>
st e
ig h
ag e</w>
o c
s a
us t</w>
f e
wh ich</w>
c oun
h i
p res
evel op
p r
问 题</w>
I n
ak e</w>
the ir</w>
ic e</w>
re c
1 9
gh t</w>
com m
W h
o w</w>
I t</w>
u s</w>
t ing</w>
em ent</w>
o g
m y</w>
A n
pro v
el l</w>
in e</w>
a in</w>
ti ons</w>
a d</w>
no w</w>
us e</w>
可 以</w>
w ere</w>
I n</w>
研 究</w>
s e</w>
es e</w>
en ce</w>
em b
e l</w>
ec t</w>
m ore</w>
国 家</w>
bu t</w>
e st
s y
es t</w>
h e
U n
ti ve</w>
h is</w>
k e</w>
c re
ou s</w>
s t</w>
p u
ic al</w>
the y</w>
s er
as e</w>
o ther</w>
ac e</w>
es s
in ter
d er
f in
u p</w>
be en</w>
d evelop
s o
ha d</w>
工 作</w>
i f
k ing</w>
C om
p h
s ec
进 行</w>
n ational</w>
en d
en er
v er</w>
ti me</w>
al so</w>
por t</w>
t o
Ch in
as t</w>
at es</w>
ar d</w>
e y</w>
a v
d o</w>
Y ou</w>
it ed</w>
没 有</w>
t y</w>
g h</w>
l l</w>
k s</w>
r ou
ec h
el y</w>
i es</w>
ab out</w>
re l
en ti
os t</w>
什 么</w>
oo d</w>
o ple</w>
发 展</w>
re s</w>
C on
am e</w>
wor k</w>
u e</w>
g e</w>
t ri
e p
b o
t u
这 些</w>
l a
a f
ad e</w>
d ay</w>
p o
p ol
or y</w>
s ti
w ould</w>
d o
o b
os e</w>
t w
oun d</w>
m ar
h er</w>
o d</w>
an y</w>
li ke</w>
f l
W e</w>
r e</w>
com p
pe ople</w>
c es</w>
f i
th ere</w>
a m</w>
i al</w>
an d
f ir
ste m</w>
al l
ay s</w>
提 供</w>
0 0</w>
f u
ac c
m on
ne w</w>
th ing</w>
f ac
b et
wh at</w>
e d
ver n
s el
si d
ing s</w>
sa id</w>
Th is</w>
w ay</w>
u t</w>
sh ould</w>
ev er</w>
sp ec
or s</w>
wh o</w>
m is
这 个</w>
in to</w>
系 统</w>
at ing</w>
ac k</w>
is i
自 己</w>
b ec
委 员
u m</w>
ow n</w>
委员 会</w>
通 过</w>
g et</w>
会 议</w>
e ff
in v
ati ve</w>
d es
su p
20 1
a u
可 能</w>
以 及</w>
pro c
b l
如 果</w>
ol d</w>
r u
re e</w>
al s</w>
H e</w>
cl ud
b as
An d</w>
d ec
lo w
igh t</w>
it e</w>
an s
ol og
中 国</w>
组 织</w>
R e
il l
v es</w>
ev er
ic ation</w>
wh en</w>
t ur
&apos ;</w>
ci al</w>
n ing</w>
P ro
op er
Un ited</w>
需 要</w>
19 9
公 司</w>
s ome</w>
en d</w>
str uc
por t
i st
ech n
i th
th an</w>
il ity</w>
the m</w>
i f</w>
因 为</w>
il e</w>
p ri
政 府</w>
n o</w>
ver y</w>
方 面</w>
g u
t ure</w>
k now</w>
sy stem</w>
ti c</w>
g re
ar i
is h
develop ment</w>
res p
di ff
其 他</w>
方 法</w>
b le</w>
su b
j ust</w>
in d
re qu
ser v
e ar</w>
a use</w>
o ff
报 告</w>
in clud
a re
tw o</w>
su l
h el
a st
技 术</w>
ac h</w>
g n
知 道</w>
v en
on ly</w>
as s
ren t</w>
Chin a</w>
b r
g an
en c
pro duc
m at
m it
影 响</w>
su ch</w>
f r
e w</w>
id e</w>
al y
v ing</w>
. .
c ri
at er</w>
B ut</w>
t en
ti m
包 括</w>
ec on
e g
c er
ac h
hi m</w>
已 经</w>
分 析</w>
所 有</w>
i a</w>
is h</w>
form ation</w>
情 况</w>
lo w</w>
不 是</w>
ac ti
ec tion</w>
us ed</w>
m ost</w>
ener al</w>
ch ang
an s</w>
per i
关 于</w>
社 会</w>
k ed</w>
in k</w>
&apos; re</w>
i ties</w>
国 际</w>
lo c
fir st</w>
ol u
o ver</w>
e f
t echn
th rou
ig h</w>
d on</w>
li f
sh i
per s
ig n</w>
c ol
使 用</w>
一 些</w>
ri ght</w>
om e
经 济</w>
f un
m il
u st
ear s</w>
sh e</w>
el l
re g
s ur
we en</w>
&apos; m</w>
a il
c ould</w>
fu l</w>
i l</w>
b er</w>
p ec
an c
for e</w>
m ake</w>
o f
iz ation</w>
re m
重 要</w>
c or
u p
st ud
时 间</w>
g o</w>
联 合
emb er</w>
tr y</w>
al ity</w>
p a
c ar
N ations</w>
w ell</w>
现 在</w>
bet ween</w>
com pl
lo o
econ om
tic al</w>
w ith
te e</w>
m an</w>
但 是</w>
安 全</w>
d re
is e</w>
com e</w>
tr ans
li c</w>
m ade</w>
o re
tri es</w>
m ay</w>
man y</w>
管 理</w>
.. .</w>
y ears</w>
h ow</w>
g ood</w>
v ed</w>
认 为</w>
u res</w>
p s</w>
throu gh</w>
c ur
n ed</w>
c ap
ap pl
就 是</w>
c ul
vern ment</w>
b i
t ake</w>
re t
活 动</w>
ch il
re gi
inter national</w>
j o
f t</w>
r y</w>
th ese</w>
y ear</w>
se e</w>
ab l
y ing</w>
ic i
th ou
机 构</w>
em s</w>
af ter</w>
gr am
or gan
diff e
si st
有 关</w>
wor ld</w>
is t</w>
un der</w>
im pl
ne ed</w>
联合 国</w>
coun tries</w>
k e
me th
un der
S ec
isi on</w>
美 国</w>
ro w
h um
我 的</w>
d el
im port
e qu
I f</w>
j ec
th en</w>
s ome
ac t</w>
St ates</w>
lif e</w>
e i
d et
ic es</w>
部 分</w>
in te
b lic</w>
w ant</w>
必 须</w>
olog y</w>
w om
h igh</w>
主 要</w>
sel f</w>
or d
这 样</w>
E n
t ly</w>
方 案</w>
l ar
提 出</w>
ch ar
res s</w>
t or</w>
t ro
s c
ur ity</w>
代 表</w>
特 别</w>
你 们</w>
v al
ak ing</w>
人 员</w>
en g
ap p
时 候</w>
这 种</w>
m er
世 界</w>
s ch
Com mit
Wh at</w>
wh ere</w>
in cre
服 务</w>
1 0</w>
h ere</w>
em ent
f ul
计 划</w>
C oun
en s
th ose</w>
in formation</w>
f ol
ab ility</w>
g l
m s</w>
G eneral</w>
设 计</w>
an aly
h h
resp on
re sul
for m</w>
执 行</w>
Commit tee</w>
th ink</w>
b el
m a
t re
ur ing</w>
G o
v ir
开 始</w>
ti onal</w>
st s</w>
cont ro
is m</w>
n um
作 为</w>
pu blic</w>
le g
d y</w>
任 何</w>
行 动</w>
po in
cont in
man ag
shi p</w>
项 目</w>
m ents</w>
ev en</w>
iz ed</w>
关 系</w>
ent al</w>
ren ce</w>
ul ar</w>
oo k</w>
Th ey</w>
il y</w>
t le</w>
in ce</w>
b ack</w>
p er</w>
uc h</w>
bec ause</w>
s ed</w>
不 同</w>
si gn
d e</w>
A c
根 据</w>
is su
T o</w>
bu il
E x
no w
olu tion</w>
a ff
y p
on g
1 0
v is
支 持</w>
comm un
建 议</w>
m ust</w>
v e
me as
ou t
u al</w>
ot h</w>
in i
A r
in d</w>
A l
结 果</w>
st an
Chin ese</w>
合 作</w>
ear ch</w>
生 活</w>
r it
&apos; ll</w>
要 求</w>
includ ing</w>
oo l</w>
gr ou
enc y</w>
U N
eff ec
p ow
pres ent
In ter
j ect</w>
Th at</w>
s is</w>
ex t</w>
so ci
k et</w>
or der</w>
e p</w>
pl o
决 定</w>
作 用</w>
pro gram
a ve</w>
r is
l ong</w>
s ol
re ad
A s
f a
sup port</w>
prov id
in ess</w>
s m
par t
能 力</w>
coun try</w>
w ays</w>
th er
d at
环 境</w>
e ther</w>
oper ation</w>
ci l</w>
e as
an g</w>
信 息</w>
import ant</w>
b us
be fore</w>
m ul
proc ess</w>
应 用</w>
dre n</w>
an ts</w>
el ec
di d</w>
pos i
f am
Th ere</w>
re port</w>
l it
ain ing</w>
con si
实 现</w>
ou s
成 为</w>
P ar
mis sion</w>
et y</w>
sid e</w>
不 会</w>
en tr
m uch</w>
区 域</w>
w ater</w>
wom en</w>
k now
d own</w>
f ri
A s</w>
as s</w>
l in
vi ew</w>
不 能</w>
et ing</w>
目 标</w>
bas ed</w>
th ree</w>
表 示</w>
be ing</w>
c our
t en</w>
t al
ri bu
d ra
希 望</w>
st ar
R es
同 时</w>
go ing</w>
impl ement
应 该</w>
S h
具 有</w>
est abl
规 定</w>
地 区</w>
S he</w>
Coun cil</w>
si ve</w>
之 间</w>
处 理</w>
gh ts</w>
2 0</w>
得 到</w>
tic le</w>
发 生</w>
diffe rent</w>
su m
ap er</w>
教 育</w>
ti v
S o</w>
ver s
建 立</w>
ap pro
妇 女</w>
chang e</w>
o p</w>
M r
因 此</w>
ad v
A d
o m</w>
v en</w>
方 式</w>
sti ll</w>
vir on
o t</w>
em ents</w>
at t
par t</w>
an n
d em
at ure</w>
资 源</w>
le ar
pu t</w>
d ed</w>
u ation</w>
di rec
pro t
ter s</w>
s ame</w>
企 业</w>
num ber</w>
ci p
g en
先 生</w>
l and</w>
保 护</w>
an k</w>
lo ve</w>
chil dren</w>
d u
ac tion</w>
str y</w>
非 常</w>
si ble</w>
h ear
继 续</w>
sh all</w>
政 策</w>
l ine</w>
控 制</w>
能 够</w>
s et</w>
n ess</w>
ain st</w>
l ev
产 品</w>
as ed</w>
发 现</w>
p ur
结 构</w>
ain ed</w>
主 义</w>
go t</w>
过 程</w>
市 场</w>
h app
o ver
s ay</w>
g e
econom ic</w>
pol ic
tic s</w>
s it
con cer
ati on
ag es</w>
a ir
ot e</w>
c ent</w>
hum an</w>
ag ainst</w>
措 施</w>
meth od</w>
l ess</w>
on d</w>
ar ds</w>
e ach</w>
提 高</w>
数 据</w>
它 们</w>
contro l</w>
t e</w>
requ i
to o</w>
ish ed</w>
0 00</w>
秘 书
努 力</w>
lev el</w>
n ec
l ast</w>
1 2
i e
bo dy</w>
al th</w>
s pe
pl ace</w>
w s</w>
采 取</w>
所 以</w>
ven tion</w>
行 为</w>
manag ement</w>
au th
i p
t ak
wh ile</w>
决 议</w>
our ces</w>
ar m
利 用</w>
me di
Wh en</w>
id e
人 们</w>
许 多</w>
fe rence</w>
c us
ex p
hel p</w>
v ari
t ain</w>
c as
s k
la w</w>
sti tu
d uring</w>
b oth</w>
P re
e duc
&apos; ve</w>
i ed</w>
一 次</w>
re por
美 元</w>
h ol
p aper</w>
l ed</w>
ati c</w>
un i
ic ul
A mer
pr in
T r
si ons</w>
an t
增 加</w>
Amer ic
of f</w>
dat a</w>
而 且</w>
其 中</w>
如 何</w>
获 得</w>
c all
D i
W or
Mr .</w>
m ain
为 了</w>
ex am
di st
pro b
s en
r ap
f ace</w>
地 方</w>
h igh
Sec ret
n er</w>
it al</w>
li on</w>
正 在</w>
d n</w>
有 效</w>
stud y</w>
相 关</w>
b ro
res t</w>
解 决</w>
法 律</w>
存 在</w>
F or</w>
对 于</w>
par ti
lo b
& #
vi ties</w>
el d</w>
St ate</w>
由 于</w>
O n
3 0</w>
fol low
de p
公 约</w>
那 些</w>
en viron
选 择</w>
di v
f ur
目 前</w>
或 者</w>
大 会</w>
gi ve</w>
中 心</w>
plo y
us ing</w>
al e</w>
t ors</w>
an y
le t</w>
li m
喜 欢</w>
b re
d r
sec urity</w>
pl an
es sion</w>
g row
lit tle</w>
起 来</w>
gre at</w>
h y
an cial</w>
&# 9
M ar
儿 童</w>
ex peri
es ti
Go vernment</w>
w a
de l</w>
一 样</w>
acti vities</w>
par tic
min i
pos ed</w>
in ation</w>
m ental</w>
ow ever</w>
还 是</w>
程 序</w>
目 的</w>
en ing</w>
re ally</w>
一 起</w>
d oc
ou th</w>
1 2</w>
和 平</w>
个 人</w>
学 生</w>
文 化</w>
这 里</w>
mar ket</w>
at eg
5 0</w>
ut e</w>
N o</w>
O n</w>
if ic
fun c
事 会</w>
st at
ex c
n ever</w>
pro f
ef for
ro s
s ing</w>
ri ghts</w>
基 础</w>
so cial</w>
d ic
成 员</w>
a h</w>
ren g
部 门</w>
ac k
1 5</w>
只 是</w>
ul ation</w>
pow er</w>
t yp
孩 子</w>
加 强</w>
f ore
le ar</w>
考 虑</w>
tr a
ever y</w>
国 际
bet ter</w>
u ro
dis cus
促 进</w>
A t</w>
s ure</w>
res olution</w>
ur al</w>
fin d</w>
g g
bus iness</w>
h ar
ou se</w>
ech an
comp any</w>
帮 助</w>
生 产</w>
领 域</w>
struc tion</w>
及 其</w>
am p
ever y
看 到</w>
di tion</w>
讨 论</w>
al ways</w>
prov ide</w>
M e
li ght</w>
a k</w>
op e</w>
with out</w>
mat er
然 后</w>
文 件</w>
iz e</w>
char ac
开 发</w>
sid ent</w>
implement ation</w>
techn ology</w>
col l
注 意</w>
an ds</w>
er ing</w>
re as
采 用</w>
c c
D evelop
go vernment</w>
理 事会</w>
con c
一 直</w>
e y
qu ality</w>
e ase</w>
朋 友</w>
we e
s ci
权 利</w>
m emb
grou p</w>
mini str
ar ound</w>
s es</w>
end ed</w>
参 与</w>
全 球</w>
ain s</w>
很 多</w>
As s
那 么</w>
read y</w>
变 化</w>
loo k</w>
di es</w>
des ign</w>
n on</w>
ac coun
emb ly</w>
并 且</w>
n s</w>
n am
产 生</w>
缔 约</w>
d ro
L i
fin ancial</w>
ac hi
fl u
h ome</w>
res earch</w>
en ds</w>
at h</w>
re comm
确 保</w>
u r</w>
st reng
b est</w>
C o
ag re
出 现</w>
enti al</w>
基 于</w>
le ad
b ility</w>
tur al</w>
a i
pr is
meas ures</w>
pol i
g ener
ad op
联 合</w>
ad d
是 否</w>
with in</w>
some thing</w>
调 查</w>
cl u
S y
m et
条 件</w>
f ound</w>
还 有</w>
struc ture</w>
tim es</w>
东 西</w>
ap pe
educ ation</w>
1 1</w>
b er
n or
m or
contin u
一 切</w>
c an
确 定</w>
me eting</w>
最 后</w>
pro m
Un i
ec ted</w>
do es</w>
w ard</w>
e ds</w>
ent ly</w>
di tional</w>
标 准</w>
res ources</w>
H ow</w>
都 是</w>
sm all</w>
b en
l es</w>
th ings</w>
D ec
rec ei
pers on</w>
更 多</w>
d ge</w>
l ing</w>
organ iz
n a</w>
su cc
b il
表 明</w>
N o
analy sis</w>
治 疗</w>
fr ic
g y</w>
ic s</w>
模 型</w>
are a</w>
i an</w>
lob al</w>
st u
c ase</w>
pres ent</w>
期 间</w>
Inter national</w>
wor king</w>
comm it
ic k</w>
resul ts</w>
大 学</w>
re co
mo del</w>
c ent
主 席</w>
serv ices</w>
z e</w>
Secret ary</w>
ep t</w>
per form
t em
之 后</w>
olog ical</w>
pl es</w>
A ll</w>
p op
parti cip
一 步</w>
机 会</w>
gr ap
D e
也 是</w>
f o
N ew</w>
f il
er min
ex pres
he alth</w>
r ang
1 1
tr ac
觉 得</w>
今 天</w>
thou gh</w>
Ass embly</w>
A p
qu es
s ession</w>
理 论</w>
实 施</w>
bec ome</w>
s ince</w>
建 设</w>
fam ily</w>
s or
本 文</w>
St ud
ex pl
fur ther</w>
E uro
Develop ment</w>
sh ow
工 作
ol e</w>
ar ly</w>
rel ated</w>
or ity</w>
介 绍</w>
举 行</w>
网 络</w>
I s
- -</w>
政 治</w>
par ty</w>
inv est
tak en</w>
A fric
le m</w>
pl y</w>
m echan
pl ac
基 金</w>
re st
接 受</w>
serv ice</w>
st and
城 市</w>
c a
er v
in tro
参 加</w>
sist ance</w>
poin t</w>
peri od</w>
tre at
th ers</w>
投 资</w>
an other</w>
be g
ro w</w>
sch ool</w>
一 定</w>
ma j
em ploy
ic ations</w>
n ot
M y</w>
基 本</w>
h al
之 前</w>
w ar
d ri
vers ity</w>
co operation</w>
制 度</w>
ir e</w>
k ey</w>
n ext</w>
ut ure</w>
O r
为 什么</w>
div id
call ed</w>
e re
fi eld</w>
ou gh</w>
buil ding</w>
go vern
re present
ti on
各 种</w>
ag ain</w>
P er
有 人</w>
O b
st ate</w>
原 因</w>
A f
inte gr
o ds</w>
wor k
posi tion</w>
en ter
学 习</w>
战 略</w>
are as</w>
ful l</w>
P e
im prov
c al
Com mission</w>
k ind</w>
指 出</w>
m ight</w>
1 8
effor ts</w>
eff ect</w>
cont ribu
sec ond</w>
am ong</w>
s on</w>
b ri
og ether</w>
M o
en s</w>
pos sible</w>
a way</w>
c r
我 国</w>
g ress</w>
过 去</w>
n al</w>
pl ay</w>
t a
ar ticle</w>
regi onal</w>
prob lem</w>
实 际</w>
y s</w>
f er
不 要</w>
ros s</w>
t ell</w>
减 少</w>
st ory</w>
e m</w>
秘书 长</w>
spec ial</w>
esti g
appl ication</w>
d om
ic t</w>
完 成</w>
不 过</w>
银 行</w>
th s</w>
memb ers</w>
进 一步</w>
at or</w>
W ell</w>
d ate</w>
lar ge</w>
作 出</w>
p ati
o ve</w>
spec if
ci r
pro per
资 料</w>
vi ol
ic k
协 调</w>
tur n</w>
me ans</w>
t ogether</w>
mon ey</w>
pl ay
空 间</w>
m en</w>
n et
ex per
polic y</w>
只 有</w>
b ur
f oc
leg al</w>
人 民</w>
he ad</w>
成 功</w>
r ate</w>
enti f
in es</w>
S u
st and</w>
L e
W ith</w>
p ed</w>
f uture</w>
a ut
a ir</w>
at er
bl ems</w>
th em
P l
取 得</w>
issu es</w>
机 制</w>
en ed</w>
事 情</w>
任 务</w>
sign ific
nec ess
用 于</w>
p i
1 5
m aking</w>
loc al</w>
G u
n er
produc ts</w>
d ays</w>
S o
材 料</w>
sy st
A u
f ood</w>
de f
提 交</w>
因 素</w>
ak es</w>
贸 易</w>
as k</w>
ir d</w>
援 助</w>
m es</w>
怎 么</w>
Con vention</w>
cl os
O ff
fe w</w>
pro ve</w>
follow ing</w>
ini ti
develop ing</w>
运 动</w>
En gl
sa f
p tion</w>
com b
si m
s al
B o
ous ly</w>
t able</w>
compl et
sit uation</w>
范 围</w>
organiz ations</w>
g ir
t ow
h u
h ouse</w>
了 解</w>
fi ed</w>
来 说</w>
poli tical</w>
sh ow</w>
细 胞</w>
m ain</w>
val ue</w>
stud ents</w>
ro le</w>
mil lion</w>
c ust
1 4</w>
F or
G rou
b an
ac e
s ays</w>
质 量</w>
u ally</w>
ag rap
isi ons</w>
ro om</w>
b ed</w>
cap ac
rel ev
H e
re li
provid ed</w>
sh or
tr aining</w>
wh y</w>
im p
On e</w>
共 同</w>
to day</w>
显 示</w>
开 展</w>
完 全</w>
1 8</w>
&apos; d</w>
hel d</w>
at ely</w>
ex ist
produc tion</w>
qu e</w>
lo t</w>
n ame</w>
增 长</w>
det ermin
duc ed</w>
in t
m un
ati s
cur rent</w>
Stud y</w>
ch o
jec ts</w>
1 6</w>
无 法</w>
pro ject</w>
in stitu
re al</w>
ens ure</w>
program me</w>
af f</w>
n ight</w>
ang u
2 5</w>
功 能</w>
ful ly</w>
ind u
du ce</w>
p ing</w>
受 到</w>
那 个</w>
pro blems</w>
ou l
effec tive</w>
D o</w>
1 3</w>
thou ght</w>
I m
t ot
ten tion</w>
持 续</w>
准 备</w>
造 成</w>
每 个</w>
健 康</w>
w r
fe el</w>
dec ision</w>
改 变</w>
这 么</w>
比 较</w>
stan ding</w>
Grou p</w>
Sec urity</w>
ic ial</w>
our ce</w>
i ous</w>
prin ci
di dn</w>
st or
de red</w>
bel ie
G od</w>
必 要</w>
par agrap
武 器</w>
学 校</w>
d en</w>
cas es</w>
c are</w>
ac y</w>
ener gy</w>
a im
拥 有</w>
虽 然</w>
grap h
our s</w>
设 备</w>
in f
inv ol
ne eds</w>
S pec
vi e
来 自</w>
d ev
4 0</w>
c ity</w>
ever al</w>
各 国</w>
ex t
of ten</w>
家 庭</w>
内 容</w>
cour se</w>
g lobal</w>
O h</w>
eff ici
责 任</w>
des ig
审 查</w>
incre ase</w>
inv estig
一 般</w>
bi g</w>
H owever</w>
gi ven</w>
commun ity</w>
尽 管</w>
cri min
indu stry</w>
sp ace</w>
f our</w>
in c
part ment</w>
tr ade</w>
relev ant</w>
ben ef
严 重</w>
d am
办 法</w>
意 义</w>
li g
con di
ati ves</w>
g on
ind ic
it ary</w>
Pre sident</w>
然 而</w>
i um</w>
事 务</w>
p at
w rit
y oun
wor ds</w>
grow th</w>
价 值</w>
el s</w>
找 到</w>
水 平</w>
hal f</w>
发 展
自 由</w>
原 则</w>
h and</w>
an ti
al ready</w>
a z
re al
do m</w>
计 算</w>
j ud
dep end
专 家</w>
c ame</w>
D is
评 估</w>
in e
et ting</w>
传 统</w>
人 类</w>
出 来</w>
6 0</w>
人 权</w>
e ah</w>
ac tu
探 讨</w>
1 3
develop ed</w>
f ree</w>
er y</w>
contin ue</w>
意 见</w>
认 识</w>
ke ep</w>
le ft</w>
v ely</w>
说 明</w>
jec tive</w>
environ ment</w>
or ding</w>
i ally</w>
t on</w>
resul t</w>
M an
J o
1 .
g eneral</w>
no v
a red</w>
gr ad
业 务</w>
t ook</w>
c all</w>
小 组</w>
历 史</w>
at s</w>
ter is
str ateg
in a</w>
N ow</w>
ad ministr
proc ess
一 下</w>
最 大</w>
st aff</w>
草 案</w>
ul es</w>
t est</w>
s w
partic ular</w>
pri v
模 式</w>
ach ing</w>
perform ance</w>
ter m</w>
op en</w>
h ard</w>
w el
a w
pos e</w>
pe ace</w>
wh ole</w>
hear t</w>
con duc
s ing
世 界
pe ti
gon na</w>
diff icul
P ol
直 接</w>
en ces</w>
treat ment</w>
人 口</w>
pl an</w>
ne l</w>
共 和
保 持</w>
F e
形 式</w>
fi ve</w>
S e
改 革</w>
ol s</w>
F in
consi der
maj or</w>
prot ection</w>
con struction</w>
非 洲</w>
导 致</w>
告 诉</w>
Engl ish</w>
t old</w>
专 业</w>
know le
b or
ust ri
port un
负 责</w>
具 体</w>
19 8
it ing</w>
科 学</w>
the re
experi ence</w>
con f
exam ple</w>
vari ous</w>
ne t</w>
us es</w>
bas is</w>
es si
ab ly</w>
gr ound</w>
do ing</w>
ri ed</w>
不 断</w>
N or
工 程</w>
未 来</w>
necess ary</w>
reg ul
Th ese</w>
or d</w>
av ail
im prove</w>
0 .
制 定</w>
cust om
ar s</w>
le ase</w>
fore ign</w>
p ast</w>
f ar</w>
h en
试 验</w>
pr ac
月 2
, 000</w>
comp an
bu d
re ad</w>
发 言</w>
评 价</w>
1 00</w>
r an
ear ly</w>
感 到</w>
应 当</w>
Res earch</w>
ch em
以 来</w>
w ent</w>
y s
1 7</w>
oun d
duc tion</w>
预 算</w>
belie ve</w>
chil d</w>
achi ev
ti f
l angu
for ce</w>
capac ity</w>
相 信</w>
经 验</w>
l s</w>
审 议</w>
wh ether</w>
por ts</w>
l u
性 能</w>
ti ce</w>
si a</w>
整 个</w>
带 来</w>
t ar
regi on</w>
p ot
观 察</w>
op portun
需 求</w>
ex pec
M on
ur y</w>
ec u
il i
incre as
soci ety</w>
as h
t or
me an</w>
in divid
acc ording</w>
pro gress</w>
n at
establ ished</w>
ast er</w>
ab ove</w>
wor ks</w>
总 统</w>
Af ter</w>
on es</w>
am oun
d one</w>
as sistance</w>
L a
稳 定</w>
J ap
ord in
o k
p ass
斯 坦</w>
h and
不 知道</w>
en h
econom y</w>
实 验</w>
acc ess</w>
如 此</w>
欧 洲</w>
st re
dra ft</w>
fac t</w>
entr al</w>
ti l</w>
甚 至</w>
t aking</w>
jo in
gi es</w>
w at
b ook</w>
e red</w>
利 亚</w>
反 应</w>
pu bl
电 话</w>
A n</w>
su ff
共和 国</w>
condi tions</w>
paragrap h</w>
Re public</w>
reco gn
mul ti
li ve</w>
up on</w>
com es</w>
o thers</w>
ar t</w>
Q u
on ic</w>
冲 突</w>
s everal</w>
3 0
Th en</w>
min d</w>
例 如</w>
ev al
hh hh
n ers</w>
2 1</w>
ch ing</w>
仍 然</w>
u re
Con ference</w>
c ost</w>
me et</w>
英 国</w>
l ab
p en
培 训</w>
日 本</w>
su st
anc ed</w>
syst ems</w>
at tention</w>
issu e</w>
关 注</w>
b al
c y
经 济
proc ed
强 调</w>
le ast</w>
欢 迎</w>
费 用</w>
就 会</w>
elec tr
全 面</w>
进 展</w>
acti ce</w>
进 入</w>
comm on</w>
de fin
w al
形 成</w>
进 程</w>
su gg
m al</w>
con tr
te am</w>
ch all
最 近</w>
风 险</w>
jo b</w>
tiv ely</w>
tr an
typ e</w>
z ed</w>
D es
表 现</w>
pro posed</w>
程 度</w>
那 里</w>
v ol
ag ed</w>
充 分</w>
200 0</w>
An aly
er n</w>
1 4
del i
H is</w>
积 极</w>
amp ;</w>
& amp;</w>
or ing</w>
youn g</w>
C ol
m ag
Wh y</w>
此 外</w>
es pec
re view</w>
rel ation
com ing</w>
ch ed</w>
m en
资 金</w>
or ities</w>
Y eah</w>
1 ;</w>
&#9 1;</w>
l os
includ e</w>
fac il
se qu
Or gan
si bility</w>
ab il
at ors</w>
ris k</w>
1 6
Americ an</w>
200 5</w>
达 到</w>
g er</w>
mat ter</w>
des cri
p ay</w>
伙 伴</w>
价 格</w>
Wor ld</w>
espec ially</w>
B e
grou ps</w>
h er
d y
g ed</w>
知 识</w>
S outh</w>
ques tion</w>
想 要</w>
保 证</w>
法 院</w>
in flu
tot al</w>
S ome</w>
specif ic</w>
ep ing</w>
I s</w>
equ ip
感 觉</w>
尤 其</w>
di ed</w>
也 许</w>
recomm end
s ha
ay ing</w>
if e</w>
at ory</w>
1 7
3 ;</w>
&#9 3;</w>
针 对</w>
2 4</w>
is l
1 9</w>
mil itary</w>
chang es</w>
un e</w>
m it</w>
W e
P h
200 8</w>
j ing</w>
关 键</w>
组 成</w>
li st
on ce</w>
r ing</w>
h old</w>
改 善</w>
dist ribu
m y
语 言</w>
techn ical</w>
o x
se e
charac teris
in s</w>
am e
for ward</w>
u ment</w>
下 来</w>
E l
mon it
f er</w>
f re
英 语</w>
o il</w>
m i
o s</w>
ha ving</w>
按 照</w>
appro pri
high er</w>
acc ord
th y</w>
si c</w>
en ough</w>
i on</w>
star t</w>
2 .
事 件</w>
N ational</w>
par ties</w>
know n</w>
广 泛</w>
resp ect</w>
ro ad</w>
框 架</w>
ci es</w>
in st
G re
en n
大 家</w>
str ong</w>
挑 战</w>
ag o</w>
oc r
规 划</w>
Off ice</w>
l evel
avail able</w>
an ted</w>
h ope</w>
m ach
l et
uc lear</w>
200 6</w>
患 者</w>
rem ents</w>
func tion</w>
con sul
de b
以 便</w>
ill ed</w>
in al</w>
2 2</w>
阶 段</w>
y m
行 政</w>
com pu
联 系</w>
wee k</w>
t om
mo ther</w>
program mes</w>
net work</w>
中 国
m ic
fri end</w>
通 常</w>
id ence</w>
支 助</w>
it ation</w>
un til</w>
for c
F r
pers on
mo der
or ig
Ar ticle</w>
更 加</w>
w on</w>
c am
ish ment</w>
con fl
随 着</w>
cir c
ci d
v ision</w>
Sy stem</w>
部 队</w>
生 命</w>
重 新</w>
T echn
v ic
pl ease</w>
knowle dge</w>
in king</w>
ell s</w>
ti s
com peti
体 系</w>
L et</w>
适 用</w>
J u
Spec ial</w>
d le</w>
low er</w>
p ul
B ec
acti v
pa ren
cer tain</w>
h un
id ed</w>
200 4</w>
i tion</w>
超 过</w>
以 下</w>
um ents</w>
w id
fri ends</w>
ad dition</w>
简 单</w>
效 果</w>
cul ture</w>
告 诉
安 排</w>
犯 罪</w>
当 然</w>
del eg
vi l</w>
真 正</w>
mo ve</w>
mon ths</w>
规 则</w>
收 入</w>
g es</w>
meth ods</w>
一 天</w>
测 试</w>
adop ted</w>
P r
ed ed</w>
结 合</w>
解 释</w>
证 明</w>
c ar</w>
用 户</w>
特 征</w>
re fl
离 开</w>
oo ds</w>
al low
b lo
i ve</w>
M in
最 好</w>
pre v
I I</w>
he ad
结 论</w>
特 派</w>
S p
y et</w>
l ong
level s</w>
国 内</w>
o graph
rec ent</w>
平 等</w>
小 时</w>
to p</w>
协 议</w>
c lear</w>
pers ons</w>
accoun t</w>
the ory</w>
con sum
fa ther</w>
Americ a</w>
or ies</w>
维 持</w>
pr actice</w>
o d
独 立</w>
pol ice</w>
ic ally</w>
br ing</w>
li k
mater ial</w>
200 7</w>
综 合</w>
anc ing</w>
m akes</w>
行 业</w>
pati ents</w>
设 施</w>
t ation</w>
tu res</w>
联 盟</w>
air s</w>
sel ves</w>
fr on
li ving</w>
me d
m om
Me th
reg ard</w>
ut es</w>
集 团</w>
al ization</w>
明 显</w>
th ird</w>
同 样</w>
sti t
can not</w>
under stand</w>
p e</w>
一 致</w>
ain able</w>
off ice</w>
2 3</w>
涉 及</w>
tr av
客 户</w>
ra in</w>
tal k</w>
M a
h on
I C
p ic
invest ment</w>
wor d</w>
限 制</w>
A b
d ou
m u
D on</w>
d ue</w>
ra is
s ou
s il
i als</w>
di t</w>
v o
se en</w>
compan ies</w>
利 益</w>
香 港</w>
em p
est s</w>
承 诺</w>
b it</w>
B ased</w>
appro ach</w>
汽 车</w>
b an</w>
con om
Euro pe
地 位</w>
0 年</w>
ot s</w>
bas ic</w>
E conom
大 多</w>
cl ass</w>
li gh
发展 中
发展中 国家</w>
nat ural</w>
大 量</w>
pre hen
Ap pl
loo king</w>
as ked</w>
add ress</w>
z h
s ite</w>
le ave</w>
Analy sis</w>
cl ose</w>
ish ing</w>
ill s</w>
ass ess
em er
适 当</w>
langu age</w>
是 什么</w>
at e
priv ate</w>
on ed</w>
ac tive</w>
R ec
f ail
Uni versity</w>
r un
工 具</w>
hi story</w>
经 常</w>
我 要</w>
pr ise</w>
状 况</w>
结 束</w>
any thing</w>
O ur</w>
生 物</w>
N e
长 期</w>
c at
qu ar
Afric a</w>
est ed</w>
accord ance</w>
requi red</w>
oc c
Bec ause</w>
repor ts</w>
m ary</w>
h o
0 年
容 易</w>
从 而</w>
H ong</w>
以 色
c le
sup por
imp act</w>
tr u
b oo
produc t</w>
制 造</w>
enc our
requi rements</w>
ud e</w>
办 公
ar ri
ec tive</w>
检 查</w>
in ed</w>
申 请</w>
ind ustri
Europe an</w>
u es</w>
a il</w>
oc k</w>
sing le</w>
d en
er c
appropri ate</w>
L E
oul dn</w>
算 法</w>
F un
检 测</w>
这 项</w>
h or
最 终</w>
ac tions</w>
incre ased</w>
no thing</w>
鼓 励</w>
H um
5 年</w>
首 先</w>
in j
秘书 处</w>
监 测</w>
wom an</w>
consi dered</w>
有 些</w>
evel op</w>
amoun t</w>
正 式</w>
s .</w>
pr ice</w>
ch ec
ve red</w>
equip ment</w>
表 达</w>
ill ing</w>
pro pos
总 是</w>
t i</w>
B ei
e at</w>
ot ing</w>
记 录</w>
as soci
ph one</w>
g or
iz ing</w>
ra di
S erv
系 列</w>
ec ts</w>
c op
id s</w>
B y</w>
ar ti
M ay</w>
创 造</w>
pro jects</w>
tem per
ke ts</w>
U S</w>
200 1</w>
partic ul
Pe ople</w>
3 1</w>
200 3</w>
form s</w>
同 意</w>
n uclear</w>
f av
es tic</w>
prom ote</w>
l ater</w>
ru n</w>
ari at</w>
id dle</w>
社 会
y our
a o</w>
el e
精 神</w>
s et
mo d
tra ditional</w>
理 解</w>
ph ys
将 会</w>
igh ts</w>
S tr
th re
relation ship</w>
su per
ne w
th es
2 6</w>
会 员</w>
那 样</w>
gr am</w>
状 态</w>
au ti
c ra
复 杂</w>
ame work</w>
some one</w>
设 立</w>
or ation</w>
ing ly</w>
shor t</w>
sa w</w>
ag ement</w>
st ing</w>
200 2</w>
Is ra
成 本</w>
inte rest</w>
w ide</w>
en jo
i m</w>
Y our</w>
institu tions</w>
加 入</w>
proper ty</w>
pres sure</w>
200 9</w>
艺 术</w>
si an</w>
司 法</w>
Y es</w>
怎 么
In di
gu id
比 赛</w>
咨 询</w>
M r</w>
Bei jing</w>
M is
c are
every thing</w>
K ong</w>
al ong</w>
ide a</w>
条 约</w>
polic ies</w>
特 点</w>
effec ts</w>
医 生</w>
g est</w>
s le
越 来
w ar</w>
u fac
we ap
某 些</w>
Th e
g ing</w>
g ar
e ve</w>
- -
Ch ar
公 共</w>
以 上</w>
cl es</w>
c ause</w>
oun ds</w>
E ff
pris es</w>
今 年</w>
clu sion</w>
en ding</w>
ep t
happ y</w>
os is</w>
mon th</w>
C ha
d evelop</w>
ig r
Dec ember</w>
m ing</w>
hum an
pop ulation</w>
越来 越</w>
ke eping</w>
我 知道</w>
leg isl
1 日</w>
ent ed</w>
自 然</w>
h ours</w>
cur ren
mit ted</w>
降 低</w>
创 新</w>
R us
vi ous</w>
警 察</w>
signific ant</w>
我 的
2 8</w>
各 项</w>
别 人</w>
succ ess
e x</w>
r ules</w>
工 艺</w>
import ance</w>
交 易</w>
O c
i e</w>
res sed</w>
恢 复</w>
Ac cor
f lo
in depend
b ad</w>
adv ant
ter ms</w>
es n</w>
不 仅</w>
t l
ch es</w>
st y
al ized</w>
mechan ism</w>
os p
工 业</w>
ap prov
协 助</w>
2 7</w>
ag ing</w>
medi a</w>
l am
particul arly</w>
essi onal</w>
a p</w>
cont ent</w>
De partment</w>
以 前</w>
ay be</w>
学 家</w>
rou ght</w>
压 力</w>
特 性</w>
ver s</w>
rang e</w>
a ther</w>
concer ned</w>
sy n
ch e
动 物</w>
电 影</w>
pre par
de ath</w>
end a</w>
C ar
b ack
d on
指 导</w>
暴 力</w>
满 足</w>
ast e</w>
organ ization</w>
form ed</w>
ari an</w>
olu tions</w>
引 起</w>
A g
i or</w>
Ob jective</w>
se par
面 临</w>
w ish</w>
当 地</w>
en cies</w>
prehen sive</w>
d ers</w>
difficul t</w>
x im
另 外</w>
an im
s em
3 .
妈 妈</w>
全 国</w>
ha i</w>
监 督</w>
P al
出 口</w>
t ory</w>
办公 室</w>
n ature</w>
l ate</w>
compu ter</w>
w anted</w>
发 挥</w>
工作 组</w>
am ent</w>
c le</w>
cre ate</w>
h owever</w>
provid es</w>
课 程</w>
一 点</w>
m a</w>
以色 列</w>
意 识</w>
an ces</w>
ec ting</w>
做 法</w>
至 少</w>
dom estic</w>
改 进</w>
am et
si x</w>
O p
J une</w>
pre ci
201 0</w>
Organ ization</w>
Pro gram
教 学</w>
sec tor</w>
mater ials</w>
he av
规 模</w>
速 度</w>
C an</w>
so on</w>
us tice</w>
am es</w>
社 区</w>
成 果</w>
sub ject</w>
recei ved</w>
saf ety</w>
Go vern
重 点</w>
so f
ul t</w>
ap s</w>
消 除</w>
fac tors</w>
思 想</w>
媒 体</w>
音 乐</w>
P lease</w>
do esn</w>
b ab
不 到</w>
cap ital</w>
良 好</w>
J an
ach ed</w>
女 性</w>
土 地</w>
似 乎</w>
十 分</w>
当 时</w>
ar ing</w>
b ir
世 纪</w>
变 得</w>
ob serv
fir e</w>
m ember</w>
议 程</w>
ater al</w>
respon se</w>
e th
st op</w>
s ent</w>
内 部</w>
stat us</w>
意 思</w>
r icul
愿 意</w>
st ri
cul tural</w>
19 7
C O
北 京</w>
ey es</w>
r or
多 少</w>
es tim
l ack</w>
符 合</w>
techn i
永 远</w>
软 件</w>
do or</w>
d ly</w>
bud get</w>
m er</w>
in ning</w>
u red</w>
效 率</w>
ver age</w>
le ad</w>
foc us</w>
paren ts</w>
数 字</w>
父 亲</w>
立 法</w>
exist ing</w>
con sist
b all</w>
as h</w>
reas on</w>
允 许</w>
si mil
en e</w>
g ame</w>
故 事</w>
k in
俄 罗
几 乎</w>
调 整</w>
推 动</w>
tow ards</w>
oper ations</w>
谈 判</w>
其 它</w>
lear n</w>
sh are</w>
environ mental</w>
f low</w>
ri c</w>
c ou
M ic
out side</w>
princi ple</w>
de al</w>
mo v
pos t</w>
d ru
loc k</w>
建 筑</w>
t ain
recommend ations</w>
G er
am s</w>
be auti
Pro v
strateg y</w>
in ter</w>
blo od</w>
l ist</w>
La w</w>
fol low</w>
当 局</w>
tr ue</w>
per cent</w>
危 机</w>
数 据
身 体</w>
your self</w>
C our
at ures</w>
危 险</w>
cor por
做 出</w>
现 象</w>
st age</w>
c o</w>
reg ar
expec ted</w>
选 举</w>
actu ally</w>
se ts</w>
ar ch
现 有</w>
m em
类 型</w>
ati c
预 防</w>
poin ts</w>
8 0</w>
confl ict</w>
mo tion</w>
美 国
临 床</w>
H igh</w>
在 一起</w>
p ay
ph as
明 确</w>
计 算
概 念</w>
F ir
J ust</w>
id enti
ad ing</w>
电 子</w>
I D
eas y</w>
保 障</w>
man ufac
困 难</w>
gor ith
a th
characteris tics</w>
pur su
Wh ile</w>
ha vi
合 同</w>
pot ential</w>
gir l</w>
mor ning</w>
sy m
ne eded</w>
C or
在 这里</w>
Afric an</w>
consi der</w>
par ts</w>
T w
ist er</w>
p ain
M ember</w>
威 胁</w>
pe ace
ecu tive</w>
activ ity</w>
f ig
w er</w>
承 认</w>
commun ication</w>
ac ross</w>
R o
Econom ic</w>
sup pl
tw are</w>
d ol
力 量</w>
看 看</w>
g as</w>
id entif
ra ther</w>
re form</w>
ec h</w>
tr ying</w>
批 准</w>
ti ves</w>
特 殊</w>
B ri
g etting</w>
re f
ci vil</w>
me an
comp on
qu i
tur ned</w>
temper ature</w>
beauti ful</w>
唯 一</w>
al most</w>
f el
sim ple</w>
Bo ard</w>
x ed</w>
b it
重 大</w>
数 量</w>
Wh ere</w>
协 定</w>
政 府
义 务</w>
intro duced</w>
al ia</w>
chall eng
sur face</w>
g s</w>
sust ainable</w>
prov isions</w>
plan ning</w>
ste p</w>
f requ
2 9</w>
分 别</w>
办 事
et ings</w>
buil d</w>
操 作</w>
tr aff
军 事</w>
s l
hear d</w>
st ay</w>
t ou
m ed</w>
交 流</w>
即 使</w>
op h
访 问</w>
as si
指 标</w>
ex erc
u ti
消 息</w>
go ti
m ess
fron t</w>
委 员</w>
避 免</w>
fr amework</w>
c lim
per f
lear ning</w>
govern mental</w>
pre c
战 争</w>
卫 生</w>
um p</w>
g ave</w>
re turn</w>
repor ted</w>
食 物</w>
ser ious</w>
c ris
fe el
都 会</w>
sec tion</w>
位 置</w>
s ource</w>
re ly</w>
c y</w>
办事 处</w>
ag n
co sts</w>
So cial</w>
shi ps</w>
continu ed</w>
反 对</w>
wh ite</w>
l ost</w>
cal cul
训 练</w>
这 次</w>
管 理
main ly</w>
s us
Ju ly</w>
除 了</w>
A m
尼 亚</w>
stand ard</w>
物 质</w>
网 站</w>
ti z
无 论</w>
国 家
每 天</w>
Jap an</w>
Program me</w>
us e
意 味</w>
gen der</w>
参 数</w>
收 到</w>
只 要</w>
there fore</w>
运 行</w>
dy nam
竞 争</w>
m igr
ph ot
H ar
单 位</w>
官 员</w>
相 互</w>
印 度</w>
能 源</w>
dec ided</w>
死 亡</w>
ge ts</w>
扩 大</w>
stit ute</w>
Appl ication</w>
分 钟</w>
人 士</w>
aut om
S .</w>
8 年</w>
lik ely</w>
人 民
he ar</w>
ob lig
ren ces</w>
de st
0 0
巨 大</w>
comm er
实 践</w>
3 5</w>
歧 视</w>
高 兴</w>
b and</w>
respon sibility</w>
i ev
女 孩</w>
学 院</w>
Accor ding</w>
agre ed</w>
经 过</w>
si mul
f ast</w>
n ote</w>
难 民</w>
商 业</w>
u an</w>
auth orities</w>
Euro pe</w>
str ic
moder n</w>
le ge</w>
疾 病</w>
i er</w>
拉 克</w>
时 期</w>
高 级</w>
cl aim
t op
s cre
D P</w>
desig ned</w>
正 确</w>
资 产</w>
not ed</w>
av o
ai m</w>
under standing</w>
肯 定</w>
te aching</w>
e e</w>
in str
med ical</w>
ie f</w>
ac ts</w>
agre ement</w>
新 闻</w>
dra w
属 于</w>
母 亲</w>
以 后</w>
父 母</w>
h ic
4 .
S ch
感 谢</w>
us h
7 0</w>
prac tic
pro mis
mu sic</w>
ar rang
show s</w>
定 义</w>
consider ation</w>
ei ther</w>
I N
ad ditional</w>
con n
民 族</w>
怎 样</w>
direc t</w>
合 理</w>
in nov
她 们</w>
posi tive</w>
分 子</w>
方 向</w>
No v
et c</w>
in come</w>
b ank</w>
us h</w>
ne goti
5 00</w>
a i</w>
K ore
预 测</w>
ex change</w>
employ ment</w>
科 技</w>
估 计</w>
star ted</w>
S up
b rought</w>
装 置</w>
另 一
V i
b s</w>
ol o
Com p
游 戏</w>
测 量</w>
Hum an</w>
individ ual</w>
几 个</w>
gu ar
str ict</w>
上 述</w>
bu y</w>
in ten
销 售</w>
com prehensive</w>
女 人</w>
l er</w>
有 限
信 号</w>
现 代</w>
ord ination</w>
详 细</w>
for ces</w>
se a</w>
儿 子</w>
off ici
in ner</w>
stand ards</w>
am a</w>
ne ws</w>
s we
污 染</w>
最 高</w>
det ail
ther n</w>
W om
适 应</w>
distribu tion</w>
而 言</w>
ter ror
Uni on</w>
sen se</w>
sci ence</w>
achi eve</w>
ci v
R el
Tr ans
病 毒</w>
A sia</w>
contro l
A re</w>
inte rest
F rom</w>
sc ale</w>
bo dies</w>
viol ence</w>
fer red</w>
财 政</w>
sp i
r ati
l ay
报 道</w>
担 心</w>
E m
清 楚</w>
ser ies</w>
po ver
经 历</w>
la un
st er</w>
them selves</w>
long er</w>
快 速</w>
tu al</w>
complet e</w>
im age</w>
不 可</w>
w on
错 误</w>
me etings</w>
6 年</w>
mom ent</w>
Jo h
阿 拉
e f</w>
20 0</w>
领 导</w>
m et</w>
mic ro
re duce</w>
h ind</w>
而 是</w>
T o
present ed</w>
pa red</w>
A R
LE D</w>
普 遍</w>
t a</w>
work ers</w>
it arian</w>
i ang</w>
stat ement</w>
优 先</w>
spe ed</w>
al i
monit oring</w>
it able</w>
正 常</w>
7 年</w>
法 庭</w>
G r
s olution</w>
ell ing</w>
be havi
al low</w>
pur pose</w>
f low
influ ence</w>
t led</w>
G e
部 长</w>
金 融</w>
h ous
re sid
po or</w>
p t</w>
pers onal</w>
一 个人</w>
N ot</w>
以 为</w>
pi ec
s atis
全 部</w>
2 年</w>
ag enda</w>
c entral</w>
Ad ministr
飞 机</w>
T e
id es</w>
ex tr
防 止</w>
f ication</w>
ru le</w>
sup ply</w>
bec om
ad em
th inking</w>
y l
名 字</w>
entr e</w>
it self</w>
w ife</w>
stan ces</w>
ent er</w>
lo g
opportun ity</w>
vie ws</w>
l at
199 9</w>
effici ency</w>
o es</w>
con ven
R ights</w>
al ing</w>
n ation
ver se</w>
回 来</w>
201 1</w>
老 师</w>
entif ic</w>
3 年</w>
支 付</w>
form er</w>
O k
ro c
pro gram</w>
再 次</w>
c ut</w>
all s</w>
sof tware</w>
a x
bo ard</w>
理 会</w>
as tic</w>
统 计</w>
dem and</w>
C l
person nel</w>
plac ed</w>
mar k
c li
电 子
streng th
请 求</w>
二 十
Z h
时 代</w>
C ity</w>
li ves</w>
s qu
char ge</w>
pover ty</w>
vie w
根 本</w>
t ained</w>
al og
bil lion</w>
ar ms</w>
分 布</w>
作 品</w>
Par ties</w>
doc ument</w>
S ince</w>
Man agement</w>
b ar
includ ed</w>
1 年</w>
op s</w>
op tim
d ar
构 成</w>
就 业</w>
invol ved</w>
ser ve</w>
手 段</w>
ist s</w>
si ze</w>
H u
4 年</w>
ven ess</w>
ure ment</w>
le av
f all</w>
趋 势</w>
it em</w>
E ast</w>
B i
pl ans</w>
ques tions</w>
最 佳</w>
农 业</w>
t un
enter prises</w>
案 件</w>
女 士</w>
下 降</w>
去 年</w>
concer n</w>
direc tly</w>
明 白</w>
dis ease</w>
fre e
requ est</w>
fun ds</w>
核 心</w>
Wom en</w>
s aying</w>
S ept
3 2</w>
in de
every one</w>
武 装</w>
car ried</w>
sec ret
4 5</w>
ang hai</w>
兴 趣</w>
f if
prof essional</w>
h im
ne y</w>
is ms</w>
O f</w>
D uring</w>
show ed</w>
u n</w>
deleg ation</w>
9 年</w>
sh ap
开 放</w>
ad j
di g
两 年</w>
C an
a u</w>
Sept ember</w>
S te
nor mal</w>
cor rec
simil ar</w>
对 话</w>
ste ad</w>
be hind</w>
w it
discus sed</w>
成 立</w>
观 点</w>
wr ong</w>
h ur
if ication</w>
rem ember</w>
事 实</w>
Re gi
establ ishment</w>
lim ited</w>
mach ine</w>
al gorith
ne ar</w>
qu ite</w>
respon sible</w>
给 予</w>
法 国</w>
Fir st</w>
us ually</w>
T im
cl ass
cont ext</w>
particip ation</w>
b ig
I ts</w>
administr ative</w>
T re
m oun
安 理会</w>
现 实</w>
6 .
ist an</w>
Di rec
d ings</w>
Mar ch</w>
发 表</w>
比 如</w>
事 项</w>
uc k</w>
om et
el se</w>
tran si
b ul
ap preci
ri t</w>
im medi
er ship</w>
自 动</w>
to ber</w>
运 输</w>
男 人</w>
缺 乏</w>
议 员</w>
beg an</w>
履 行</w>
5 .
t ren
反 映</w>
abl es</w>
贡 献</w>
eval uation</w>
r o</w>
h osp
appl ied</w>
sty le</w>
Wor king</w>
Cour t</w>
信 息
巴 勒
宣 布</w>
t ext</w>
y n
对 象</w>
9 0</w>
P ri
ic ate</w>
u g
al one</w>
join t</w>
co ver</w>
u ary</w>
医 院</w>
ac ks</w>
e ts</w>
每 年</w>
streng then</w>
更 好</w>
民 主</w>
eng ine
sch o
伊 拉克</w>
or k</w>
上 帝</w>
en se</w>
描 述</w>
禁 止</w>
enn ium</w>
ex ten
cl in
po st
chem ical</w>
其 实</w>
establ ish</w>
off icial</w>
联 邦</w>
le y</w>
bel iev
德 国</w>
se ar
gre ater</w>
ve hic
li z
平 衡</w>
b ot
stu dies</w>
c ell</w>
星 期
植 物</w>
ut y</w>
助 于</w>
increas ing</w>
表 面</w>
succ ess</w>
lin es</w>
ac her</w>
b ase</w>
Ok ay</w>
in side</w>
wa it</w>
b un
phys ical</w>
vis it</w>
co de</w>
专 门</w>
tak es</w>
pres sion</w>
个 月</w>
stu died</w>
策 略</w>
听 到</w>
国际 社会</w>
la ws</w>
thes is</w>
an ese</w>
princi ples</w>
abil ities</w>
de ep</w>
h op
温 度</w>
性 别</w>
p an
文 章</w>
ig n
weap ons</w>
co l</w>
位 于</w>
pat ter
os ph
expres sed</w>
co vered</w>
s mo
c u
Nor th</w>
恐 怖
w ind
con dition</w>
可 是</w>
M any</w>
ag encies</w>
审 计</w>
g oods</w>
放 在</w>
服 务
破 坏</w>
计算 机</w>
协 商</w>
s ev
an ks</w>
tiv ity</w>
基 因</w>
trans fer</w>
em phas
不 再</w>
证 据</w>
on str
Pal est
off er</w>
s ound</w>
N A</w>
差 异</w>
背 景</w>
增 强</w>
con nec
ap poin
Wh o</w>
分 配</w>
仅 仅</w>
func tions</w>
ph ase</w>
f ine</w>
c anc
平 均</w>
par amet
bo y</w>
E S
公 民</w>
sur ance</w>
tur ing</w>
确 认</w>
ta x</w>
loc ation</w>
测 定</w>
e ding</w>
5 5</w>
oun c
E duc
声 音</w>
Oc tober</w>
rel ation</w>
c lo
达 成</w>
ag ricul
streng th</w>
来 源</w>
理 由</w>
st ability</w>
cris is</w>
有 助于</w>
process ing</w>
Sh anghai</w>
arm ed</w>
比 亚</w>
g en</w>
h ot
ar ies</w>
打 击</w>
un g</w>
z y</w>
曾 经</w>
Des ign</w>
is tic</w>
fin al</w>
化 学</w>
Fun d</w>
reg ular</w>
c ells</w>
平 台</w>
通 知</w>
la w
if ied</w>
集 中</w>
ant i</w>
D r
ev idence</w>
enter prise</w>
巴勒 斯坦</w>
sy ch
ter rit
俄罗 斯</w>
运 用</w>
consul t
impl ement</w>
D em
re sts</w>
pri l</w>
G en
ach es</w>
In v
rel ations</w>
ann ual</w>
临 时</w>
f ru
附 件</w>
provid ing</w>
告诉 我</w>
to col</w>
c lear
ro r</w>
a di
m ent
h ands</w>
迅 速</w>
主 题</w>
bec ame</w>
si g
facil it
ner ship</w>
当 前</w>
A pril</w>
bl ack</w>
足 够</w>
on line</w>
包 含</w>
权 力</w>
a verage</w>
I ra
pec ts</w>
模 拟</w>
c ore</w>
S ci
th us</w>
年 度</w>
ver sion</w>
经 营</w>
连 接</w>
dis crimin
pre t
challeng es</w>
论 坛</w>
亚 洲</w>
v ey</w>
Con tro
金 属</w>
Nov ember</w>
3 3</w>
prot ect</w>
c old</w>
om s</w>
pri mary</w>
Y ork</w>
ca used</w>
协 会</w>
条 例</w>
ti t
him self</w>
I S
prev ent</w>
领 导
B u
qu al
l and
o v
金 融
药 物</w>
m ut
决 策</w>
dem onstr
r ich</w>
ul ts</w>
维 护</w>
Jan uary</w>
k er</w>
ocr atic</w>
auth or</w>
sor ry</w>
hy dro
Pro c
培 养</w>
快 乐</w>
et h</w>
员 工</w>
b ers</w>
保 留</w>
相 同</w>
pl at
los s</w>
w in</w>
pa id</w>
群 体</w>
off ic
s am
offici als</w>
cre te</w>
min utes</w>
201 2</w>
ch ina</w>
assess ment</w>
wh ose</w>
处 于</w>
represent ative</w>
F i
lit er
含 量</w>
chang ed</w>
cour t</w>
thou s
pro te
vis ory</w>
st ation</w>
as n</w>
gre at
2 4
b at
k y</w>
呼 吁</w>
proced ures</w>
显 著</w>
第 一次</w>
直 到</w>
C ri
bel ow</w>
sp ir
ad ded</w>
man ent</w>
图 像</w>
diffe rence</w>
ti al</w>
inter nal</w>
Techn ology</w>
ut ting</w>
mo di
H ey</w>
ur ban</w>
h om
or i
年 12
统 一</w>
ne g
B ank</w>
当 你</w>
over all</w>
r ural</w>
con trac
integr ation</w>
kin ds</w>
R ev
let ter</w>
手 术</w>
fil m</w>
T ur
lar ation</w>
A N
A ff
补 充</w>
P u
h ot</w>
ow n
pl ant</w>
administr ation</w>
S er
ent y</w>
损 失</w>
conc entr
it er
occ up
form al</w>
性 质</w>
In formation</w>
tri c</w>
举 办</w>
car ry</w>
提 到</w>
comp ared</w>
条 款</w>
ess es</w>
spec i
ap ter</w>
优 化</w>
pre vious</w>
t on
gre en</w>
grow ing</w>
custom ers</w>
com par
Com mun
human itarian</w>
相 对</w>
变 成</w>
农 村</w>
坚 持</w>
conc ept</w>
de ad</w>
pre dic
pre pared</w>
电 视</w>
翻 译</w>
t own</w>
f em
mo del
人 数</w>
pl eas
投 资
n on
bal ance</w>
T ri
typ es</w>
R i
声 明</w>
k new</w>
大 约</w>
el ds</w>
登 记</w>
lead ing</w>
gu y</w>
失 去</w>
exper im
compl ex</w>
a vi
bu t
准 则</w>
is on</w>
he al
is n</w>
ou d</w>
ou ght</w>
saf e</w>
照 片</w>
ste ps</w>
co ordin
de g
min e</w>
olo gies</w>
pr ices</w>
li qu
19 6
双 方</w>
w ise</w>
电 脑</w>
t in
acc ep
宗 教</w>
el ements</w>
Serv ice</w>
职 业</w>
sal es</w>
sub mitted</w>
zh ou</w>
Isra el</w>
在 于</w>
we ight</w>
ad equ
3 6</w>
寻 找</w>
Th ere
o l</w>
公 开</w>
制 作</w>
Ch il
遵 守</w>
en g</w>
p un
值 得</w>
使 得</w>
摘 要</w>
产 业</w>
m iddle</w>
effici ent</w>
oun ded</w>
se ems</w>
cre ated</w>
ev ent</w>
接 触</w>
contr act</w>
角 度</w>
U .
诊 断</w>
er ous</w>
房 间</w>
Al though</w>
只 能</w>
improv ed</w>
上 海</w>
Su b
qu ick
f ish</w>
L ook</w>
依 据</w>
d ang
ess ential</w>
i ble</w>
类 似</w>
F ur
loo ked</w>
gh ter</w>
A T
回 答</w>
E C
ar m</w>
read ing</w>
3 4</w>
d ated</w>
试 图</w>
S im
ver si
crimin al</w>
人 道
人道 主义</w>
S ome
gir ls</w>
M ini
地 球</w>
海 洋</w>
应 对</w>
动 力</w>
拒 绝</w>
guar an
an tly</w>
sh e
r ound</w>
anc y</w>
看 见</w>
ent h</w>
buil t</w>
reli gi
benef its</w>
includ es</w>
适 合</w>
cent ury</w>
ang e</w>
持 续
议 定</w>
se as
El ec
a wa
acc ur
el ev
过 来</w>
蛋 白</w>
I V</w>
industri al</w>
spe ak</w>
sign ed</w>
传 播</w>
思 考</w>
真 是</w>
保 险</w>
ro l
v ide
pres s</w>
l ess
trav el</w>
car b
col or</w>
r ates</w>
n it
pre sident</w>
房 子</w>
bab y</w>
bre ak</w>
an e</w>
sub stan
E ven</w>
199 8</w>
sch em
食 品</w>
concer ning</w>
di e</w>
it es</w>
纽 约</w>
as pects</w>
ther ap
enh ance</w>
r an</w>
用 来</w>
eval u
prob ably</w>
deg ree</w>
w an</w>
go al</w>
ach ers</w>
enc ed</w>
购 买</w>
v al</w>
可 持续
确 实</w>
ans wer</w>
un it</w>
aff ected</w>
f f</w>
re ference</w>
con struc
本 身</w>
exerc ise</w>
Mini stry</w>
appl ications</w>
cre dit</w>
居 民</w>
7 .
有 点</w>
关 切</w>
S econ
S i
相 比</w>
te acher</w>
chec k</w>
res ear
L ord</w>
g one</w>
旅 游</w>
旨 在</w>
Secret ariat</w>
ter n
哪 里</w>
世界 上</w>
mar kets</w>
领 土</w>
Inter net</w>
opportun ities</w>
am p</w>
手 机</w>
alog ue</w>
同 一</w>
有 时</w>
prac tical</w>
st atis
Ac tion</w>
tar get</w>
legisl ation</w>
C ap
从 事</w>
不 管</w>
my self</w>
想 法</w>
孩 子
hi stor
3 7</w>
比 例</w>
he at</w>
Tw o</w>
j ustice</w>
algorith m</w>
爸 爸</w>
团 队</w>
p il
不 得</w>
benef it</w>
充 满</w>
另一 个</w>
尊 重</w>
或 许</w>
商 品</w>
doc uments</w>
H ere</w>
ad y</w>
re ach</w>
动 态</w>
c ross</w>
非 法</w>
C ome</w>
circ um
beg inning</w>
bor n</w>
规 范</w>
in ing</w>
boo ks</w>
happ ened</w>
oo t</w>
收 集</w>
攻 击</w>
fir m</w>
d ates</w>
st ress</w>
tal king</w>
run ning</w>
sci entific</w>
fe atures</w>
可持续 发展</w>
cont ained</w>
w ants</w>
g ust</w>
gi ving</w>
g res
面 对</w>
er ation</w>
There fore</w>
ic ity</w>
ear th</w>
mo ved</w>
g ency</w>
success ful</w>
事 实
rec ently</w>
教 师</w>
lo ad</w>
conn ection</w>
sk ills</w>
ne x</w>
di men
ail y</w>
障 碍</w>
min im
非 政府
非政府 组织</w>
regi ons</w>
represent atives</w>
conduc t</w>
201 3</w>
很 快</w>
外 国</w>
ati vely</w>
移 动</w>
ate gies</w>
con v
j our
A S
y ed</w>
inte rests</w>
2 5
ch ance</w>
Indi a</w>
Au str
fel t</w>
proc e
里 面</w>
me dic
rem ain</w>
孩子 们</w>
道 路</w>
特 定</w>
inf ra
C entral</w>
st ed</w>
3 8</w>
法 官</w>
repor ting</w>
cri me</w>
vi a</w>
independ ent</w>
C ul
g et
事实 上</w>
orig inal</w>
ad s</w>
发 出</w>
6 5</w>
相 当</w>
Govern ments</w>
curren tly</w>
co ordination</w>
adj ust
4 8</w>
er ia</w>
dec isions</w>
practic es</w>
年 轻</w>
e an</w>
B ar
el lig
requ ested</w>
m al
oc cur
Cha ir
v ill
ti veness</w>
fu ge
晚 上</w>
sh op</w>
打 算</w>
艾 滋
proced ure</w>
r ic
scho ols</w>
出 去</w>
e es</w>
prov ision</w>
并 没有</w>
op ini
M al
competi tion</w>
l ic
con clud
Fe der
有限 公司</w>
cont act</w>
appl y</w>
st ates</w>
w all</w>
dynam ic</w>
res ource</w>
公 众</w>
眼 睛</w>
re duction</w>
il ies</w>
ra ise</w>
高 度</w>
throu gh
r ac
adv anced</w>
ot ed</w>
发 布</w>
ci tiz
享 受</w>
est er
mul ti</w>
制 订</w>
酒 店</w>
er a</w>
mechan isms</w>
ad ap
ound ation</w>
de partment</w>
tr ust</w>
森 林</w>
r ise</w>
往 往</w>
. .</w>
纳 入</w>
邀 请</w>
这 儿</w>
经 费</w>
衣 服</w>
our th</w>
该 国</w>
k illed</w>
身 上</w>
dam age</w>
加 拿
cri tical</w>
bo x</w>
enjo y</w>
b ru
pow er
ev ents</w>
uni que</w>
ri st
ri es</w>
mis sions</w>
宣 传</w>
s end</w>
Educ ation</w>
issu ed</w>
有 所</w>
ren ch</w>
or row</w>
st ly</w>
f ight</w>
D et
v el
丰 富</w>
ob jec
设 置</w>
U S
l or
l y
对 其</w>
di agn
rec ord</w>
记 得</w>
生 产
us er</w>
por ary</w>
writ ing</w>
年 龄</w>
arm ament</w>
meas ure</w>
停 止</w>
regar ding</w>
an a</w>
expres sion</w>
违 反</w>
discus sion</w>
教 授</w>
c ard</w>
Mis sion</w>
回 到</w>
form ul
ad a</w>
suff ici
优 势</w>
n ation</w>
duc ing</w>
y st
T i
ste el</w>
writ ten</w>
A D</w>
loc ated</w>
perf ect</w>
伤 害</w>
strateg ic</w>
p ite</w>
态 度</w>
ac qu
保 健</w>
bro ad
some times</w>
自 然
h us
重 视</w>
身 份</w>
spi rit</w>
公 平</w>
重 申</w>
E R
wee ks</w>
u b
proper ties</w>
主 管</w>
h aps</w>
F ore
d own
process es</w>
wal k</w>
加 工</w>
遇 到</w>
effor t</w>
h ab
t al</w>
Par ty</w>
宣 言</w>
rel ating</w>
go es</w>
寻 求</w>
各 个</w>
tr ou
消 费</w>
hi bi
cho ice</w>
clim ate</w>
ep tion</w>
rem ains</w>
地 点</w>
Tre at
u als</w>
bre ak
om a</w>
plac es</w>
f ile</w>
mo ving</w>
h our</w>
em o
c ateg
play ed</w>
密 切</w>
wr ite</w>
commit tee</w>
分 享</w>
ear li
fac tor</w>
in surance</w>
Palest ini
lead ers</w>
ph en
sk in</w>
feel ing</w>
P o
定 期</w>
Ex per
下 列</w>
cent er</w>
dev ice</w>
病 人</w>
p sych
D id</w>
commer cial</w>
facil ities</w>
财 务</w>
qu anti
不 可能</w>
quick ly</w>
reas ons</w>
S um
医 疗</w>
附 近</w>
p ped</w>
B r
Joh n</w>
M or
3 9</w>
st ock</w>
安 装</w>
感 染</w>
之 外</w>
rais ed</w>
all ing</w>
sec on
d au
dru g</w>
t ask</w>
i ti
oper ating</w>
fri end
M ost</w>
el ess</w>
m us
exper ts</w>
ow s</w>
5 6</w>
8 .
实 行</w>
通 信</w>
指 定</w>
effec tively</w>
5 8</w>
创 建</w>
b ac
T er
in cid
avo id</w>
c ru
go als</w>
reas on
5 7</w>
整 体</w>
4 年
ar r
as es</w>
西 亚</w>
s li
Aff airs</w>
多 年</w>
Un der</w>
sh own</w>
commit ment</w>
ann ounc
pres ents</w>
tis h</w>
analy zed</w>
5 年
H ave</w>
gen ous</w>
techni que</w>
equ al</w>
loo ks</w>
enti oned</w>
pur ch
cer tain
ne igh
加拿 大</w>
组 合</w>
ad es</w>
工 人</w>
律 师</w>
ci ties</w>
Re present
integr ated</w>
o red</w>
so ft</w>
妻 子</w>
str ong
ab or
w ind</w>
enti tled</w>
ter nal</w>
澳 大
3 年
交 通</w>
play ing</w>
Au gust</w>
连 续</w>
vi ously</w>
att emp
an ci
Prov ince</w>
fun d</w>
普 通</w>
forc ed</w>
suppor ted</w>
Contro l</w>
civ il
混 合</w>
at a</w>
回 顾</w>
品 牌</w>
o di
3 00</w>
si x
贷 款</w>
exp an
dis p
us ers</w>
Meth ods</w>
sle ep</w>
man date</w>
一 年</w>
s even</w>
说 话</w>
re ached</w>
el ines</w>
is ed</w>
P an
ten ance</w>
pri ority</w>
elec tric</w>
al ism</w>
conduc ted</w>
associ ated</w>
土 著</w>
pre vention</w>
h it</w>
不 错</w>
R ap
li es</w>
t ree</w>
wid ely</w>
预 计</w>
吸 引</w>
fam ilies</w>
bru ary</w>
direc tion</w>
d es</w>
in t</w>
str a
M s.</w>
con ference</w>
女 儿</w>
B el
真 实</w>
效 应</w>
str ategies</w>
tri ed</w>
cho ose</w>
议 会</w>
equ ality</w>
5 1</w>
tru th</w>
b y
t ment</w>
row n</w>
auth ority</w>
lar gest</w>
来 到</w>
com for
wor ked</w>
若 干</w>
En viron
s un
上 升</w>
E ver
O per
pop ular</w>
A M
人 生</w>
dre am</w>
能 量</w>
charac ter</w>
fi elds</w>
6 1</w>
担 任</w>
appl ic
flo or</w>
团 体</w>
角 色</w>
新 型</w>
1 年
T V</w>
clos ed</w>
sig n</w>
a id</w>
har d
h ood</w>
或 是</w>
Jap anese</w>
part ners</w>
A C
采 购</w>
Kore a</w>
gener ation</w>
el im
rou gh</w>
F rench</w>
M ed
于 是</w>
any one</w>
移 民</w>
z ing</w>
o ke</w>
k ill</w>
enti re</w>
合 成</w>
为 此</w>
U. S.</w>
最 新</w>
称 为</w>
转 移</w>
Ex ecutive</w>
m ol
la u
宪 法</w>
comp et
ok ay</w>
n ice</w>
in di
a ur
mo vi
明 天</w>
财 产</w>
好 像</w>
旅 行</w>
descri bed</w>
5 9</w>
预 期</w>
出 版</w>
之 中</w>
ow er</w>
l ym
regul ations</w>
strength ening</w>
y er</w>
Meth od</w>
so il</w>
尝 试</w>
步 骤</w>
sch ed
G ood</w>
放 弃</w>
sur vi
后 来</w>
承 担</w>
ha ir</w>
进 步</w>
4 4</w>
mat ters</w>
总 部</w>
free dom</w>
修 订</w>
s ens
improv ing</w>
完 整</w>
供 应</w>
Al so</w>
4 9</w>
扩 散</w>
2 年
trans port</w>
机 关</w>
局 势</w>
te achers</w>
给 出</w>
pro duce</w>
No .</w>
gu ys</w>
艺 术
wat ch</w>
意 大
生 物
E ar
cle an</w>
合 物</w>
con stitu
正 是</w>
bro ther</w>
ob ject</w>
6 年
approv ed</w>
pol y
独 特</w>
mar k</w>
4 2</w>
investig ation</w>
现 状</w>
b rain</w>
自 身</w>
修 改</w>
through out</w>
sear ch</w>
ac id</w>
it ems</w>
en tion</w>
途 径</w>
5 3</w>
as sets</w>
原 理</w>
V al
res ol
m ass</w>
er ve</w>
抱 歉</w>
家 人</w>
9 .
6 2</w>
8 年
澳大 利亚</w>
记 者</w>
prom oting</w>
H ol
fun dam
recei ve</w>
s ent
w ood</w>
sen si
ch r
z one</w>
mo de</w>
clin ical</w>
ob tained</w>
in ated</w>
t our
我 可以</w>
H y
G lobal</w>
be y
W est</w>
if ic</w>
5 2</w>
实 体</w>
大 型</w>
心 理</w>
mess age</w>
not es</w>
f as
wor th</w>
有 限</w>
im ag
vol un
相 应</w>
hous ing</w>
au ght</w>
pa ir</w>
su s</w>
失 败</w>
en ge</w>
重 要
Ira q</w>
exc ell
数据 库</w>
r a</w>
自 我</w>
iz es</w>
add ressed</w>
deb t</w>
achiev ed</w>
comp ens
elec tro
5 4</w>
I S</w>
Ac t</w>
dec re
tom orrow</w>
stud ent</w>
el ement</w>
重要 性</w>
准 确</w>
af ter
in stead</w>
不 足</w>
Rus sian</w>
str ation</w>
vide o</w>
dri ve</w>
quar ters</w>
e ous</w>
electr onic</w>
gi ves</w>
val ues</w>
contribu tions</w>
ti l
mov ement</w>
neg ative</w>
bey ond</w>
p on
体 制</w>
运 作</w>
vo ice</w>
op ening</w>
函 数</w>
B as
sum mer</w>
organ ized</w>
还 要</w>
编 制</w>
C o</w>
w asn</w>
氧 化
ren ess</w>
我 希望</w>
pos es</w>
6 3</w>
习 惯</w>
dou b
Fe bruary</w>
engine ering</w>
al though</w>
告诉 你</w>
prepar ation</w>
spec tive</w>
m ist
广 告</w>
p et
n e</w>
4 1</w>
提 升</w>
签 署</w>
dat ab
li e</w>
z er
ec tively</w>
con crete</w>
heav y</w>
ai wan</w>
ex plo
青 年</w>
re ve
千 年</w>
分 类</w>
os s</w>
4 6</w>
完 善</w>
力 学</w>
一 旦</w>
col lege</w>
紧 急</w>
fin ally</w>
元 素</w>
man ner</w>
en able</w>
b ing</w>
4 7</w>
bu s</w>
p ack
ser ver</w>
痛 苦</w>
un d
ri age</w>
美 洲</w>
Ever y
距 离</w>
消 费
g old</w>
f res
空 气</w>
编 写</w>
裁 军</w>
M aybe</w>
7 5</w>
fail ure</w>
qu es</w>
面 前</w>
sim ply</w>
determin ed</w>
og en
展 示</w>
sc ope</w>
幸 福</w>
f y</w>
ban ks</w>
强 度</w>
I T
9 年
produc ed</w>
piec e</w>
ar ity</w>
si on
Min ister</w>
星 期</w>
dou ble</w>
识 别</w>
论 文</w>
adequ ate</w>
7 年
授 权</w>
ide as</w>
res olutions</w>
re v
ak ers</w>
k ids</w>
ra id</w>
Pro tocol</w>
mem ory</w>
cam pa
W est
参 考</w>
线 性</w>
res erv
男 孩</w>
提 议</w>
er t</w>
y uan</w>
ograph y</w>
tim s</w>
traff ic</w>
n y</w>
生 长</w>
p ain</w>
w aste</w>
be half</w>
implement ed</w>
石 油</w>
m ot
we ar</w>
m entioned</w>
fa ult</w>
pret ty</w>
修 正</w>
por te
se em</w>
l ands</w>
6 4</w>
深 入</w>
主 任</w>
恐怖 主义</w>
S ur
al tern
探 索</w>
领导 人</w>
全 球
har mon
hus band</w>
技 能</w>
an k
加 以</w>
re stric
main tain</w>
su n</w>
今 后</w>
p al
损 害</w>
o ples</w>
神 经</w>
投 入</w>
fun ding</w>
e .
st ood</w>
不 用</w>
Pro t
b a
es day</w>
从 来</w>
4 3</w>
di alogue</w>
e tic</w>
ad d</w>
fa ir</w>
6 月
we b
有 权</w>
分 离</w>
行 政
requ ire</w>
A P
葡 萄
th ank</w>
in spec
v ul
更 新</w>
评 论</w>
债 务</w>
并 非</w>
首 脑</w>
ac cid
T ra
sa ve</w>
commit ted</w>
资 本</w>
d aily</w>
事 业</w>
te red</w>
s n
贫 穷</w>
立 即</w>
He alth</w>
identi fied</w>
ob jective</w>
M ul
v ac
fam ous</w>
hosp ital</w>
信 任</w>
满 意</w>
Fin ally</w>
固 定</w>
199 7</w>
发 达</w>
g ri
基 础
w il
hol ders</w>
及 时</w>
In stitute</w>
individ uals</w>
F ac
ma xim
high ly</w>
阿 富
in fl
tr ain</w>
Bri tish</w>
discrimin ation</w>
Ch rist
控 制
倡 议</w>
m aybe</w>
ro b
cra ft</w>
P et
x i</w>
un its</w>
正 如</w>
N et
各 地</w>
制 备</w>
k en</w>
Ex c
致 力</w>
pic ture</w>
We b</w>
sign al</w>
指 数</w>
As soci
ag ue</w>
颜 色</w>
gr ade</w>
部 署</w>
re pe
阅 读</w>
西 班
medi um</w>
O R
re fuge
clear ly</w>
早 期</w>
粮 食</w>
im mun
re ment</w>
生 态</w>
h ou
improv ement</w>
美 丽</w>
现 场</w>
初 步</w>
and a</w>
mean ing</w>
wa iting</w>
日 益</w>
earli er</w>
call s</w>
fe ar</w>
进 口</w>
auth or
techn ologies</w>
p ass</w>
H er</w>
dig ital</w>
al ist</w>
L on
cap e</w>
ey e</w>
lear ned</w>
adop tion</w>
frequ ency</w>
依 然</w>
al ed</w>
突 然</w>
g ent
下 去</w>
落 实</w>
c ele
获 取</w>
te sting</w>
Im pl
军 队</w>
st one</w>
伟 大</w>
allow ed</w>
s ources</w>
advant age</w>
awa reness</w>
oper ational</w>
off ices</w>
con sequ
pro motion</w>
O ther</w>
ex ternal</w>
B ud
如 下</w>
att ack</w>
propos al</w>
g ot
民 间</w>
级 别</w>
ex ac
0 s</w>
货 物</w>
启 动</w>
ec ture</w>
感 受</w>
ob s</w>
Tr ade</w>
set tl
依 赖</w>
concer ns</w>
plat form</w>
grad u
纤 维</w>
F ri
I tal
it ors</w>
年 人</w>
经 理</w>
main tenance</w>
g row</w>
Re g
p age</w>
re le
em ed</w>
民 主
丈 夫</w>
trans l
Direc tor</w>
A ra
阿富 汗</w>
D NA</w>
as ks</w>
建 筑
构 建</w>
oblig ations</w>
C ur
P ac
ul ations</w>
看 来</w>
耶 和
lar s</w>
体 育</w>
ic king</w>
el ection</w>
严 格</w>
de ploy
打 开</w>
就 是
lay er</w>
欧 盟</w>
To day</w>
heal thy</w>
e ight</w>
at ever</w>
eas ily</w>
recomm ended</w>
O r</w>
ti n</w>
ne arly</w>
to ols</w>
Palestini an</w>
视 频</w>
use ful</w>
vic tims</w>
捐 助</w>
int ellig
顾 问</w>
管 制</w>
是 不是</w>
L eg
behavi or</w>
多 种</w>
要 是</w>
dr ink</w>
Dec laration</w>
hibi tion</w>
C i
arch it
显 然</w>
b ile</w>
innov ation</w>
infra structure</w>
难 以</w>
coll ection</w>
b on
J i
carb on</w>
外 交</w>
chall enge</w>
comm is
月 3
ord ers</w>
tic ally</w>
bl ue</w>
Fr ance</w>
在 内</w>
sol id
如 今</w>
袭 击</w>
val u
ut ri
to m</w>
ur ation</w>
ic a</w>
dau ghter</w>
do g</w>
ast ing</w>
月 1日</w>
uni versity</w>
follow ed</w>
S A
先 进</w>
2 8
神 经
inter pre
ma p</w>
appe ar</w>
fl ex
g a
cor respon
in ate</w>
ess or</w>
耶和 华</w>
discus s</w>
bil ities</w>
fin ancing</w>
initi atives</w>
S m
有 趣</w>
w est</w>
arti cles</w>
circum stances</w>
ph il
immedi ately</w>
本 国</w>
complet ely</w>
complet ed</w>
l ose</w>
一 方面</w>
ish es</w>
g ol
real ize</w>
r ying</w>
indic ated</w>
actu al</w>
t aining</w>
fig ure</w>
p ping</w>
C entre</w>
tif ication</w>
sec re
西 方</w>
S al
更 为</w>
理 想</w>
见 到</w>
对 此</w>
ste red</w>
支 出</w>
Eff ect</w>
流 动</w>
f arm
w av
C T
determin ation</w>
sp end</w>
model s</w>
c ot
ent ation</w>
境 内</w>
consum ption</w>
监 管</w>
201 4</w>
I O
af raid</w>
应 用
stre et</w>
terror ism</w>
那 种</w>
si ght</w>
实 质</w>
H er
deli very</w>
B ra
paramet ers</w>
阐 述</w>
canc er</w>
ag ency</w>
min al</w>
Ad visory</w>
forc ement</w>
tri bu
cl aim</w>
wel come</w>
消费 者</w>
ak er</w>
周 围</w>
Af gh
porte ur</w>
lin ear</w>
i ance</w>
尚 未</w>
hu ge</w>
体 现</w>
199 6</w>
刑 事</w>
commun ities</w>
ester day</w>
br and</w>
赔 偿</w>
我 不知道</w>
怎么 样</w>
Administr ation</w>
br an
S uch</w>
T u
UN DP</w>
法 律
determin e</w>
P or
耶 稣</w>
aim ed</w>
we st
b ar</w>
ing dom</w>
Th ose</w>
know s</w>
来 了</w>
happ en</w>
pl ate</w>
Sch ool</w>
reco very</w>
逐 渐</w>
方 便</w>
The ir</w>
t age</w>
dar k</w>
C E
pos ite</w>
c ere
ac adem
联 网</w>
suffici ent</w>
阿 尔
贫 困</w>
aff ir
循 环</w>
view ed</w>
J es
fem ale</w>
少 年</w>
公 布</w>
职 位</w>
conf idence</w>
6 6</w>
y a</w>
B ur
fo ot
sit u
gener ally</w>
West ern</w>
multi ple</w>
投资 者</w>
plan e</w>
地 址</w>
L u
chang ing</w>
anci ent</w>
享 有</w>
ca uses</w>
il li
过 渡</w>
Th ank</w>
sp a
梦 想</w>
Ger many</w>
p ip
M i
j u
意大 利</w>
6 7</w>
agre ements</w>
hot el</w>
st able</w>
201 5</w>
免 费</w>
Ge or
tren d</w>
现 代
鉴 于</w>
is ing</w>
伦 敦</w>
es sions</w>
initi al</w>
赢 得</w>
dis ci
dol lars</w>
co oper
con fir
各 方</w>
代 码</w>
命 令</w>
抑 制</w>
n or</w>
l eng
li min
In te
P S</w>
compon ents</w>
excell ent</w>
亲 爱
atic ally</w>
w are</w>
就 要</w>
fav or
m aster</w>
si bilities</w>
国 人</w>
她 说</w>
配 置</w>
公 共
s etting</w>
上 面</w>
回 家</w>
展 开</w>
t ;</w>
implement ing</w>
私 人</w>
土 壤</w>
Rap porteur</w>
recogn ized</w>
pass ed</w>
acc ept</w>
成 分</w>
投 票</w>
Ch r
fundam ental</w>
t ool</w>
供 应
k ept</w>
cir cul
gu n</w>
X i
Ara b</w>
re sistance</w>
re ferred</w>
as p
M L</w>
re in
cele br
indi genous</w>
cl assi
hol ding</w>
绝 对</w>
货 币</w>
专 员</w>
compon ent</w>
家 里</w>
Fore ign</w>
f ell</w>
D ay</w>
作 者</w>
tu red</w>
objec tives</w>
ing u
道 德</w>
on om
ti s</w>
comb ined</w>
cas h</w>
re duced</w>
S a
Pu blic</w>
某 种</w>
员 额</w>
a head</w>
publ ished</w>
sp ent</w>
紧 张</w>
节 目</w>
res sing</w>
sk y</w>
seas on</w>
au di
才 能</w>
形 态</w>
s ports</w>
m as</w>
requi res</w>
居 住</w>
St at
struc tures</w>
p ath</w>
re lease</w>
contribu tion</w>
dra w</w>
做 什么</w>
fu n</w>
b es</w>
为 止</w>
pay ment</w>
7 7</w>
w i
f ourth</w>
om en
毫 无</w>
patter n</w>
利 于</w>
mo bile</w>
ne tic</w>
Pro f
em is
机 场</w>
es tiv
st ore</w>
peace keeping</w>
fo rest</w>
con ver
therap y</w>
the tic</w>
受 害
dest ro
受害 者</w>
E very</w>
s at
ast y</w>
pol lu
提 取</w>
sp on
Re port</w>
列 入</w>
ic it</w>
sol ve</w>
sur vey</w>
requ ests</w>
spe aking</w>
诉 讼</w>
邮 件</w>
St u
召 开</w>
治 理</w>
der ing</w>
inde x</w>
st ated</w>
成 就</w>
m el
gl ass</w>
cre ation</w>
C lin
fe rences</w>
机 械</w>
see k</w>
巴 马</w>
wind ow</w>
inst all
成 长</w>
bit r
con sci
diffe ren
adv ice</w>
首 次</w>
Represent ative</w>
aut y</w>
de part
生 存</w>
syst em
coun ter
199 5</w>
199 4</w>
日 子</w>
duc es</w>
看 法</w>
下 面</w>
c ouldn</w>
resp ectively</w>
op ened</w>
C H
等 等</w>
M ore</w>
住 在</w>
ch ers</w>
as sist
interest ed</w>
Lon don</w>
随 后</w>
ch an
期 待</w>
可 靠</w>
即 将</w>
y l</w>
datab ase</w>
Th ree</w>
M ill
ak e
留 下</w>
K ey
学 会</w>
high est</w>
b order</w>
tri al</w>
contribu te</w>
ag ree</w>
t es</w>
sp ring</w>
视 为</w>
强 烈</w>
On ly</w>
particip ate</w>
secret ariat</w>
输 入</w>
r ain
s tic
beg in</w>
两 国</w>
fac tory</w>
end it
facilit ate</w>
ain t</w>
jo in</w>
h a</w>
spec ies</w>
th ir
欧 洲
Gre at</w>
他 人</w>
车 辆</w>
opini on</w>
hou se
b ly</w>
朝 鲜</w>
it or</w>
r s</w>
for get</w>
边 界</w>
fin ance</w>
周 期</w>
十 年</w>
vul ner
s cri
t ains</w>
fu el</w>
ch ief</w>
propos als</w>
g ation</w>
C re
cou ple</w>
arrang ements</w>
谢 谢</w>
claim s</w>
can di
te a</w>
shap e</w>
am ing</w>
ri ver</w>
仿 真</w>
rap id</w>
sus p
sur g
or ial</w>
s ell</w>
t an
ex port</w>
vis ed</w>
常 常</w>
ass ist</w>
ar di
到 底</w>
vers al</w>
活 性</w>
pe oples</w>
职 能</w>
tim ate</w>
c in
in ks</w>
b ia</w>
sid es</w>
Gu ang
损 伤</w>
or ds</w>
Chair man</w>
I M
sh ot</w>
h ost</w>
n ia</w>
W ill</w>
sit es</w>
um n</w>
奥 巴马</w>
signific antly</w>
ast ern</w>
f oundation</w>
sur ing</w>
重 建</w>
释 放</w>
lym p
appe ared</w>
Pac ific</w>
交 换</w>
m ir
日 期</w>
employ ees</w>
oo d
emer gency</w>
aff ect</w>
强 大</w>
不 在</w>
sen ior</w>
体 验</w>
P L
R em
su d
tion ing</w>
总 体</w>
olu me</w>
w ouldn</w>
pre p
lead ership</w>
定 性</w>
排 放</w>
Can ada</w>
guid ance</w>
太 多</w>
ar gu
Mo del</w>
war m</w>
Li ke</w>
S ing
上 去</w>
M eas
as er</w>
应用 程序</w>
Austr alia</w>
C D</w>
全 体</w>
伊 斯
it ch</w>
r ace</w>
考 试</w>
u le</w>
lab our</w>
d ry</w>
漂 亮</w>
posi tions</w>
s pl
地 震</w>
苹 果</w>
ex ecu
instr uments</w>
风 格</w>
medic ine</w>
list en</w>
pres ence</w>
ver ing</w>
out put</w>
doc tor</w>
所 谓</w>
advant ages</w>
亲爱 的</w>
ha ven</w>
co ff
S T
co al</w>
f igh
ext ent</w>
今 晚</w>
1 ,
g le</w>
c rit
on y</w>
全 世界</w>
例 子</w>
re ality</w>
S ud
官 方</w>
experi ment</w>
vari ety</w>
sh if
corpor ate</w>
C am
becom es</w>
以 外</w>
k ers</w>
在 线</w>
文 书</w>
S en
Jes us</w>
ordin ary</w>
ter y</w>
sugg ested</w>
simul ation</w>
w ine</w>
pati ent</w>
fe et</w>
defin ed</w>
identif y</w>
el f</w>
jec ted</w>
s low
ann a</w>
想 到</w>
A gre
想 象</w>
st op
un c
y i
pl as
back ground</w>
eas es</w>
ch in
stat ements</w>
公 园</w>
se as</w>
j obs</w>
做 到</w>
博 士</w>
男 子</w>
at trac
par a</w>
福 利</w>
怀 疑</w>
出 生</w>
I II</w>
detail s</w>
mar ried</w>
看 着</w>
west ern</w>
agricul tural</w>
offic ers</w>
spe ech</w>
墨 西
br ary</w>
de pos
面 积</w>
ch i
num bers</w>
事 故</w>
exper t</w>
环 境
d uty</w>
n ur
男 性</w>
工 厂</w>
多 边</w>
推 进</w>
plac ement</w>
custom er</w>
予 以</w>
bri dge</w>
不 起</w>
清 单</w>
资 格</w>
C y
侵 犯</w>
S ha
rati o</w>
P R
po sts</w>
C R</w>
l a</w>
j ur
tran spa
for d</w>
follow s</w>
p ac
met al</w>
big gest</w>
ow ned</w>
manufac turing</w>
por tion</w>
st er
effec tiveness</w>
th es</w>
eg et
多 数</w>
完 美</w>
ro m
竞 争
基础 设施</w>
si t</w>
Str ateg
W ater</w>
出 席</w>
i i</w>
e k</w>
关 心</w>
B l
C O</w>
ear ing</w>
en sive</w>
w ave</w>
ID S</w>
所 有人</w>
pl ants</w>
Secon d</w>
等 待</w>
E g
in formed</w>
昨 天</w>
is land</w>
str act</w>
S un
2 7
ic ated</w>
maj ority</w>
除 非</w>
规 律</w>
migr ation</w>
stitu tion</w>
化 学
care er</w>
营 养</w>
时 刻</w>
tre ated</w>
d ens
coun t</w>
T ake</w>
ext rem
小 说</w>
ag ent</w>
推 广</w>
M il
转 变</w>
cy cle</w>
transi tion</w>
L i</w>
D el
circ u
v ote</w>
pr e</w>
star ting</w>
ur g
encour age</w>
ch ain</w>
consult ations</w>
et er
流 行</w>
f illed</w>
气 候
中 央</w>
所 在</w>
expres s</w>
大 陆</w>
M c
联合 国
B e</w>
commun ications</w>
negoti ations</w>
ain ts</w>
i ons</w>
Impl ement
if y</w>
ab sor
马 上</w>
敏 感</w>
A no
approv al</w>
M iddle</w>
气 候</w>
m ur
in o</w>
结 婚</w>
此 类</w>
exac tly</w>
转 换</w>
什 么
接 近</w>
fi xed</w>
害 怕</w>
A ut
对 策</w>
ing ton</w>
reason able</w>
dist ance</w>
扩 展</w>
investig ate</w>
on ing</w>
rec ru
Pl an</w>
M E
科 学家</w>
4 00</w>
ti ll</w>
al leg
power ful</w>
li ber
form ing</w>
答 复</w>
验 证</w>
Dem ocratic</w>
记 忆</w>
id ing</w>
pu ts</w>
总 结</w>
太 阳</w>
人 力
哪 些</w>
Isra el
左 右</w>
Di vision</w>
s olutions</w>
il ing</w>
B er
dro p</w>
e en</w>
作 业</w>
情 绪</w>
expl ore</w>
foc used</w>
On ce</w>
文 学</w>
少 数</w>
i ously</w>
al lo
no on</w>
工 资</w>
t ol
neigh b
刚 刚</w>
port ation</w>
der i
阻 止</w>
oun ding</w>
住 房</w>
S O
cre d
6 8</w>
exam ination</w>
st ar</w>
lat est</w>
刺 激</w>
the ore
大 小</w>
美 好</w>
人 物</w>
ing ing</w>
appe ar
wh om</w>
comm ents</w>
中 间</w>
C T</w>
互 联网</w>
j iang</w>
g ames</w>
资 助</w>
Th rough</w>
ad ver
成 绩</w>
exp endit
n utri
辩 论</w>
吸 收</w>
su itable</w>
ex ic
伊 朗</w>
爆 炸</w>
phen omen
外 部</w>
L t
至 于</w>
C A
sp ok
l ateral</w>
私 营</w>
in ding</w>
l un
重 复</w>
潜 在</w>
苏 丹</w>
标 志</w>
U N</w>
clos ely</w>
anim als</w>
sh aring</w>
d a</w>
v ement</w>
re action</w>
suppor ting</w>
o ther
复 合</w>
estim ated</w>
图 书
内 外</w>
n ic</w>
a x</w>
guid elines</w>
0. 0
公 正</w>
dis armament</w>
mar riage</w>
en em
市 场
S ou
气候 变化</w>
estiv al</w>
核 武器</w>
灾 害</w>
生 成</w>
diffe rences</w>
E ach</w>
announc ed</w>
礼 物</w>
schem e</w>
om atic</w>
nam ed</w>
continu es</w>
创 作</w>
A sian</w>
追 求</w>
实 验
终 于</w>
cont ains</w>
promis e</w>
lin ed</w>
c ro
b ol
d inner</w>
著 名</w>
5 0
H IV</w>
O lymp
G o</w>
家 庭
reg im
后 续</w>
ad ed</w>
F ol
educ ational</w>
a c</w>
territ ory</w>
Char ac
ong s</w>
ati n</w>
v olume</w>
气 体</w>
particip ants</w>
depart ments</w>
techni ques</w>
gu ide</w>
lead er</w>
d ance</w>
citiz ens</w>
exist ence</w>
信 心</w>
fas hi
约 束</w>
g ate</w>
signific ance</w>
有 的</w>
ex ist</w>
sh ar
d ress</w>
一 个
f ill</w>
证 实</w>
表 演</w>
y esterday</w>
M et
an nex</w>
l ying</w>
lim it</w>
jud icial</w>
stor age</w>
运 动
j e
立 场</w>
d ary</w>
be auty</w>
En g
200 5年</w>
C al
安 全
照 顾</w>
B rit
o to</w>
M echan
i bility</w>
I T</w>
hur t</w>
mor t
sist er</w>
索 赔</w>
职 责</w>
comb ination</w>
定 位</w>
题 为</w>
到 达</w>
wh ere
企 业
那 儿</w>
研 究
conven i
bun al</w>
年 轻
前 景</w>
pl ays</w>
P C</w>
detail ed</w>
exp ect</w>
tit ude</w>
地 图</w>
sh o
spec ific
咖 啡</w>
pur poses</w>
ta x
Y ear</w>
遭 受</w>
得 出</w>
t ex
leav ing</w>
wee k
invest ors</w>
f are</w>
happ iness</w>
tur ns</w>
Associ ation</w>
的 确</w>
be an</w>
Ano ther</w>
roc k</w>
out come</w>
取 消</w>
wor ry</w>
皮 肤</w>
最 低</w>
n i
li ghts</w>
we ather</w>
fres h</w>
返 回</w>
很 少</w>
2 9
thre at</w>
re pl
gr y</w>
en suring</w>
w illing</w>
至 关</w>
bus in
I D</w>
200 8年</w>
h am
覆 盖</w>
ton ight</w>
trou ble</w>
Chil dren</w>
W el
Serv ices</w>
id ity</w>
Key words</w>
sp read</w>
s outh</w>
Res ults</w>
coun ter</w>
t um
bri ef
vehic le</w>
添 加</w>
le ts</w>
ir ing</w>
cre ating</w>
Di ff
b loc
d ad</w>
f ly</w>
W ould</w>
发 明</w>
di pl
pro per</w>
situ ations</w>
转 让</w>
manag er</w>
Ob ama</w>
Ear th</w>
否 则</w>
浓 度</w>
c row
肿 瘤</w>
工 程
名 单</w>
al ty</w>
govern ance</w>
m id
ac ting</w>
韩 国</w>
R ight</w>
pollu tion</w>
本 人</w>
acc el
掌 握</w>
审 判</w>
increas ingly</w>
A IDS</w>
pa th
clo thes</w>
航 空</w>
ther more</w>
监 狱</w>
il s</w>
y outh</w>
g ain</w>
recommend ation</w>
rest aur
ad or</w>
西班 牙</w>
s mar
prote in</w>
Ri ver</w>
tw enty</w>
王 国</w>
可 能
相 反</w>
各 自</w>
m osph
不 好</w>
U sing</w>
elev ision</w>
额 外</w>
nor th</w>
gr and
认 真</w>
direc tor</w>
F u
becom ing</w>
disci pl
recogn ition</w>
ris ks</w>
ang le</w>
avi d</w>
G i
a o
interest ing</w>
sol id</w>
movi e</w>
Sup port</w>
卫 星</w>
compens ation</w>
initi ative</w>
te sts</w>
S ol
五 十
re ven
N on</w>
bro ad</w>
劳 动</w>
deb ate</w>
observ ed</w>
人 才</w>
gu ess</w>
图书 馆</w>
appreci ation</w>
名 称</w>
R E
Rus sia</w>
os oph
el low</w>
aw are</w>
一 半</w>
可能 性</w>
ro te</w>
t ary</w>
pri or</w>
h s</w>
7 3</w>
突 出</w>
ex ecutive</w>
Christ mas</w>
compl iance</w>
z es</w>
f it</w>
指 控</w>
fac es</w>
tr ack</w>
B us
min ute</w>
品 质</w>
ab oration</w>
adv ance</w>
服务 器</w>
tow ard</w>
夫 人</w>
国 外</w>
Rev i
v oc
30 日</w>
r ad
ed ge</w>
squ are</w>
理 念</w>
注 册</w>
Pan el</w>
答 案</w>
er al</w>
形 象</w>
dri ving</w>
oc cas
control led</w>
P ower</w>
exc ept</w>
Ag ency</w>
秘 密</w>
separ ate</w>
hel ped</w>
观 念</w>
M exic
M at
消 失</w>
tem porary</w>
bir th</w>
公 路</w>
ab road</w>
燃 料</w>
sol di
treat y</w>
l ink</w>
199 3</w>
建 造</w>
hi b
list ed</w>
应 力</w>
下 午</w>
ac compl
功 率</w>
Con struction</w>
wor l
inv ited</w>
stre am</w>
sha red</w>
c ast</w>
w ing</w>
sm all
w is
sub mit</w>
批 评</w>
in sul
Dr .</w>
si onal</w>
as sum
rel atively</w>
per haps</w>
大 鼠</w>
M O
mag netic</w>
G et</w>
Au th
con clusion</w>
M ore
L oc
m outh</w>
L ab
那 时</w>
D ar
ev ening</w>
c oo
gr av
sor t</w>
延 长</w>
en forcement</w>
web site</w>
Implement ation</w>
min ist
Con clusion</w>
爱 你</w>
R ob
prov ed</w>
w rote</w>
Agre ement</w>
religi ous</w>
b one</w>
cle an
ch apter</w>
教 育
Revi ew</w>
筹 备</w>
罪 行</w>
2 1
智 能</w>
tou ch</w>
k ong</w>
fe ature</w>
劳 工</w>
听 说</w>
年轻 人</w>
i di
al ities</w>
后 果</w>
v it
prep are</w>
leng th</w>
提 案</w>
campa ign</w>
流 程</w>
laun ched</w>
instr ument</w>
电 路</w>
leav es</w>
hol id
tr ading</w>
巴 西</w>
characteris tic</w>
s .
Se e</w>
sti c</w>
v eget
pro sec
consist ent</w>
liqu id</w>
mat ch</w>
rel ative</w>
不 够</w>
身 边</w>
灵 活</w>
B en
coff ee</w>
好 处</w>
liz ation</w>
基 地</w>
C enter</w>
en try</w>
T H
te es</w>
sel ection</w>
An y</w>
flow ers</w>
M emb
um s</w>
correc t</w>
Wh ich</w>
I P
sel ected</w>
自 愿</w>
W ith
app ing</w>
expl ain</w>
ar bitr
台 湾</w>
st oc
g lob
兄 弟</w>
阿拉 伯</w>
part ner</w>
年 来</w>
su me</w>
tre es</w>
es tions</w>
候 选</w>
E qu
per spective</w>
ve re
off ered</w>
rele ased</w>
Mill ennium</w>
Bu il
效 益</w>
6 00</w>
mis s</w>
ell ed</w>
美国 人</w>
成 熟</w>
per manent</w>
dis eases</w>
大 脑</w>
合 适</w>
sec tors</w>
月 份</w>
par k</w>
er ror</w>
常 见</w>
thous ands</w>
we b</w>
机 器</w>
故 障</w>
histor ical</w>
under taken</w>
谢 你</w>
anim al</w>
模 糊</w>
lif eration</w>
Per s
L ife</w>
墨西 哥</w>
b ound
太 平
app ed</w>
dic tion</w>
prov ince</w>
麻 烦</w>
F o
s ong</w>
绿 色</w>
不 得
开 心</w>
st o
dis aster</w>
多 么</w>
be ar</w>
遗 憾</w>
li ved</w>
p ick</w>
检 验</w>
Mic ro
ec tor</w>
技 术
ti an</w>
合 金</w>
合 法</w>
专 题</w>
statis tics</w>
小 型</w>
s anc
doc um
z z
jur is
divid ed</w>
典 型</w>
eng ine</w>
Net work</w>
organ ic</w>
M ac
g ment</w>
期 望</w>
accoun ting</w>
il legal</w>
天 气</w>
J e
杂 志</w>
meas urement</w>
air craft</w>
缺 陷</w>
发 射</w>
n ations</w>
pre gn
玻 璃</w>
experim ental</w>
an ding</w>
sci enti
D C</w>
ed ly</w>
依 照</w>
chin ese</w>
有 利于</w>
competi tive</w>
医 学</w>
m ac
D o
说 过</w>
ti red</w>
su b</w>
A t
bot tom</w>
M ad
K ingdom</w>
in k
平 民</w>
较 高</w>
per c
跟 踪</w>
血 管</w>
reg ulation</w>
H ouse</w>
融 合</w>
dis play</w>
ru p
d red</w>
yp e</w>
et ary</w>
ap ers</w>
ay ed</w>
refl ect</w>
f ing
hol ds</w>
D avid</w>
相 似</w>
物 理</w>
引 发</w>
r ay</w>
实验 室</w>
与 会</w>
频 率</w>
免 疫</w>
方 程</w>
regi stration</w>
More over</w>
For um</w>
mark eting</w>
no ise</w>
Ph il
a e</w>
n ar
se l</w>
政 治
sti mul
S at
事 物</w>
常 规</w>
Eg yp
主 动</w>
enti onal</w>
f light</w>
飞 行</w>
in ary</w>
tr act</w>
requi rement</w>
O K</w>
vehic les</w>
ic y</w>
di a</w>
电 视
发 动</w>
j i
法 规</w>
合 并</w>
替 代</w>
ous ness</w>
埃 及</w>
护 理</w>
So ci
J ud
优 秀</w>
英 文</w>
fail ed</w>
t y
老 板</w>
Be fore</w>
mut ual</w>
vill age</w>
se emed</w>
tur ning</w>
pro p
sou l</w>
数 目</w>
A re
Un it</w>
8 5</w>
plan ned</w>
scre en</w>
diagn osis</w>
govern ments</w>
4 0
ab sol
ot es</w>
Prot ection</w>
指 示</w>
对 比</w>
ar ily</w>
任 命</w>
ur ch</w>
e ast</w>
at mosph
car s</w>
stu ff</w>
wh atever</w>
ess ing</w>
f al
Ro ad</w>
clu sions</w>
minim um</w>
稳 定性</w>
y ers</w>
or al</w>
hun dred</w>
lo ved</w>
电 池</w>
dist inc
L ist
ru ption</w>
201 6</w>
因 子</w>
关 联</w>
Fur thermore</w>
输 出</w>
w inter</w>
poin ted</w>
高 效</w>
我 喜欢</w>
200 0年</w>
am end
tri p</w>
来 看</w>
difficul ties</w>
an ning</w>
f ts</w>
peace ful</w>
离 子</w>
别 的</w>
每 次</w>
C a
c ros
certain ly</w>
fru it</w>
ess ed</w>
不 久</w>
defin ition</w>
monit or</w>
con serv
nam es</w>
婚 姻</w>
Bra z
aff airs</w>
P A</w>
具 备</w>
ma il</w>
sp oke</w>
警 告</w>
Israel i</w>
家 伙</w>
驱 动</w>
continu ous</w>
s low</w>
残 疾
adop t</w>
e .</w>
re ducing</w>
dem ocr
fin ished</w>
secre t</w>
尔 ·
匹 配</w>
allow s</w>
警 方</w>
9 5</w>
inst ance</w>
马 里</w>
f oot</w>
提 醒</w>
for tun
struc tural</w>
li ons</w>
乐 部</w>
produc tive</w>
委 会</w>
判 断</w>
is c
experi ences</w>
r ice</w>
ab ol
同 事</w>
trans mission</w>
敦 促</w>
当 中</w>
sen sus</w>
extrem ely</w>
y es</w>
为 你</w>
Sum mit</w>
俱 乐部</w>
re r</w>
rem ained</w>
拟 订</w>
举 措</w>
e u
bi ennium</w>
maxim um</w>
信 仰</w>
未 能</w>
辐 射</w>
三 十
ne ur
equ i
最 初</w>
appro xim
巴 基
Sci ence</w>
is tics</w>
institu tional</w>
将 来</w>
Comp any</w>
dru gs</w>
A l</w>
忘 记</w>
quar ter</w>
ill u
am ed</w>
ob tain</w>
det ection</w>
si r</w>
层 面</w>
por ted</w>
Brit ain</w>
分 为</w>
pos sibility</w>
net works</w>
小 姐</w>
and ed</w>
h es
guaran tee</w>
密 度</w>
tor al</w>
lar ger</w>
bro ken</w>
mon y</w>
E v
C N
农 民</w>
里 亚</w>
B et
s essions</w>
no tice</w>
Environ ment</w>
学 术</w>
干 预</w>
see ing</w>
For ce</w>
数 学</w>
南 部</w>
c utting</w>
存 储</w>
古 巴</w>
近 年来</w>
connec ted</w>
用 途</w>
s ale</w>
w ards</w>
大 大</w>
. 1</w>
discus sions</w>
H on
bo ys</w>
账 户</w>
conf ig
ent ing</w>
st ant</w>
Th us</w>
a f</w>
机 器
traff icking</w>
施 工</w>
拘 留</w>
fa ith</w>
E F</w>
appe ars</w>
publ ic
h ong</w>
单 独</w>
el ine</w>
遭 到</w>
收 益</w>
t ele
实 用</w>
it ch
n ine</w>
数 值</w>
fac ing</w>
th or
cr yst
A C</w>
des pite</w>
swe et</w>
m m</w>
行 动
L o
保 存</w>
巴基 斯坦</w>
b lock</w>
cri mes</w>
enti ties</w>
b ound</w>
top ic</w>
逐 步</w>
rais ing</w>
dev ices</w>
爱 情</w>
wh e
心 理
mar ks</w>
den ly</w>
Stu dies</w>
respon sibilities</w>
彼 此</w>
有 机</w>
从 未</w>
dec ide</w>
红 色</w>
休 息</w>
re turned</w>
Eff ects</w>
人力 资源</w>
res ses</w>
g er
有 力</w>
great ly</w>
secon dary</w>
氧 化</w>
s old</w>
appear ance</w>
拟 议</w>
8 日</w>
取 决</w>
沟 通</w>
rec ords</w>
St and
car rying</w>
we alth</w>
艾滋 病</w>
得 以</w>
develop ments</w>
an istan</w>
K e
样 子</w>
are n</w>
In du
pl astic</w>
th ro
perform ed</w>
见 过</w>
expan sion</w>
chan nel</w>
sa ving</w>
现 金</w>
系 数</w>
econom ies</w>
op tion</w>
对 照</w>
sel ling</w>
ass es</w>
Col lege</w>
Co de</w>
圣 诞
on going</w>
f at</w>
ut ing</w>
200 6年</w>
版 本</w>
im ages</w>
fr ame</w>
疗 效</w>
Me eting</w>
inj ury</w>
accep ted</w>
depend ent</w>
一 边</w>
ar my</w>
En ter
总 理</w>
ri f
est ate</w>
传 输</w>
Co operation</w>
clu sive</w>
7 2</w>
establ ishing</w>
grad ually</w>
settl ement</w>
ti ci
属 性</w>
op tions</w>
U se</w>
con str
resul ting</w>
buil dings</w>
物 品</w>
t asks</w>
un less</w>
av ing</w>
i ther</w>
com mod
补 偿</w>
所 说</w>
W al
克 斯</w>
er r
part nership</w>
sub sequ
逻 辑</w>
refuge es</w>
g ar</w>
Afgh anistan</w>
201 0年</w>
行动 计划</w>
cul tiv
哪 儿</w>
黎 巴
说 道</w>
believ ed</w>
Indu stry</w>
c entre</w>
de ep
att acks</w>
月3 1日</w>
本 地</w>
b ought</w>
low ing</w>
as ing</w>
ic ts</w>
调 节</w>
代 理</w>
off ers</w>
ir on</w>
B ro
elec tions</w>
接 着</w>
战 斗</w>
搜 索</w>
因 而</w>
commit ments</w>
解 决
人 群</w>
地 产</w>
6 日</w>
解决 方案</w>
后 面</w>
accoun ts</w>
as king</w>
mis sion
Tim e</w>
不 可
concentr ation</w>
响 应</w>
股 票</w>
Regi onal</w>
彻 底</w>
防 治</w>
贩 运</w>
T O</w>
推 出</w>
st ance</w>
id ly</w>
回 应</w>
int ended</w>
B C</w>
after noon</w>
cer tif
特 色</w>
am m
um in
appoin ted</w>
t elevision</w>
关 闭</w>
ob jects</w>
Fin ancial</w>
黎巴 嫩</w>
e ing</w>
细 节</w>
f ab
曲 线</w>
A N</w>
知 识
商 定</w>
指 南</w>
公 里</w>
thous and</w>
U r
不 喜欢</w>
异 常</w>
th ly</w>
dang erous</w>
加 快</w>
circu it</w>
P ak
tis su
lam ps</w>
集 体</w>
I P</w>
Per manent</w>
s per
ent ered</w>
机 理</w>
斯 ·
纲 领</w>
C R
共 享</w>
动 脉</w>
持 久</w>
li mit
太平 洋</w>
recei ving</w>
边 缘</w>
尼 亚
sub si
bus y</w>
对 方</w>
H el
we ak
土 耳
sc ene</w>
商 务</w>
an ia</w>
R om
B oth</w>
原 来</w>
N G
庆 祝</w>
in struc
pl us</w>
种 类</w>
industri es</w>
动 作</w>
200 7年</w>
Se a</w>
ol der</w>
W ang</w>
还 会</w>
fif th</w>
发 行</w>
pre sid
dep th</w>
m ale</w>
较 大</w>
s ac
f le
生 效</w>
intro duce</w>
为 何</w>
ti le</w>
6 9</w>
le gi
9 9</w>
头 发</w>
sp ot</w>
w anna</w>
文 明</w>
Str uc
increas es</w>
印 度
bi o
灵 魂</w>
es ides</w>
an o</w>
F l
没 有人</w>
intro duction</w>
单 元</w>
Bus iness</w>
融 资</w>
hol e</w>
is ol
J ustice</w>
第 一
pris on
sur ve
fr ag
bil ateral</w>
V er
国际 法</w>
合 作
论 述</w>
accel er
核 准</w>
prof it</w>
sup posed</w>
friend ly</w>
Diff e
deleg ations</w>
r ul
det ail</w>
多 样</w>
欧洲 联盟</w>
t ability</w>
pres sed</w>
con solid
老 人</w>
sim pl
阿拉 伯
y e</w>
顾 客</w>
we ak</w>
St re
S il
st ake
t elling</w>
charac ters</w>
B a
resp ective</w>
层 次</w>
0年 代</w>
T aiwan</w>
thre at
争 议</w>
sensi tive</w>
id ation</w>
ap ar
m .</w>
有 没有</w>
fif ty</w>
ell ec
hand le</w>
C s</w>
ev a</w>
Tri bunal</w>
fu sion</w>
H un
acti vely</w>
E P</w>
W ash
新 闻
comb at</w>
ha m</w>
一 块</w>
val uation</w>
l ar</w>
cont aining</w>
b om
检 察
tour ism</w>
精 度</w>
sh op
is es</w>
决 心</w>
in put</w>
e ating</w>
Le ban
ac ted</w>
er ial</w>
cat ch</w>
continu ing</w>
200 8年
won der
sur r
cli ent</w>
stra ight</w>
new sp
academ ic</w>
医 疗
全球 化</w>
L ove</w>
resear chers</w>
Feder ation</w>
记 住</w>
华 盛
pl ing</w>
高 校</w>
制 裁</w>
fin ding</w>
mo m</w>
phil osoph
已 有</w>
them atic
id ent</w>
负 担</w>
不得 不</w>
coll aboration</w>
eth nic</w>
Pro ject</w>
ro ot</w>
ens es</w>
est ing</w>
ter ing</w>
g an</w>
conc ep
d in
achiev ement</w>
ext ended</w>
S am
对 不起</w>
u h</w>
对 待</w>
恐 惧</w>
减 轻</w>
er ical</w>
crit eria</w>
est er</w>
bac ter
房 屋</w>
练 习</w>
il ed</w>
研 制</w>
es h</w>
be aring</w>
program s</w>
great est</w>
per form</w>
Pro per
sur pris
呈 现</w>
sev ere</w>
行 使</w>
科 索
约 翰
演 讲</w>
uni versal</w>
mo on</w>
民 众</w>
奇 怪</w>
achiev ing</w>
Wh ite</w>
adv oc
低 于</w>
ev ent
基 金
200 5年
海 外</w>
始 终</w>
加 上</w>
indic ate</w>
同 学</w>
b le
受 伤</w>
Li ber
Ger man</w>
fa ir
含 有</w>
ven ant</w>
us ual</w>
eng aged</w>
c ool</w>
ag er</w>
liter ature</w>
li fe
di um</w>
期 限</w>
expl os
场 所</w>
铁 路</w>
国际 组织</w>
gen e</w>
mechan ical</w>
moun tain</w>
versi ties</w>
S ection</w>
糟 糕</w>
bas s
radi o</w>
200 6年
I C</w>
pa rent</w>
b right</w>
au l</w>
好 好</w>
争 取</w>
ast ers</w>
ograph ic</w>
维 亚</w>
对 手</w>
P res
出 售</w>
ici ous</w>
毕 业</w>
改 造</w>
t aste</w>
Cri minal</w>
K u
ligh ting</w>
球 员</w>
x i
hel ping</w>
th in</w>
各 级</w>
革 命</w>
第 二
假 设</w>
independ ence</w>
pris on</w>
B ure
prov in
国 民</w>
ba g</w>
th anks</w>
随 机</w>
call ing</w>
es tion</w>
st ations</w>
p ool</w>
供应 商</w>
evalu ate</w>
inspec tion</w>
k il
fi ber</w>
进 来</w>
trans portation</w>
man age</w>
play ers</w>
c el
com ed</w>
real ized</w>
reli ef</w>
p as
Pol i
figh ting</w>
investig ated</w>
Elec tr
refl ected</w>
speci alized</w>
func tional</w>
便 利</w>
200 4年</w>
Mon day</w>
失 所</w>
M y
.. ..</w>
min ister</w>
希 腊</w>
L ast</w>
k a</w>
ru b
si vely</w>
构 造</w>
intro duces</w>
Pr in
langu ages</w>
cour ses</w>
cop y</w>
sum mar
sc en
indic ators</w>
ed ings</w>
re gre
mar ine</w>
spec tr
S E
配 合</w>
Memb ers</w>
有 时候</w>
doub t</w>
Ch ang
fac tion</w>
5 日</w>
multi lateral</w>
conclud ed</w>
val ent</w>
前 往</w>
担 保</w>
Treat y</w>
ement ary</w>
流 离
流离 失所</w>
地 面</w>
持 有</w>
D ata</w>
职 业
Y et</w>
助 理</w>
sh ops</w>
ut ation</w>
装 备</w>
G oo
wel comed</w>
Sp ace</w>
ail s</w>
文 本</w>
cent res</w>
ro se</w>
9 月
高 于</w>
机器 人</w>
财 富</w>
legisl ative</w>
国 务
J er
国 王</w>
j ection</w>
mi x
sec ure</w>
them e</w>
prin cip
联 络</w>
pursu ant</w>
200 9年</w>
出 发</w>
se at</w>
re p
10 00</w>
mil es</w>
一 生</w>
accid ent</w>
O ver</w>
友 好</w>
7 日</w>
有 用</w>
会 计</w>
br ation</w>
激 光</w>
qu esti
日 内
没 事</w>
k et
4 日</w>
in formal</w>
9 日</w>
W ar</w>
st ressed</w>
200 0年
er gy</w>
症 状</w>
智 慧</w>
危 害</w>
n av
脆 弱</w>
civil ian</w>
re vised</w>
R ed</w>
hy per
L in
In d
nor m
D ef
S or
appro aches</w>
we d
U .</w>
deploy ment</w>
sp ending</w>
mar g
tion ally</w>
呼 吸</w>
draw ing</w>
v ity</w>
Ci vil</w>
wat ching</w>
模 块</w>
不 论</w>
ar g
nov el</w>
rec ord
主 体</w>
fam ili
ici p
主 权</w>
agricul ture</w>
聪 明</w>
1 50</w>
per s</w>
Mexic o</w>
b ra
包 装</w>
gu ard</w>
K ing</w>
cl ust
c en
vir us</w>
ar d
感 器</w>
Sud an</w>
Me an
可 行</w>
b oss</w>
互 动</w>
修 复</w>
e tion</w>
南 非</w>
re new
hel ps</w>
exc e
correspon ding</w>
l uc
我 们
r y
lab or</w>
Ab stract</w>
m as
早 上</w>
so vere
市 民</w>
tion ary</w>
applic able</w>
sit ting</w>
our selves</w>
e ply</w>
上 诉</w>
200 7年
pain ting</w>
it ting</w>
re viewed</w>
ac tors</w>
仲 裁</w>
透 明</w>
动 机</w>
利 润</w>
P at
am bi
me ant</w>
for th</w>
占 领</w>
jud ge</w>
l ay</w>
ari a</w>
产 权</w>
ser iously</w>
encour aged</w>
w ater
fe der
干 扰</w>
happ ens</w>
Wash ington</w>
altern ative</w>
科索 沃</w>
calcul ation</w>
200 4年
sm ile</w>
不 少</w>
Inte gr
引 入</w>
各 位</w>
取 代</w>
极 大</w>
什么 时候</w>
Lt d</w>
confir med</w>
mo bil
ob vious</w>
双 边</w>
Pre par
哲 学</w>
Sy n
con sensus</w>
ear th
see king</w>
十 二</w>
区 别</w>
截 至</w>
辅 助</w>
re n</w>
identi ty</w>
网 上</w>
bir th
t ac
out standing</w>
Fri day</w>
N um
fe as
进 去</w>
de struction</w>
ang er</w>
自 行</w>
other wise</w>
8 00</w>
团 结</w>
上 午</w>
am ber</w>
Con gress</w>
Dis cus
提 及</w>
W a
di strict</w>
k id
igh t
Proc ess</w>
那 你</w>
respon d</w>
vulner able</w>
土耳 其</w>
B ill</w>
identif ication</w>
I r
k es</w>
recomm ends</w>
E st
Ch ief</w>
inter face</w>
统 计
家 长</w>
te ams</w>
viol ations</w>
techn ological</w>
specif ied</w>
invol ving</w>
st ac
观 众</w>
regim e</w>
6 0
D A</w>
draw n</w>
regi stered</w>
餐 厅</w>
Di strict</w>
E th
min ing</w>
Americ ans</w>
enc ing</w>
curren cy</w>
cul ar</w>
to x
fac ed</w>
enh anced</w>
婴 儿</w>
ic h
干 事</w>
inde ed</w>
mis sing</w>
D oc
Com mission
n om
tre at</w>
Bure au</w>
V ol
sugg est</w>
编 码</w>
consequ ences</w>
pro liferation</w>
许 可</w>
l ity</w>
consul tation</w>
wonder ful</w>
众 多</w>
ur ities</w>
employ ed</w>
anc ement</w>
起 诉</w>
Ad v
head s</w>
认 可</w>
斯 特</w>
experi enced</w>
fin dings</w>
U R
cont ents</w>
转 化</w>
arri ved</w>
ri g
emer ging</w>
F am
class es</w>
S pe
over seas</w>
雇 员</w>
士 兵</w>
ris ing</w>
c os
en z
瑞 士</w>
c e
de aling</w>
D ep
讲 话</w>
b o</w>
lin ked</w>
证 书</w>
qu ick</w>
bo at</w>
E U</w>
ori ented</w>
蛋 白
s co
gr an
巴 黎</w>
com position</w>
混 凝</w>
der ly</w>
sat ell
h ell</w>
赞 赏</w>
品 种</w>
在 哪里</w>
C er
ha el</w>
技 巧</w>
clu b</w>
约 翰</w>
两 性</w>
tol er
熟 悉</w>
细 胞
pro of</w>
extr a</w>
feel ings</w>
thou ghts</w>
li brary</w>
C ould</w>
worl d
导 弹</w>
trans formation</w>
实 例</w>
Gen eva</w>
tal ks</w>
刚 才</w>
11 月
一 道</w>
y al</w>
success fully</w>
白 色</w>
fashi on</w>
tu ally</w>
Pe ace</w>
自 从</w>
h an</w>
car ri
S we
赋 予</w>
pri orities</w>
种 族
ri x</w>
consum er</w>
li ver</w>
捐 款</w>
M u
g .</w>
恐 怖</w>
太 阳
del ay</w>
岛 屿</w>
i on
comfor table</w>
l em
prin t</w>
保 险
comm and</w>
作 家</w>
sist ant</w>
recogn ize</w>
贸 发</w>
intellig ence</w>
ten sion</w>
倾 向</w>
残疾 人</w>
me at</w>
fin ish</w>
太 太</w>
差 距</w>
ch lor
Pro duc
b a</w>
法 案</w>
ox ide</w>
潜 力</w>
theore tical</w>
尽 快</w>
al le
Goo gle</w>
打 电话</w>
play er</w>
mil k</w>
心 里</w>
Administr ative</w>
cru cial</w>
elec ted</w>
回 去</w>
199 2</w>
jo y</w>
limin ary</w>
proce edings</w>
k id</w>
rem ote</w>
purch ase</w>
Qu ality</w>
sp ac
weap on</w>
有 些
T em
产 量</w>
I F
ri d</w>
confl icts</w>
S ust
res c
appe al</w>
au dit</w>
ir s</w>
爱 尔
b ill</w>
un to</w>
Z e
生 态
球 队</w>
r h
S P
stud ying</w>
archit ecture</w>
图 片</w>
an ish</w>
ha z
gi ft</w>
X ML</w>
immedi ate</w>
传 感器</w>
S om
惩 罚</w>
. m.</w>
热 情</w>
dec ades</w>
Some times</w>
l aser</w>
mor al</w>
in s
at tribu
t ings</w>
移 植</w>
abl ed</w>
R A
传 递</w>
胜 利</w>
ch air
7 4</w>
G DP</w>
ug gl
no c
UN CT
inter view</w>
穿 着</w>
knowle d
综 合
冲 击</w>
In de
201 7</w>
su it</w>
valu able</w>
执 法</w>
Ital y</w>
最 后
ent ary</w>
外 面</w>
Con stitution</w>
c aught</w>
Tr ump</w>
z e
m ic</w>
T om</w>
at titude</w>
清 洁</w>
主 持</w>
自 由
现 行</w>
Ch apter</w>
发 送</w>
H en
s cape</w>
卫 生
顺 利</w>
h ate</w>
ter min
super vision</w>
paragrap hs</w>
substan tive</w>
tar gets</w>
当 代</w>
E N
ro oms</w>
D on
orig in</w>
通 讯</w>
an ch
decre ase</w>
fil es</w>
书 面</w>
e igh
最 多</w>
sch ol
序 列</w>
诸 如</w>
讨 会</w>
研 讨会</w>
cont ain</w>
h abil
stop ped</w>
D yn
电 力</w>
on to</w>
情 感</w>
变 形</w>
不 利</w>
sa v
E d
接 下来</w>
it ely</w>
des ire</w>
al ize</w>
pass eng
small er</w>
ther mal</w>
而 已</w>
P ur
2 3
atmosph ere</w>
7 1</w>
autom atic</w>
日内 瓦</w>
con stant</w>
此 次</w>
以 往</w>
协 作</w>
favor ite</w>
L atin</w>
劳 动
de eply</w>
pen sion</w>
Exper im
斗 争</w>
情 报</w>
mi xed</w>
odi c</w>
inf ection</w>
没 错</w>
s ile</w>
B A</w>
200 3年</w>
M us
exp ensive</w>
tim ely</w>
stor ies</w>
dimen sional</w>
短 期</w>
随 时</w>
说 法</w>
多 人</w>
acc um
200 3年
深 刻</w>
cat aly
O ut
很 多人</w>
meas ured</w>
g ap</w>
学 科</w>
不 幸</w>
化 合物</w>
A gr
phenomen on</w>
200 1年</w>
ligh tly</w>
Eng ine
宝 贝</w>
大 概</w>
y ang</w>
救 济</w>
patter ns</w>
加 速</w>
1 号</w>
con vers
着 重</w>
cent age</w>
移 徙</w>
实 在</w>
常 驻</w>
Par t</w>
reli able</w>
I ran</w>
isi onal</w>
艺术 家</w>
原 料</w>
urg ent</w>
富 有</w>
200 2年
mot or</w>
Pol ice</w>
enti ally</w>
UNCT AD</w>
sa fe
dol lar</w>
ul l</w>
标 记</w>
essi on
磋 商</w>
chr on
9 8</w>
伊斯 兰</w>
H a
电 机</w>
s a</w>
ush ed</w>
国 会</w>
radi ation</w>
tru ly</w>
sam ple</w>
in duced</w>
appoin tment</w>
一 代</w>
7 6</w>
引 导</w>
ol ing</w>
子 女</w>
F re
relation ships</w>
垃 圾</w>
serv ed</w>
P en
青 少年</w>
un k</w>
查 询</w>
expl ained</w>
加 勒
sa d</w>
dens ity</w>
睡 觉</w>
不 仅仅</w>
produc ing</w>
n in
S C
occur red</w>
f ra
th r
suff ering</w>
会 儿</w>
ox y
Pak istan</w>
care fully</w>
ac king</w>
isi tion</w>
Ch ris
piec es</w>
200 2年</w>
利 率</w>
inter nation
fo rec
sha res</w>
Mis s</w>
文 化
wor se</w>
U K</w>
up per</w>
敌 人</w>
200 9年
a b</w>
Co venant</w>
attemp t</w>
ag s</w>
年12 月
某 一</w>
8 8</w>
el ing</w>
商 店</w>
Braz il</w>
am az
enem y</w>
Commission er</w>
200 1年
be at</w>
前 面</w>
Pe ace
exam ples</w>
8 7</w>
col le
Treat ment</w>
感 情</w>
考 察</w>
D ist
Jo int</w>
ul ated</w>
es ia</w>
主 流</w>
f ro
fig ures</w>
mo stly</w>
S af
busin esses</w>
br inging</w>
en ess</w>
声 称</w>
新 加
rap idly</w>
假 如</w>
dem ocratic</w>
斯 特
克 服</w>
案 例</w>
颗 粒</w>
F ood</w>
fore ver</w>
演 员</w>
Par is</w>
l in</w>
发 育</w>
开 支</w>
N E
i red</w>
商 业
判 决</w>
储 存</w>
Mr s.</w>
cont em
s ence</w>
sched ul
rem aining</w>
A L
sh oul
设 计
ad ding</w>
al ists</w>
中 文</w>
格 式</w>
charac ter
矛 盾</w>
P op
尺 寸</w>
all ed</w>
Inv estig
报 纸</w>
Feder al</w>
A ir
C P
内 心</w>
hous es</w>
Sh en
al t</w>
star s</w>
Strateg y</w>
S everal</w>
M S</w>
切 实</w>
L ear
dis covered</w>
上 涨</w>
d il
every body</w>
chil d
S hi
T est</w>
黑 暗</w>
vis ual</w>
形 状</w>
毒 品</w>
represent ed</w>
An y
中国 人</w>
stan tly</w>
H igh
7 8</w>
小 孩</w>
ke ep
qu ake</w>
Pol icy</w>
sud denly</w>
通 道</w>
难 道</w>
8 6</w>
cl ar
eas ier</w>
抓 住</w>
pack age</w>
M os
wal king</w>
mol ec
democr acy</w>
st ro
consider ing</w>
typ ical</w>
讲 习</w>
ag on</w>
co m</w>
com man
dis sem
Chr ist</w>
天 然</w>
Ap ple</w>
留 在</w>
ellec tual</w>
tro ops</w>
z zy</w>
数 额</w>
M ag
end or
认 知</w>
re iter
相 关
sent ence</w>
use um</w>
consum ers</w>
stake holders</w>
scienti sts</w>
发 达
off ering</w>
ren cy</w>
Coun ty</w>
思 维</w>
accur ate</w>
y ellow</w>
al ive</w>
发达 国家</w>
suppl ies</w>
Mic hael</w>
z ation</w>
believ es</w>
财 务
a ud
要 素</w>
sh oes</w>
Poli tical</w>
fe ed</w>
u gg
ash ed</w>
e ties</w>
j us
高 速</w>
Fi eld</w>
视 觉</w>
ra w</w>
Sun day</w>
足 以</w>
周 末</w>
record ed</w>
te ach</w>
surg ery</w>
今 日</w>
categ ory</w>
the ast</w>
un able</w>
Min ist
强 化</w>
Com par
gar den</w>
199 0</w>
distribu ted</w>
ext end</w>
lar g
achiev ements</w>
形 势</w>
ow ing</w>
不 见</w>
接 收</w>
本 次</w>
谢 谢你</w>
ick en</w>
exp and</w>
不 必</w>
ph y
En ergy</w>
institu tion</w>
oblig ation</w>
W il
inter action</w>
种 族</w>
申 诉</w>
哥 伦
采 访</w>
阳 光</w>
遗 传</w>
ur s
r are</w>
fir ms</w>
cap able</w>
soldi ers</w>
A .</w>
terror ist</w>
经济 发展</w>
A ir</w>
体 育
本 质</w>
可 怕</w>
sign s</w>
m id</w>
尽 量</w>
mar ked</w>
十 一</w>
ex tre
manag ed</w>
vol tage</w>
im possible</w>
op tical</w>
br ings</w>
succ e
分 析
交 通
ter ri
付 款</w>
经济 增长</w>
s ick</w>
char ges</w>
id den</w>
resid ents</w>
基 督</w>
add ressing</w>
ent ure</w>
编 辑</w>
p utting</w>
Charac teris
Egyp t</w>
In flu
B al
join ed</w>
阻 碍</w>
ri d
des er
纪 念</w>
pos s
原 子
ti ous</w>
C C
er ies</w>
人民 币</w>
制 品</w>
博 物
环 保</w>
dom in
消 耗</w>
re present</w>
fr ac
cap it
fu r</w>
show ing</w>
类 别</w>
待 遇</w>
bi ological</w>
中 东</w>
o k</w>
restaur ant</w>
文 字</w>
famili ar</w>
社会 主义</w>
证 券</w>
alle l</w>
可 爱</w>
ic als</w>
li p
be d
工 业
p ush</w>
新加 坡</w>
Kore an</w>
情 形</w>
活 力</w>
Tr aining</w>
寿 命</w>
Olymp ic</w>
T ell</w>
Com b
i o</w>
心 脏</w>
外 地</w>
dre w</w>
不 良</w>
陷 入</w>
sym p
人 道</w>
学 者</w>
meth od
有 一天</w>
compl icated</w>
有些 人</w>
h em
叙 利亚</w>
ex plan
fac ts</w>
expendit ure</w>
D oes</w>
转 型</w>
accur acy</w>
外 交
O ver
compar ison</w>
克 里
格 兰</w>
k is
ide al</w>
dri ver</w>
tra dition</w>
cre ative</w>
sanc tions</w>
电 流</w>
ul tr
es c
Cul tural</w>
Com pl
付 出</w>
ti se</w>
Commun ity</w>
nam ely</w>
qui et</w>
p ure</w>
cra zy</w>
国 内外</w>
腐 败</w>
volun tary</w>
offic er</w>
G ol
yi eld</w>
ti fied</w>
w arm
促 使</w>
res er
grap h</w>
这 家</w>
运动 员</w>
laun ch</w>
ac ute</w>
ti tle</w>
less ons</w>
201 0年
优 点</w>
l ots</w>
Off ic
本 来</w>
发 起</w>
幸 运</w>
信 用
Clin ical</w>
M oun
A S</w>
n esses</w>
渴 望</w>
中 央
d og
pr ic
U h</w>
re presents</w>
中 华
contro ls</w>
ne ither</w>
运 会</w>
人 体</w>
秩 序</w>
ub a</w>
cour ts</w>
ut ely</w>
Det ermin
游 客</w>
holid ay</w>
Con go</w>
百 分
Par k</w>
s ounds</w>
8 3</w>
教 训</w>
其 次</w>
Ar t</w>
hu a</w>
振 动</w>
q i</w>
r i</w>
analy ze</w>
Ind ustri
E R</w>
por ting</w>
is ation</w>
Inv est
S ir</w>
10 0
Tu esday</w>
claim ed</w>
方 针</w>
城 市
te sted</w>
多 样
意 外</w>
到 来</w>
10 月
st atic</w>
Bud d
我 想
W TO</w>
效 力</w>
or t</w>
实 时</w>
ra il
Ch em
J ack</w>
sup ports</w>
def ense</w>
能 否</w>
升 级</w>
Des pite</w>
此 种</w>
药 品</w>
G ive</w>
cli ents</w>
los ses</w>
c at</w>
营 销</w>
旅 游
5 月
F il
ili ation</w>
princip al</w>
I L</w>
dre ds</w>
信 贷</w>
dre ams</w>
s y</w>
Th anks</w>
slow ly</w>
激 励</w>
no tic
fin ite</w>
hear ing</w>
s la
ro p
索 马里</w>
部 件</w>
categ ories</w>
Mean while</w>
印 象</w>
get ary</w>
ed y</w>
显 得</w>
p a</w>
博物 馆</w>
荷 兰</w>
UN EP</w>
清 晰</w>
bl ed</w>
ad ly</w>
带 有</w>
网 络
废 物</w>
dec ade</w>
Sust ainable</w>
I L
juris diction</w>
互 相</w>
b arri
An n
音 乐
推 荐</w>
organ s</w>
U p
依 靠</w>
He ad
秘 书</w>
Agr icul
dem ands</w>
desig n
R O
c ell
y eah</w>
h i</w>
shif t</w>
deli ber
ur ies</w>
per centage</w>
愉 快</w>
Engl and</w>
马 克
各 类</w>
de grad
你 的
interpre tation</w>
特 朗
det ention</w>
误 差</w>
f lower</w>
仔 细</w>
memb ership</w>
共 识</w>
家 族</w>
shop ping</w>
Sy ri
退 休</w>
姑 娘</w>
大 使</w>
Geor ge</w>
1 20</w>
C ust
注 重</w>
有 利</w>
自 动
pic tures</w>
bl ing</w>
衡 量</w>
y ou
z en</w>
let ters</w>
G ar
m ation</w>
contrac ts</w>
conv entional</w>
du le</w>
种 子</w>
中 期</w>
stan ds</w>
re move</w>
v ital</w>
ev il</w>
失 望</w>
通 报</w>
program ming</w>
proc urement</w>
mo tiv
P a
前 提</w>
ri de</w>
te dly</w>
筹 资</w>
bro ke</w>
ob serve</w>
Stre et</w>
ari b
Is lam
基 督
8 2</w>
微 笑</w>
k in</w>
M er
satis faction</w>
交 易
pul l</w>
住 宅</w>
dri ven</w>
gen etic</w>
季 度</w>
emphas is</w>
局 部</w>
strong ly</w>
urs day</w>
be t</w>
男 女</w>
灾 难</w>
ac ked</w>
解 除</w>
ov o</w>
H ist
逮 捕</w>
收 购</w>
S pr
grow n</w>
event ually</w>
O s</w>
lab or
Auth ority</w>
有 益</w>
统 治</w>
专 注</w>
变 换</w>
stic k</w>
2 ,
竞争 力</w>
her it
上 周</w>
4 月
c amp
proper ly</w>
oper ative</w>
教 会</w>
integr ity</w>
K en
la sting</w>
char ged</w>
electr icity</w>
birth day</w>
日 常</w>
Go als</w>
9 6</w>
Stud ents</w>
Mechan ism</w>
The ory</w>
谈 谈</w>
Buil ding</w>
以 此</w>
manag ers</w>
L ar
强 制</w>
won der</w>
sou thern</w>
re min
ass et</w>
al co
m ar</w>
ab sence</w>
8 4</w>
命 运</w>
pre viously</w>
ti m</w>
ul ate</w>
air port</w>
参 观</w>
大 学生</w>
慢 慢</w>
罗 马</w>
os en</w>
UN IC
精 神
燃 烧</w>
w earing</w>
impl ications</w>
Te aching</w>
In don
Leg al</w>
M ake</w>
特朗 普</w>
Techn ical</w>
p ra
enh ancing</w>
in ery</w>
ch urch</w>
v isi
P aul</w>
sc r
some body</w>
业 绩</w>
小 心</w>
一 类</w>
会 计
ast s</w>
Am ong</w>
客 观</w>
ust ed</w>
通 用</w>
pro sper
t ations</w>
t end</w>
world wide</w>
er o
ag ents</w>
7 月
electr ical</w>
cor ner</w>
sh ad
aim s</w>
ser vers</w>
俄罗 斯
got ta</w>
on e
旋 转</w>
s at</w>
Th ird</w>
adjust ment</w>
in corpor
第 三
ma thematic
An g
ati vity</w>
弹 性</w>
coll ective</w>
地 雷</w>
拍 摄</w>
多 次</w>
t end
hor se</w>
出 于</w>
轨 道</w>
刚 果
3 月
至 今</w>
c ry</w>
smar t</w>
habil itation</w>
bound ary</w>
公 务
uni versities</w>
硬 件</w>
ec tions</w>
年 代</w>
s and</w>
ob stac
jour ney</w>
co vering</w>
失 踪</w>
总 额</w>
we red</w>
同 步</w>
Un der
tu be</w>
C D
繁 荣</w>
分 发</w>
c lock</w>
Pet er</w>
艾滋 病毒</w>
客 人</w>
删 除</w>
war ning</w>
approxim ately</w>
pow ers</w>
雇 主</w>
整 合</w>
Re qu
电 压</w>
associ ation</w>
Indi an</w>
care ful</w>
l on
文 献</w>
单 一</w>
f aster</w>
s now</w>
im port</w>
变 量</w>
兴 奋</w>
sal t</w>
一 体
W ed
德 ·
wil d</w>
mil lions</w>
7 00</w>
manufac tu
la id</w>
Sing ap
扫 描</w>
UN H
gg ing</w>
jour n
Ter rit
K os
人 工</w>
dis abilities</w>
ag gres
statis tical</w>
花 费</w>
H ot
时 尚</w>
ass ess</w>
innov ative</w>
火 车</w>
UN F
l ady</w>
al ian</w>
car ds</w>
监 控</w>
P i
8 1</w>
pro portion</w>
tissu e</w>
ac tor</w>
r ats</w>
色 彩</w>
. The</w>
tren ds</w>
北 部</w>
shi p
Dyn asty</w>
i tive</w>
b ird</w>
inter net</w>
认 证</w>
ner ships</w>
tw ice</w>
放 松</w>
Com mer
t ons</w>
li ament</w>
per sist
达 尔
resul ted</w>
饮 食</w>
克 兰</w>
再 也</w>
广 播</w>
ip p
get ed</w>
和 谐</w>
num erous</w>
D om
走 向</w>
主 张</w>
al d</w>
现代 化</w>
ell o</w>
asp ect</w>
主 意</w>
represent ation</w>
en ary</w>
hosp it
ev ol
M ater
viol ation</w>
dec line</w>
极 端</w>
ob ile</w>
arib bean</w>
主 人</w>
象 征</w>
你 现在</w>
dr inking</w>
re d
Op en</w>
R ic
奥 运会</w>
失 业</w>
rel ess</w>
strong er</w>
Sat ur
纳 米</w>
fl at</w>
种 植</w>
刑 事
渠 道</w>
生 活
E valuation</w>
deli vered</w>
宇 宙</w>
dec la
p p
一体 化</w>
急 性</w>
必 然</w>
re rs</w>
t ative</w>
C .</w>
ti e</w>
华盛 顿</w>
att ached</w>
fe ed
deri ved</w>
ow nership</w>
7 9</w>
会 议
prom oted</w>
transl ation</w>
pr oud</w>
bran ch</w>
custom s</w>
Experim ental</w>
ici an</w>
t ech</w>
su gar</w>
gre w</w>
A D
pow der</w>
ric h
expl oration</w>
Sor ry</w>
big ger</w>
告 知</w>
ra ft</w>
夏 天</w>
M ain
Res ources</w>
s in
descri be</w>
疑 问</w>
philosoph y</w>
并 未</w>
C aribbean</w>
ent re
价 值
quanti ty</w>
wor st</w>
jud ges</w>
UNIC EF</w>
轻 松</w>
exten sion</w>
candi dates</w>
& l
&l t;</w>
担 忧</w>
民主 共和国</w>
学 位</w>
rest ed</w>
n an
路 上</w>
specific ally</w>
Ad d</w>
自 主</w>
细 菌</w>
fe ren
2 号</w>
融 入</w>
干 什么</w>
排 除</w>
队 伍</w>
界 面</w>
n t</w>
裁 决</w>
div ision</w>
j um
her self</w>
泰 国</w>
199 1</w>
t ab
海 关</w>
暂 时</w>
过 度</w>
ad vis
法 治</w>
最 为</w>
enti ty</w>
te en</w>
k n
f la
Res pon
由 此</w>
谈 论</w>
UNH CR</w>
n one</w>
C uba</w>
pres cri
equ ity</w>
att end</w>
生 意</w>
一 百</w>
met ers</w>
reve aled</w>
contr ast</w>
这 本</w>
loc ked</w>
flex ible</w>
研 发</w>
ex pos
st ages</w>
min es</w>
clos er</w>
9 7</w>
f alling</w>
极 为</w>
N i
C ali
tif icial</w>
精 确</w>
author ized</w>
hard ware</w>
poli tics</w>
n esday</w>
dis h</w>
娱 乐</w>
mis sed</w>
lin ks</w>
shor t
舒 适</w>
g ence</w>
dom ain</w>
compl ex
oper ate</w>
dep ends</w>
19 5
w age</w>
deli ver</w>
Th ursday</w>
occ ur</w>
动 力学</w>
观 测</w>
ro t
英 里</w>
P E
zh en</w>
M an</w>
15 日</w>
under stood</w>
clos ure</w>
怎么 办</w>
管 道</w>
三 年</w>
教 学
天 空</w>
Sp ain</w>
Coun tries</w>
str ange</w>
拉 丁
meas uring</w>
Ar ab
w ishes</w>
exten sive</w>
cam era</w>
为 主</w>
writ er</w>
smo oth</w>
Ac adem
un ited</w>
服 装</w>
emp ty</w>
foot ball</w>
6 月</w>
flow s</w>
号 码</w>
wed ding</w>
oc y
生 气</w>
sched ule</w>
Are a</w>
ch er</w>
回 归</w>
运 营</w>
experim ents</w>
k er
教 堂</w>
冠 军</w>
约 会</w>
inter governmental</w>
9 2</w>
V ir
C S
质 量
at ten
z o
lo ves</w>
关 节</w>
tele phone</w>
C r
维 修</w>
re place</w>
c tion</w>
commis sion</w>
L ong</w>
驾 驶</w>
inv ent
gh t
OR D</w>
observ ation</w>
sam ples</w>
ass embly</w>
Mo der
爱 好</w>
J os
appreci ate</w>
代 价</w>
S wit
prepar ing</w>
bat tle</w>
pil ot</w>
y r
忽 视</w>
ir t</w>
可 用</w>
爆 发</w>
ex ports</w>
cont ain
Sm all</w>
cor ruption</w>
sugg ests</w>
eng age</w>
indic ates</w>
你 好</w>
moder n
黑 色</w>
节 点</w>
an tic</w>
ev olution</w>
平 面</w>
gr ounds</w>
fl av
公 寓</w>
才 会</w>
G ener
ob viously</w>
香 港
regul atory</w>
u tr
讨 厌</w>
P O
equi valent</w>
head quarters</w>
in form</w>
hom es</w>
in tr
PL C</w>
aut onom
gr anted</w>
resol ve</w>
v a</w>
心 中</w>
共 有</w>
B ul
n ings</w>
dis placed</w>
组 件</w>
th inks</w>
一 支</w>
P hy
wal ked</w>
s lightly</w>
西 部</w>
大 楼</w>
modi fied</w>
it ual</w>
C .
ir y</w>
领 袖</w>
浪 费</w>
Pri me</w>
ex ha
gradu ate</w>
p ig
fil ter</w>
es sive</w>
四 十
Fur ther</w>
conveni ent</w>
exper tise</w>
经 典</w>
m on</w>
装 饰</w>
uti lization</w>
compl etion</w>
dang er</w>
un ity</w>
emis sions</w>
volun te
ou ter</w>
ran e</w>
世 纪
lat ter</w>
集 成</w>
gr ass</w>
债 券</w>
bur den</w>
su red</w>
estim ates</w>
主 导</w>
D u
Cul ture</w>
sou ght</w>
W ind
回 收</w>
设 定</w>
de dic
lead s</w>
gr at
plan et</w>
Pre vention</w>
j i</w>
地 上</w>
s or</w>
Tr an
hor iz
spok es
宪 章</w>
sub jects</w>
sem in
f ying</w>
optim ization</w>
week end</w>
抗 议</w>
基 因
an i
la h</w>
疯 狂</w>
gl ad</w>
恶 化</w>
遵 循</w>
ag ues</w>
布 鲁
我 相信</w>
six th</w>
pro gres
oc ean</w>
al es</w>
An nex</w>
R ules</w>
it i</w>
N an
discus ses</w>
足 球</w>
bl es</w>
路 径</w>
ac knowled
su peri
询 问</w>
两 者</w>
reven ue</w>
illu str
go d</w>
削 减</w>
m its</w>
R et
hun dreds</w>
re affir
in ations</w>
an gry</w>
sol ar</w>
b id</w>
mat rix</w>
amoun ts</w>
sil ver</w>
the red</w>
ac compan
c ab
M ary</w>
UN O
present ation</w>
新 西
较 为</w>
migr ants</w>
F estival</w>
con clusions</w>
peri odic</w>
极 其</w>
非 线性</w>
受 益</w>
L ev
仪 式</w>
写 作</w>
gener ated</w>
船 舶</w>
orig in
vic tim</w>
地 理</w>
satell ite</w>
A P</w>
工作 方案</w>
audi ence</w>
prof ession
汇 率</w>
9 3</w>
di versity</w>
加勒 比</w>
pre me</w>
L ORD</w>
t une</w>
lun ch</w>
elim inate</w>
意 愿</w>
mor ph
over come</w>
9 1</w>
光 谱</w>
新 生</w>
flu id</w>
某 人</w>
te ars</w>
ash ing</w>
sp ect</w>
ili ans</w>
不 敢</w>
tre as
Singap ore</w>
社 交</w>
199 9年</w>
o de</w>
毁 灭</w>
al a</w>
par allel</w>
哪 个</w>
cap ability</w>
re forms</w>
S ar
血 液</w>
派 对</w>
ugg le</w>
pl ed</w>
8 0
defin itely</w>
三 维</w>
mic ro</w>
icip al</w>
el ed</w>
强 迫</w>
dro me</w>
ow ner</w>
Con si
inj ection</w>
vis ited</w>
报 表</w>
活 着</w>
ab use</w>
farm ers</w>
ak s</w>
Engine ering</w>
I N</w>
塑 料</w>
work shop</w>
In stead</w>
E M</w>
analy ses</w>
v ast</w>
Ac c
et ed</w>
Wor k</w>
沉 积</w>
sh el
简 化</w>
如 同</w>
f an</w>
d um
生 育</w>
invol vement</w>
ch ann
幅 度</w>
欧 元</w>
got ten</w>
B re
com posed</w>
V en
form ance</w>
H am
larg ely</w>
list ening</w>
har m</w>
话 题</w>
et ry</w>
de ar</w>
东 帝
th row</w>
破 产</w>
tal ked</w>
被 告</w>
蓝 色</w>
听 见</w>
鉴 定</w>
o id</w>
确 立</w>
calcul ated</w>
注 射</w>
any more</w>
ar ts</w>
di ble</w>
S P</w>
im posed</w>
J ames</w>
pleas ure</w>
int ellectual</w>
entre pre
f ishing</w>
终 止</w>
不 行</w>
竞 选</w>
Zh ang</w>
控制 系统</w>
缺 少</w>
y ours</w>
mist ake</w>
c up</w>
教 练</w>
201 1年</w>
bir ds</w>
Kos ovo</w>
en na</w>
belie f</w>
面 向</w>
transpa rency</w>
uni on</w>
D ad</w>
支 撑</w>
s ity</w>
phot o
si bly</w>
糖 尿
nor thern</w>
流 量</w>
acqu isition</w>
ec ological</w>
设 法</w>
re construction</w>
prec ision</w>
det er
t aught</w>
N ote</w>
gu il
Soci ety</w>
substan tial</w>
frequ ently</w>
prot ected</w>
St reng
sh an</w>
9 4</w>
pan el</w>
R adi
如 果
u tion</w>
att ended</w>
ans w
拿 到</w>
语 文</w>
马 来
ann i
读 者</w>
2 6
fa il</w>
D y
internation ally</w>
ph oto</w>
sc op
tot ally</w>
u a</w>
围 绕</w>
扮 演</w>
loc ations</w>
国务 院</w>
appl ying</w>
sugg estions</w>
8 9</w>
strength ened</w>
L im
six ty</w>
it ment</w>
pri mar
hop es</w>
中 学</w>
imag ine</w>
B os
监 察</w>
lim its</w>
展 览</w>
列 出</w>
残 疾</w>
3 D</w>
gr ain</w>
re conc
compet ent</w>
a h
司 机</w>
mat ure</w>
ab and
Cri me</w>
关 键
str ain</w>
Char ter</w>
def ence</w>
后 者</w>
t ap
d ust</w>
超 越</w>
pursu e</w>
ec e</w>
S an</w>
v es
pun ishment</w>
exist s</w>
却 是</w>
ush ing</w>
Struc ture</w>
变 革</w>
O F</w>
du ties</w>
prin ting</w>
Head quarters</w>
main taining</w>
以 期</w>
fortun ately</w>
st ers</w>
M R
diagn os
lau gh
re pair</w>
ati es</w>
G l
sid ers</w>
serv ing</w>
bass ador</w>
St atis
承 受</w>
对 抗</w>
节 日</w>
sum mary</w>
既 然</w>
Wed nesday</w>
真 相</w>
新西 兰</w>
on ia</w>
ex trac
dist ingu
脂 肪</w>
起 草</w>
激 烈</w>
档 案</w>
stit utes</w>
那 边</w>
分 散</w>
fl ying</w>
pip e</w>
g t;</w>
& gt;</w>
un t</w>
lik es</w>
co verage</w>
这 部</w>
大 众</w>
di ary</w>
paramet er</w>
secret ary</w>
L .
s in</w>
永 久</w>
聚 集</w>
exam ine</w>
赞 扬</w>
o h</w>
议 题</w>
z a</w>
consist s</w>
N at
卢 旺
Per haps</w>
dra u
血 清</w>
pleas ed</w>
二 十</w>
i ers</w>
dipl omatic</w>
qual ified</w>
me al</w>
lo ans</w>
hand ling</w>
瑞 典</w>
tal ent</w>
cour age</w>
注 意
素 质</w>
空 中</w>
dist ur
ph osph
ef ul
separ ation</w>
缓 解</w>
啤 酒</w>
树 脂</w>
M ach
分 之
or dered</w>
接 口</w>
bo x
大 幅</w>
表 决</w>
wor ried</w>
em ic</w>
fun ded</w>
air e</w>
赞 同</w>
原 始</w>
T al
accoun tability</w>
提 前</w>
commer ce</w>
菲 律
透 明
北 京
原子 能</w>
luc ky</w>
vir tual</w>
suff ered</w>
ph arm
花 园</w>
N ig
压 缩</w>
decre ased</w>
d ong</w>
Op tim
part nerships</w>
uti li
检察 官</w>
谴 责</w>
任 意</w>
查 明</w>
classi fication</w>
p ace</w>
物 体</w>
影 响
In t
for um</w>
p apers</w>
li ability</w>
p ump</w>
公 式</w>
prof ile</w>
地 下</w>
英 雄</w>
附 属</w>
ph ones</w>
长 度</w>
co he
尼 日
fal se</w>
帮 忙</w>
ch air</w>
religi on</w>
正 义</w>
con ferences</w>
control ling</w>
一 九
愿 望</w>
he ight</w>
百 分</w>
前 进</w>
蛋白 质</w>
f illing</w>
b inding</w>
ment ation</w>
术 后</w>
dro pped</w>
回 忆</w>
car di
Chil d</w>
即 便</w>
港 口</w>
str uggle</w>
9 月</w>
dr am
lo an</w>
Med ical</w>
示 范</w>
设 想</w>
演 出</w>
癌 症</w>
201 2年</w>
extre me</w>
阿 根
反 馈</w>
个 体</w>
Saf ety</w>
R u
itch en</w>
锻 炼</w>
mo dule</w>
转 向</w>
剥 夺</w>
和 解</w>
new ly</w>
税 收</w>
or m
coll ected</w>
Con t
这 事</w>
我 自己</w>
ho l</w>
ick ness</w>
civ ilians</w>
st ret
膨 胀</w>
坚 定</w>
乌 克兰</w>
tic ism</w>
infl ation</w>
real ization</w>
en ever</w>
In cre
cooper ate</w>
zer o</w>
consider able</w>
sel ect</w>
ch osen</w>
案 文</w>
com ment</w>
contribu ting</w>
Ex pl
re fer</w>
main tained</w>
透 过</w>
简 直</w>
co vers</w>
Per formance</w>
诱 导</w>
a to</w>
更 改</w>
脉 冲</w>
prot ecting</w>
ap art</w>
酒 吧</w>
M ol
周 年</w>
te eth</w>
g un
l i</w>
psych ological</w>
涵 盖</w>
h arm
维 也
F ace
f ish
tom s</w>
al and</w>
样 品</w>
val ve</w>
Est abl
b ow
be am</w>
at ch</w>
I B
卢旺 达</w>
咱 们</w>
基金 会</w>
高 中</w>
at om
particip ated</w>
incid ent</w>
allow ing</w>
肌 肉</w>
pe ak</w>
ref ers</w>
pay ments</w>
mit ting</w>
那 天</w>
味 道</w>
row ing</w>
under take</w>
primar ily</w>
land scape</w>
目 录</w>
UN M
Lab our</w>
旁 边</w>
C P</w>
su m</w>
网 页</w>
tum or</w>
g y
v ig
pop ul
Ad d
B esides</w>
er ad
受 害</w>
小 鼠</w>
pre fer</w>
Discus sion</w>
Sp anish</w>
List en</w>
ou red</w>
di am
el a</w>
标 签</w>
mag az
promis ed</w>
f ate</w>
度 过</w>
C op
for nia</w>
di tions</w>
invest ments</w>
Th ough</w>
噪 声</w>
Ex peri
hol der</w>
非 洲
uti lity</w>
液 体</w>
季 节</w>
sub mission</w>
打 破</w>
Cor por
储 备</w>
小 学</w>
深 度</w>
mess ages</w>
刚果 民主共和国</w>
L og
demonstr ated</w>
摆 脱</w>
sh r
科 威
ic on</w>
用 品</w>
rel and</w>
stor m</w>
in tention</w>
波 动</w>
Islam ic</w>
ph r
emphas ized</w>
虚 拟</w>
en th
V is
sw itch</w>
原 子</w>
trans actions</w>
第二 次</w>
on n
ici ency</w>
近 期</w>
ther ing</w>
内 在</w>
sur prise</w>
br al</w>
w ire</w>
蔬 菜</w>
靠 性</w>
可 靠性</w>
新 鲜</w>
昨 晚</w>
prof essor</w>
时 间
杰 克</w>
东 部</w>
stoc ks</w>
in qu
重 组</w>
ti sing</w>
glob alization</w>
s an
首 席</w>
ex hibition</w>
isc al</w>
A B
exp enses</w>
w ake</w>
q ing</w>
bal anced</w>
不 安</w>
feder al</w>
派 遣</w>
smo ke</w>
谈 话</w>
j unc
contribu ted</w>
作 物</w>
首 都</w>
水 果</w>
u si
observ ations</w>
w w
com posite</w>
newsp aper</w>
M om</w>
concep ts</w>
广 大</w>
ever th
到 处</w>
ur ged</w>
auth ors</w>
证 人</w>
re moved</w>
N O
i stry</w>
earth quake</w>
house hold</w>
过 于</w>
Face book</w>
w an
事 人</w>
everth eless</w>
挪 威</w>
p aying</w>
欣 赏</w>
下 跌</w>
婚 礼</w>
Par t
概 述</w>
re habilitation</w>
课 题</w>
Ch ange</w>
文 档</w>
安 保</w>
chr onic</w>
找 出</w>
当 事人</w>
equ ation</w>
arrang ement</w>
R M
赞 成</w>
og n
decla red</w>
In iti
不 如</w>
k illing</w>
accep table</w>
要 么</w>
con stantly</w>
迹 象</w>
L oo
y o</w>
respon ses</w>
尼 西亚</w>
mach ines</w>
Every one</w>
Meas ures</w>
a es
尸 体</w>
东帝 汶</w>
化 剂</w>
he re
系 统
Gre en</w>
C ir
南 亚</w>
U k
cl oud</w>
上 文</w>
thir ty</w>
优 质</w>
资 本
侵 害</w>
谈 到</w>
可 行
环 节</w>
海 地</w>
复 制</w>
政 党</w>
W H
百 万</w>
fe els</w>
tr ained</w>
comp ound</w>
叫 做</w>
ap h
g ood
多 久</w>
col umn</w>
交 给</w>
P os
ban king</w>
parti al</w>
def ine</w>
spec ts</w>
regul arly</w>
F O
应 付</w>
disp ute</w>
时 光</w>
ow ners</w>
wis dom</w>
颁 布</w>
a qu
H aving</w>
c a</w>
re ti
h ang
l uck</w>
S elf</w>
N ic
pri me</w>
ro les</w>
qui red</w>
coordin ated</w>
reli ability</w>
Sy st
descri bes</w>
drau lic</w>
自 治</w>
剩 下</w>
突 破</w>
colle agues</w>
Tur key</w>
ste ady</w>
fer ring</w>
航 空
矩 阵</w>
k ind
difficul ty</w>
los ing</w>
国 籍</w>
Su per
S c
k ne
o ir</w>
出 色</w>
疫 苗</w>
particip ating</w>
均 匀</w>
t aiwan</w>
don ors</w>
sequ ence</w>
trans action</w>
斯 拉
sol ved</w>
regar ded</w>
L and</w>
局 长</w>
et r
st abil
吃 饭</w>
con vic
推 行</w>
al location</w>
capac ities</w>
exam ined</w>
死 亡
organiz ational</w>
19 4
ail ing</w>
专 利</w>
女 子</w>
科威 特</w>
optim al</w>
F if
Ma j
201 1年
fi x
l ation</w>
et te</w>
维 和</w>
不 知</w>
艰 难</w>
菲律 宾</w>
展 现</w>
hon our</w>
re aching</w>
c asting</w>
acc ept
引 擎</w>
an i</w>
有 害</w>
gh ly</w>
指 挥</w>
inv ention</w>
bu ying</w>
dec laration</w>
玩 具</w>
透明 度</w>
Indon esia</w>
form at</w>
Prin ci
subsequ ent</w>
饮 料</w>
Characteris tics</w>
核 查</w>
oxy gen</w>
英 语
re mov
uc k
个 小时</w>
l o</w>
地 质</w>
T om
acc used</w>
ograph ical</w>
Cali fornia</w>
IO N</w>
R C</w>
遗 产</w>
D ig
F ig
she et</w>
tr ag
尔 斯</w>
20 日</w>
formul a</w>
抱 怨</w>
convers ation</w>
hon est</w>
out comes</w>
fil ms</w>
Determin ation</w>
C la
coll ap
开 关</w>
V ic
越 南</w>
avail ability</w>
amaz ing</w>
质 疑</w>
av a</w>
巩 固</w>
s ex
简 要</w>
对 应</w>
as sic</w>
争 端</w>
config uration</w>
波 斯
究 竟</w>
be red</w>
Oper ations</w>
F er
descri ption</w>
开 车</w>
ch amp
vers ary</w>
main land</w>
sa ved</w>
架 构</w>
仪 器</w>
chair man</w>
survi val</w>
bri ef</w>
老 年人</w>
产 物</w>
心 灵</w>
增 进</w>
thre ats</w>
维也 纳</w>
S of
成 年人</w>
背 后</w>
节 能</w>
sw im
11 月</w>
recomm end</w>
occup ied</w>
划 分</w>
inter n
自 信</w>
he ating</w>
w in
f ting</w>
bu re
al o
ro gen</w>
th ou</w>
Uk rain
bo t</w>
star ts</w>
gener ate</w>
Satur day</w>
hop ed</w>
下 载</w>
宝 宝</w>
se ed</w>
2 50</w>
b i</w>
隔 离</w>
相关 性</w>
G az
log ic</w>
采 集</w>
Vi enna</w>
葡萄 酒</w>
附 加</w>
未 经</w>
L O
明 星</w>
refl ects</w>
刑 法</w>
利 比
Fam ily</w>
aff ecting</w>
per pet
远 远</w>
哥伦 比亚</w>
扩 张</w>
comp ati
10 .
2 日</w>
un employment</w>
Fol lowing</w>
S he
管 辖</w>
prev enting</w>
With out</w>
heav en</w>
l ad
阿根 廷</w>
Stand ard</w>
职 务</w>
oc ity</w>
don or</w>
攸 关</w>
st om
起 到</w>
古 代</w>
F A
Investig ation</w>
t ells</w>
recru itment</w>
Is land</w>
ne utr
差 别</w>
0.0 5</w>
sh ut</w>
um b
ar rested</w>
eng agement</w>
Leban on</w>
ut or</w>
引 力</w>
优 良</w>
cere mony</w>
界 定</w>
f ounded</w>
wel fare</w>
tic ket</w>
satis fied</w>
V ari
怎么 了</w>
Su n</w>
当 今</w>
体 内</w>
D ou
数 字
v acc
as cular</w>
群 岛</w>
培 训
厨 房</w>
e able</w>
w alls</w>
影 片</w>
最 小</w>
our ing</w>
carri er</w>
up date</w>
autom atically</w>
上 市</w>
al li
紧 密</w>
fe es</w>
pro tocol</w>
Mar ket</w>
拉丁 美洲</w>
8 月
法 令</w>
coun ty</w>
system atic</w>
Environ mental</w>
f it
影响 力</w>
F ather</w>
愤 怒</w>
一 会儿</w>
Ze aland</w>
hum ans</w>
任 期</w>
ine a</w>
re cip
cur ricul
光 学</w>
U l
de par
ra m</w>
B I</w>
es is</w>
否 认</w>
person ality</w>
提 请</w>
乐 观</w>
st airs</w>
every where</w>
合作 伙伴</w>
al i</w>
ber g</w>
destro yed</w>
T able</w>
cap abilities</w>
津 贴</w>
S cot
v ice</w>
al izing</w>
几 十</w>
Sim ulation</w>
穿 过</w>
201 5年</w>
Par ti
uc le
Ch en</w>
资 讯</w>
长 官</w>
Co ordination</w>
nec k</w>
el derly</w>
I d
路 线</w>
温 暖</w>
明 年</w>
199 8年</w>
E r
疼 痛</w>
prov isional</w>
马来 西亚</w>
shap ed</w>
理 学</w>
in y</w>
本 周</w>
friend ship</w>
conv inc
ex clud
e astern</w>
I reland</w>
E S</w>
de gre
H o
s ons</w>
lo ading</w>
oo m</w>
d ur
sev enth</w>
nutri tion</w>
k itchen</w>
di r
V ice</w>
分 解</w>
工程 师</w>
爱尔 兰</w>
7 月</w>
contem porary</w>
compu ters</w>
ti mat
T or
Ar gent
t ang
每 月</w>
六 十
pat ri
Prof essor</w>
re ply</w>
Offic er</w>
3 日</w>
differen ti
k noc
a ward</w>
dedic ated</w>
suff er</w>
房 地产</w>
M a</w>
pl enary</w>
de fe
gu ards</w>
创 造
sh ouldn</w>
立 刻</w>
hel p
sec tions</w>
f all
回 报</w>
干 净</w>
Industri al</w>
谋 杀</w>
for ty</w>
exp anded</w>
di et</w>
Li u</w>
sc ore</w>
pre liminary</w>
物 流</w>
汤 姆</w>
a str
and y</w>
外 国人</w>
sal ary</w>
提 名</w>
f alls</w>
5 月</w>
达尔 富
清 除</w>
Mon it
g al</w>
Mal ay
室 内</w>
生 命
机 遇</w>
城 镇</w>
表 格</w>
剂 量</w>
在 乎</w>
印度 尼西亚</w>
利比 里亚</w>
s inc
C ro
pass ing</w>
run s</w>
d less</w>
n d</w>
dis pos
spec ially</w>
Pl anning</w>
ac he</w>
Th er
手 册</w>
W all</w>
Nor thern</w>
物 种</w>
gi ant</w>
两 位</w>
聚 会</w>
circ le</w>
produc tivity</w>
就 此</w>
W ar
dog s</w>
古 老</w>
moun tains</w>
全 新</w>
T a
Im prov
inten sity</w>
Con tin
m akers</w>
等 级</w>
ic tion</w>
m ad</w>
代 谢</w>
bre a
3 月</w>
E A</w>
ar tificial</w>
建 模</w>
ligh ted</w>
expos ure</w>
t rem
bre aking</w>
spir itual</w>
depos it</w>
回 事</w>
F our</w>
t ough</w>
列 表</w>
罗 马
信 托
ak ed</w>
C ause</w>
自动 化</w>
log istics</w>
信息 系统</w>
困 境</w>
天 然
op ol
certif icate</w>
Diffe rent</w>
men tion</w>
哥 哥</w>
游 泳</w>
co gn
手 中</w>
m ate</w>
b es
sac rif
D S</w>
Influ ence</w>
儿 童
am pl
1. 5</w>
vari able</w>
后 勤</w>
代 替</w>
nav ig
G ames</w>
rou te</w>
vis its</w>
Ji ang
sec urities</w>
拯 救</w>
惊 讶</w>
po t</w>
D en
K ar
schedul ed</w>
s car
Monit oring</w>
Ab out</w>
sup er</w>
law yer</w>
sust ained</w>
化学 品</w>
anti cip
科 学
ro ads</w>
it tle</w>
Dis armament</w>
a er
comfor t</w>
gi a</w>
u d</w>
H ello</w>
g ro
每 周</w>
wel comes</w>
there by</w>
stre ets</w>
1 月</w>
安 静</w>
v il
催 化</w>
t ant</w>
库 存</w>
R w
t our</w>
pres sing</w>
面 包</w>
而 来</w>
es cape</w>
row s</w>
反 射</w>
do ors</w>
ad ult</w>
et e</w>
in ev
无 线</w>
bo y
P C
健 康
载 有</w>
o v</w>
hy po
p oc
wat ers</w>
生 理</w>
生 日</w>
2 月
办 理</w>
人 人</w>
缅 甸</w>
这 时</w>
hib ited</w>
a uc
克 斯坦</w>
b ond</w>
石 头</w>
见 面</w>
mur der</w>
间 接</w>
补 贴</w>
领 先</w>
analy zing</w>
喜 爱</w>
吸 附</w>
观 看</w>
be l</w>
财 政
lin ing</w>
加 大</w>
con stitute</w>
负 面</w>
tre aties</w>
世界 银行</w>
cam p</w>
大 力</w>
教 科
样 本</w>
想 想</w>
勇 气</w>
谷 歌</w>
F ive</w>
宗 旨</w>
贸 易
h all</w>
sk ill</w>
work shops</w>
T aking</w>
install ation</w>
coll abor
L D
d i</w>
北 美</w>
继 承</w>
便 宜</w>
i p</w>
Y ang</w>
名 义</w>
ec k</w>
arti st</w>
f iscal</w>
年 级</w>
terri ble</w>
hhhh The</w>
be ings</w>
建筑 物</w>
应 急</w>
分之 一</w>
hu an</w>
hon or</w>
例 外</w>
容 器</w>
restric tions</w>
W illi
ex tra
ad ults</w>
Mul ti
O x
le g</w>
杀 死</w>
199 9年
金 钱</w>
it ter</w>
家 具</w>
fi re
min ority</w>
ign ty</w>
Pro duction</w>
密 码</w>
工 会</w>
调 查
g ained</w>
pre mis
D ru
符 号</w>
amend ment</w>
H i</w>
Dy nam
一 篇</w>
explan ation</w>
cal m</w>
克 罗
补 救</w>
ep id
tar geted</w>
X i</w>
为 其</w>
h ome
ke ys</w>
12 日</w>
选 项</w>
bl ind</w>
激 素</w>
为 期</w>
chann els</w>
妹 妹</w>
10 月</w>
D A
ca using</w>
fi x</w>
购 物</w>
symp toms</w>
引 用</w>
om as</w>
收 费</w>
fun ny</w>
ans wered</w>
11 日</w>
视 角</w>
met er</w>
Exper ts</w>
Dep uty</w>
玉 米</w>
ta il</w>
Ti an
金 额</w>
man i
docum entation</w>
bel ong
di ab
自 杀</w>
塞 拉
emo tional</w>
cur ve</w>
其 余</w>
degre es</w>
ch icken</w>
up s</w>
war ded</w>
B lack</w>
timat ely</w>
f arm</w>
enti rely</w>
pos sibly</w>
桌 子</w>
R en
doc tors</w>
analy zes</w>
Em ploy
u k
M P</w>
许 可
mag n
mas sive</w>
foc using</w>
d ating</w>
s u</w>
10 日</w>
追 踪</w>
汉 语</w>
1 月
广 场</w>
c entr
prec ed
权 益</w>
f ans</w>
透 露</w>
design ated</w>
俄罗斯 联邦</w>
peri ods</w>
ol ate</w>
UN ID
所 得</w>
ast ed</w>
依 法</w>
宝 贵</w>
混 乱</w>
apar tment</w>
ate ful</w>
海 上</w>
the ories</w>
sh ore</w>
inter vention</w>
fur n
推 迟</w>
综 述</w>
el abor
St ar
in clusion</w>
就是 你</w>
mach inery</w>
B ol
nit ure</w>
exc ep
ud es</w>
or ph
译 文</w>
血 压</w>
clean ing</w>
活 跃</w>
长 大</w>
as signed</w>
cl ick</w>
Shen zhen</w>
chem icals</w>
A tl
sp r
E astern</w>
ten ed</w>
re mark
股 东</w>
上 学</w>
M aster</w>
op position</w>
ail and</w>
bo l</w>
妨 碍</w>
emb ar
词 汇</w>
玩 笑</w>
conserv ation</w>
加 拉
mi ti
Invest ment</w>
ac t
ar rest</w>
争 论</w>
科 特
transpa rent</w>
inten si
粒 子</w>
fin ds</w>
提 示</w>
wav es</w>
注意 力</w>
coordin ate</w>
A li
2. 5</w>
Fr amework</w>
货 币
am in</w>
链 接</w>
k ill
缺 点</w>
脱 离</w>
lu x
coun cil</w>
fav our
n ose</w>
积 累</w>
no body</w>
Regi on</w>
L angu
n erv
晚 餐</w>
bre ad</w>
pop ulations</w>
stri ke</w>
办 公</w>
塞 尔</w>
i .
14 日</w>
entrepre neur
Tr ust</w>
18 日</w>
manag ing</w>
信息 技术</w>
absol utely</w>
Ph one</w>
al k
g ross</w>
s ors</w>
op posite</w>
r ab
consci ousness</w>
W as</w>
优 惠</w>
cre am</w>
赛 季</w>
容 忍</w>
IN G</w>
gu ests</w>
extr action</w>
部 位</w>
execu tion</w>
Ex am
vis itors</w>
死亡 率</w>
Inde ed</w>
leg ally</w>
whe el</w>
bur n</w>
风 险
高 等
包 容</w>
Som alia</w>
enth usi
发 放</w>
se es</w>
Ne w
pic ked</w>
No thing</w>
c m</w>
it at</w>
NG Os</w>
均 衡</w>
sovere ignty</w>
Hot el</w>
h ang</w>
毕 业
estim ate</w>
腐 蚀</w>
rol ling</w>
surpris ed</w>
常 用</w>
场 景</w>
l es
Develop ing</w>
human ity</w>
mort ality</w>
sh ock</w>
尼 斯</w>
c able</w>
种 种</w>
pet ro
合 众
Spr ing</w>
res erve</w>
许可 证</w>
J in
T I
M un
美 利
几 内
sub stance</w>
prom p
molec ular</w>
区 分</w>
cin oma</w>
st on</w>
enter ing</w>
布 莱
feed back</w>
e. g.</w>
sh ine</w>
分 裂</w>
expec tations</w>
清 理</w>
encour aging</w>
屏 幕</w>
3 号</w>
en der</w>
隐 藏</w>
实 地</w>
hy dr
激 动</w>
form ity</w>
特 设</w>
201 2年
加 剧</w>
top ics</w>
认 定</w>
20 年</w>
南 方</w>
拟 定</w>
b loo
we igh
pen alty</w>
之 上</w>
sign als</w>
employ ee</w>
wit ness</w>
the e</w>
fe e</w>
cor relation</w>
承 包</w>
et er</w>
边 境</w>
clust er</w>
舒 服</w>
主 办</w>
num erical</w>
介 质</w>
遭 遇</w>
sav ings</w>
国 防
demonstr ate</w>
r ational</w>
leg s</w>
youn ger</w>
各 样</w>
f at
缓 慢</w>
mon thly</w>
Com pu
Loc al</w>
phot os</w>
Con sul
alco hol</w>
黄 色</w>
Ital ian</w>
ro ots</w>
end ers</w>
Rec ogn
6月 30日</w>
Rem ember</w>
Bas ic</w>
nat ur
Pl at
reserv ation</w>
kil omet
死 刑</w>
v an
芯 片</w>
英 尺</w>
ven tions</w>
信托 基金</w>
pe p
无 关</w>
慢 性</w>
be i</w>
os la
Fin ance</w>
催 化剂</w>
用 作</w>
Dist ribu
prof its</w>
clo thing</w>
fac ility</w>
病 例</w>
海 岸</w>
sub regional</w>
mus cle</w>
be gun</w>
disp utes</w>
P ut</w>
不 大</w>
cryst al</w>
T un
对 称</w>
Phil ipp
ru pt</w>
想 起</w>
不 该</w>
体 重</w>
M ari
b al</w>
w ill
将 要</w>
norm ally</w>
dis charge</w>
那 位</w>
Inter nal</w>
TH E</w>
达尔富 尔</w>
o dy</w>
sh ell</w>
dimen sion</w>
de als</w>
复 合
h idden</w>
牺 牲</w>
UNF PA</w>
虐 待</w>
sol ving</w>
p et</w>
Ag enda</w>
accept ance</w>
div or
会 谈</w>
N ext</w>
ef s</w>
滥 用</w>
限 度</w>
澄 清</w>
lif t</w>
理 性</w>
ug osla
bot tle</w>
assess ments</w>
ass emb
abl ing</w>
sha re
交 付</w>
on ate</w>
coll ect</w>
ti de</w>
康 复</w>
adver tising</w>
pre ad</w>
join tly</w>
ic ide</w>
乘 客</w>
N uclear</w>
签 名</w>
帐 户</w>
协 同</w>
一 点
s h</w>
经 营
mean ing
Stat us</w>
T ok
er ic</w>
调 动</w>
查 看</w>
p um
some where</w>
intellig ent</w>
cop per</w>
精 力</w>
g age</w>
迫 切</w>
19 日</w>
丧 失</w>
spectr um</w>
合众 国</w>
j in</w>
处 罚</w>
7 0
必 需</w>
inj ured</w>
leg es</w>
A R</w>
t esti
argu ment</w>
mo ves</w>
控制 器</w>
re sum
制 止</w>
sens or</w>
di o</w>
制 约</w>
tif y</w>
sti pul
v ent</w>
el et</w>
蒙 特
zer land</w>
uni form</w>
shar p</w>
af ford</w>
不 住</w>
ot al</w>
Rel ation
Wind ows</w>
纪 录</w>
li am
公务 员</w>
充 足</w>
心 情</w>
n an</w>
一 体</w>
五 年</w>
睡 眠</w>
高 温</w>
im pe
被 迫</w>
S em
Requ ests</w>
id a</w>
sw it
可 怜</w>
当 选</w>
巧 克
友 谊</w>
cre ativity</w>
Sh ould</w>
议 院</w>
开 发
A I
演 变</w>
M e</w>
sp ati
certain ty</w>
O il</w>
不 一样</w>
publ ication</w>
ab und
Pop ulation</w>
me rely</w>
view ing</w>
Bet ween</w>
窗 口</w>
周 一</w>
direc ted</w>
vi bration</w>
款 项</w>
产 出</w>
顺 序</w>
bel t</w>
9 0
H T
调 解</w>
p ages</w>
crow d</w>
on a</w>
标 题</w>
W u
con dem
Ar ch
雷 达</w>
ad dy</w>
合 格</w>
Pol y
造 型</w>
携 带</w>
对 外</w>
p ir
s port</w>
数 百</w>
Le ague</w>
感 激</w>
vel ocity</w>
B ab
Ne ws</w>
法 定</w>
脸 上</w>
invol ves</w>
coun ting</w>
M el
inv ite</w>
Co ordin
allo y</w>
dis co
d u</w>
照 明</w>
签 订</w>
切 除</w>
th ick</w>
le af</w>
b ow</w>
阁 下</w>
keep s</w>
g ated</w>
南 斯拉
大 气</w>
Wa it</w>
m ood</w>
m ates</w>
happ ening</w>
ess ence</w>
塞 尔
elec om
co at</w>
真 主</w>
cor ro
钥 匙</w>
Th ailand</w>
or gan</w>
rail way</w>
有 你</w>
岩 石</w>
16 日</w>
Moder n</w>
lo g</w>
无 疑</w>
I A
as is</w>
E M
阶 级</w>
9 00</w>
无 线
dynam ics</w>
多 大</w>
de ad
Sci entific</w>
Pr actice</w>
弹 药</w>
break fast</w>
ag gre
生 涯</w>
靠 近</w>
ere ly</w>
平 静</w>
eigh th</w>
Cha ir</w>
secon ds</w>
F oundation</w>
g am
help ful</w>
legi timate</w>
ess els</w>
ver tical</w>
思 路</w>
整 理</w>
K now
log ical</w>
t ine</w>
暂 停</w>
in ser
bre ath</w>
创 业</w>
成 像</w>
ec os
早 晨</w>
常 设</w>
tain ment</w>
re fin
s ongs</w>
mar ry</w>
J am
iz ations</w>
节 省</w>
re placed</w>
H an</w>
vic tory</w>
l ake</w>
谨 慎</w>
S k
be er</w>
head ed</w>
局 面</w>
Swit zerland</w>
CO N
mag ic</w>
创 意</w>
i op
cont ing
通 信
In spec
con vention</w>
t ude</w>
govern ing</w>
H or
群 众</w>
速 率</w>
P ot
co ast
co w</w>
h ide</w>
B ang
si zed</w>
199 7年</w>
j ump</w>
C C</w>
up dated</w>
解 放</w>
J our
any way</w>
c av
prop ag
Sou thern</w>
character ized</w>
bel ong</w>
黄 金</w>
ex posed</w>
Har ry</w>
encour ages</w>
单 词</w>
Ex change</w>
专 用</w>
牛 奶</w>
D .</w>
re turns</w>
rec ur
occup ation</w>
p c</w>
as sign
199 5年</w>
conn ect</w>
em ail</w>
耶 路
标 准
N ever</w>
相 当
相当 于</w>
讲 述</w>
a is
con sent</w>
fel low</w>
wind ows</w>
耶路 撒
l en</w>
des k</w>
求 解</w>
e ously</w>
成 人</w>
权 威</w>
我 以为</w>
ic acy</w>
tu m</w>
E L
K y
know ing</w>
H app
Techn i
P ati
al ties</w>
比 利
oun ce</w>
ex changes</w>
H ab
con siders</w>
编 程</w>
邻 居</w>
电 源</w>
str uggl
重 量</w>
er ra</w>
su res</w>
di gn
val id</w>
上 班</w>
u i</w>
improv ements</w>
form ulation</w>
commun icate</w>
Ke ep</w>
拉 斯</w>
Guang zhou</w>
b low</w>
tion ed</w>
gr ave</w>
科 技
增 大</w>
M other</w>
签 证</w>
印 刷</w>
复 苏</w>
us al
c ake</w>
基 准</w>
请 问</w>
组 织
.. ....</w>
CO P</w>
invol ve</w>
ne ed
exc ited</w>
下 文</w>
暴 露</w>
平 方
manufac ture</w>
amet er</w>
初 级</w>
局 限</w>
gir l
anni versary</w>
any where</w>
个 别</w>
内 地</w>
remov al</w>
b rown</w>
et es</w>
bur ning</w>
ex pe
亚 太</w>
investig ations</w>
在 家</w>
客 户
4 月</w>
假 期</w>
y cl
Hy dro
祝 福</w>
对 付</w>
Y ugosla
tr ic
伴 随</w>
Med ic
en orm
舞 台</w>
Ap pro
Every thing</w>
ill icit</w>
flex ibility</w>
吃 了</w>
页 面</w>
necess arily</w>
compl aints</w>
大 卫</w>
y an</w>
arr ay</w>
re views</w>
f oods</w>
地 带</w>
d ness</w>
pregn ant</w>
sto res</w>
Academ y</w>
二 氧化
comp are</w>
实 力</w>
蛋 糕</w>
nar row</w>
f estival</w>
退 出</w>
图 形</w>
疗 法</w>
首 要</w>
str ing</w>
dec or
tr y
圣 经</w>
as sume</w>
气 氛</w>
企 图</w>
乐 队</w>
trans ferred</w>
骄 傲</w>
农 场</w>
control ler</w>
ant ation</w>
fi red</w>
酌 情</w>
on tal</w>
披 露</w>
天然 气</w>
S till</w>
溶 液</w>
利 比亚</w>
纽 约
迈 克
te enth</w>
cl ou
w et</w>
yl ene</w>
as ion</w>
执 行
利 昂</w>
rep utation</w>
忽 略</w>
usal em</w>
min ent</w>
clos ing</w>
销 售
w inning</w>
半 年</w>
远 离</w>
衰 退</w>
冒 险</w>
ail ed</w>
差 不
at tract</w>
17 日</w>
dis asters</w>
smo king</w>
trans form</w>
camp us</w>
UNID O</w>
ran dom</w>
expan ding</w>
fav our</w>
dep end</w>
ell a</w>
薄 膜</w>
mani fe
elecom mun
Le e</w>
tin y</w>
g ue</w>
syn drome</w>
魅 力</w>
王 子</w>
智 能
bro thers</w>
trac king</w>
ne uro
Ne ther
fu zzy</w>
Fr anc
不 但</w>
Is su
tre ating</w>
景 观</w>
咖 啡
nin th</w>
chem istry</w>
真 理</w>
tr action</w>
bel ongs</w>
一 周</w>
d or
gr ateful</w>
pl e
p ill
m ice</w>
志 愿</w>
激 发</w>
pres sive</w>
走 进</w>
殖 民</w>
col ors</w>
重 返</w>
圣诞 节</w>
ner ve</w>
ti ght</w>
远 程</w>
命 名</w>
t ank</w>
调 用</w>
H osp
inter ference</w>
el i
答 应</w>
老 鼠</w>
Tur k
Ac tually</w>
beg ins</w>
pr acti
low s</w>
desig ning</w>
收 藏</w>
n ative</w>
C N</w>
Micro soft</w>
斯 坦
Gre ek</w>
high lighted</w>
美利 坚
arrang ed</w>
个 世界</w>
notic ed</w>
commod ity</w>
Wh ether</w>
ast es</w>
mac ro
201 3年</w>
人 格</w>
前 后</w>
A T</w>
per mit</w>
歌 曲</w>
挖 掘</w>
opini ons</w>
ver ification</w>
by e</w>
simul tan
沿 着</w>
har dly</w>
col on
memb rane</w>
M P
comm only</w>
but ton</w>
mem or
本 法</w>
民 族
CE O</w>
h os
M ot
当 作</w>
Be ing</w>
peti tion</w>
揭 示</w>
定 居</w>
恐 怕</w>
An ti</w>
k o</w>
交 叉</w>
去 世</w>
presid ential</w>
穆 斯
尼日 利亚</w>
incid ence</w>
bas ically</w>
labor atory</w>
sm ell</w>
discipl ine</w>
不 变</w>
pain t</w>
Bi g</w>
constr aints</w>
干 燥</w>
神 秘</w>
sust ain
pos ing</w>
借 鉴</w>
审 理</w>
har v
c ad
sh oot</w>
绩 效</w>
ei ved</w>
价值 观</w>
Gi ven</w>
rub ber</w>
guaran te
umin um</w>
dar k
打 造</w>
en de
ste in</w>
J ord
一 无
选 民</w>
分 歧</w>
分 开</w>
Gu inea</w>
t ack
con version</w>
Oper ation</w>
u ous</w>
spok en</w>
g ear</w>
op en
syn thesis</w>
Q ing
我 想要</w>
R NA</w>
用 水</w>
h es</w>
sen ding</w>
a ths</w>
12 .
怀 孕</w>
正 当</w>
ic huan</w>
accompan ied</w>
全 力</w>
conf ident</w>
assess ed</w>
糖尿 病</w>
产 业
Prepar ation</w>
水 泥</w>
Mar k</w>
那 个人</w>
bri d</w>
integr al</w>
1 10</w>
Si erra</w>
t all</w>
compl y</w>
pul led</w>
分 割</w>
organ ize</w>
投 诉</w>
child hood</w>
exc eption</w>
hear ts</w>
man dates</w>
Parti cip
paren tly</w>
B .</w>
街 道</w>
排 名</w>
sing ing</w>
mist akes</w>
K ey</w>
at us</w>
g ains</w>
candi date</w>
钻 石</w>
年 中</w>
ch er
Austr alian</w>
movi es</w>
不 停</w>
F D
自然 资源</w>
Jer usalem</w>
mi x</w>
下 次</w>
wor thy</w>
数 学
s mil
acc o</w>
im per
r at</w>
L et
construc ted</w>
N on
refuge e</w>
foc uses</w>
伙 计</w>
乙 烯</w>
S T</w>
gr ati
model ing</w>
高 压</w>
指 责</w>
L ight</w>
cot ton</w>
Y u
圣 诞</w>
mis sile</w>
带 到</w>
姐 姐</w>
As sistance</w>
destro y</w>
玛 丽</w>
cul tures</w>
r ation
m ly</w>
反 恐</w>
祈 祷</w>
一 刻</w>
ser ves</w>
inter medi
奥 斯
spokes man</w>
wid th</w>
干 旱</w>
ro of</w>
先 前</w>
夫 妇</w>
nation ality</w>
正 规</w>
s and
f ant
Su preme</w>
ur o</w>
Reg ulations</w>
支 援</w>
Pro sec
订 正</w>
Hum an
跨 国</w>
T ar
T ex
li sts</w>
b its</w>
天 使</w>
f ast
有 机
immun e</w>
ow ed</w>
关键 词</w>
何 时</w>
法 语</w>
F ran
上 次</w>
可 见</w>
am i</w>
Sim il
n u
Re form</w>
可行 性</w>
不 然</w>
ym er</w>
depend ence</w>
下 午
mov ements</w>
安 置</w>
Rob ert</w>
E C</w>
M A</w>
surr ounding</w>
H im</w>
m os
toler ance</w>
L ou
校 园</w>
隧 道</w>
十 五</w>
v essels</w>
fur niture</w>
gr ant</w>
ar ising</w>
布 隆
另一 种</w>
夜 晚</w>
我 爱你</w>
ell er</w>
B ush</w>
Ukrain e</w>
月2 3日</w>
份 额</w>
sym bol</w>
股 市</w>
Nether lands</w>
rel ates</w>
耦 合</w>
橡 胶</w>
尔 德</w>
obstac les</w>
事 先</w>
install ed</w>
耶路撒 冷</w>
m l</w>
neigh bor
nov ation</w>
C L
constitu tional</w>
if ying</w>
w ash</w>
b on</w>
超 声</w>
inv itation</w>
Ste el</w>
美利坚 合众国</w>
M ain</w>
干 涉</w>
m in</w>
tax es</w>
Pro b
3 ,
perform ing</w>
5 号</w>
i. e.</w>
Col om
in sist
比 率</w>
s par
Cap ital</w>
ref used</w>
L ow</w>
imp acts</w>
巧克 力</w>
ac le</w>
stre aming</w>
ud i</w>
C at
毕 竟</w>
每 日</w>
work er</w>
超 出</w>
territ orial</w>
gen u
hon ey</w>
in spir
成 效</w>
着 手</w>
设计 师</w>
Secon dly</w>
initi ated</w>
In tro
旅 馆</w>
l ung</w>
拜 托</w>
fav or</w>
Par liament</w>
profession als</w>
contr ary</w>
知识 产权</w>
b ath
Re ally</w>
ves sel</w>
摄 影</w>
invent ory</w>
之 所以</w>
陶 瓷</w>
作 战</w>
func tioning</w>
r d</w>
ig ns</w>
迁 移</w>
sub stances</w>
n as
课 堂</w>
加 热</w>
便 是</w>
术 语</w>
骨 折</w>
电子 邮件</w>
结 束
变 动</w>
信 念</w>
T ype</w>
M ong
波 兰</w>
gol den</w>
st aff
li ked</w>
6 号</w>
bu b
resc ue</w>
共 产
tem por
plas ma</w>
resol ved</w>
prosper ity</w>
be ach</w>
bran ches</w>
pro por
斯 洛
v ar
埃 塞
找 不到</w>
Am bassador</w>
该 项</w>
instruc tions</w>
詹 姆
Re al</w>
r on</w>
舞 蹈</w>
ret ro
克 莱
conduc ting</w>
延 迟</w>
Te am</w>
渔 业</w>
An ti
Langu age</w>
塞拉 利昂</w>
器 官</w>
de fault</w>
ri sts</w>
Malay sia</w>
Gen der</w>
车 站</w>
勇 敢</w>
in ating</w>
spati al</w>
P ost</w>
无 数</w>
早 餐</w>
l ot
ti mis
免 疫
科特 迪
O ld</w>
海 军</w>
ce iling</w>
frac ture</w>
L ake</w>
regre t</w>
跟 着</w>
migr ant</w>
pro pose</w>
总 数</w>
8 号</w>
jud g
p ile</w>
conven tions</w>
pl enty</w>
shad ow</w>
parti cles</w>
m atic</w>
circul ation</w>
complex ity</w>
pas sion</w>
进 而</w>
穷 人</w>
contr ad
午 餐</w>
ket ball</w>
西 非</w>
til ity</w>
behavi our</w>
诸 多</w>
es pread</w>
穆斯 林</w>
Ur ban</w>
此 时</w>
Y oun
ge ographical</w>
In ter</w>
线 路</w>
坚 决</w>
央 行</w>
m ouse</w>
chi p</w>
stand ardi
静 脉</w>
总 裁</w>
ici ary</w>
answ ers</w>
Govern ing</w>
f loo
Ar my</w>
入 境</w>
G ra
pursu it</w>
uni verse</w>
听 取</w>
ul timate</w>
oc k
漠 化</w>
ill ary</w>
attrac tive</w>
superi or</w>
b ic
人 力</w>
Syst ems</w>
筛 选</w>
地 板</w>
陈 述</w>
弟 弟</w>
Col l
Guang dong</w>
g a</w>
Phy s
a us
cho ices</w>
co c
regi ster</w>
R os
千 万</w>
un known</w>
UN C
in clusive</w>
十 二
ad just</w>
Al gorith
含 义</w>
poli tici
eful ly</w>
容 量</w>
再 生</w>
行 星</w>
re l</w>
S pi
O N
u ph
cust om</w>
C I
equ ally</w>
sc at
la b</w>
电 站</w>
bon ds</w>
交 互</w>
特 ·
n ic
f oun
T S</w>
保 罗</w>
Gaz a</w>
th res
s i</w>
Per i
Fig ure</w>
re di
wh ol
ex es</w>
determin ing</w>
inv est</w>
p m</w>
any body</w>
指 令</w>
real istic</w>
wh eat</w>
bacter ia</w>
absol ute</w>
enjo yed</w>
amend ments</w>
arti stic</w>
at en</w>
小 麦</w>
hi bit</w>
马 拉
7 号</w>
r ant</w>
on ics</w>
劳 动力</w>
护 士</w>
杀 害</w>
sh irt</w>
祝 贺</w>
ad visory</w>
Joh n
差不 多</w>
据 说</w>
occur s</w>
jud gment</w>
酷 刑</w>
degrad ation</w>
董 事会</w>
布 什</w>
arti sts</w>
ob il
Chem ical</w>
Enter prise</w>
wid er</w>
四 年</w>
11 .
乡 村</w>
syn chron
岗 位</w>
shoul der</w>
13 日</w>
ne ar
发 电</w>
veget ables</w>
ic ing</w>
gent lem
u um</w>
sle eping</w>
c .</w>
F ourth</w>
bu ff
B lo
th west</w>
D r</w>
C F
好 几</w>
5 000</w>
埃塞 俄
p .m.</w>
C u
di tionally</w>
nor ms</w>
焦 虑</w>
Prof essional</w>
电 信</w>
ac quired</w>
h ad
exc iting</w>
月2 8日</w>
dis placement</w>
Relation ship</w>
定 量</w>
t ables</w>
d ay
手 指</w>
s er</w>
跳 舞</w>
arri ve</w>
小 小</w>
lau gh</w>
os ing</w>
tor ies</w>
se gment</w>
di an</w>
剩 余</w>
pul se</w>
口 头</w>
奖 励</w>
L ine</w>
lo vely</w>
eg gs</w>
less on</w>
transi t</w>
ri gh
道 歉</w>
g eting</w>
wat ched</w>
bur g</w>
Mus li
月2 2日</w>
科特迪 瓦</w>
Mul ti</w>
con grat
p tions</w>
201 3年
re ver
ec t
F ree</w>
窗 户</w>
wid espread</w>
if f</w>
天 堂</w>
引 进</w>
g ast
10 年</w>
prof ound</w>
结束 了</w>
occas ion</w>
干 嘛</w>
consci ous</w>
从 没</w>
地 下
精 彩</w>
Ira qi</w>
tro p
en abling</w>
总 值</w>
provin ces</w>
负 荷</w>
此 事</w>
sol e</w>
Dis crimin
D am
hu h</w>
进 化</w>
is k</w>
che ap</w>
话 说</w>
Proper ty</w>
丹 麦</w>
泡 沫</w>
St aff</w>
t el
点 击</w>
Leg isl
per for
Com prehensive</w>
新 技术</w>
离 婚</w>
即 可</w>
十 四</w>
p h</w>
Li by
渗 透</w>
reser ves</w>
无 限</w>
招 聘</w>
ag ers</w>
graph y</w>
co efficient</w>
mon etary</w>
S S</w>
rev olution</w>
犹 太
E mer
V I</w>
WH O</w>
C ross</w>
forc ing</w>
ch oc
sp are</w>
M ing</w>
i Phone</w>
f et
按 钮</w>
鼓 舞</w>
算 是</w>
几 何</w>
Re public
埃塞俄 比亚</w>
纤 维
A h</w>
us age</w>
har der</w>
in no
R a
从 中</w>
性 格</w>
ment ally</w>
ut ter</w>
nerv ous</w>
se ats</w>
体 积</w>
o be
产 品
Nor way</w>
Argent ina</w>
T R
reconc iliation</w>
resid ential</w>
hydro gen</w>
拨 款</w>
黑 人</w>
广 州</w>
Tim es</w>
入 侵</w>
ro man
explo itation</w>
Pers ons</w>
u sion</w>
Y ang
territ ories</w>
Compu ter</w>
Vi et
非洲 国家</w>
fall en</w>
Gre ece</w>
尽 力</w>
con fron
d ual</w>
Eth iop
头 脑</w>
non linear</w>
c ig
奥 地
ill a</w>
I .</w>
ter minal</w>
deploy ed</w>
ing redi
诚 实</w>
ex ec
收 获</w>
dest ination</w>
此 前</w>
安 德
抵 达</w>
. I</w>
go v
199 8年
B or
懂 得</w>
hy draulic</w>
真 诚</w>
Chris tian</w>
viol ent</w>
ven tive</w>
spe akers</w>
re medi
老 年</w>
高 等</w>
上 海
St op</w>
o tic</w>
使 命</w>
ti er</w>
histor ic</w>
swim ming</w>
机 械
计 量</w>
co oling</w>
typ ically</w>
I l
Jan e</w>
Hen ry</w>
垂 直</w>
悲 伤</w>
ob servers</w>
10 5</w>
吸 烟</w>
学 到</w>
消 极</w>
Lear ning</w>
英 镑</w>
孤 独</w>
这 个世界</w>
wel ding</w>
保 安</w>
represent ing</w>
coo king</w>
vis iting</w>
双 重</w>
cooper ative</w>
订 单</w>
高 达</w>
延 伸</w>
ac commod
scen ari
Bos nia</w>
ren tly</w>
ev i
叙 述</w>
1 st</w>
知 名</w>
罗 伯
床 上</w>
R ome</w>
com pris
l ers</w>
Proper ties</w>
os c
职 权</w>
L ittle</w>
威 尔
resid ence</w>
克 ·
Op tional</w>
per or</w>
im aging</w>
th ri
E limin
read s</w>
v in
看 出</w>
Ass ess
identif ying</w>
sem i</w>
场 合</w>
国 民
sum mit</w>
di versi
女 童</w>
Le one</w>
影 像</w>
神经 网络</w>
布隆 迪</w>
We ap
reg ards</w>
as ide</w>
W u</w>
沃 尔
civil ization</w>
疲 劳</w>
Ch amber</w>
院 校</w>
col our</w>
ke y
格 鲁
voc ational</w>
appl ies</w>
会 见</w>
nur sing</w>
提 起</w>
深 深</w>
am ended</w>
Ph ot
A L</w>
en a</w>
preci ous</w>
P ow
冬 天</w>
个 性</w>
开 采</w>
provin cial</w>
Mong ol
head ing</w>
de pression</w>
con ve
个 人
hop ing</w>
class room</w>
le ep</w>
Exc use</w>
d ose</w>
D O
integr ate</w>
every day</w>
限 于</w>
Liber ia</w>
整 天</w>
地 域</w>
ch ol
continu ously</w>
Rw anda</w>
升 高</w>
g all
en tic
d est</w>
curricul um</w>
subsi diary</w>
method ology</w>
Tim or</w>
管理 人员</w>
r ical</w>
bed ded</w>
as c
注 入</w>
12 4
man ip
lic ense</w>
refl ection</w>
bl ame</w>
M ay
celebr ate</w>
Palest ine</w>
总 会</w>
d am</w>
l an
零 售</w>
pro spects</w>
A ustri
RM B</w>
d uration</w>
保 守</w>
dis cre
cont am
能 不能</w>
制 成</w>
i ves</w>
外 层</w>
中华 人民
出 血</w>
mom ent
commit tees</w>
mir ror</w>
k m</w>
j ap
Peace keeping</w>
restric ted</w>
分 支</w>
信 用</w>
N a
A M</w>
succe ed</w>
董 事</w>
监 视</w>
玩 家</w>
把 握</w>
St ation</w>
太 空</w>
ann y</w>
就 算</w>
动 物
el ig
vari ation</w>
op timis
am ic</w>
摧 毁</w>
2 nd</w>
ultr as
字 母</w>
h at</w>
罪 犯</w>
等 于</w>
t one</w>
证 券
rou tine</w>
convinc ed</w>
bat tery</w>
ot yp
恰 当</w>
中 等</w>
认 同</w>
相 机</w>
Val ue</w>
ch ose</w>
plo y</w>
说 服</w>
il er</w>
马 尔
c ep
them atic</w>
attemp ts</w>
kis s</w>
G PS</w>
焊 接</w>
快 点</w>
co ast</w>
re sident</w>
肯 尼亚</w>
det ected</w>
奥地 利</w>
a e
0 1</w>
较 小</w>
con firm</w>
Swe den</w>
航 班</w>
月2 1日</w>
survi ve</w>
sc ared</w>
P P
emis sion</w>
议 事
broad er</w>
S us
摩 洛
不 让</w>
passeng ers</w>
病 理</w>
议事 规则</w>
il ateral</w>
foc al</w>
ci um</w>
9 号</w>
as y</w>
He av
ende av
时 机</w>
met abol
中 部</w>
L u</w>
焦 点</w>
cl assic</w>
sud den</w>
S an
olog ic</w>
ici ans</w>
ar ization</w>
Dig ital</w>
监 禁</w>
bor ne</w>
in ity</w>
Philipp ines</w>
Discrimin ation</w>
新 年</w>
大 于</w>
aff ects</w>
Elec tro
将 军</w>
alleg ed</w>
设 有</w>
次 级</w>
周 二</w>
re y</w>
无 需</w>
Mi ke</w>
IB M</w>
ch ro
bo ost</w>
em ia</w>
L uc
F uture</w>
hab it</w>
内 涵</w>
hospit als</w>
magaz ine</w>
Proc ed
phy si
ap ple</w>
政 权</w>
电 影
separ ated</w>
行 李</w>
Is lands</w>
tr uck</w>
formul ated</w>
re verse</w>
普 及</w>
设 在</w>
schem es</w>
再 见</w>
gener ations</w>
we ren</w>
ste re
absor ption</w>
pen ding</w>
人 工
克 林
从 不</w>
differen tial</w>
is mic</w>
ass ur
绘 画</w>
帽 子</w>
prot ective</w>
集 合</w>
199 6年</w>
占 据</w>
电 台</w>
Minist ers</w>
Dar fur</w>
生活 方式</w>
repl ied</w>
ill ance</w>
e uro
断 裂</w>
不 懂</w>
priv il
金融 危机</w>
h ill</w>
ant a</w>
hun gry</w>
g as
密 封</w>
惯 例</w>
我 应该</w>
座 位</w>
缩 短</w>
feas ibility</w>
诗 歌</w>
enorm ous</w>
ser um</w>
M s</w>
v enture</w>
学 习
coast al</w>
min eral</w>
暗 示</w>
E arly</w>
fe eding</w>
浦 路
u g</w>
b all
回 复</w>
意 图</w>
农 业
你 是
ace u
ing er</w>
Mo vement</w>
塞 浦路
Cur rent</w>
探 测</w>
As sistant</w>
C lim
Jord an</w>
spi red</w>
案 子</w>
ear n</w>
豁 免</w>
A ud
st ored</w>
gri d</w>
戏 剧</w>
月2 日</w>
dimen sions</w>
沿 海</w>
摩洛 哥</w>
送 到</w>
endor sed</w>
gr as
T ai
st an</w>
gu est</w>
在 家里</w>
授 予</w>
necess ity</w>
Ku wait</w>
am ine</w>
serv ation</w>
dec reas
bloc ks</w>
M D
C ent
det ect</w>
防 御</w>
浪 漫</w>
de formation</w>
条 文</w>
书 籍</w>
大 人</w>
ret ail</w>
hand ed</w>
零 零
何 种</w>
n ity</w>
用 以</w>
ber t</w>
benef icial</w>
junc tion</w>
科 研</w>
perf ec
ge omet
adap tation</w>
le x</w>
吸 引力</w>
st uck</w>
elec toral</w>
cre ates</w>
lo aded</w>
制 造
Rec om
cr ack</w>
博 客</w>
f ers</w>
沉 默</w>
p in
深 圳</w>
生态 系统</w>
fe wer</w>
如果 没有</w>
驱 逐</w>
E .
之 类</w>
处 境</w>
repe ated</w>
尊 严</w>
201 4年</w>
根 源</w>
se g
mun icipal</w>
不 满</w>
eg g</w>
gre en
dam aged</w>
sign ature</w>
girl friend</w>
ad verse</w>
P .
cre w</w>
S ichuan</w>
or ous</w>
E l</w>
inno cent</w>
sensi tivity</w>
cor n</w>
g al
电 极</w>
h asn</w>
min or</w>
空 缺</w>
pec ted</w>
err ors</w>
Rec alling</w>
启 示</w>
ow ns</w>
退 化</w>
sil ence</w>
委 托</w>
de aths</w>
e z
故 意</w>
construc t</w>
Hosp ital</w>
G as</w>
交 往</w>
analy tical</w>
经济 学</w>
T O
rol led</w>
病 变</w>
olu tionary</w>
飞 行
B ay</w>
enz y
ur ge</w>
ori entation</w>
G row
S qu
p y</w>
震 惊</w>
面 试</w>
交 谈</w>
Por tu
饭 店</w>
淋 巴
4 号</w>
看 待</w>
Pro gress</w>
plac ing</w>
p ack</w>
过 境</w>
j an</w>
M R</w>
庞 大</w>
be dro
纪 念
tic kets</w>
enjo y
z ones</w>
十 字
os ity</w>
au to</w>
ga thered</w>
阶 层</w>
道 理</w>
直 升
Assess ment</w>
维 生</w>
司 法
偿 还</w>
Y un
dispos al</w>
少 数
身 份
带 给</w>
Initi ative</w>
desig ns</w>
st ayed</w>
年 前</w>
语 音</w>
pregn ancy</w>
比利 时</w>
enter tainment</w>
1 30</w>
ash es</w>
月2 5日</w>
herit age</w>
favor able</w>
ong ue</w>
influ enced</w>
这 点</w>
竞 赛</w>
re placement</w>
8 月</w>
av es</w>
T ang</w>
中 方</w>
forec ast</w>
co ating</w>
金融 机构</w>
bus tion</w>
electr on</w>
尊 敬</w>
gg er</w>
反 复</w>
清 洗</w>
厚 度</w>
ur ges</w>
are t
entr ance</w>
新 兴</w>
初 始</w>
荒 漠化</w>
迫 使</w>
ou ts</w>
T our
mem ories</w>
饥 饿</w>
白 宫</w>
on es
G A</w>
流 体</w>
好 多</w>
her o</w>
Integr ated</w>
up grad
modi ties</w>
起 源</w>
调 控</w>
tow er</w>
ex act</w>
月2 4日</w>
w ell
cri ticism</w>
股 份</w>
场 地</w>
亲 自</w>
年 底</w>
visi ble</w>
p o</w>
激 情</w>
dev oted</w>
受 体</w>
rec alled</w>
n ucle
桥 梁</w>
就 这样</w>
re jected</w>
V ery</w>
fer ti
村 庄</w>
语 法</w>
pres er
Sm ith</w>
an ium</w>
S lo
ic ating</w>
incid ents</w>
fore sts</w>
st up
热 爱</w>
ad er</w>
H as</w>
当 事</w>
纠 正</w>
写 道</w>
repe at
em a</w>
Y uan</w>
目 的
Gu id
阐 明</w>
oc ols</w>
met ric</w>
de alt</w>
there of</w>
cu ts</w>
选 手</w>
耐 心</w>
ti gh
r ics</w>
econom ics</w>
简 称</w>
Pro blems</w>
h in
复合 材料</w>
ad ers</w>
b in</w>
智 利</w>
gen es</w>
v an</w>
小 企业</w>
natur ally</w>
向 前</w>
reserv oir</w>
p en</w>
boo k
fair ly</w>
di m
S ig
et tl
rec ep
adap t</w>
M en</w>
拖 延</w>
经济 学家</w>
处 置</w>
聚 合物</w>
旗 下</w>
deter i
wh is
With in</w>
tr ace</w>
预 定</w>
E .</w>
AN D</w>
ic ates</w>
vol ati
综合 征</w>
se di
施 加</w>
s ake</w>
难 题</w>
oper ators</w>
pr on
b ags</w>
神 圣</w>
年12 月</w>
remark able</w>
Ch o
水 分</w>
an z
Strateg ic</w>
serv ants</w>
直 至</w>
吁 请</w>
中华人民 共和国</w>
syn thetic</w>
intro ducing</w>
确 信</w>
in et</w>
有限 元</w>
anc er</w>
Con cer
al located</w>
4 5
near by</w>
min orities</w>
C ase</w>
isol ated</w>
Exc ell
d ying</w>
wh enever</w>
接 到</w>
超 级</w>
Vi ol
off ence</w>
br illi
占 有</w>
油 田</w>
封 闭</w>
class ical</w>
employ ers</w>
ad ays</w>
heal th
斯 蒂
Commun ication</w>
gi sts</w>
门 口</w>
就是 我</w>
oper ator</w>
spl it</w>
此 项</w>
债 权
wi reless</w>
洛 杉
保 护
sh oc
应 有</w>
expendit ures</w>
heav ily</w>
y stem</w>
Grow th</w>
set tled</w>
冷 静</w>
缩 小</w>
介 意</w>
发 酵</w>
麦 克
sig ning</w>
个 案</w>
res in</w>
解 析</w>
gu ided</w>
电 器</w>
光 纤</w>
r hy
次 数</w>
Un fortunately</w>
mo thers</w>
昂 贵</w>
L iter
相 信
ath let
月2 6日</w>
ag en</w>
Dynam ic</w>
美 联
par ticle</w>
处 在</w>
公 主</w>
ul timately</w>
补 助</w>
V C</w>
受 理</w>
ze gov
ti ble</w>
tor ture</w>
re sistant</w>
21 世纪</w>
G al
c ed</w>
quanti tative</w>
dep ending</w>
责 任
东 南亚</w>
aut umn</w>
2 W</w>
fore ig
文 件
Youn g</w>
sho oting</w>
格鲁 吉
ex am</w>
adop ting</w>
feas ible</w>
雇 用</w>
zegov ina</w>
任 职</w>
spe aker</w>
庇 护</w>
el eg
E s
shi pping</w>
变 更</w>
乌 干
悲 剧</w>
普 通
tend ency</w>
抗 体</w>
os si
equip ped</w>
it ative</w>
S A</w>
stro ke</w>
冷 却</w>
eu tic</w>
荧 光</w>
y ard</w>
k i</w>
th ickness</w>
以色 列
domin ant</w>
空 调</w>
under lying</w>
spec tro
2 月</w>
d ancing</w>
惊 人</w>
mathematic al</w>
副 主席</w>
construc tive</w>
Ha iti</w>
U g
一 日</w>
low est</w>
E D</w>
辈 子</w>
gl y
演 奏</w>
Tran si
es sible</w>
器 件</w>
regar dless</w>
F a
火 箭</w>
高 速
under ground</w>
A I</w>
Plat form</w>
忍 受</w>
Her zegovina</w>
it ate</w>
斯 科</w>
H al
东 北</w>
你 知
guil ty</w>
数 十</w>
汽 车
Q ing</w>
晶 体</w>
af for
ci de</w>
tis m</w>
杆 菌</w>
uc ks</w>
br ands</w>
Bel gi
Sa udi</w>
Budd h
origin ally</w>
om ing</w>
布 拉
lon ely</w>
assist ant</w>
mix ture</w>
一 大</w>
月2 7日</w>
ific ations</w>
ro bot</w>
汇 报</w>
fing er</w>
barri ers</w>
概 率</w>
m p</w>
Fif th</w>
t ar</w>
tic ul
手 里</w>
仿 佛</w>
as ser
V E</w>
更 换</w>
substan ti
处 理
mo ist
射 线</w>
S C</w>
compet ence</w>
最 早</w>
le um</w>
无 效</w>
hab it
124 ;</w>
&# 124;</w>
fi l</w>
队 员</w>
氨 酸</w>
倡 导</w>
芬 兰</w>
she ep</w>
mar i
W i
cy cl
v ector</w>
罚 款</w>
债权 人</w>
S am</w>
he jiang</w>
comb ating</w>
目的 地</w>
struc k</w>
见 证</w>
频 繁</w>
报 酬</w>
e ze</w>
is ite</w>
stric tly</w>
促 请</w>
Ric hard</w>
展 望</w>
perpet r
an xi</w>
7 月1日</w>
or th
u x</w>
pl ed
本 届</w>
生物 学</w>
man ual</w>
stom ach</w>
di ag
R am
Clin ton</w>
损 坏</w>
多 元
inten sive</w>
S chem
B ac
S Q
satis factory</w>
manufactu rers</w>
所 有权</w>
元 件</w>
忘 录</w>
备 忘录</w>
Nig eria</w>
N evertheless</w>
Coun ter
C lu
进 攻</w>
ch rom
积 分</w>
走 出</w>
热 点</w>
meaning ful</w>
om er</w>
ish ments</w>
微 生物</w>
Agricul ture</w>
地 铁</w>
di verse</w>
loo p</w>
mon ary</w>
Th ink</w>
18 0</w>
国际 会议</w>
抵 抗</w>
Syri an</w>
gi fts</w>
arri val</w>
i ans</w>
pl ates</w>
exc essive</w>
Statis tics</w>
acc essible</w>
elim ination</w>
comm it</w>
本 港</w>
brief ly</w>
ES CO</w>
成 年</w>
dec lined</w>
播 放</w>
gg ed</w>
弯 曲</w>
供 给</w>
大 声</w>
uc tu
月2 9日</w>
b and
ic op
空 气
w ol
We b
体 外</w>
b ath</w>
classi fied</w>
s man</w>
ill ness</w>
soci alist</w>
I G
防 护</w>
g ers</w>
dis cover</w>
奇 迹</w>
tur b
st aying</w>
W A</w>
dign ity</w>
T ru
k g</w>
一 同</w>
宏 观</w>
制造 业</w>
co ding</w>
ten ing</w>
reserv ations</w>
画 面</w>
cal i
ff s</w>
各 种
醒 来</w>
姓 名</w>
M useum</w>
绑 架</w>
叶 片</w>
kn ife</w>
Hab itat</w>
over sight</w>
UN ESCO</w>
P T</w>
N av
操 作
Can adi
航 天</w>
过 分</w>
试 试</w>
f ound
Pati ents</w>
su c
弗 兰
Y outh</w>
a res</w>
周 边</w>
州 市</w>
卡 车</w>
挑 选</w>
电 话
迄 今</w>
少数 民族</w>
t ongue</w>
I .
du pl
hand ic
boy friend</w>
off ences</w>
ne ural</w>
d ingly</w>
营 养
救 援</w>
Q i
Jo e</w>
阿尔 及
Lar ge</w>
s p</w>
无 人</w>
ne um
contain er</w>
健 全</w>
B P</w>
通信 技术</w>
要 你</w>
u ce</w>
cur y</w>
牙 齿</w>
G or
三 十</w>
百 姓</w>
u l</w>
im ports</w>
loc ate</w>
银 行
ol ic</w>
Nat ural</w>
相 处</w>
negoti ation</w>
ati gue</w>
Algorith m</w>
gr and</w>
c ook</w>
sustain ability</w>
D ue</w>
i v
harmon y</w>
电子 商务</w>
T otal</w>
发 光</w>
y .
贝 尔</w>
struc turing</w>
保 密</w>
intern ally</w>
se eds</w>
fla g</w>
comp uting</w>
19 0
送 给</w>
es el</w>
alo g</w>
乐 趣</w>
船 只</w>
fo ster</w>
打 印</w>
Geor gia</w>
摩 擦</w>
prec ise</w>
v ot
1 ,000</w>
检 索</w>
导 航</w>
ox id
re tri
c ement</w>
河 流</w>
tun nel</w>
ac ity</w>
Some one</w>
Wh atever</w>
olog ist</w>
extra ordinary</w>
弥 补</w>
asp ir
通 货
特 区</w>
Tra ff
IM F</w>
vi et</w>
家 中</w>
pr o</w>
国 有</w>
木 材</w>
内 陆</w>
CN .
bri d
校 长</w>
sub scri
rec all</w>
graph ic</w>
餐 馆</w>
gradu ates</w>
T ry</w>
宣 称</w>
p y
hen g</w>
ap er
UN AM
Weap ons</w>
固 体</w>
Hist ory</w>
流 动
当 天</w>
hab its</w>
exist ed</w>
行 事</w>
mat h</w>
说 出</w>
perfec tly</w>
T D</w>
an mar</w>
言 论</w>
fu ci
Pri v
年12 月31日</w>
囚 犯</w>
questi onn
dec om
tem ple</w>
Wel come</w>
summar ized</w>
law yers</w>
Lev el</w>
负 债</w>
Spi rit</w>
prison ers</w>
o o</w>
se where</w>
n am</w>
im ported</w>
ogen ic</w>
rest ore</w>
J ack
阳 性</w>
xi ety</w>
意 志</w>
Pl ant</w>
und i</w>
cap ture</w>
with draw
o on</w>
analy sed</w>
re pa
ic ed</w>
te en
邻 国</w>
ag u
自 豪</w>
史 密
旅 客</w>
人 居</w>
201 6年</w>
薪 金</w>
disp ens
春 天</w>
coun try
英 格兰</w>
进 度</w>
范 畴</w>
sequ ently</w>
ut ch</w>
名 叫</w>
X in
H ome</w>
propos es</w>
确 切</w>
格鲁吉 亚</w>
炸 弹</w>
幼 儿</w>
R oom</w>
pl ain</w>
re mind</w>
m g</w>
disco very</w>
dissem ination</w>
algorith ms</w>
ad mit</w>
flo od</w>
f ed</w>
心 脏
chec ked</w>
Mar k
bas ketball</w>
fil ed</w>
激 活</w>
浏 览</w>
落 后</w>
带 领</w>
存 款</w>
外 勤</w>
nit rogen</w>
dipl om
rec ording</w>
机 组</w>
分析 师</w>
合 约</w>
ter n</w>
equ itable</w>
Or din
Qu een</w>
载 体</w>
椅 子</w>
co ach</w>
球 场</w>
satis fy</w>
B rown</w>
for tune</w>
US A</w>
G IS</w>
ful fil</w>
hi p</w>
199 4年</w>
reve al</w>
多样 化</w>
produc es</w>
族 裔</w>
很 久</w>
克罗 地
d .</w>
c ure</w>
ter ior</w>
调 度</w>
商 人</w>
主 教</w>
oc ardi
ent ally</w>
3 000</w>
fab ric</w>
国际 贸易</w>
as ive</w>
Int ellig
m ass
C up</w>
北 方</w>
策 划</w>
pleas ant</w>
ad mitted</w>
这 笔</w>
en coun
P ress</w>
el astic</w>
for got</w>
w ished</w>
b n</w>
销 毁</w>
放 下</w>
家庭 暴力</w>
commis sions</w>
自 我
emer ged</w>
comb ining</w>
den ied</w>
citiz en</w>
成 形</w>
th an
竟 然</w>
不 同
P sych
roc ks</w>
per su
st ones</w>
星期 五</w>
诞 生</w>
荣 幸</w>
聊 天</w>
开 设</w>
网 格</w>
as m</w>
主 席
ame works</w>
K im</w>
harm ful</w>
S H
predic tion</w>
horiz ontal</w>
comp ounds</w>
眼 前</w>
n ight
Un til</w>
ch est</w>
po p</w>
D ani
教 室</w>
par atus</w>
dis k</w>
Id entif
associ ations</w>
B en</w>
看 作</w>
Fr ank</w>
adver tis
no de</w>
D ev
inte st
仓 库</w>
Ac ti
in struction</w>
布 局</w>
sty les</w>
马 拉</w>
Dem ocr
sugg estion</w>
fol k</w>
寻 常</w>
fr ing
ti p</w>
m ay
dis ability</w>
降 解</w>
war ned</w>
j et</w>
house holds</w>
流 感</w>
祷 告</w>
增 多</w>
dis abled</w>
B est</w>
f ted</w>
prin ted</w>
fru its</w>
lay ers</w>
lin k
frequ ent</w>
迎 接</w>
定 于</w>
塞尔 维亚</w>
vac ation</w>
mat ching</w>
des c
o res
读 书</w>
葡 萄</w>
on ary</w>
fir mly</w>
想 过</w>
原 本</w>
lo ving</w>
便 于</w>
甲 基</w>
IA EA</w>
管 辖
开 启</w>
liter ary</w>
护 照</w>
伴 侣</w>
conclud e</w>
单 纯</w>
m useum</w>
Tra ditional</w>
tra um
My anmar</w>
li p</w>
ligh t
十 三</w>
distinc t</w>
去 除</w>
ac et
日 常
Num ber</w>
减 小</w>
od d</w>
eff icacy</w>
入 口</w>
分 摊</w>
两 个人</w>
lux ury</w>
il es</w>
publ ications</w>
灭 绝</w>
Pro gram</w>
passeng er</w>
苏 联</w>
权 限</w>
低 温</w>
死 去</w>
高 尔
计算 机
ten s</w>
r um
Corpor ation</w>
种族 主义</w>
Or der</w>
表 达
o ven</w>
Let ter</w>
j a</w>
过 多</w>
cont acts</w>
L and
g lo
Pro m
Com pared</w>
问 卷</w>
管辖 权</w>
分 化</w>
acceler ate</w>
零 件</w>
S .
ul sion</w>
car go</w>
y cle</w>
al uminum</w>
on er</w>
ar tery</w>
Oc ean</w>
sou p</w>
to b
管理 系统</w>
犹太 人</w>
F lu
违 背</w>
生产 力</w>
re integration</w>
arbitr ation</w>
诗 人</w>
m aker</w>
Li brary</w>
pre ventive</w>
inter ior</w>
Fin ancing</w>
L a</w>
灰 色</w>
ot ype</w>
Electr onic</w>
po etry</w>
荣 誉</w>
pr us</w>
终 端</w>
突 变</w>
说 到</w>
autonom ous</w>
IC T</w>
dri vers</w>
j ac
信用 卡</w>
inj uries</w>
崩 溃</w>
un usual</w>
Ap pe
le dge</w>
in form
wh el
并 发
并发 症</w>
inter im</w>
199 0s</w>
天 线</w>
equ ations</w>
met ry</w>
S ure</w>
schol ars</w>
Sur vey</w>
FO R</w>
expl ains</w>
competi tiveness</w>
gr ace</w>
映 射</w>
hol es</w>
信 道</w>
inter active</w>
sil ent</w>
耳 朵</w>
Bri dge</w>
prosec ution</w>
attrac ted</w>
d are</w>
b age</w>
spac es</w>
月3 日</w>
char t</w>
细 则</w>
篮 球</w>
租 赁</w>
exerc ises</w>
柬 埔
clou ds</w>
h at
um es</w>
插 入</w>
Equ ip
proce ed</w>
彼 得</w>
mom ents</w>
改 为</w>
Th ir
史 蒂
志 愿
微 软</w>
化 工</w>
soci eties</w>
Bur undi</w>
等 到</w>
物 资</w>
洛杉 矶</w>
tour ist</w>
菜 单</w>
南斯拉 夫</w>
帝 国</w>
首 相</w>
力 度</w>
对 面</w>
S ong</w>
薪 酬</w>
pass age</w>
i res</w>
min ds</w>
Ar ti
侵 略</w>
Y u</w>
Cy prus</w>
东 京</w>
s en</w>
困 扰</w>
Ang el
女 生</w>
tou rists</w>
ch amber</w>
power ment</w>
轴 承</w>
s word</w>
di ameter</w>
Mar tin</w>
1 40</w>
沙 漠</w>
德 里</w>
tw el
s ory</w>
4 ,
ten n
明 智</w>
医 药</w>
Produc ts</w>
L A
Z hejiang</w>
v als</w>
lic ens
高 层</w>
Tok yo</w>
inten se</w>
Elimin ation</w>
买 卖</w>
H P</w>
乌干 达</w>
二 零零
val ence</w>
z er</w>
im pression</w>
Coun try</w>
M IN
adv ances</w>
f ar
qu e
G ir
pro spect</w>
Mil itary</w>
J ava</w>
Ch ic
surve illance</w>
su rely</w>
radi o
初 期</w>
ear nings</w>
H all</w>
all evi
停 留</w>
cig aret
at ings</w>
uni or</w>
来 临</w>
so dium</w>
巴 布
tow ns</w>
coun ts</w>
主席 团</w>
b orders</w>
ne gl
m ium</w>
assist ed</w>
tou ched</w>
ber ry</w>
ju ice</w>
Distribu tion</w>
life time</w>
S it
迄 今
迄今 为止</w>
F lo
特 别
promis ing</w>
历 史
削 弱</w>
ga thering</w>
废 水</w>
ste am</w>
表 情</w>
p ts</w>
phr ase</w>
文 中</w>
视 野</w>
rul ing</w>
contin ent</w>
201 4年
奠 定</w>
p H</w>
移 交</w>
n arr
Colom bia</w>
大 厦</w>
t ments</w>
adjust ed</w>
op ing</w>
set tle</w>
A F
evalu ated</w>
suppl iers</w>
stup id</w>
撤 销</w>
盆 地</w>
裁 定</w>
没 法</w>
创 伤</w>
只 需</w>
过 滤</w>
油 气</w>
emo tions</w>
缺 血</w>
sh ed</w>
应 变</w>
加 利
dra fting</w>
全 国
筹 措</w>
rel atives</w>
拓 展</w>
螺 旋</w>
广 东</w>
尼 泊
diab etes</w>
r on
end ant</w>
alleg ations</w>
ban k
大 西
葡萄 牙</w>
harmon ious</w>
ap parent</w>
T ask</w>
m es
适 宜</w>
短 暂</w>
po is
ap olog
High er</w>
par liam
线 索</w>
gl asses</w>
lam p</w>
ex it</w>
w ages</w>
thres hold</w>
tr ain
1. 2</w>
Ch eng
as on</w>
Princi ples</w>
pat ent</w>
日常 生活</w>
周 五</w>
模 板</w>
tob acco</w>
ag e
pot entially</w>
acknowled ged</w>
玫 瑰</w>
sup pose</w>
东 方</w>
侧 重</w>
直 接
w oo
话 语</w>
st a</w>
ang zhou</w>
Compar ison</w>
organiz ing</w>
prepar ations</w>
O ri
ju ven
c eas
St anding</w>
分 布
一 度</w>
家 园</w>
og a</w>
law ful</w>
Don ald</w>
c ast
. 2</w>
vac uum</w>
姐 妹</w>
乔 治</w>
东 道
Recom m
业 率</w>
度 假</w>
et ly</w>
br on
放 射
奥 运</w>
异 性</w>
genu ine</w>
ex clusive</w>
I R</w>
v oting</w>
定 制</w>
ur a</w>
t les</w>
sm oo
Streng th
现 时</w>
碎 片</w>
in c</w>
芝 加
est y</w>
Char les</w>
ha o</w>
par tly</w>
choc olate</w>
10 1</w>
a .m.</w>
百分 比</w>
Po int</w>
op hy
sus pected</w>
where as</w>
永 恒</w>
瞬 间</w>
and ong</w>
gener ating</w>
fr ameworks</w>
Syn thesis</w>
A ma
大 师</w>
subsequ ently</w>
I R
体 会</w>
Fun ction</w>
玻 璃
渐 渐</w>
Con fuci
基督 教</w>
致 命</w>
l ord</w>
ten der</w>
car cinoma</w>
咨 询
ad hes
老 婆</w>
从 前</w>
毒 性</w>
tal ents</w>
influ ences</w>
消 灭</w>
仅 有</w>
Clim ate</w>
习 俗</w>
加 州</w>
20 世纪
inv o
d ressed</w>
Pr ince</w>
航空 公司</w>
p raise</w>
per mission</w>
facilit ating</w>
开 玩笑</w>
fl uctu
E T</w>
de al
事 态</w>
cro ps</w>
正 好</w>
pri ze</w>
fre ely</w>
中 断</w>
预 警</w>
P CR</w>
Ken ya</w>
FA O</w>
d os
moment um</w>
b row
另 有</w>
Maj or</w>
Al lah</w>
操 纵</w>
tri als</w>
食 用</w>
其 后</w>
柬埔 寨</w>
pack aging</w>
违 法</w>
rel ate</w>
limit ations</w>
人 家</w>
bur ied</w>
聚 合</w>
不 容易</w>
各种 各样</w>
tap e</w>
wit nesses</w>
J im</w>
书 记</w>
col leges</w>
夏 季</w>
susp ended</w>
摄 像
in sufficient</w>
bo o</w>
ar k</w>
rac ial</w>
So viet</w>
极 限</w>
develop ers</w>
鼻 子</w>
时间 表</w>
Con trac
风 景</w>
end ar</w>
el sewhere</w>
b id
发 誓</w>
hu i</w>
des ir
欢 乐</w>
br ush</w>
sus pension</w>
se al</w>
反 而</w>
susp ect</w>
st al
He ad</w>
真 空</w>
Ordin ance</w>
较 少</w>
al arm</w>
ot a</w>
prepar atory</w>
收 缩</w>
你知 道
遗 传
MR I</w>
得 知</w>
三 角
一 贯</w>
拉 圭</w>
k i
in spired</w>
欺 骗</w>
corro sion</w>
premis es</w>
w are
树 木</w>
屋 子</w>
生产 总值</w>
你知道 吗</w>
气 象</w>
IO S</w>
threat ened</w>
repeat edly</w>
ste water</w>
B ran
杰 出</w>
恤 金</w>
原 谅</w>
关 税</w>
b ell</w>
鸡 蛋</w>
extr act</w>
omet er</w>
Ethiop ia</w>
re str
pre ferred</w>
enn y</w>
参 照</w>
H ous
w ashing</w>
accid ents</w>
多样 性</w>
t elecommun
势 力</w>
hang ing</w>
早 已</w>
w ings</w>
散 发</w>
Har v
Cl ass</w>
Medic ine</w>
里 兰
guaran tees</w>
port fol
当 年</w>
短 缺</w>
Ch ile</w>
严 厉</w>
im migration</w>
教 徒</w>
me ets</w>
打 扰</w>
exc use</w>
Cal cul
海 滩</w>
compar ative</w>
pi g</w>
dist or
M em
hi bit
节 奏</w>
bi an</w>
pol l
ra p</w>
B S</w>
消 防</w>
Mu sic</w>
roman tic</w>
句 子</w>
媒 介</w>
征 聘</w>
mini stry</w>
列 车</w>
dr inks</w>
For ces</w>
out lined</w>
大 战</w>
des ert</w>
row ave</w>
s oph
变 异</w>
di ver
sco res</w>
F ine</w>
withdraw al</w>
O w
B ase</w>
旅游 业</w>
迟 到</w>
el ect</w>
水 中</w>
del ayed</w>
沮 丧</w>
Contro l
Man ager</w>
E D
齿 轮</w>
捐 赠</w>
hol y</w>
Part nership</w>
diam ond</w>
com modities</w>
12 月
志愿 者</w>
图 案</w>
sear ching</w>
t z</w>
for gotten</w>
rati fication</w>
秘 鲁</w>
R ural</w>
con formity</w>
hu ang</w>
bi ke</w>
M ur
ren der</w>
搭 配</w>
会 晤</w>
w ed</w>
dark ness</w>
P y
尺 度</w>
离 子
最后 一
还 原</w>
pro minent</w>
deri v
都 市</w>
指 引</w>
刚 果</w>
some what</w>
navig ation</w>
总 之</w>
ra rely</w>
vill ages</w>
Cro ati
guarante ed</w>
独 自</w>
process ed</w>
Willi am</w>
re marks</w>
soci o</w>
app rais
Clu b</w>
Ex pression</w>
演 化</w>
respon ded</w>
s enti
se y</w>
emb arr
198 9</w>
fra ud</w>
难 过</w>
j ian</w>
it ude</w>
民 事</w>
一九 九
1 60</w>
运 转</w>
s our
M igr
men u</w>
oper ated</w>
安 慰</w>
穿 上</w>
li ps</w>
矿 物</w>
col or
风 暴</w>
f u</w>
recip i
ra il</w>
D ri
世 上</w>
ax is</w>
直升 机</w>
论 如何</w>
职 员</w>
无 论如何</w>
放 到</w>
cer tification</w>
现 已</w>
phot ograph
fing ers</w>
stoc k
su icide</w>
aes thetic</w>
acqu ire</w>
y i</w>
correc tly</w>
威 廉
n i</w>
chec king</w>
负 载</w>
j ust
周 四</w>
G M</w>
尼泊 尔</w>
牧 师</w>
U V</w>
p ushed</w>
n asty</w>
S et</w>
内 存</w>
上 下</w>
assum ed</w>
SQ L</w>
bl ack
C AD</w>
接 待</w>
储 蓄</w>
安 哥
er arch
呼 吸
an x
l ish</w>
tit udes</w>
既 往</w>
导 向</w>
discipl inary</w>
pe l</w>
元 首</w>
o ever</w>
s ement</w>
sec ured</w>
种族 歧视</w>
psych ology</w>
ox idation</w>
b ad
yl um</w>
poc ket</w>
ever age</w>
K o
礼 貌</w>
Tem per
瑜 伽</w>
at or
可 信</w>
蒙 古</w>
拍 卖</w>
g aps</w>
纠 纷</w>
del icious</w>
a warded</w>
祖 国</w>
and om
in cur
S ports</w>
Gu ide</w>
Canadi an</w>
prob ability</w>
ap parently</w>
开 会</w>
带 走</w>
ili bri
calcul ate</w>
c ing</w>
S i</w>
峰 会</w>
syn thes
incorpor ated</w>
0.0 1</w>
路 易
over whel
connec tions</w>
O S</w>
cere bral</w>
日 前</w>
re turning</w>
发展 战略</w>
P ul
Tw itter</w>
Bl ue</w>
deep er</w>
com prehen
以色列 人</w>
uc c
麻 醉</w>
塑 造</w>
严 肃</w>
事 宜</w>
直接 投资</w>
ear ned</w>
心理 学</w>
an xiety</w>
l ingu
预 报</w>
phys ics</w>
sor ption</w>
home work</w>
遇 见</w>
bo ards</w>
借 口</w>
我的 朋友</w>
屋 顶</w>
ho c</w>
美 味</w>
es .
Re gar
大 国</w>
未 有</w>
prison ment</w>
up set</w>
gr af
it er</w>
Trans port</w>
放 置</w>
教科 文</w>
divor ce</w>
干 部</w>
企业 家</w>
cul p
色 谱</w>
exc ess</w>
requ iring</w>
str ate</w>
高等 教育</w>
tom y</w>
ones elf</w>
宠 物</w>
rein forced</w>
Im age</w>
克罗地 亚</w>
克林 顿</w>
rec ycl
Vol un
collap se</w>
F lor
修 建</w>
N i</w>
St ri
cultiv ation</w>
isl ands</w>
武 力</w>
lin der</w>
Wor k
un certainty</w>
pos session</w>
尔 顿</w>
好 事</w>
审 核</w>
内 瑞
微 波</w>
Jour nal</w>
延 续</w>
direc tions</w>
大 地</w>
ci ve</w>
硬 化</w>
aw n</w>
上 市
委 内瑞
公 认</w>
L in</w>
cl er
A d</w>
美国 政府</w>
月 亮</w>
le is
dep uty</w>
自然 灾害</w>
ip e</w>
re feren
火 灾</w>
Qu estions</w>
g ather</w>
年 后</w>
流 域</w>
毒 素</w>
def ects</w>
Ch e
决 赛</w>
Yugosla via</w>
Territ ories</w>
surg ical</w>
Hol y</w>
眼 镜</w>
tro op</w>
san itation</w>
酒 精</w>
部 落</w>
op posed</w>
H PLC</w>
fil tr
阿 里
Accor dingly</w>
Commer ce</w>
大 门</w>
prescri bed</w>
Th omas</w>
m apping</w>
En h
pri de</w>
post ed</w>
environ ments</w>
man ces</w>
20 th</w>
置 于</w>
ic an</w>
合 法
audi o</w>
乐 意</w>
on t</w>
纪 律</w>
arg ue</w>
ul a</w>
read ers</w>
贯 彻</w>
辩 护</w>
cl oth</w>
Man ufac
olo gists</w>
en vis
ca p</w>
Afgh an</w>
Aut om
软 件
Cam bo
mari time</w>
Dec ides</w>
愚 蠢</w>
订 立</w>
乔 治
p ounds</w>
经 委</w>
试 点</w>
comb ine</w>
规 约</w>
审 美</w>
eth ics</w>
碰 撞</w>
擅 长</w>
得 不到</w>
选 定</w>
par as</w>
L y
荣 耀</w>
名 额</w>
导 演</w>
备 选</w>
conveni ence</w>
3 5
死 于</w>
五 十</w>
comp ul
爵 士</w>
R isk</w>
pr ay</w>
民主 党</w>
m ad
职 工</w>
克 隆</w>
h ou</w>
Pro te
pro hibited</w>
modern ization</w>
under taking</w>
t less</w>
叔 叔</w>
要 点</w>
摄 影
随 便</w>
a w</w>
em en</w>
热 带</w>
t ance</w>
multi pl
rad ar</w>
虚 拟
承 载</w>
al bu
模 具</w>
将 近</w>
un cle</w>
as sa
1 月1日</w>
圆 形</w>
ax ial</w>
C M</w>
Leban ese</w>
Im p
防 范</w>
cr ying</w>
employ er</w>
ap paratus</w>
Ter ror
break s</w>
冻 结</w>
t ail
gr ay</w>
D re
co ol
市 长</w>
dis appeared</w>
广 阔</w>
b att
as leep</w>
领 取</w>
S ign
i x</w>
campa igns</w>
cataly st</w>
有 待</w>
毕业 生</w>
Chic ago</w>
In dependent</w>
fa ith
磁 场</w>
支 柱</w>
conven ed</w>
标准 化</w>
选 出</w>
an tum</w>
H ear
p ast
l or</w>
recei pt</w>
repe at</w>
B ack</w>
relev ance</w>
配 备</w>
im prisonment</w>
契 约</w>
传 说</w>
M and
constitu tion</w>
N ep
温 和</w>
山 区</w>
错 过</w>
厉 害</w>
duc t</w>
Ri o</w>
corpor ation</w>
B on
火 焰</w>
w a</w>
cop ies</w>
sha ft</w>
fac ial</w>
Re fuge
reiter ated</w>
vel i
dir ty</w>
h yp
V e
布 尔</w>
iti s</w>
基 层</w>
Enter prises</w>
上市 公司</w>
有 意</w>
auth entic
high way</w>
In surance</w>
R ot
阿尔及 利亚</w>
ar ise</w>
w ound</w>
sil k</w>
h eter
flu or
conclud ing</w>
199 3年</w>
h o</w>
溶 剂</w>
利 亚
手 续</w>
幼 儿
Ch ong
直 径</w>
bi om
vari ables</w>
2 2
星期 一</w>
pres erve</w>
So il</w>
car ries</w>
ob server</w>
没 关系</w>
erad ication</w>
入 学</w>
早 就</w>
导 体</w>
拥 抱</w>
同 情</w>
bur st</w>
qu it</w>
compl aint</w>
if t</w>
inf ected</w>
man kind</w>
sp ots</w>
IL O</w>
hel icop
电视 台</w>
0. 5</w>
des erve</w>
coll ecting</w>
wor n</w>
treas ure</w>
幻 想</w>
拿 出</w>
ch ances</w>
美 食</w>
rob ust</w>
肥 胖</w>
Reg ulation</w>
示 威</w>
周 六</w>
estim ation</w>
街 上</w>
同 等</w>
occ o</w>
R ol
T reas
无 辜</w>
紧 迫</w>
坚 强</w>
se ismic</w>
ref use</w>
就是 这样</w>
challeng ing</w>
res on
co des</w>
lay out</w>
获 悉</w>
sym bol
Fac tors</w>
本 土</w>
Mach ine</w>
cal cium</w>
hy brid</w>
char ging</w>
ass ure</w>
ste ad
pre cip
Sub committee</w>
安哥 拉</w>
玛 丽
ti ed</w>
201 5年
d rought</w>
sent ences</w>
dis played</w>
居 然</w>
考 验</w>
这 边</w>
伤 心</w>
复 兴</w>
勘 探</w>
v is</w>
好 的
K in
里 克</w>
v end
No body</w>
see ks</w>
ig no
商 标</w>
st y</w>
analy sts</w>
depos its</w>
创 立</w>
Ag ent</w>
b ai
S S
项 目
ad ds</w>
街 头</w>
仆 人</w>
hun ger</w>
O rig
不 了</w>
ad o</w>
布 朗</w>
税 务</w>
Sa har
offici ally</w>
explos ion</w>
cri tici
视 察</w>
ter ies</w>
灵 感</w>
温 室
粮 农</w>
支 配</w>
accum ulation</w>
工 商</w>
正 面</w>
多 元</w>
外 科</w>
et c.</w>
Some thing</w>
Olymp ics</w>
in he
aceu tical</w>
B ook</w>
am boo</w>
em bedded</w>
Acti vities</w>
tox ic</w>
cri ed</w>
Ro yal</w>
阿 塞
en rich
塞浦路 斯</w>
工业 化</w>
伦 理</w>
f uc
Me dia</w>
re a</w>
le an</w>
b ones</w>
predic t</w>
Sof tware</w>
pres erv
填 补</w>
we ird</w>
再 说</w>
reti rement</w>
Rec ently</w>
y u</w>
pl antation</w>
Prosec utor</w>
Z one</w>
Cur rently</w>
双 手</w>
z i</w>
代 理
UN IF
国 有
斯 基</w>
供应 链</w>
re structuring</w>
simultan eously</w>
bud getary</w>
as ylum</w>
东 省</w>
le ather</w>
bab ies</w>
Y ou
研究 报告</w>
环境 保护</w>
流 通</w>
模 仿</w>
to il
静 态</w>
l ap
zz le</w>
ol ine</w>
有 罪</w>
斯 顿</w>
super vis
红 外</w>
定 价</w>
Austri a</w>
平方 米</w>
水 资源</w>
使 馆</w>
grav ity</w>
码 头</w>
传 送</w>
l l
Y i
compati ble</w>
L ater</w>
规 章</w>
唱 歌</w>
分 数</w>
苏 格兰</w>
尼 尔</w>
marg in</w>
m ast
钢 琴</w>
enn ial</w>
星 球</w>
al um
effici ently</w>
gl ory</w>
C z
f atigue</w>
长 远</w>
二氧化 碳</w>
Turk ish</w>
Tian jin</w>
par king</w>
Ug anda</w>
镜 头</w>
促 成</w>
Jam a
busin ess
奶 奶</w>
D aily</w>
belong ing</w>
rel ax</w>
198 8</w>
贝 尔
des per
restaur ants</w>
s s</w>
被 捕</w>
有 意思</w>
东 南</w>
三 分之一</w>
第三 方</w>
therap eutic</w>
join ing</w>
收 取</w>
pa thy</w>
minist ers</w>
Chair person</w>
角 落</w>
Si x
provid ers</w>
p oo
激 光
几内 亚</w>
sinc ere</w>
m r</w>
支 票</w>
is tic
not ing</w>
冬 季</w>
f old</w>
or ange</w>
十 六</w>
早 些</w>
N ature</w>
sl ope</w>
估 算</w>
on ally</w>
西班 牙
def end</w>
In novation</w>
Agricul tural</w>
旅 行
B O
外 界</w>
传 达</w>
Arch it
血 管
Human itarian</w>
警 官</w>
s on
G ul
un likely</w>
sli de</w>
处理 器</w>
撒 哈
or a</w>
3 6
are r</w>
ol en</w>
两 个
神 奇</w>
Elec tric</w>
ti eth</w>
m ere</w>
o tive</w>
包 裹</w>
T A</w>
再 生
guid ing</w>
mot or
flo ating</w>
奋 斗</w>
U p</w>
电 缆</w>
Techni que</w>
fres h
惊 喜</w>
战 胜</w>
大 选</w>
B an
分 区</w>
不 妨</w>
amp ing</w>
c s</w>
cro p</w>
周 日</w>
mod es</w>
Equip ment</w>
emo tion</w>
initi ally</w>
rec k
semin ar</w>
i tions</w>
trem end
direc tors</w>
announc ement</w>
st ation
se p
ap p</w>
F as
跟 随</w>
电 力
S D
Res ource</w>
dr unk</w>
易 于</w>
源 于</w>
accord ingly</w>
上 万</w>
inj iang</w>
0 ,000</w>
E c
短 信</w>
Com mon</w>
Commer cial</w>
Issu es</w>
brilli ant</w>
ati zation</w>
&apos; I
ilibri um</w>
main streaming</w>
ad ol
th at
br ac
Sy m
brief ing</w>
Moun tain</w>
con du
皇 家</w>
碰 到</w>
cap tain</w>
In stitu
旅 程</w>
ep h</w>
un ified</w>
V ision</w>
Ar ts</w>
随 之</w>
齐 全</w>
发 病</w>
数学 模型</w>
l oud</w>
com pression</w>
Y i</w>
Cust oms</w>
SA R</w>
se x</w>
女 朋友</w>
t ling</w>
G C</w>
字 符</w>
Pre sid
plan es</w>
bom b</w>
c ut
Territ ory</w>
偶 尔</w>
vi br
维 尔</w>
全 都</w>
真 的
le an
are ly</w>
lo vers</w>
阿塞 拜
上 来</w>
fo res
a ver
女 王</w>
一 千</w>
cal endar</w>
S ay</w>
此 刻</w>
re sume</w>
恶 劣</w>
cen ters</w>
人 心</w>
P D
O u
Sou theast</w>
bel i
enem ies</w>
D raft</w>
explos ive</w>
ben ch
mobil ization</w>
es ome</w>
trans mitted</w>
tr a</w>
is ely</w>
10 2</w>
洪 水</w>
cogn itive</w>
B il
Pol and</w>
时 报</w>
concentr ated</w>
com prises</w>
l ec
str ang
申 报</w>
ari ties</w>
gr ound
全 身</w>
te x</w>
de emed</w>
余 额</w>
T A
sovere ign</w>
21 st</w>
Legisl ative</w>
航 行</w>
ar range</w>
给 你们</w>
adv ancement</w>
再 来</w>
Mor occo</w>
re fri
年 纪</w>
西 北</w>
截 止</w>
settl ements</w>
大 学
dr ama</w>
fro zen</w>
K az
in adequate</w>
em an</w>
al thy</w>
军 人</w>
欲 望</w>
负 有</w>
for give</w>
Ma ur
公 告</w>
Zh ou</w>
轻 易</w>
tem p
priv acy</w>
v enti
re ward</w>
bas in</w>
钢 铁</w>
thre w</w>
组 建</w>
s now
目 光</w>
assign ment</w>
借 此</w>
全球 经济</w>
共和 党</w>
in fer
Know ledge</w>
杀 人</w>
r andom
同 期</w>
indic ator</w>
v el</w>
Su b</w>
applic ant</w>
gi e</w>
巡 逻</w>
家 乡</w>
大 胆</w>
规 格</w>
it a</w>
方 位</w>
thor ou
财务 报表</w>
vo ire</w>
imag ination</w>
id al</w>
accur ately</w>
trav eling</w>
智 力</w>
下 滑</w>
sk illed</w>
person ally</w>
fe at
St ar</w>
ec tural</w>
e or
op pon
ren al</w>
D ong
芝加 哥</w>
sam pling</w>
er ce</w>
辞 职</w>
st resses</w>
v ary</w>
ess entially</w>
佛 罗
an ol</w>
Con sum
沉 重</w>
国 防</w>
p in</w>
e z</w>
def icit</w>
b esides</w>
R econ
share holders</w>
点 儿</w>
崇 拜</w>
W at
main stream</w>
Indi genous</w>
C A</w>
N O</w>
题 目</w>
allow ance</w>
U L
f a</w>
ak h
consolid ation</w>
Dec ision</w>
10 9</w>
Sup pl
an der</w>
scre w</w>
东道 国</w>
Bo b</w>
此 后</w>
circul ar</w>
b adly</w>
Fir stly</w>
p av
3 rd</w>
m o</w>
切 割</w>
separ ately</w>
预 先</w>
under ing</w>
furn ace</w>
em powerment</w>
13 .
感 知</w>
dr illing</w>
业 主</w>
每 当</w>
rang ing</w>
配 偶</w>
一 番</w>
cam ps</w>
跨 越</w>
tiz ation</w>
Ste ve</w>
th read</w>
ow e</w>
bedro om</w>
污 水</w>
an eous</w>
半 岛</w>
expres sions</w>
am id</w>
Happ y</w>
dis hes</w>
行 走</w>
Sen ior</w>
the at
救 助</w>
vis a</w>
resp ir
en ables</w>
emphas ize</w>
coordin ating</w>
疯 了</w>
中 小企业</w>
N otes</w>
perfor mances</w>
stri ve</w>
不 止</w>
动 员</w>
Si x</w>
建 成</w>
O IOS</w>
Dani el</w>
一 如
一如 既往</w>
Di agn
ic it
ard ous</w>
b acks</w>
光 明</w>
优 雅</w>
美联 储</w>
12 5</w>
ag ged</w>
ez u
R ail
cr ash</w>
鱼 类</w>
pr ud
P E</w>
desig ner</w>
Exper t</w>
介 入</w>
r ush</w>
奥 林
att acked</w>
垄 断</w>
生 长
qual ities</w>
商业 银行</w>
Mad am</w>
T P</w>
S ul
dec ides</w>
Produc t</w>
好 消息</w>
十 九</w>
reco ver</w>
学 员</w>
pain ful</w>
blo g</w>
f ever</w>
k istan</w>
resp ected</w>
ur ban
抛 弃</w>
specif y</w>
M ine</w>
&apos;I voire</w>
serv ant</w>
enh ancement</w>
人 为</w>
rati fied</w>
in her
资 产
玻 利
太阳 能</w>
bas es</w>
Al li
所 属</w>
we i</w>
p it
refl ecting</w>
elig ible</w>
海 洋
Bo dy</w>
vulner ability</w>
box es</w>
Mr s</w>
poss ess</w>
ig ned</w>
封 锁</w>
clear ance</w>
bal ances</w>
烟 草</w>
Fol low</w>
ig nor
n ick
三 角</w>
M S
电子 地图</w>
ti ps</w>
长 达</w>
赞 助</w>
Ch eck</w>
我想 你</w>
借 助</w>
p se</w>
enjoy ment</w>
并 行</w>
ing ness</w>
vit ro</w>
T ax</w>
shor tage</w>
结 晶</w>
shel ter</w>
男 女
特 权</w>
o ste
set tings</w>
en abled</w>
rel la</w>
er ion</w>
199 4年
磨 损</w>
Be havi
超 级
蔓 延</w>
会议 室</w>
br a</w>
J ac
Simil arly</w>
休 闲</w>
运 送</w>
征 收</w>
pow ered</w>
cris es</w>
黑 塞
aband oned</w>
Strength ening</w>
min er
密 集</w>
电 网</w>
不 当</w>
indic ating</w>
my ster
k ingdom</w>
h u</w>
tri but
怎么 回事</w>
embarr ass
val idity</w>
c um
Res ear
传 染</w>
Viet nam</w>
深 化</w>
3. 5</w>
produc ers</w>
A zer
精 心</w>
ag on
4 8
研究 生</w>
特 里亚</w>
rec ession</w>
列 为</w>
modi fication</w>
lo on</w>
li veli
加 密</w>
鞋 子</w>
tim ing</w>
mus ical</w>
哥 维
去 过</w>
分 子
j ury</w>
特 网</w>
白 人</w>
推 向</w>
切 尔
f ears</w>
B ack
慈 善</w>
ph ere</w>
ic ked</w>
Econom y</w>
199 2年</w>
off set</w>
选 用</w>
calcul ating</w>
b ars</w>
纳 米
ra fts</w>
衍 生</w>
th y
squ e
人民 政府</w>
家 属</w>
des ired</w>
chlor ide</w>
实 证
regul ated</w>
so red</w>
ci d</w>
pol ymer</w>
依 旧</w>
黑塞 哥维
a ison</w>
大西 洋</w>
or i</w>
淀 粉</w>
0 5</w>
推 导</w>
persist ent</w>
grati tude</w>
o a</w>
assist ing</w>
工作 计划</w>
C E</w>
di str
trop ical</w>
arbitr ary</w>
wor ship</w>
Every body</w>
噪 音</w>
解 读</w>
m ess</w>
exce ed</w>
盈 利</w>
描 绘</w>
con stitutes</w>
神经 元</w>
com pos
上 空</w>
re productive</w>
N BA</w>
配 套</w>
Mo del
福 音</w>
排 斥</w>
dec lar
integr ating</w>
据 称</w>
星 星</w>
pre jud
厄 立
众 人</w>
s olu
enti als</w>
S tra
u rements</w>
b la
n est</w>
bes ide</w>
ev al</w>
Mongol ia</w>
共产 党</w>
cros sing</w>
v otes</w>
爱 上</w>
自 治
指 挥
ro g
con fin
卧 室</w>
An gol
199 0年</w>
He at</w>
e i</w>
We i</w>
consider ations</w>
空 白</w>
盒 子</w>
mar king</w>
V D</w>
struc tured</w>
Meas urement</w>
生 病</w>
G B</w>
Cap tain</w>
lo ver</w>
ab ul
服 用</w>
V ill
S M
pro jec
pe as
汽 油</w>
Val ley</w>
绝 望</w>
resear ches</w>
Temper ature</w>
歌 手</w>
kill er</w>
t ue</w>
彩 色</w>
ol er
invest ed</w>
eleg ant</w>
Sh andong</w>
总 量</w>
住 院</w>
成 型</w>
折 磨</w>
同 行</w>
re duc
废 除</w>
encoun tered</w>
赤 字</w>
ar a</w>
per mitted</w>
竞争 对手</w>
I de
住 区</w>
199 6年
bud gets</w>
N ai
H O
大 海</w>
匈 牙
cr ude</w>
支 架</w>
境 外</w>
最后 一次</w>
情 节</w>
foun der</w>
Harv ard</w>
i us</w>
狭 窄</w>
Belgi um</w>
avi ation</w>
ul ating</w>
promis es</w>
per me
以 至于</w>
consequ ence</w>
Ju li
p neum
A .
l um
野 生</w>
中 药</w>
Ama z
煤 炭</w>
抽 象</w>
fl esh</w>
Mater ials</w>
qui etly</w>
un preced
复 员</w>
氛 围</w>
en ly</w>
cho osing</w>
好 奇</w>
热 量</w>
ter ly</w>
semin ars</w>
厄立 特里亚</w>
Optim ization</w>
消 化</w>
renew able</w>
Ven ezu
connec ting</w>
U m</w>
pl ug</w>
ingredi ents</w>
ener y</w>
罗 斯</w>
valu ed</w>
首 席
inc enti
in i</w>
el ly</w>
Sing le</w>
soph istic
s al</w>
视 图</w>
杰 克
un ilateral</w>
漫 长</w>
exp ense</w>
Inspec tion</w>
Acc ess</w>
汇 编</w>
rhy th
坚 信</w>
假 装</w>
barri er</w>
bu yer</w>
L at
uni vers
dev i
Al ex
走 过</w>
长 久</w>
涂 料</w>
性 恋</w>
corpor ations</w>
Sur face</w>
C ath
v y</w>
sub programme</w>
iz er</w>
emb ry
res ort</w>
inv al
B at
om ed</w>
peri ph
D at
量 化</w>
上 课</w>
会 不会</w>
inev itable</w>
wit n
Schem e</w>
Hous ing</w>
言 语</w>
美 学</w>
灯 泡</w>
dec ent</w>
respon ding</w>
w as
纯 粹</w>
毫 米</w>
ar c</w>
Res ist
开 幕</w>
Num erical</w>
ed oms</w>
C ell</w>
潮 流</w>
失 业率</w>
启 发</w>
g est
E rit
ven ue</w>
volunte ers</w>
struc tive</w>
培 育</w>
墙 上</w>
re ferences</w>
F low</w>
fl ame</w>
es cap
dec isi
忠 诚</w>
sk i</w>
天 赋</w>
L os</w>
E N</w>
sub jected</w>
ou l</w>
is co</w>
discus sing</w>
S how</w>
烦 恼</w>
招 募</w>
B ir
约 定</w>
电 厂</w>
LD Cs</w>
后 期</w>
标 识</w>
图 书</w>
始 人</w>
斯 达
知 情</w>
staff ing</w>
内 罗
prov en</w>
cl ause</w>
租 金</w>
p el
cou pling</w>
语 义</w>
jo ke</w>
沙 特
调 制</w>
e uro</w>
霉 素</w>
偏 见</w>
is a</w>
喜 悦</w>
N AS
同 志</w>
随 意</w>
C ô
o ch
am er
阴 影</w>
股 价</w>
im bur
repor ters</w>
卡 尔
st ering</w>
safe guard</w>
席 位</w>
十 八</w>
布 斯</w>
t osis</w>
dis order</w>
Cô te</w>
foreig ners</w>
联合国 宪章</w>
后 悔</w>
add resses</w>
Jos eph</w>
A G
compet e</w>
温室 气体</w>
anticip ated</w>
多 尔</w>
adap tive</w>
30 年</w>
Wor ks</w>
ecos ystem</w>
or us</w>
p ushing</w>
at ri
新 华
选 取</w>
viol ated</w>
dat ory</w>
Pri mary</w>
c and
Rom an</w>
喜 欢
lo y
不 定</w>
ven cy</w>
For ms</w>
repor ter</w>
安 娜</w>
de pri
suppl ier</w>
比 尔</w>
卡 塔
F ire</w>
bath room</w>
水 稻</w>
总 共</w>
操作 系统</w>
多元 化</w>
to oth</w>
sy ner
海 事</w>
l ac
Ph ase</w>
数 以</w>
mathematic s</w>
defe at</w>
n es</w>
Tour ism</w>
inst all</w>
Fin land</w>
ro tation</w>
h iding</w>
停 火</w>
stric ts</w>
星期 二</w>
l ens</w>
波 器</w>
f ake</w>
Chang es</w>
欺 诈</w>
ta xi</w>
萨 尔
solid arity</w>
bu yers</w>
Ch an
中 介</w>
反 思</w>
在 场</w>
r yp
纲 要</w>
Dec ade</w>
specif ication</w>
rel ax
F C</w>
pro jected</w>
E specially</w>
向 上</w>
卓 越</w>
严 峻</w>
W rit
cohe rence</w>
lo ads</w>
奴 隶</w>
high light</w>
igh ty</w>
排 列</w>
小 镇</w>
prof ession</w>
学 金</w>
portfol io</w>
occur rence</w>
re viewing</w>
soldi er</w>
Azer bai
白 天</w>
sha ke</w>
pi ano</w>
ay er</w>
喝 酒</w>
强 劲</w>
ic on
ed itor</w>
ar t
H ong
ach ment</w>
营 地</w>
昆 虫</w>
出 租
ch a
gun s</w>
结 局</w>
it y
dis count</w>
高速 公路</w>
gan g</w>
pos sibilities</w>
au g
S ource</w>
因 特网</w>
li br
中 毒</w>
recogn izes</w>
C all</w>
g in
mort gage</w>
宝 石</w>
bor ing</w>
格 局</w>
大 批</w>
accoun ted</w>
接 纳</w>
do zen</w>
还 好</w>
wor e</w>
b ills</w>
发展 趋势</w>
ir ts</w>
奥林 匹
ro ll</w>
夫 妻</w>
C lar
涂 层</w>
投 标</w>
内罗 毕</w>
hi erarch
哈 萨
ann ually</w>
aggres sion</w>
sp an</w>
cust ody</w>
富 裕</w>
ri ding</w>
In f
analy se</w>
外 观</w>
S l
tion ers</w>
ec tors</w>
裂 缝</w>
chec k
appe als</w>
生物 多样性</w>
缔 结</w>
没 收</w>
战 士</w>
dro ve</w>
unpreced ented</w>
com bustion</w>
波斯 尼亚
pat ch</w>
H ou
oc e
豪 华</w>
位 移</w>
M obile</w>
regul ate</w>
f ut
advoc acy</w>
恐怖 分子</w>
全 民</w>
expres ses</w>
di c</w>
ic ks</w>
E liz
ho sted</w>
pain tings</w>
驻 地</w>
resum ed</w>
pen etr
动 议</w>
g aining</w>
pac king</w>
心脏 病</w>
织 物</w>
召 集</w>
收 回</w>
concentr ate</w>
凋 亡</w>
che ese</w>
surve ys</w>
手 工</w>
24 小时</w>
的 人</w>
sa uce</w>
Syri a</w>
4 th</w>
照 料</w>
compris ing</w>
sol vency</w>
dram atic</w>
ferti liz
敌 对</w>
consist ency</w>
修 理</w>
站 点</w>
锅 炉</w>
交易 所</w>
约 旦</w>
布 置</w>
与 其</w>
i ii</w>
p an</w>
动 画</w>
atom ic</w>
O ut</w>
成 千
in cl
up grade</w>
邮 政</w>
bra ve</w>
apprais al</w>
哭 泣</w>
consist ently</w>
罗马 尼亚</w>
Terror ism</w>
H u</w>
fer r
ver ify</w>
immun ity</w>
on ym
原 有</w>
odi versity</w>
Bol i
我们 的
re vision</w>
cou pled</w>
perc eption</w>
201 8</w>
两 天</w>
ul ty</w>
表 征</w>
成千 上万</w>
d d
纷 纷</w>
sc al
患 有</w>
distinc tion</w>
难 以
底 部</w>
失 效</w>
them es</w>
holid ays</w>
单 个</w>
还 记得</w>
颁 发</w>
丢 失</w>
tr il
Fran k
Employ ment</w>
journ alists</w>
F BI</w>
想 说</w>
已 知</w>
ther mo
gram s</w>
Up on</w>
St .</w>
除 外</w>
微 型</w>
manufactu rer</w>
am ps</w>
P s</w>
原 油</w>
ste al</w>
看 不到</w>
arg uments</w>
tenn is</w>
sli p</w>
T it
节 约</w>
pursu ing</w>
c ous
sacrif ice</w>
日 志</w>
解 雇</w>
ar ch</w>
Rel ations</w>
笔 者</w>
ab r
T i</w>
美 妙</w>
黑塞哥维 那</w>
波斯尼亚 和
波斯尼亚和 黑塞哥维那</w>
broad cast</w>
sp ite</w>
而 易
ti les</w>
市场 经济</w>
no tion</w>
有 钱</w>
inqu iry</w>
ign ore</w>
ar y
th al
ro d</w>
iz hou</w>
ut ors</w>
AP I</w>
报 名</w>
加 深</w>
det ained</w>
巴 士</w>
desir able</w>
Gr and
bur ned</w>
中国 大陆</w>
Den mark</w>
condi tioning</w>
本 月</w>
bre ach</w>
Dru g</w>
临 界</w>
首 长</w>
10 4</w>
拉 斯
m ill
施 行</w>
不 公平</w>
假 定</w>
Bud get</w>
occas ions</w>
sco red</w>
英 国人</w>
t t
in stances</w>
西 藏</w>
198 0</w>
不 可以</w>
optim um</w>
Arab ia</w>
compul sory</w>
Det ection</w>
幼儿 园</w>
activ ated</w>
aw ards</w>
凝 胶</w>
mo bility</w>
bre eding</w>
writ ers</w>
enthusi asm</w>
ren ts</w>
就 让</w>
tan eous</w>
A th
新 疆</w>
微 观</w>
m able</w>
pip eline</w>
第 一步</w>
Commun ist</w>
E G
电 气</w>
Yun nan</w>
西 南</w>
bure au</w>
无 聊</w>
走 廊</w>
S B
实 习</w>
14 .
der gar
奉 献</w>
ch i</w>
等 你</w>
associ ate</w>
G ab
pol e</w>
平 安</w>
ri gation</w>
执行 官</w>
demonstr ation</w>
破 裂</w>
gl uc
Li qu
stri p</w>
cy linder</w>
子 弹</w>
def iciency</w>
l anding</w>
5 00
我的 心</w>
填 写</w>
fric tion</w>
cohe rent</w>
prec isely</w>
周 三</w>
一 带</w>
incenti ves</w>
周 知</w>
管理 层</w>
莫 斯科</w>
魔 法</w>
Dou ble</w>
ci a</w>
rad ical</w>
trans mit</w>
Per u</w>
appro ve</w>
er os
moder ate</w>
accompl ished</w>
Educ ational</w>
progres sive</w>
鉴 别</w>
生 人</w>
ber y</w>
Hun g
cop y
手 法</w>
步 伐</w>
士 学位</w>
bul k</w>
argu ed</w>
报 复</w>
运 算</w>
守 则</w>
Lin ux</w>
be i
杀 伤</w>
华 尔
丽 莎
system atically</w>
寒 冷</w>
ast ly</w>
报 价</w>
H and
brea thing</w>
ra ys</w>
temper atures</w>
ide ological</w>
b ands</w>
轮 胎</w>
lym ph
dr agon</w>
vari eties</w>
acc ess
grow s</w>
d able</w>
L ong
v ascular</w>
Chong qing</w>
证 件</w>
pe red</w>
浅 析</w>
斯 里兰
moist ure</w>
limit ation</w>
rob i</w>
jum ped</w>
bl u
辨 率</w>
分 辨率</w>
b ag
ret ain</w>
renew ed</w>
性 化</w>
process or</w>
dis ser
Ad ditional</w>
flow ing</w>
St an
a .
cor d</w>
consist ing</w>
温 柔</w>
kid ney</w>
tribut es</w>
期 刊</w>
危 地
at em
Coordin ator</w>
c ute</w>
ro ph
execu ted</w>
liber ty</w>
注 定</w>
S wis
净 化</w>
ar us</w>
Nep al</w>
at oes</w>
Palestini ans</w>
威 尔</w>
politici ans</w>
索 引</w>
口 袋</w>
harv est</w>
dec l
阿塞拜 疆</w>
分布 式</w>
re aches</w>
mer cury</w>
一 阵</w>
真的 吗</w>
流 行
录 像</w>
不 列
迷 人</w>
or rh
动 荡</w>
创 始人</w>
mut ually</w>
清 醒</w>
R ice</w>
Sup ply</w>
格 雷
s culp
Nai robi</w>
1. 1</w>
L ist</w>
战 略
weak ness</w>
一点 点</w>
兔 子</w>
电 梯</w>
depar ture</w>
adjust ments</w>
10 8</w>
B ot
利 息</w>
检 讨</w>
Gr and</w>
签 字</w>
hi red</w>
改 良</w>
mon opol
er ly</w>
MO N
st olen</w>
5 ,000</w>
Mos cow</w>
债 务
绘 制</w>
f s</w>
mater nal</w>
stre am
示 例</w>
ab eth</w>
inter ventions</w>
硕 士</w>
spec tives</w>
rou gh
Croati a</w>
bow l</w>
gent le</w>
星期 四</w>
摩 托
广 义</w>
Ad vis
199 7年
newsp apers</w>
pr ince</w>
T y
Con stitu
autom obile</w>
Trans fer</w>
ren tal</w>
股 权</w>
治 愈</w>
lau ghter</w>
sur plus</w>
W ow</w>
qu ery</w>
o th
配 方</w>
更 具</w>
r ings</w>
预 订</w>
swe ar</w>
sw im</w>
G h
林 业</w>
学 期</w>
u el</w>
cent uries</w>
plat forms</w>
inv asion</w>
se ized</w>
w inner</w>
二 维</w>
green house</w>
l ou
Nan jing</w>
Blo od</w>
成 因</w>
scri pt</w>
深 处</w>
Co al</w>
民 营</w>
姿 态</w>
An im
scre ening</w>
scop y</w>
上 个月</w>
口 语</w>
ak a</w>
Con clusions</w>
Musli m</w>
供 水</w>
tex ts</w>
ain less</w>
ge ological</w>
gener ator</w>
十 七</w>
近 似</w>
public ly</w>
Fo rest</w>
h ire</w>
厕 所</w>
ship ment</w>
Prepar atory</w>
wr ong
一 头</w>
产 妇</w>
trans fers</w>
in tim
at titudes</w>
默 认</w>
近 东</w>
1. 3</w>
会计 准则</w>
人 口
优 于</w>
弗 雷
compar ing</w>
累 积</w>
相信 我</w>
Chris ti
名 词</w>
p ink</w>
C S</w>
i est</w>
d ens</w>
狮 子</w>
l ending</w>
plan ted</w>
S hel
Proc essing</w>
bl ade</w>
手 臂</w>
几 分钟</w>
形 容</w>
球 迷</w>
斯里兰 卡</w>
外 汇</w>
ge o
t enth</w>
海 水</w>
斯 科
ang el</w>
繁 殖</w>
Atl antic</w>
questionn aire</w>
单 击</w>
晚 饭</w>
hur ry</w>
W atch</w>
长 率</w>
特 遣
sh ear</w>
had n</w>
毛 里
m i</w>
Cz ech</w>
isol ation</w>
Establ ishment</w>
ad he
船 上</w>
phas es</w>
pric ing</w>
开 口</w>
bi ology</w>
resid ual</w>
流 入</w>
col um
hot els</w>
10 3</w>
经 社</w>
ann er</w>
remedi es</w>
im pose</w>
20 20</w>
nation als</w>
Un less</w>
C as
fre edoms</w>
t s
rec re
Bi ble</w>
re imbur
拉 ·
utili zed</w>
间 隔</w>
毫 不</w>
invest or</w>
accommod ation</w>
染 色</w>
光 线</w>
eng er</w>
凶 手</w>
safe guards</w>
uni tion</w>
ch ap
论 证</w>
crit erion</w>
pro be</w>
多 重</w>
p it</w>
缓 冲</w>
十 字</w>
tremend ous</w>
abund ant</w>
dist ant</w>
Res erve</w>
l etting</w>
D ear</w>
粉 丝</w>
灯 光</w>
prote ins</w>
指 望</w>
sec toral</w>
5 ,
N T</w>
neutr al</w>
engine er</w>
on able</w>
均 有</w>
Inde x</w>
感 动</w>
伤 亡</w>
再生 能源</w>
re duces</w>
申 请
吃 惊</w>
几 百</w>
为 本</w>
di oxide</w>
equ ilibrium</w>
enzy me</w>
re ferring</w>
in er
C ab
写 信</w>
consult ative</w>
ro l</w>
0 8</w>
首 歌</w>
罕 见</w>
concer t</w>
H ur
击 败</w>
m asses</w>
Al g
M .</w>
res ist</w>
该 死</w>
h oo
Des cri
雇 佣</w>
果 实</w>
warm ing</w>
R ed
man dated</w>
li th
英 寸</w>
vir tue</w>
手 上</w>
bl ast</w>
陆 地</w>
dev ast
bub ble</w>
3 50</w>
clim b</w>
亲 密</w>
尴 尬</w>
厄 瓜
as ia</w>
院 长</w>
y le</w>
后 代</w>
好 朋友</w>
rest oration</w>
minist erial</w>
裁 判</w>
repor tedly</w>
ot ted</w>
B BC</w>
苦 难</w>
H angzhou</w>
撒哈 拉</w>
繁 多</w>
见 了</w>
树 立</w>
Loo king</w>
所 致</w>
统 筹</w>
con junction</w>
1 11</w>
b ite</w>
Lim ited</w>
地 层</w>
集 会</w>
青 春</w>
it ably</w>
联 赛</w>
本 着</w>
源 自</w>
Xi a
10 6</w>
correc tion</w>
否 定</w>
不 及</w>
联 邦
ri vers</w>
Mar ine</w>
输 送</w>
众 所
酸 盐</w>
out line</w>
查 阅</w>
众所 周知</w>
i P
qual ification</w>
D .
st ake</w>
O H
FD I</w>
se ud
预 见</w>
大 致</w>
deliber ations</w>
推 理</w>
队 长</w>
mod ules</w>
predic ted</w>
a thy</w>
物 理
discrimin atory</w>
cap tured</w>
Cambo dia</w>
ch at</w>
详 情</w>
不 懈</w>
笑 话</w>
b ular</w>
reaffir med</w>
prin ts</w>
id en
大 街</w>
天 上</w>
Phys ical</w>
thor ough</w>
洗 钱</w>
熟 练</w>
ain e</w>
ad mis
珍 贵</w>
dis per
健 身</w>
v o</w>
树 林</w>
spon sors</w>
pul monary</w>
gras p</w>
attribu te</w>
lab el</w>
Gre en
con s
H ai
obil ization</w>
填 充</w>
over view</w>
chec ks</w>
re patri
Ch urch</w>
k ick</w>
kne e</w>
养 老
数 千</w>
met als</w>
尤 为</w>
del ays</w>
g ent</w>
S on</w>
G ene</w>
佛 教</w>
印 发</w>
te ar</w>
f ought</w>
实 话</w>
里 斯</w>
残 留</w>
Pr ac
配 件</w>
gen cies</w>
10 ,000</w>
数字 化</w>
sens ing</w>
进 出口</w>
ev ident</w>
fac tories</w>
种 群</w>
衬 衫</w>
t d</w>
n ights</w>
la dies</w>
带 上</w>
E p
穿 越</w>
S ri</w>
ver sions</w>
di bility</w>
b our
美国 总统</w>
危地 马拉</w>
教 导</w>
r ank</w>
D ra
di stricts</w>
tor ate</w>
食 品
phenomen a</w>
in direct</w>
外交 部</w>
精 英</w>
上 网</w>
icit ly</w>
kilomet ers</w>
simul ated</w>
Appl ications</w>
mo ther
加 沙</w>
变 为</w>
分 成</w>
营 造</w>
expl oring</w>
零 售
心 态</w>
m ill</w>
陌 生人</w>
ex ported</w>
vol can
jour nal</w>
Bi ological</w>
00 1</w>
眼 泪</w>
igno red</w>
fail s</w>
Priv ate</w>
外 来</w>
adequ ately</w>
横 向</w>
leis ure</w>
公 斤</w>
thorou ghly</w>
rem em
Proced ure</w>
离 散</w>
conc e
O thers</w>
饲 料</w>
F ed</w>
id er</w>
蒸 汽</w>
Represent atives</w>
亚 历
脑 袋</w>
Ma x</w>
Char lie</w>
逃 避</w>
Ser ver</w>
A m</w>
sh ou
倾 听</w>
fa thers</w>
外交 部长</w>
一 眼</w>
dis closure</w>
Swis s</w>
Hel p</w>
al ition</w>
胶 囊</w>
sh ut
Commun ications</w>
没 问题</w>
姆 ·
def ect</w>
最后一 个</w>
够 了</w>
counter measures</w>
报 导</w>
r am
追 溯</w>
pre mi
201 7年</w>
东 盟</w>
匈牙 利</w>
巴 巴</w>
Jiang su</w>
assur ance</w>
共 和</w>
s ne
Ho c</w>
责 制</w>
0 3</w>
H hh
替 换</w>
探 究</w>
Emer gency</w>
遣 返</w>
sev erely</w>
athlet es</w>
Mos es</w>
加利 福
V oc
ank a</w>
U sed</w>
马 克</w>
问 责制</w>
tack le</w>
亚 美
那 个
spon sored</w>
Sec urities</w>
vacc ine</w>
D E
存 活</w>
ob taining</w>
sat ur
南 省</w>
Ac counting</w>
地 理
provid er</w>
ang i
res emb
冰 箱</w>
日 报</w>
E sti
woo den</w>
Mac ao</w>
ste pped</w>
de pl
Col um
Ser bia</w>
ar i</w>
atten ding</w>
美 术
b re</w>
共 振</w>
ag ging</w>
W AR
an thro
ogen esis</w>
investig ating</w>
ad di
A ri
Gu atem
sing er</w>
rou ghly</w>
b alls</w>
P ic
廉 价</w>
inspir ation</w>
certif icates</w>
Pu bl
predic table</w>
isi ble</w>
cav ity</w>
un ification</w>
mater i
尼 克</w>
白 俄罗斯</w>
批 判</w>
coun sel</w>
猴 子</w>
感 谢你</w>
x ia</w>
ly wood</w>
善 良</w>
来 讲</w>
J ones</w>
离 职</w>
普 查</w>
ex em
O N</w>
bo ar
preserv ation</w>
ca th
enjo ying</w>
谎 言</w>
6 个月</w>
jud iciary</w>
con qu
t os
不同 于</w>
P D</w>
NG O</w>
N PT</w>
滤 波器</w>
A sh
W ol
Bran ch</w>
un ning</w>
C I</w>
开 办</w>
眼 中</w>
flav or</w>
bit ter</w>
develop s</w>
中 美</w>
G a
提 问</w>
Fil m</w>
少 量</w>
surr ounded</w>
0 9</w>
理 查
list ing</w>
你 说
放 大</w>
Log istics</w>
she ets</w>
概 算</w>
execu tives</w>
bat ch</w>
好 看</w>
mon d</w>
div ide</w>
Ag ainst</w>
trans formed</w>
Budd ha</w>
remem bered</w>
re me
ful ness</w>
p assi
hun g</w>
will ingness</w>
Ste ph
exten ding</w>
com promise</w>
accompl ish</w>
at al</w>
Ser ies</w>
脂 肪
righ te
reg ener
人 性</w>
evalu ating</w>
s oc
dam ages</w>
爱 人</w>
vot ers</w>
en tive</w>
F e</w>
平 行</w>
res h
副 本</w>
ad vised</w>
Por t</w>
inst ant</w>
purch asing</w>
超 市</w>
邪 恶</w>
前 来</w>
厄瓜 多尔</w>
al lic</w>
in si
id ential</w>
at ar</w>
D an</w>
撒 谎</w>
集 群</w>
称 作</w>
浅 谈</w>
当 下</w>
困 惑</w>
formul ate</w>
engine ers</w>
废 弃</w>
man datory</w>
说 说</w>
eng aging</w>
犹 太</w>
exc it
吻 合</w>
decl are</w>
Ky oto</w>
en ters</w>
不 足
defin ing</w>
transl ated</w>
Alg eria</w>
陪 伴</w>
no des</w>
构 想</w>
装 配</w>
infra red</w>
mod alities</w>
bor row
起 飞</w>
Mater ial</w>
S O</w>
for ums</w>
高 峰</w>
偶 然</w>
7 ,
re actions</w>
人 事</w>
特遣 队</w>
一 流</w>
be ef</w>
scho ol
Minist erial</w>
subsi dies</w>
安全 问题</w>
电 阻</w>
sc ar</w>
压 器</w>
量 子</w>
近 日</w>
Refuge es</w>
染 色
re bel
f lies</w>
增 殖</w>
sp reading</w>
Angel es</w>
骨 头</w>
珍 惜</w>
分 泌</w>
T own</w>
w u</w>
c c</w>
Republic an</w>
compl ications</w>
lif ting</w>
fi er</w>
F P</w>
rup ted</w>
扭 转</w>
en counter</w>
plo t</w>
m ers</w>
筹 集</w>
致 使</w>
喜欢 你</w>
剧 院</w>
r ance</w>
船 长</w>
aggres sive</w>
判 处</w>
motiv ation</w>
T ony</w>
pain ted</w>
li abilities</w>
bus h</w>
大 厅</w>
保险 公司</w>
c au
expres sing</w>
pursu ed</w>
Pro motion</w>
15 .
二 者</w>
Sal es</w>
ud ge</w>
轻 武器</w>
月 二十
你说 的</w>
sec u
st ery</w>
won dering</w>
B oo
排 雷</w>
Re duction</w>
bac ked</w>
mix ing</w>
饱 和</w>
pass es</w>
N ice</w>
roc ket</w>
tri gger</w>
la p</w>
提 倡</w>
评 定</w>
es cal
缴 纳</w>
等 我</w>
乘 坐</w>
海 底</w>
direc tory</w>
ul ative</w>
ev ac
遥 远</w>
慷 慨</w>
Al ong</w>
cl am
wal ks</w>
明 亮</w>
L am
通货 膨胀</w>
n ut</w>
me tic</w>
ab stract</w>
计 划
澳 洲</w>
通 胀</w>
j ail</w>
sc anning</w>
彼 得
inter views</w>
D im
C un</w>
mus cles</w>
传 媒</w>
Portu gal</w>
氨 基
mil it
M aking</w>
斯 托
ben e
net working</w>
朝 着</w>
月 球</w>
tion ality</w>
想 像</w>
参 议员</w>
Pres sure</w>
尽 早</w>
频 道</w>
天 才</w>
Ex hibition</w>
cop ic</w>
nu ts</w>
P aper</w>
总 经理</w>
reme dy</w>
int end</w>
country side</w>
dispens able</w>
吉 尔
外 资</w>
J in</w>
Y ellow</w>
SO A</w>
in equality</w>
bun ch</w>
h il
电 磁</w>
马 斯</w>
produc er</w>
re sist
一 会</w>
op ens</w>
is chem
L au
人 身</w>
大 豆</w>
军 官</w>
life style</w>
前 所
简 介</w>
disser tation</w>
首席 执行官</w>
传 统
er as</w>
pro mul
secre ts</w>
petro leum</w>
N ot
scenari o</w>
c tic</w>
hand led</w>
诱 惑</w>
ber cul
议 案</w>
H ope</w>
val ley</w>
可 否</w>
早 上
参 赛</w>
St ock</w>
S anta</w>
转 交</w>
st en
植 入</w>
Improv ement</w>
organ is
im pressive</w>
幽 默</w>
if ies</w>
P T
em atic</w>
bei jing</w>
specific ations</w>
无线 电</w>
不 锈</w>
N AT
ad mission</w>
v able</w>
C u</w>
跨 国
sm uggl
p itch</w>
gener ous</w>
Imp act</w>
m ented</w>
mic rowave</w>
sil es</w>
cir cles</w>
sp here</w>
c ope</w>
I X</w>
疟 疾</w>
丙 烯
印 第
Venezu ela</w>
孤 立</w>
发 电机</w>
Cheng du</w>
altern atives</w>
男 朋友</w>
下 一步</w>
Sh i</w>
behavi ors</w>
睡 着</w>
pal ace</w>
di esel</w>
可 再生能源</w>
su its</w>
he y</w>
时 限</w>
好 人</w>
shor tly</w>
om er
b os
H an
前 任</w>
herit ance</w>
John son</w>
流动 性</w>
拜 访</w>
X injiang</w>
赚 钱</w>
应 由</w>
6 ,
el ial</w>
sent enced</w>
司 长</w>
不 动</w>
PR O
平 稳</w>
ug ly</w>
B ut
城 堡</w>
tr ust
ak en</w>
领导 者</w>
以 致</w>
增 长率</w>
重 叠</w>
亨 利</w>
ro ad
negoti ating</w>
分 组</w>
结 构
condu cive</w>
发 给</w>
Vi ew</w>
har b
ain age</w>
mo re
受 过</w>
画 家</w>
as ym
assess ing</w>
不 好
不好 意思</w>
pac ked</w>
诊 所</w>
fl ash</w>
北 约</w>
he aling</w>
组 分</w>
h ob
her o
hor ses</w>
结 核</w>
ol e
farm er</w>
内 部
out look</w>
步 行</w>
爱 德
Pers on
0 2</w>
小 女孩</w>
阿 布
sel ler</w>
中 医</w>
菲 利
del icate</w>
R ule</w>
haz ardous</w>
欧 美</w>
entrepreneur s</w>
qu antum</w>
f lights</w>
abul ary</w>
Sit uation</w>
无 人
加 载</w>
nur se</w>
me als</w>
可 惜</w>
eth ical</w>
政治 权利</w>
rais es</w>
服 从</w>
尔 多
re moving</w>
ac ent</w>
L aw
四 周</w>
pati ence</w>
j un
uti liz
高 血压</w>
柏 林</w>
some how</w>
Comp an
la m</w>
战 场</w>
Fun c
H K
Tex as</w>
沙特 阿拉伯</w>
难 度</w>
fit ness</w>
A ch
忧 虑</w>
reven ues</w>
镜 子</w>
x y</w>
consolid ated</w>
心 肌
mu d</w>
sor ts</w>
sc enery</w>
clar ify</w>
duc tor</w>
Angol a</w>
奖 学金</w>
Th ought</w>
Ann ual</w>
留 给</w>
病 率</w>
Ch amp
down load</w>
oo th
g au
商 务
i at
cre dibility</w>
定 罪</w>
fle w</w>
m ask</w>
闻 名</w>
伊 丽莎
无 力</w>
bacter ial</w>
想 着</w>
veget able</w>
B .
星期 三</w>
thro at</w>
厘 米</w>
tex ture</w>
宁 愿</w>
reco vered</w>
e dition</w>
di min
rel uc
diagnos tic</w>
混 凝
it ory</w>
conf used</w>
sp o
embar go</w>
independ ently</w>
海 域</w>
未 知</w>
il a</w>
0年 代
出 台</w>
ind ication</w>
reg res
cont est</w>
tra ditions</w>
P rem
B is
万 亿</w>
得 分</w>
b arely</w>
残 忍</w>
教 材</w>
会 面</w>
Ar men
特 有</w>
assum ption</w>
ou stic</w>
adi um</w>
M uch</w>
hand some</w>
tar geting</w>
讲 座</w>
conting ent</w>
绝 不</w>
meas urements</w>
箱 子</w>
前所 未有</w>
al istic</w>
屠 杀</w>
enc e
ab dom
occ er</w>
国 内
界 限</w>
民 用</w>
el et
C old</w>
摊 款</w>
perc eived</w>
滤 波</w>
b amboo</w>
W en
stu dio</w>
伤 口</w>
dau gh
Gol d
dil ig
阻 力</w>
P P</w>
neighbor hood</w>
自 决</w>
称 赞</w>
免 受</w>
in puts</w>
es cent</w>
岁 月</w>
gre y</w>
en vel
where ver</w>
马克 思
pi one
fri gh
atic s</w>
electr onics</w>
at tributes</w>
Doc tor</w>
公 元
塑 性</w>
A ward</w>
天 津</w>
wa stewater</w>
sophistic ated</w>
proce eds</w>
ol a</w>
2 ,000</w>
势 头</w>
性 价
性价 比</w>
constitu ted</w>
pass port</w>
ow ard</w>
泄 漏</w>
it ated</w>
V ie
compl ement</w>
ren e</w>
传 染
被 动</w>
E cu
指挥 官</w>
深 远</w>
t ent</w>
an th
神 话</w>
审 批</w>
Bang lad
社会 保障</w>
散 步</w>
过 后</w>
缺 失</w>
克 拉
全 文</w>
接 种</w>
翅 膀</w>
v .</w>
倾 斜</w>
散 射</w>
ab normal</w>
P un
ep is
laun ching</w>
扭 曲</w>
两 家</w>
童 年</w>
C ases</w>
uni ons</w>
l ing
摄 入</w>
ei ve</w>
dec entr
F ind</w>
妥 协</w>
farm ing</w>
Stat ute</w>
parti ally</w>
chro mat
qu een</w>
Zh en</w>
s wee
A h
gr ants</w>
vo id</w>
校 正</w>
O EC
委内瑞 拉</w>
Pre liminary</w>
Ir on</w>
terror ists</w>
H old</w>
wa ited</w>
矿 山</w>
大 自然</w>
贩 卖</w>
Re ading</w>
us al</w>
该 法</w>
issu ance</w>
ER P</w>
动 词</w>
sil icon</w>
隐 私</w>
b ent</w>
po em</w>
hear t
pur ple</w>
M ess
D e</w>
h ence</w>
doc tr
in dispensable</w>
Col on
发 作</w>
维 斯</w>
mar ch</w>
Rail way</w>
C ou
s can</w>
3 8
平 时</w>
rab bit</w>
G old</w>
form ally</w>
干 细胞</w>
Stand ards</w>
裂 纹</w>
急 剧</w>
sh ame</w>
intest inal</w>
恋 爱</w>
e ge</w>
M C</w>
dead line</w>
主 机</w>
调 试</w>
核 定</w>
紧 紧</w>
Po st
楼 梯</w>
养 护</w>
U C</w>
s d</w>
g el</w>
improv es</w>
envis aged</w>
Air port</w>
小 男孩</w>
乃 至</w>
show er</w>
指 向</w>
优 先
or bit</w>
. It</w>
d a
概 括</w>
搬 到</w>
br is</w>
活 性
marg in
新华 社</w>
N et</w>
表达 式</w>
cl ay</w>
好 莱
omet ric</w>
twel ve</w>
bound aries</w>
字 符
内 阁</w>
性 感</w>
最 快</w>
cou ples</w>
dis par
on t
lu br
中 都</w>
地 中
问 问</w>
董 事
Ti bet
consul t</w>
摩 西</w>
思 想
judg ement</w>
1 12</w>
创造 力</w>
r ating</w>
val id
轨 迹</w>
Al ban
抗 原</w>
情 景</w>
fin anced</w>
10 7</w>
Com m
ret re
职业 生涯</w>
qu ad
头 部</w>
tr ick</w>
t ext
Mor gan</w>
政府 机构</w>
p ants</w>
哈萨 克斯坦</w>
民 国</w>
构 件</w>
月 十
S n
当 初</w>
放 射</w>
in stitute</w>
read er</w>
Sign ific
Eliz abeth</w>
显 微
多 媒体</w>
显微 镜</w>
V II</w>
典 礼</w>
坐 标</w>
误 解</w>
脖 子</w>
Hu ang</w>
1 15</w>
既 是</w>
v or
f ications</w>
益 处</w>
emp ir
治 安</w>
约翰 ·
Azerbai jan</w>
铭 记</w>
地 狱</w>
S w
q i
不 时</w>
suppl ied</w>
war s</w>
Sen ate</w>
S ettl
e h</w>
ut ory</w>
presid ency</w>
per spectives</w>
sur faces</w>
x ing</w>
ev ed</w>
Hun an</w>
pra yer</w>
in sec
explo red</w>
F oc
clin ic</w>
transi tional</w>
Aut omatic</w>
respon d
氧化 物</w>
optim ize</w>
auc tion</w>
air y</w>
4. 5</w>
F u</w>
inst ability</w>
Con c
演 示</w>
栽 培</w>
p ine</w>
en ship</w>
suffici ently</w>
electro magnetic</w>
ob ic</w>
sist ers</w>
Im mun
路 面</w>
有 关
Squ are</w>
To o</w>
el and</w>
is s</w>
real izing</w>
an cies</w>
关 节
substanti ally</w>
sh a</w>
营 业</w>
草 地</w>
法 人</w>
总 监</w>
recei ves</w>
fortun ate</w>
赶 紧</w>
医 师</w>
史密 斯</w>
昨 日</w>
no tification</w>
a rest</w>
还 给</w>
activ ation</w>
to ys</w>
op ed</w>
较 多</w>
做 成</w>
I A</w>
IP O</w>
conc eption</w>
un expected</w>
insul a</w>
液 压</w>
在 意</w>
invest ing</w>
cer amic</w>
共 计</w>
我 也是</w>
16 .
创造 性</w>
气 味</w>
程 序
无 意</w>
ex clu
实 物</w>
Com petition</w>
bor row</w>
co in</w>
my stery</w>
hun ting</w>
rul ed</w>
convic tion</w>
精 密</w>
v ation</w>
A cid</w>
Dis ease</w>
Ar med</w>
报 警</w>
St ock
plo ying</w>
军 事
be ar
只 好</w>
哈 利</w>
posi tioning</w>
沙 发</w>
f itting</w>
统计 数据</w>
mag nit
flu x</w>
A ge</w>
sw ing</w>
pol ar</w>
D J</w>
有关 部门</w>
week ly</w>
孟 加拉
Cap acity</w>
C ra
买 方</w>
tril lion</w>
fing er
客户 端</w>
先 后</w>
resc ence</w>
布 雷
军 方</w>
辉 煌</w>
gr ab</w>
vari ed</w>
Bel arus</w>
弟 兄</w>
版 权</w>
本 科</w>
仇 恨</w>
生 素</w>
戒 指</w>
跑 步</w>
char ity</w>
Cre dit</w>
格 兰
autom ation</w>
D SP</w>
fail ing</w>
凭 借</w>
Rec ent</w>
我 方</w>
b in
Experi ence</w>
re vi
破 碎</w>
intermedi ate</w>
脑 子</w>
火 山</w>
prom pt</w>
杭 州</w>
ogen eous</w>
小 于</w>
逃 离</w>
Regar ding</w>
198 0s</w>
载 荷</w>
det ecting</w>
correspon d
199 1年</w>
kid n
if ier</w>
p esti
cri pt</w>
Compar ative</w>
13 73</w>
por ters</w>
pre sum
The ore
v ap
合 伙
行 驶</w>
tru sion</w>
年 间</w>
土 地
recogn izing</w>
pas sive</w>
R ad
格 林
pro pri
ac ids</w>
N oting</w>
脚 本</w>
regul ating</w>
con dens
驱 动
复 活</w>
肝 脏</w>
publ ishing</w>
in habit
ini um</w>
复 原</w>
v oted</w>
T yp
Sci ences</w>
刑 罚</w>
ai res</w>
词 语</w>
坦 桑
lif ted</w>
Identif ication</w>
emphas izes</w>
权 利
struggl ing</w>
妥 善</w>
F em
den y</w>
ren dered</w>
met res</w>
daugh ters</w>
D a
consul ting</w>
z inc</w>
放 心</w>
我 说</w>
privil eg
评 级</w>
ti me
c ited</w>
ten sions</w>
s cor
Guid elines</w>
earli est</w>
爷 爷</w>
记 载</w>
techn ician</w>
移 动
Recomm end
再 度</w>
抵 押</w>
mis siles</w>
停 车
r ick</w>
放 入</w>
spec im
in tu
ch ains</w>
P ap
欧 元
UN D
萃 取</w>
近 代</w>
激 进</w>
C alls</w>
o dic
拿 走</w>
制 剂</w>
educ ated</w>
lu gg
Lear n</w>
G s</w>
por ter</w>
牛 肉</w>
图 表</w>
re actor</w>
S L
Co sta</w>
收 拾</w>
En cour
飞行 员</w>
198 6</w>
合法 性</w>
elim inating</w>
For m</w>
unc ture</w>
Con crete</w>
iden tical</w>
主 观</w>
ess ay</w>
ak age</w>
N ow
遥 感</w>
or ic</w>
饼 干</w>
electro de</w>
att end
历 程</w>
侵 蚀</w>
out door</w>
一 看</w>
dis gu
be ans</w>
定 向</w>
生 殖</w>
世 贸
fr action</w>
公 报</w>
水 质</w>
听 我说</w>
19 th</w>
sp ray</w>
煤 矿</w>
置 信</w>
F DA</w>
out puts</w>
初 探</w>
Y an</w>
Vic tor
eng ines</w>
coo k
inhe rent</w>
prev ented</w>
化 疗</w>
treat ments</w>
问 道</w>
k ins</w>
市 政</w>
es .</w>
rec eption</w>
bi e</w>
A lex</w>
执 政</w>
o therapy</w>
distingu ished</w>
Ob servation</w>
一 向</w>
Def ence</w>
or ate</w>
Pers onal</w>
米 兰</w>
var ying</w>
no ble</w>
Mo de</w>
adv ise</w>
beli efs</w>
语 言
Fre e
re ar</w>
赞 美</w>
v eter
environ mentally</w>
ap point</w>
塔 利
reve als</w>
neighb ors</w>
伯 格</w>
m ang
举 例</w>
ick y</w>
我 明白</w>
Cour se</w>
w ounded</w>
代 表
甲 状
Compan ies</w>
for th
th rown</w>
反 正</w>
vo y</w>
sp inal</w>
ele ph
R ac
Y a
K er
ur s</w>
ren a</w>
运 气</w>
be ars</w>
署 长</w>
vil le</w>
trag edy</w>
两 岸</w>
O B
水 域</w>
cru el</w>
Xi ao</w>
我 一
流 失</w>
不 相信</w>
om y</w>
hib its</w>
free ze</w>
accoun table</w>
核 实</w>
not ably</w>
国内 生产总值</w>
直 线</w>
Appro ach</w>
ran king</w>
15 00</w>
favour able</w>
dom inated</w>
正 交</w>
卡 罗
prom otes</w>
in corporate</w>
哪 怕</w>
Ag ain</w>
Amaz on</w>
哈 哈</w>
讽 刺</w>
loc ks</w>
等 候</w>
折 扣</w>
亚 马
战 术</w>
烹 饪</w>
St or
vit amin</w>
数 码</w>
E AN</w>
bi odiversity</w>
jac ket</w>
资 源
解 放
Wor d</w>
Intro duction</w>
总 线</w>
contrac tors</w>
l an</w>
停 车</w>
开 拓</w>
fig ured</w>
射 击</w>
in ch</w>
vi able</w>
OEC D</w>
单 身</w>
E P
inf ec
Mar x
夜 间</w>
li er</w>
抢 劫</w>
遏 制</w>
witn essed</w>
trans mitting</w>
Rel ated</w>
传 动</w>
&apos; an</w>
亚美 尼亚</w>
os a</w>
excep tional</w>
eter nal</w>
显 现</w>
im pa
人 文</w>
S ucc
那 时候</w>
指 明</w>
il le</w>
incre dible</w>
sho e</w>
author ization</w>
plan ting</w>
两 倍</w>
sal aries</w>
谘 询</w>
高 管</w>
通 风</w>
ounc ed</w>
epid emic</w>
wor th
e ks</w>
笔 记
d um</w>
Treas ury</w>
proced ural</w>
as sured</w>
邮 票</w>
带 回</w>
ke wise</w>
普 京</w>
胰 岛
平 均
相 位</w>
an ism</w>
S aint</w>
Gul f</w>
绿 色
禁 令</w>
v ent
minist ries</w>
火 星</w>
通 往</w>
中 午</w>
Te achers</w>
Jack son</w>
198 7</w>
prov es</w>
录 音</w>
引 渡</w>
di al
M W</w>
2. 2</w>
爱 我</w>
b c</w>
UNO PS</w>
swit ching</w>
Experi ment</w>
年 内</w>
ro pe</w>
sun shine</w>
基督 徒</w>
prot ocols</w>
diff usion</w>
I ran
&apos; s
desig ners</w>
东 欧</w>
need le</w>
放 缓</w>
排 序</w>
cast le</w>
clu bs</w>
gl ut
imp ul
qual ifications</w>
小 波</w>
拥 挤</w>
抑 郁</w>
ten ds</w>
宽 度</w>
S ens
世界 各国</w>
&apos; Cause</w>
捷 克
到 期</w>
pill ar</w>
rig id</w>
氨基 酸</w>
收 敛</w>
四 川</w>
物 料</w>
炎 症</w>
打 败</w>
获 胜</w>
远 销</w>
telecommun ications</w>
adjust ing</w>
泳 池</w>
处 决</w>
an no
并 无</w>
定 为</w>
pe d
dr ying</w>
预 备</w>
某 事</w>
grad uation</w>
中 华</w>
As k</w>
gradu ated</w>
裤 子</w>
tra p</w>
跨国 公司</w>
resear ched</w>
akh stan</w>
E quality</w>
12 月</w>
el der</w>
Y an
dic t
fish eries</w>
m uc
requ esting</w>
加 纳</w>
住 所</w>
专 辑</w>
miti gation</w>
同 性恋</w>
T esting</w>
with draw</w>
大 城市</w>
Ve hic
J im
澳 门</w>
applic ants</w>
AM E</w>
govern or</w>
2. 1</w>
F ull</w>
编 号</w>
控 件</w>
家庭 成员</w>
Banglad esh</w>
emer gence</w>
shor ter</w>
cy cles</w>
爱尔 兰
一 辈子</w>
cros s
公 司
le ague</w>
走 路</w>
L .</w>
秋 天</w>
初 次</w>
dy nasty</w>
买 家</w>
li ed</w>
incur red</w>
Ad am</w>
0 7</w>
autonom y</w>
ch ur
m ighty</w>
V o
esc ence</w>
灌 注</w>
ot rop
工 艺
ro yal</w>
住 宿</w>
suppl ementary</w>
minim ize</w>
Mo di
祭 司</w>
殖 民
Con sequently</w>
W ay</w>
0 6</w>
sur ge</w>
c ats</w>
纺 织</w>
medi ation</w>
ex emp
bu m
don t</w>
身 材</w>
参 议院</w>
前 途</w>
li on
事 务
世界 卫生
空 军</w>
S W
Pur su
O cc
coc k
pri est</w>
Re fl
w oods</w>
r us
mat ches</w>
Is n</w>
stret ch</w>
Comb ined</w>
handic rafts</w>
加 固</w>
简 便</w>
M id
聚 焦</w>
mat ory</w>
Je wish</w>
hy gi
原 型</w>
e a</w>
销 量</w>
剥 削</w>
op her</w>
有 名</w>
显 示
est e</w>
neighb ouring</w>
事务 所</w>
my ocardi
Consi der
h oods</w>
台 湾
sel ecting</w>
殖民 地</w>
end less</w>
挣 扎</w>
pass word</w>
P ass
stimul ate</w>
判 定</w>
石 油
4 000</w>
性 状</w>
是 谁</w>
X iang</w>
h ath</w>
减 缓</w>
Radi o</w>
Counter measures</w>
市 区</w>
P ear
occup ational</w>
R ab
探 险</w>
go ds</w>
199 3年
1. 4</w>
pun ished</w>
UNM I
Resist ance</w>
ware house</w>
书 写</w>
兴 起</w>
T anz
好 运</w>
复 发</w>
学 历</w>
孕 妇</w>
诚 信</w>
grad es</w>
D un
残 酷</w>
l t</w>
m aps</w>
198 5</w>
bu g</w>
threat ening</w>
spe aks</w>
sh ots</w>
Ad ap
Erit rea</w>
样 式</w>
O M</w>
ti a</w>
magnit ude</w>
Mo z
g ay</w>
看 见了</w>
C are</w>
三 天</w>
ha ir
bene ath</w>
有 毒</w>
inf ant</w>
sp ell</w>
construc ting</w>
减 肥</w>
色 素</w>
compl ain
采 纳</w>
d r</w>
stipul ated</w>
sol vent</w>
Par agrap
AS EAN</w>
Guatem ala</w>
H i
中国 经济</w>
z ens</w>
frag ile</w>
eros ion</w>
加 尔</w>
Prob lem</w>
撰 写</w>
西班牙 语</w>
违 约</w>
scen es</w>
lin king</w>
财政 部</w>
im migrants</w>
W ere</w>
E T
toil et</w>
ell ation</w>
Hol lywood</w>
Integr ation</w>
援 引</w>
e aten</w>
ten na</w>
inc entive</w>
gr ass
传染 病</w>
dra g</w>
切 换</w>
w ich</w>
Ob server</w>
A vi
优 越</w>
M as
信息 化</w>
inten ds</w>
appreci ated</w>
R est
p aste</w>
评 分</w>
机 票</w>
11 4</w>
bloc k
sel s</w>
从 此</w>
expec ts</w>
dro ps</w>
专 业
ran ks</w>
感 冒</w>
st ops</w>
类 似
e ager</w>
conver gence</w>
J on
p ays</w>
脚 步</w>
裙 子</w>
otyp es</w>
avo iding</w>
X X
两 只</w>
di al</w>
vir al</w>
fa ults</w>
Lou is</w>
o ti
希 拉
起 点</w>
类似 于</w>
archit ectural</w>
放 电</w>
un necessary</w>
审 评</w>
rou tes</w>
再 一次</w>
好 吃</w>
京 都
不 肯</w>
expec ting</w>
并 购</w>
中 非</w>
li v
al ous</w>
Go t</w>
人 均</w>
tribu te</w>
国家 安全</w>
不 准</w>
vo ices</w>
国际 化</w>
gen e
着 你</w>
D id
bur y</w>
重 庆</w>
dis appointed</w>
w astes</w>
变 迁</w>
生 日
gol f</w>
bas ket</w>
不 舒服</w>
influ encing</w>
Th inking</w>
经 贸</w>
t ari
试 论</w>
urban ization</w>
upgrad ing</w>
demonstr ates</w>
is her</w>
ign ment</w>
al ert</w>
法 例</w>
维 多
import antly</w>
分 手</w>
pharm aceutical</w>
R ES
dis c</w>
kin dergar
ac knowledge</w>
Chr is</w>
NAS A</w>
acc ession</w>
spir its</w>
Viol ence</w>
17 .
rel a
ir o</w>
Ph arm
in hibit
捕 捉</w>
世界卫生 组织</w>
defin es</w>
s light</w>
消 防
Re ad</w>
好 玩</w>
work place</w>
c ease</w>
哥 斯达
最 爱</w>
popul arity</w>
N ur
air space</w>
采 矿</w>
g ently</w>
contin uation</w>
O m
集 装
T en</w>
搜 寻</w>
也 门</w>
differenti ation</w>
哥斯达 黎
j unior</w>
col ored</w>
compar able</w>
att or
一 再</w>
超 声
顶 级</w>
信 誉</w>
tra its</w>
R ole</w>
胁 迫</w>
conserv ative</w>
ver ified</w>
Peace building</w>
L anka</w>
撤 离</w>
up uncture</w>
Gr ad
18 .
迭 代</w>
国家 机构</w>
organ isms</w>
ver te
R WA</w>
问 责</w>
ful filled</w>
受 损</w>
Flor ida</w>
电 动
ambi tious</w>
J .</w>
optim ized</w>
celebr ation</w>
L ith
the tics</w>
ar on</w>
审 视</w>
终 结</w>
天 哪</w>
名 人</w>
c it
F requ
L ady</w>
D av
pre mium</w>
respir atory</w>
奥 尔
有 序</w>
comp act</w>
死 者</w>
in fring
游 行</w>
at ories</w>
组 装</w>
requ isite</w>
S D</w>
塔利 班</w>
u ters</w>
薪 水</w>
mean while</w>
利 斯</w>
ou tre
V it
mod est</w>
Cont ent</w>
绝 缘</w>
cros sed</w>
consult ants</w>
力 求</w>
法 则</w>
ran ean</w>
ank s
意大 利
pan ic</w>
斯洛 伐
ven tric
wav elet</w>
见 解</w>
涉 嫌</w>
o b</w>
tou gh
H om
外 语</w>
T op</w>
ris es</w>
奖 金</w>
运 营
res ili
Incre ased</w>
mer its</w>
指 纹</w>
3 3
分 段</w>
osc ill
东 亚</w>
al lies</w>
te m</w>
refri ger
预 后</w>
Res olution</w>
Def ense</w>
assi um</w>
In st
磷 酸</w>
wol f</w>
肌 肤</w>
r he
T ay
搜 索
好 评</w>
o ved</w>
Alli ance</w>
attemp ted</w>
Al ways</w>
shap es</w>
说 谎</w>
jus tified</w>
外 表</w>
准 入</w>
著 作</w>
猜 测</w>
分析 法</w>
char m</w>
O s
高 频</w>
一 期</w>
M om
笑 容</w>
机 密</w>
小 子</w>
成 都</w>
Occ up
购 物
br ick</w>
辅 导</w>
览 会</w>
晚 期</w>
ing .
轮 廓</w>
社会 组织</w>
car riage</w>
Uni versal</w>
轻 微</w>
adap ted</w>
舞 会</w>
rap e</w>
高 端</w>
哥斯达黎 加</w>
bl essing</w>
avo ided</w>
近 来</w>
一 时</w>
W ater
时 空</w>
六 十</w>
arm ing</w>
liter acy</w>
y ear
st h</w>
or ious</w>
emb o
on ds</w>
r ite</w>
Respon se</w>
民 事
杀 手</w>
prot est</w>
em peror</w>
bl an
无 所
il ian</w>
D utch</w>
scienti st</w>
k ings</w>
enti sts</w>
定 书</w>
以 免</w>
Any way</w>
肚 子</w>
E CO
saf ely</w>
man if
虚 假</w>
prin c
b old</w>
H ence</w>
monit ored</w>
ack er</w>
ind a</w>
eg o</w>
poll ut
预 言</w>
存 放</w>
Ti bet</w>
差 点</w>
In clud
詹姆 斯</w>
not ation</w>
mac ro</w>
pro long
搅 拌</w>
Bab y</w>
r is</w>
web sites</w>
vir tually</w>
经 合</w>
Kaz akhstan</w>
D addy</w>
选 材</w>
M I</w>
UN RWA</w>
cat tle</w>
内 皮</w>
pi e</w>
南 京</w>
无 比</w>
一个 小时</w>
19 3
2. 0</w>
perpetr ators</w>
包 围</w>
tr adem
一 次
举 动</w>
J ean</w>
我一 直
la undering</w>
adj acent</w>
X u</w>
抗 生素</w>
Re affir
main tains</w>
tissu es</w>
am en</w>
ch ester</w>
化 物</w>
but ter
地 球
compl ementary</w>
顺 便</w>
to y</w>
par ad
en ligh
必 定</w>
dri ed</w>
ci ent</w>
做 事</w>
su le</w>
圆 满</w>
引 人
午 饭</w>
原 文</w>
ust er</w>
大 臣</w>
建 设
spec tac
molec ules</w>
C ancer</w>
加 利亚</w>
佛罗 里
ement ed</w>
礼 拜</w>
M ir
ir rigation</w>
血 浆</w>
善 于</w>
Pet ro
O 2</w>
Al ice</w>
color ful</w>
C B
fant astic</w>
so oner</w>
皇 帝</w>
民 兵</w>
梯 度</w>
rol ler</w>
negoti ate</w>
高 原</w>
恶 心</w>
外 套</w>
sh elf</w>
l ecture</w>
ti te</w>
ign ant</w>
S R
N S</w>
简 报</w>
and um</w>
inter f
结 算</w>
gh ua</w>
Con tract</w>
城 里</w>
o e</w>
purch ased</w>
Tu be</w>
列 举</w>
inter actions</w>
Gar den</w>
cam eras</w>
垃 圾
格 里
k es
股 份
defin itions</w>
tic es</w>
cri p
100 ,000</w>
dec oration</w>
s ance</w>
11 6</w>
国 别</w>
感 恩
re tired</w>
am mon
de d
Improv ing</w>
N one</w>
quanti ties</w>
动物 园</w>
Ecu ador</w>
字符 串</w>
ta g</w>
mechan ics</w>
ide ology</w>
b other</w>
in door</w>
crow ded</w>
Au dit</w>
赛 事</w>
fl u</w>
establ ishes</w>
科学 技术</w>
An drew</w>
卡 拉
乐 器</w>
ong side</w>
ne ts</w>
er o</w>
pl er</w>
前 列
stic ks</w>
职 人员</w>
大 道</w>
政府 部门</w>
生 计</w>
ent ine</w>
Pr inc
行 车</w>
世界 经济</w>
e k
L astly</w>
章 程</w>
b low
立 体</w>
少 于</w>
bercul osis</w>
emb race</w>
ret ained</w>
ens is</w>
cor onary</w>
per mits</w>
hor ri
Ret ur
sens ors</w>
medic ines</w>
enc ryp
contro versi
议 定书</w>
四 处</w>
c d</w>
紫 色</w>
京都 议定书</w>
即 时</w>
dest iny</w>
anti bio
defin ite</w>
modi fy</w>
n ie</w>
H ill</w>
sp ra
酰 胺</w>
differen tly</w>
充 电</w>
ap e</w>
广 告
rac ism</w>
in heritance</w>
ble eding</w>
祖 先</w>
法 制</w>
ve in</w>
格 拉
pic king</w>
全 局</w>
R ather</w>
Sh er
Bet ter</w>
过 敏</w>
地 形</w>
O versi
春 节</w>
stead ily</w>
mil d</w>
逃 跑</w>
alli ance</w>
circul ated</w>
ter ror</w>
7 th</w>
Gol den</w>
欧元 区</w>
崛 起</w>
孟加拉 国</w>
无 害</w>
信 赖</w>
sust ain</w>
嘲 笑</w>
你 不知道</w>
u ity</w>
Govern or</w>
片 段</w>
吩 咐</w>
Sum mer</w>
201 6年
星期 六</w>
&apos; clock</w>
概 况</w>
杂 交</w>
重 构</w>
dis appear</w>
嫉 妒</w>
comm em
pro ph
微 小</w>
Eff ective</w>
as i</w>
波 特</w>
en rol
dis plays</w>
阿尔 巴
微 信</w>
主 角</w>
fir stly</w>
HT ML</w>
轿 车</w>
keep er</w>
福 特</w>
海 盗</w>
rein force</w>
痕 迹</w>
t .</w>
reser ved</w>
T ali
wor m</w>
u li
Wh ere
au x
风险 管理</w>
买 到</w>
Bar ack</w>
cha os</w>
cl ever</w>
17 0</w>
om y
U I</w>
5 th</w>
no d
Sar ah</w>
7. 5</w>
工作 原理</w>
fru str
affor dable</w>
总 局</w>
es ian</w>
生 殖
tra it</w>
d c</w>
转 动</w>
出 版
boo m</w>
attribu table</w>
查 找</w>
奶 酪</w>
AT ION</w>
ful fill</w>
公 安</w>
gi an</w>
J iang</w>
high lights</w>
G ran
截 面</w>
mean time</w>
N ing
survi v
continu ity</w>
outre ach</w>
固 醇</w>
glo be</w>
统计 学</w>
阵 列</w>
掩 盖</w>
保 加利亚</w>
云 南</w>
liter ally</w>
网 球</w>
Ch i
Cent ury</w>
pri ori
脾 气</w>
回 家
ili ary</w>
定 理</w>
加 重</w>
brea the</w>
荷 载</w>
巨 头</w>
出 门</w>
g ang
e ball</w>
珠 宝</w>
P il
P .</w>
in solvency</w>
S R</w>
Excell ency</w>
吸 取</w>
当 成</w>
矢 量</w>
地 基</w>
加 剂</w>
ke en</w>
Adv anced</w>
言 之</w>
固 有</w>
修 饰</w>
Oversi ght</w>
9 ,
Rom ania</w>
f its</w>
cab inet</w>
金 山</w>
es tive</w>
ais sance</w>
R ose</w>
Al most</w>
遗 留</w>
el ite</w>
CA P</w>
11 3</w>
3 60</w>
下 雨</w>
fl at
acceler ated</w>
adv ancing</w>
洁 净</w>
mer cy</w>
d ining</w>
assi g
西 部
征 求</w>
neighb or</w>
dur able</w>
aff air</w>
厂 商</w>
Over all</w>
惊 奇</w>
意 识
ol dest</w>
elabor ate</w>
CR C</w>
cer v
地中 海</w>
peace building</w>
P M</w>
surpris ing</w>
ser ial</w>
表 面
卖 方</w>
ion ally</w>
promp tly</w>
St ress</w>
conver ted</w>
f c</w>
am matory</w>
d ao</w>
contrad ic
一 分钟</w>
z y
shoul ders</w>
or ical</w>
g ases</w>
st ole</w>
管理 者</w>
am ino</w>
docum ented</w>
O ther
D er
wi ves</w>
P ay
anks giving</w>
schol ar
突 尼斯</w>
deli vering</w>
新 增</w>
信 件</w>
Bro ad
深 受</w>
乃 是</w>
C arri
水 准</w>
obstac le</w>
等 一下</w>
con fusion</w>
Hear t</w>
si zes</w>
d ys
Calcul ation</w>
触 发</w>
imper ative</w>
Sum mary</w>
cur ious</w>
乌 拉圭</w>
Bul g
国家 元首</w>
myster ious</w>
丢 了</w>
nov els</w>
发 布
有 望</w>
cardi ac</w>
fri ed</w>
inc t</w>
contrac tual</w>
稍 微</w>
hi on</w>
S and
含 水</w>
ti li
t v</w>
periph eral</w>
发布 会</w>
一 句
cre atures</w>
否 决</w>
gr inding</w>
al tar</w>
Te acher</w>
Bud getary</w>
gen ic</w>
ed onia</w>
Do ha</w>
D E</w>
tic ity</w>
南 南
剪 切</w>
remin ded</w>
一句 话</w>
建 构</w>
N ick</w>
琼 斯</w>
dra ws</w>
shi eld</w>
Peri od</w>
Pr ice</w>
regres sion</w>
不 明</w>
smil ing</w>
cred itors</w>
H R</w>
想 你</w>
fre ight</w>
P over
重 力</w>
analy st</w>
imp unity</w>
地 毯</w>
ack ers</w>
meth yl</w>
ris on</w>
纳 税
coo ked</w>
a ther
陪 审
行 程</w>
hi a</w>
distingu ish</w>
S in
化 妆
pul ling</w>
cas u
布 兰
y oga</w>
水 面</w>
diag ram</w>
骑 士</w>
现 任</w>
身 心</w>
inv ented</w>
Mon t
fi erce</w>
datab ases</w>
浙 江</w>
custom ary</w>
自治 区</w>
日 后</w>
B R
分 量</w>
s c</w>
cell ular</w>
第一 章</w>
m ile</w>
Fu jian</w>
ac char
中 亚</w>
rec alls</w>
W ant</w>
Ar bitr
confir mation</w>
phys ically</w>
libr aries</w>
won dered</w>
南南 合作</w>
amm unition</w>
am bia</w>
伯 特</w>
h as
dem obilization</w>
血 糖</w>
圣 灵</w>
concentr ations</w>
西 岸</w>
ultr a</w>
V an
trans national</w>
ali ke</w>
in duction</w>
on ization</w>
Exc ept</w>
分 担</w>
sel ective</w>
Pover ty</w>
ac ies</w>
签 发</w>
气 温</w>
list ened</w>
termin ation</w>
aff ili
起 床</w>
sh allow</w>
par liament</w>
E g</w>
0 4</w>
化 设计</w>
B ag
导 师</w>
站 起来</w>
信 托</w>
ess ors</w>
Inter governmental</w>
adop ts</w>
In c</w>
v ine</w>
头 痛</w>
老 化</w>
Mon ey</w>
C lear
ate au</w>
身 体
ch op
ris en</w>
M A
sle ep
w ashed</w>
lic ence</w>
under stand
sub stitute</w>
19 .
斯 加</w>
妊 娠</w>
grap her</w>
利 尔</w>
Tali ban</w>
pr ag
O k</w>
g ates</w>
aus p
顶 部</w>
灌 溉</w>
供 电</w>
货 运</w>
摩托 车</w>
Sal v
qui ries</w>
T on
宿 舍</w>
施 工
口 味</w>
decisi ve</w>
磁 盘</w>
夫 ·
K i
利 物
re tention</w>
每 一天</w>
影 子</w>
pan els</w>
Stud ent</w>
环境 问题</w>
底 下</w>
si gh
expec tation</w>
过 时</w>
Tibet an</w>
论 点</w>
O l
laugh ing</w>
No .
T ren
掌 控</w>
O f
Statis tical</w>
ob jection</w>
Al i</w>
V in
棕 色</w>
12 8</w>
布 里
风 雨</w>
ac cred
ins ist</w>
二 级</w>
简 短</w>
optimis tic</w>
car to
reason ably</w>
这 块</w>
po et</w>
Liby an</w>
g ic</w>
邮 政
lo s</w>
迈 克</w>
对 外
捍 卫</w>
男 生</w>
应 以</w>
幸 福
2. 3</w>
抵 制</w>
deb ts</w>
inhabit ants</w>
R h
D VD</w>
l end</w>
Mon etary</w>
安 东
mini stered</w>
C ru
N it
Mun icipal</w>
犹 豫</w>
St art</w>
metabol ism</w>
im pressed</w>
consider ably</w>
柔 软</w>
oler ance</w>
A my</w>
多 哈</w>
com ings</w>
花 钱</w>
bo ats</w>
con secu
警 务</w>
port al</w>
c rown</w>
农 药</w>
o x</w>
禁 运</w>
下 周</w>
Liter ature</w>
pack ages</w>
sa u</w>
H A</w>
看 电视</w>
程 式</w>
T ob
RA L</w>
rac ing</w>
de fl
che aper</w>
it an</w>
M I
小 时候</w>
albu m</w>
资本 主义</w>
一 事</w>
一 枚</w>
s occer</w>
11 8</w>
li able</w>
s oul
12 3</w>
p ick
真 菌</w>
独 立
met allic</w>
Se par
Direc t</w>
el iness</w>
中 止</w>
ro pol
老 虎</w>
s b</w>
染 料</w>
ici pal
近 平</w>
min d
平 常</w>
按 摩</w>
习 近平</w>
拉 伸</w>
必 将</w>
宽 带</w>
un ch</w>
Franc isco</w>
u o</w>
prejud ice</w>
塞 内
Mechan ical</w>
R oma</w>
anc est
os yn
He ads</w>
ang ular</w>
G AME</w>
ev in</w>
stat utory</w>
悠 久</w>
业 界</w>
s ad
o st
succe eded</w>
捕 获</w>
出版 社</w>
N ame</w>
Ch ang</w>
qu iry</w>
bl ank</w>
vac ancy</w>
p our</w>
先 知</w>
sex ual</w>
poly mer
determin es</w>
smar t
收 养</w>
强 奸</w>
好 吗</w>
宏 观
未 成年人</w>
货币 政策</w>
ge red</w>
W en</w>
天 天</w>
Tanz ania</w>
empir ical</w>
accum ulated</w>
os copic</w>
极 度</w>
s ung</w>
L an
宽 容</w>
grand father</w>
ap op
德 里
印 机</w>
创 新
ar c
核 算</w>
gh ost</w>
情 况
染色 体</w>
us s</w>
St ay</w>
罢 工</w>
归 纳</w>
ch eng</w>
compati bility</w>
感 应</w>
熊 猫</w>
嵌 入
fem in
听 众</w>
aly sis</w>
sol ely</w>
pe er</w>
比 起</w>
se wage</w>
trav elling</w>
st ainless</w>
ol y
ec tomy</w>
快 捷</w>
olog ically</w>
coun ted</w>
标 本</w>
L aser</w>
户 外</w>
艰 苦</w>
ell ular</w>
Mark eting</w>
exam ining</w>
鲜 明</w>
往 来</w>
偏 差</w>
Develop ed</w>
Other wise</w>
S U
h an
大 使馆</w>
contrac tor</w>
不 易</w>
volunte er</w>
肩 膀</w>
思 议</w>
dri ves</w>
convic ted</w>
pre ference</w>
but ter</w>
U ru
er able</w>
1. 6</w>
iter ranean</w>
un ci
ec tion
hel or</w>
filtr ation</w>
contrac ting</w>
Mo on</w>
线 程</w>
植 被</w>
ai red</w>
去 哪里</w>
G all
shar ply</w>
2 20</w>
开 门</w>
四 十</w>
走 私</w>
ti zed</w>
沉 淀</w>
不 在乎</w>
un like</w>
influ ential</w>
St ability</w>
巴 尔
水 下</w>
de bris</w>
Po or</w>
Lab or</w>
dev il</w>
li t</w>
合伙 人</w>
详 尽</w>
气 息</w>
弱 点</w>
aim ing</w>
co p</w>
既 定</w>
cerv ical</w>
att ach</w>
M E</w>
evalu ations</w>
Sim on</w>
in finite</w>
en comp
Z im
fertiliz er</w>
compl ain</w>
min ded</w>
e ful</w>
执 照</w>
青 年人</w>
南 海</w>
tempor arily</w>
ch ase</w>
面 板</w>
降 临</w>
volati le</w>
k ok</w>
股 票
int ent</w>
evol ved</w>
up coming</w>
挤 压</w>
he p
d awn</w>
公共 汽车</w>
在 床上</w>
原 先</w>
主 持
dum ping</w>
posi tively</w>
每 一次</w>
P ID</w>
飞 船</w>
开 来</w>
外 汇
出 租</w>
R ay</w>
启 用</w>
gar bage</w>
雕 塑</w>
社会 福利</w>
prosper ous</w>
Diagn osis</w>
clear ing</w>
效 能</w>
乍 得</w>
L este</w>
man n</w>
3. 3</w>
手 表</w>
good bye</w>
Off icial</w>
评 审</w>
不可 思议</w>
resol ving</w>
coun sel
Expl oration</w>
植 物
主持 人</w>
moun ted</w>
振 兴</w>
scop ic</w>
互 补</w>
chi ps</w>
马 丁</w>
难以 置信</w>
恶 性</w>
duc k</w>
insist ed</w>
6. 5</w>
amoun ted</w>
Dr agon</w>
Transi tional</w>
loc king</w>
S ession</w>
房 价</w>
fi bers</w>
12 2</w>
阻 塞</w>
met eor
gentlem en</w>
motiv ated</w>
ar sen
tal ented</w>
p ity</w>
ad here</w>
Fac il
agre es</w>
恶 魔</w>
少 女</w>
197 8</w>
薄 弱</w>
相 连</w>
Vis ual</w>
聘 用</w>
trac ks</w>
Recogn izing</w>
cons ist</w>
兄 弟
dr ainage</w>
gast ric</w>
ot echn
显 微</w>
fu els</w>
ar tic
ac ry
M T
uti n</w>
淘 汰</w>
世贸 组织</w>
魔 鬼</w>
Dom estic</w>
最 长</w>
comp utation</w>
钱 包</w>
g i</w>
y bean</w>
R e</w>
fore stry</w>
追 究</w>
华盛 顿
s ect</w>
坐 下</w>
Car bon</w>
k ine
v i</w>
Main land</w>
转 递</w>
冲 动</w>
儿童 权利
11 9</w>
Volun te
F ar
ici ent</w>
ben ding</w>
老 爸</w>
取 向</w>
th um
萨尔 瓦
卡 尔</w>
儿童权利 公约</w>
传 奇</w>
inter val</w>
icipal ities</w>
放 大
sugg esting</w>
肠 道</w>
expl icitly</w>
Sus an</w>
叶 子</w>
resp ects</w>
F eng</w>
女 友</w>
t ze</w>
link ages</w>
200 7
好 象</w>
capit a</w>
威 士
脑 海</w>
as sion</w>
am big
特 里
Ber lin</w>
Ac tivity</w>
loc ally</w>
ta p</w>
es ium</w>
R ock</w>
照 射</w>
conf isc
斯 塔
voc abulary</w>
stop ping</w>
publ icity</w>
an es
ri val</w>
手 套</w>
基 质</w>
粉 末</w>
时 常</w>
第 一天</w>
experi encing</w>
油 机</w>
服务 业</w>
等 离子
递 交</w>
tr usted</w>
电 动</w>
下 述</w>
fut ures</w>
橄 榄</w>
rem emb
legi tim
anx ious</w>
l acking</w>
L ic
sti ff
we althy</w>
sy l
视 网
exclu sively</w>
attribu ted</w>
热 烈</w>
变 压器</w>
X u
社 团</w>
ist ing</w>
E mil
政治 家</w>
法 学</w>
ad en
Un like</w>
WAR GAME</w>
情况 报告</w>
发 票</w>
or g</w>
ex clusion</w>
So on</w>
Hung ary</w>
publ ish</w>
清 洁
det ain
世 人</w>
前 者</w>
印 尼</w>
so m</w>
knoc k</w>
起 初</w>
he res</w>
M ass</w>
eg al</w>
2. 4</w>
B an</w>
m old</w>
ac com
R og
直 觉</w>
fin ishing</w>
S olution</w>
银 行业</w>
r ated</w>
Pe oples</w>
尼亚 州</w>
姿 势</w>
0. 1</w>
键 盘</w>
prec eding</w>
argu es</w>
yst ems</w>
冰 淇
juven ile</w>
粮 食
re ci
Doc ument</w>
tex tile</w>
restric tion</w>
under mine</w>
CP U</w>
br ains</w>
一次 性</w>
less ly</w>
brid ges</w>
accep ting</w>
S election</w>
buff er</w>
Ma o</w>
采 样</w>
事 儿</w>
po ems</w>
背 叛</w>
工作 室</w>
tion er</w>
R ep
工作 经验</w>
Hen an</w>
伸 出</w>
up dates</w>
k it</w>
colum ns</w>
phot ography</w>
每 人</w>
轻 轻</w>
一无 二</w>
recycl ing</w>
S E</w>
衰 竭</w>
管理 员</w>
上 方</w>
j am
dr ill</w>
grand mother</w>
Dru gs</w>
vir tu
con ditional</w>
pu pil
阿里 巴巴</w>
T op
撤 出</w>
De ep</w>
常 会</w>
be ating</w>
apolog ize</w>
el ementary</w>
An cient</w>
glob ally</w>
fi bro
注 射
外 出</w>
do zens</w>
延 误</w>
S cho
ol ds</w>
guar ding</w>
De ath</w>
est ly</w>
fr actu
4 50</w>
en sures</w>
copy right</w>
all er
se em
Ch el
奶 油</w>
h ook</w>
商 场</w>
独 一无二</w>
Uru gu
gentlem an</w>
嫁 给</w>
advoc ate</w>
e ag
海 湾</w>
法律 援助</w>
加 紧</w>
中 非
tr ains</w>
Jud ge</w>
肺 癌</w>
体 面</w>
el ding</w>
间 谍</w>
dis orders</w>
bid ding</w>
ind exes</w>
exha usted</w>
ali en</w>
歌 唱</w>
st amp</w>
3. 2</w>
驾 驶
怪 物</w>
农 村
cous in</w>
领 空</w>
sub missions</w>
逆 转</w>
登 录</w>
qual itative</w>
facilit ated</w>
writ es</w>
特 异性</w>
Med iterranean</w>
dem anding</w>
谋 求</w>
pres sures</w>
章 节</w>
T ower</w>
臭 氧</w>
op es</w>
湿 地</w>
ir rit
Iran ian</w>
而易 见</w>
显 而易见</w>
P ep
Con tribu
紧 缩</w>
可 疑</w>
车 子</w>
监 护</w>
Organ ic</w>
点 钟</w>
ess ly</w>
b ols</w>
时 至</w>
poin ting</w>
D D
icip ality</w>
心 肌</w>
冰 岛</w>
bloc ked</w>
国防 部</w>
ph y</w>
L abor
浴 室</w>
S I
棉 花</w>
Aud itors</w>
危 险
意识 形态</w>
b ay</w>
Reg ul
narr ative</w>
con vey</w>
pe ts</w>
老 是</w>
recep tor</w>
陌 生</w>
par ks</w>
P in
C amp
声 誉</w>
Bas in</w>
营 业
t anks</w>
suppl ement</w>
si de
备 份</w>
diagnos ed</w>
ac oustic</w>
入 手</w>
rela xed</w>
kind ness</w>
保 养</w>
pupil s</w>
胎 儿</w>
可 乐</w>
el le</w>
多 米
文 物</w>
切 断</w>
弹 簧</w>
he al</w>
gluc ose</w>
添 加剂</w>
多 糖</w>
pric e.
fast est</w>
entr usted</w>
登 上</w>
异 议</w>
UNC IT
in take</w>
T ax
C had</w>
UNCIT RAL</w>
Coun ter</w>
questi oned</w>
ad der</w>
S EC
高 专</w>
浓 缩</w>
expl icit</w>
issu ing</w>
Mot or</w>
吉 姆</w>
NAT O</w>
y .</w>
大 不列
Vill age</w>
u ted</w>
化学 武器</w>
en force</w>
Im ag
直 流</w>
pig s</w>
行政 部门</w>
citiz enship</w>
break down</w>
Comp on
无 视</w>
od es</w>
er ings</w>
A U</w>
li ti
wat ts</w>
em an
H ot</w>
pre valence</w>
交 际</w>
反 抗</w>
特 质</w>
转 子</w>
J ing
&apos; I</w>
预 料</w>
施 政</w>
suppor ters</w>
thir ds</w>
煽 动</w>
假 日</w>
inter ven
L C</w>
win ds</w>
腺 癌</w>
C ost</w>
男女 平等</w>
好莱 坞</w>
o rescence</w>
天 生</w>
pl un
降 至</w>
间 隙</w>
S Y
avo id
11 7</w>
D a</w>
free zing</w>
199 5年
Tal k</w>
张 力</w>
研究 员</w>
混凝 土</w>
强 壮</w>
he ated</w>
found ations</w>
EN T</w>
伊斯 兰
三 国</w>
发 音</w>
这 话</w>
ari ans</w>
Gh ana</w>
此 举</w>
联 系
推 翻</w>
Princi ple</w>
eth ylene</w>
倒 是</w>
al ph
Ch all
fail ures</w>
eng th</w>
bun als</w>
al ongside</w>
e enth</w>
朝 鲜
司法 部</w>
utili ze</w>
tr apped</w>
f li
从 业</w>
wil d
favour ite</w>
tax ation</w>
In str
广 播
tem plate</w>
eng lish</w>
econom ical</w>
u ate</w>
icon ductor</w>
Cul tiv
mod ul
hal t</w>
购 置</w>
f ancy</w>
trans plantation</w>
接 入</w>
我一直 在</w>
线 图</w>
Z hu
左 边</w>
omet ry</w>
nam ent</w>
动 脉
Ex p
inf ections</w>
enti eth</w>
董事 长</w>
或 缺</w>
不可 或缺</w>
M o</w>
追 随</w>
per taining</w>
mobil ize</w>
贵 族</w>
聚 类</w>
遗传 算法</w>
Econom ics</w>
mal aria</w>
人 选</w>
沥 青</w>
P R</w>
贯 穿</w>
维 度</w>
出租 车</w>
Now adays</w>
ob ia</w>
as ph
俄 国</w>
trav el
亲 戚</w>
Wor kers</w>
F air</w>
抵 消</w>
健 身
smil ed</w>
dis advantages</w>
commer ci
身 后</w>
旅 费</w>
听 听</w>
留 意</w>
sor row</w>
m ud
198 2</w>
e rec
纵 向</w>
鸟 类</w>
miner als</w>
feren tial</w>
macro economic</w>
没 了</w>
li aison</w>
助 手</w>
interpre ted</w>
un certain</w>
冰淇 淋</w>
Gen etic</w>
经济 效益</w>
h ex
oper ates</w>
accompl ishments</w>
妇 人</w>
aff ection</w>
[...]
